Ġ t
Ġ a
h e
i n
r e
o n
Ġt he
e r
Ġ s
Ġ w
a t
Ġ o
n d
Ġ c
i t
o r
e s
i s
o u
e n
Ġ f
Ġ b
in g
Ġ p
e d
a n
a l
Ġt o
Ġ m
a r
Ġa nd
Ġo f
Ġ in
Ġ d
i c
Ġ h
l e
a s
o m
Ġt h
i on
l l
â Ģ
Ġ l
en t
v e
s t
Ġ e
Ġ re
r o
Ġ n
Ġ y
Ġ g
Ġ I
l y
c t
Ġb e
Ġ T
e t
u t
o t
Ġ is
Ġ S
i d
a y
Ġy ou
Ġf or
Ġ on
o w
u r
Ġ A
Ġ C
i m
s e
a d
i g
c e
a m
v er
Ġth at
Ġ u
c h
i l
it h
Ġs t
at ion
o l
Ġw ith
i r
Ġ he
âĢ Ļ
Ġ it
Ġ M
r a
Ġw e
Ġ P
Ġ B
Ġa n
er s
i ll
Ġw h
Ġa s
i f
Ġp ro
k e
Ġh a
Ġa re
t er
Ġ W
o o
g e
l d
Ġc on
at e
Ġo r
he r
c k
p p
Ġ H
Ġa t
u l
Ġ D
es s
Ġc om
Ġs e
o re
m ent
Ġ F
es t
Ġ R
Ġ 1
Ġ (
Ġd e
Ġ 2
ĠT he
Ġf r
ig h
u s
Ġw as
t h
a b
Ġn e
is t
u n
p e
i ve
Ġ r
Ġe x
u re
Ġ v
it y
an t
q u
Ġ L
i e
Ġha ve
Ġ N
Ġ âĢ
u m
i es
Ġ G
e m
ar t
Ġ E
u st
o p
Ġth is
or t
Ġn ot
a in
Ġs h
Ġfr om
n t
Ġyou r
o s
a nd
Ġb y
igh t
Ġc an
i v
e l
Ġa l
al l
Ġc h
Ġs u
om e
Ġ le
ar d
ou t
re s
ou ld
Ġw ill
Ġa b
Ġ O
Ġd o
ou r
al ly
0 0
u d
o st
t e
' s
Ġp l
g h
Ġw or
Ġa ll
re d
as t
o d
e ar
r ou
T he
Ġ J
i p
Ġ j
id e
in e
a k
a g
ic e
Ġm e
Ġ k
i b
f e
Ġh as
Ġb ut
o c
p er
âĢ Ŀ
Ġw he
i al
a ck
Ġu s
a c
Ġcom p
ct ion
Ġt r
a ge
t her
Ġu p
on e
Ġo ut
oo k
Ġa d
p t
ic h
Ġ U
Ġthe y
a ke
a re
Ġm y
Ġm ore
in d
at ed
o g
im e
ver y
Ġh is
Ġs o
oo d
c c
on g
Ġ en
Ġs a
Ġthe ir
Ġt e
it e
an s
ab le
i z
Ġc l
am e
Ġon e
ou s
i ke
Ġab out
d u
ĠT h
or m
p l
Ġwh o
Ġcon t
ĠâĢ ľ
Ġm an
Ġg o
ĠI n
Ġo ur
Ġ2 0
Ġin c
s o
. .
Ġ im
ion s
u e
Ġf e
an ce
r y
b er
Ġ Y
t o
a p
n e
as e
f f
Ġp er
ay s
Ġwh ich
ic k
i re
Ġwor k
Ġ K
a ct
Ġa pp
i a
re e
a il
a ce
Ġof f
Ġo ther
ĠS t
ig n
Ġ -
a u
Ġp r
Ġy ear
as s
Ġt ime
i le
v en
e p
ar y
Ġre s
re at
ation s
Ġan y
u b
a ch
ul t
Ġl ike
Ġs ome
ic al
or d
Ġg et
ar k
Ġ qu
Ġd is
Ġ "
n ow
o ve
Ġne w
Ġ V
Ġal so
Ġh ad
Ġbe en
Ġthe m
f orm
ou nt
Ġ 3
ĠI t
Ġu n
Ġhe r
er v
ing s
Ġwe re
Ġs p
Ġp art
Ġw ould
Ġa g
en ce
Ġ if
res s
Ġthe re
a v
Ġre c
ĠC h
o se
r u
Ġwhe n
ve l
Ġo ver
on d
ou gh
Ġp e
Ġth an
it ion
in k
Ġ20 1
Ġwh at
Ġa r
ent s
en s
or s
Ġs c
ou nd
Ġj ust
Ġsa id
Ġbe c
Ġs pe
o b
ĠW e
Ġk now
ir st
w n
Ġp re
Ġ ro
m er
is h
Ġin to
in t
Ġa m
Ġa cc
ow n
p ort
nd er
il d
re n
op le
l ic
Ġne ed
f ter
o v
o y
ĠH e
or y
Ġh ow
rou gh
Ġm ay
ĠâĢ ĵ
' t
Ġt w
ad e
ver s
Ġb l
it t
ol d
i an
Ġs he
Ġc o
am p
at er
Ġit s
Ġn o
l ud
an g
Ġpe ople
he d
Ġd es
n ing
Ġf irst
f t
on s
au se
l es
w e
at es
u al
an c
Ġon ly
Ġ 4
Ġcom m
Ġt ra
i ed
i ous
l p
u ll
Ġm ake
g r
ĠR e
Ġad d
Ġ 5
re nt
Ġl ook
d ay
Ġpro v
Ġw ant
Ġhe lp
Ġm ost
Ġb ack
rou nd
Ġpro du
Ġinc lud
Ġu se
Ġp o
ment s
Ġe m
Ġf l
Ġin d
Ġth rough
ĠTh is
Ġbe t
ct s
e w
Ġse e
ic t
a w
Ġtw o
i ly
h ing
ie w
Ġe very
is s
Ġwe ll
is e
ter n
T h
at ing
) .
k s
Ġpl ay
Ġa fter
Ġh im
Ġ1 9
| |
Ġp h
o ll
x t
Ġthe se
Ġu nder
Ġcon s
p h
Ġb u
f ore
he n
Ġc ould
it ies
er t
ur n
j e
Ġ very
Ġa ct
Ġs erv
if e
ro w
Ġd if
se l
Ġn ow
if ic
u ch
on t
pp ort
ers on
ic es
Ġe ven
t ing
o ck
Ġre l
Ġyear s
Ġin v
le ct
an ge
in ess
Ġman y
Ġ ke
en c
Ġe v
Ġg ood
Ġthe n
Ġ ra
Ġw ay
al s
s s
Ġs m
Ġd id
Ġsh ould
Ġre m
Ġre g
ib le
Ġc ol
ĠY ou
er m
Ġwhe re
Ġs y
Ġd on
c ess
Ġ $
c om
as ed
. âĢĿ
Ġbec ause
os s
ak ing
f ul
ot h
Ġr ight
ure s
il ity
ation al
Ġf in
r i
Ġ2 00
ĠU n
Ġde c
at h
nd s
r it
ĠS e
Ġim p
b s
an y
w ard
Ġst ud
Ġas s
ol og
Ġth ink
Ġd own
Ġse c
ic s
Ġg reat
o ol
f fe
Ġsu ch
Ġat t
Ġo wn
Ġst art
Ġb us
t s
t y
g et
ĠW h
a x
ul ar
ur ing
id ent
or k
y s
Ġm uch
ow er
Ġto o
Ġin te
Ġ 6
h ip
form ation
it s
ĠC om
re st
Ġa c
Ġg u
u p
i ence
I n
om et
he s
Ġag ain
pe ct
Ġ ent
âĢ ľ
Ġwe e
Ġhe re
it ed
i o
al th
Ġs im
Ġl ong
a ir
) ,
ot her
Ġh igh
Ġ &
Ġex per
e ll
Ġbe ing
Ġd ay
Ġs et
b le
ĠA nd
at ive
Ġre ad
Ġbe l
Ġc all
as on
ĠP ro
vel op
al k
i x
.. .
Ġt ake
Ġbe fore
n er
Ġp res
Ġspe c
Ġdo es
ra ct
Ġdif fe
ar ch
Ġre qu
l ine
Ġsh ow
Ġth ose
2 0
ĠN ew
Ġb r
n g
en er
Ġm on
Ġf ind
st em
an k
ĠD e
Ġm ade
u ally
Ġin st
Ġh ome
g an
Ġl ast
gr am
Ġb est
Ġp erson
oll ow
ĠI f
Ġin s
Ġc ar
c ed
w ay
Ġdis c
Ġl oc
u es
i ent
Ġst r
Ġ 7
Ġe nd
ĠA n
p r
Ġbus iness
Ġs ur
u nd
m e
Ġc he
r ib
Ġm in
Ġin formation
Ġ1 0
l i
Ġm od
Ġa v
Ġus ed
ch ool
je ct
Ġm ed
Ġre ally
Ġle ad
W e
ub lic
Ġe ar
Ġm ark
c es
Ġf am
at ch
Ġwor ld
ĠB ut
Ġwh ile
Ġgo ing
l ed
, âĢĿ
at a
Ġin ter
Ġ 8
Ġl ife
a ve
ou se
iv es
Ġtr ans
Ġs omet
i et
a z
Ġm em
Ġde velop
Ġsu b
Ġre t
ce pt
in ce
. "
sel f
Ġe ach
im es
Ġg r
Ġd et
Ġfor m
n ess
iz e
Ġa round
Ġo p
al e
Ġcomp le
Ġb ook
v iew
Ġte am
Ġc re
ch n
re ad
Ġs er
at her
Th is
Ġn um
Ġc ur
Ġth ough
le ase
ar m
ĠA r
as h
in s
Ġs ay
iv ing
Ġv is
Ġd r
Ġr un
l and
ĠS h
Ġsy stem
r ic
Ġst ill
g g
I t
ire ct
p le
d er
ction s
e x
ak es
Ġsu pport
Ġar t
Ġf ollow
ĠF r
in es
Ġp ol
i vers
Ġ 9
ust om
Ġc ount
Ġpro gram
Ġdes ign
Ġs ign
Ġdiffe rent
e ver
Ġc are
Ġprov id
ion al
Ġp ost
Ġc our
ag es
rou p
Ġs ame
Ġs l
a h
Ġpl ace
Ġre al
i or
en e
itt le
Ġha pp
Ġcomm un
ĠA l
Ġad v
Ġb oth
W h
Ġ ed
00 0
we en
m an
Ġpo int
ut e
Ġfe el
Ġl ot
Ġl ist
Ġp ur
ĠThe y
Ġth ree
et s
Ġst ate
ĠF or
Ġex p
Ġa ut
t on
Ġs k
ĠC l
mer ic
Ġch ar
i red
Ġl ove
w ays
v ing
Ġe as
Ġf ree
ĠA d
od y
ou n
at ure
Ġb o
Ġre port
ĠA s
ar s
e c
Ġf ound
l ess
Ġbet ween
ie ld
Ġfe w
Ġpro cess
Ġhe alth
t he
Ġinte rest
Ġpro f
is hed
Ġha nd
th ing
t en
iz ed
it al
Ġch ild
Ġf ull
Ġc or
Ġg l
Ġc le
er ing
Ġf un
Ġmon th
Ġd ata
ffe ct
Ġde f
ĠL e
Ġl ittle
y ing
am es
o h
Ġm et
Ġre f
Ġth ings
Ġcom e
Ġre p
Ġg ener
u ck
1 9
v ed
Ġex t
Ġus ing
Ġg ot
Ġc ent
Ġc ustom
c l
Ġsomet hing
Ġpl an
Ġd uring
ail able
, "
Ġto p
Ġg ame
ĠB l
ut ion
Ġne xt
Ġre st
Ġke ep
i ally
Ġte chn
Ġim port
ant s
ver n
Ġm ust
b e
u g
Ġcomp any
c ent
ĠA meric
Ġwee k
Ġis s
ic ally
ro ss
ĠThe re
Ġl ar
b ers
Ġop en
i er
at t
al ity
Ġall ow
olog y
er n
v es
Ġst and
Ġo b
Ġwith out
Ġp oss
Ġsm all
Ġb ig
Ġl aw
Ġan other
1 0
Ġhe ad
Ġapp ro
c on
ĠS o
ar n
Ġcon f
en se
u c
Ġal ways
w are
Ġp ut
Ġm ight
Ġcont in
o ot
Ġp ay
a red
Ġinclud ing
o ad
in ed
Ġd ist
Ġf act
ist s
amp le
Ġf il
ro l
at ur
Ġpart ic
Ġfr ie
Ġg roup
Ġp at
Ġe l
Ġbet ter
Ġres p
ĠB e
Ġp ass
a j
Ġv ar
Ġav ailable
Ġh ard
Ġne ver
re en
Ġsec ond
t t
Ġres ult
m s
ent ion
Ġmark et
Ġc a
Ġo pt
ĠH ow
Ġo ld
Ġt y
Ġm ov
or n
Ġas k
Ġs oc
Ġs chool
ill ion
Ġw r
Ġre ce
Ġle vel
one y
I f
Ġd ays
Ġv al
Ġin t
Ġinc re
Ġc r
Ġper form
Ġqu est
ren ce
âĢ ¦
ĠS he
l ing
pl oy
Ġb ro
ĠI nd
el s
in ing
Ġnum ber
cc ess
Ġagain st
Ġp ublic
Ġs ince
Ġserv ice
Ġs ure
g er
ert ain
i qu
Ġc ost
Ġfam ily
Ġs ol
Ġm ain
Ġg ive
Ġbu ild
Ġd irect
ĠA ll
ate ly
Ġb ra
ĠS c
ĠP l
r al
ivers ity
o k
Ġab le
Ġm us
Ġinv est
g y
t ed
ĠE x
ĠâĢ ĺ
Ġw om
5 0
Ġp ower
Ġpro ble
Ġor gan
r ist
e red
w ork
Ġh um
our s
Ġ ide
ĠâĢ Ķ
o pe
as es
Ġf our
he re
Ġ1 8
st and
Ġs ays
Ġon line
pp ing
us s
ĠTh at
Ġse em
Ġ '
Ġimport ant
ĠC ol
ĠT r
is ion
Ġprov ide
Ġ1 2
i k
ĠC on
Ġexper ience
Ġ i
Ġle t
Ġw in
âĢ Ķ
at s
in al
Ġbel ie
ir d
Ġt erm
Ġcur rent
c u
Ġ Q
H e
Ġcl ass
ĠO n
Ġg ra
Ġex pl
ab ly
Ġw ater
Ġacc ess
ru ct
is m
ĠT e
Y ou
Ġb re
Ġj ob
ff ic
Ġu nt
g in
Ġrec ord
Ġare a
Ġpres ent
ard s
pp ed
Ġwith in
Ġbe h
Ġl ess
Ġl ight
i ents
E R
iv ed
Ġo per
Ġ 0
Ġ ve
os ed
Ġpro per
ot e
pe nd
Ġin f
Ġto day
Ġs it
enc y
Ġre se
Ġse ason
m ed
Ġ est
p or
ent ly
em ber
Ġme et
Ġp os
Ġt alk
Ġor der
Ġg row
um p
Ġc ap
Ġ1 5
Ġa way
Ġn ight
1 6
Ġle g
re t
ĠU S
ĠP h
Ġf ac
Ġt est
Ġm aking
r ation
ur y
at or
Ġs al
pe c
Ġde v
w w
Ġt urn
' re
Ġgo vern
Ġph ot
o f
Ġprodu ct
en g
b y
Ġan n
Ġen g
ĠR es
h or
Ġwork ing
r on
id er
i um
an n
ar ing
ou th
Ġapp lic
o int
Ġf ood
ro p
Ġth ing
iv id
Ġch ang
a ut
iss ion
ain s
Ġs ing
Ġv ide
iet y
Ġunt il
Ġm oney
m on
Ġ Z
Ġwe bs
Ġv iew
iv en
' m
b o
âĢ ¢
3 0
Ġe qu
ĠN o
Ġspec ial
Ġs ite
le y
Ġro om
te nd
Ġadd ition
Ġp ract
s h
Ġserv ices
oc i
er y
du ct
Ġb as
Ġa ir
or ies
is ed
Ġpr om
Ġprof ess
. ,
or th
ĠS p
ot t
Ġcol le
Ġsu pp
I N
Ġle ft
Ġt ax
o ver
if ied
ĠI s
Ġch ange
ĠE ng
aj or
Ġp op
Ġlook ing
Ġwh y
Ġpro te
it ing
Ġloc al
in a
Ġh ist
as ter
A s
e ad
ord ing
Ġev ent
Ġche ck
ic le
ir on
Ġp ast
re am
Ġe ffect
in ation
Ġprodu cts
l ish
ĠF l
g ed
p art
Ġha ving
Ġcon c
Ġsu ccess
Ġcont rol
at ter
age ment
Ġpre v
ĠC ent
ab ility
ĠO r
is ing
S t
j oy
Ġm en
ar r
au gh
ial s
Ġcour se
Ġk ind
Ġs ide
Ġn ame
ver al
Ġcomple te
ĠA t
1 1
ure d
Ġd ra
Ġen ough
Ġw rit
Ġc ase
Ġdid n
le t
Ġoff er
ĠP r
oh n
id s
Ġm ove
Ġt imes
Ġwor d
al f
ne y
it ions
Ġc ou
Ġem ploy
Ġstud ents
Ġs w
ĠUn iversity
un e
ĠW hen
Ġe ver
Ġinclud e
a im
are nt
Ġte ll
Ġof ten
Ġind ust
Ġret urn
fe ct
ĠM an
ill s
e e
read y
Ġ3 0
Ġ es
o ice
ĠCh rist
Ġme ans
O N
Ġchild ren
Ġd one
Ġne ar
Ġacc ount
A N
Ġcommun ity
s on
Ġto get
Ġtoget her
Ġlar ge
Ġh ouse
' ve
ĠT o
Ġcon ne
en n
ow s
F or
it her
ĠB r
Ġcon st
Ġoff ic
in c
ra p
Ġcon d
Ġp a
Ġnew s
Ġb it
ĠM ay
Ġal ong
us h
Ġp ain
is c
Ġex pect
m in
ra ph
1 2
u ff
oc us
Ġact iv
ĠCom m
ot s
Ġse veral
Ġb ene
iz ation
it ive
Ġget ting
Ġd i
Ġfollow ing
Ġal ready
ĠWh at
ur s
Ġl ine
ore d
Ġbec ome
Ġunder stand
Ġle ast
Ġb ased
b ook
Ġp ress
Ġo cc
Ġre view
Wh at
Ġdet ail
Ġm ajor
Ġf av
ĠW ith
er r
Ġ .
Ġin tern
Ġ [
s ide
Ġb ody
an e
Ġmem bers
Ġle arn
Ġt reat
Ġm illion
Ġimp ro
Ġc ertain
Ġsh ort
ĠA pp
at ures
Ġl im
r ip
Ġl ive
Ġe le
Ġ1 1
con om
Ġen joy
Ġcall ed
m ber
Ġper cent
ap s
and s
ir l
Ġw on
A nd
Ġl ow
Ġe lect
Ġdo ing
ut es
Ġme an
Ġh old
pport un
Ġwebs ite
Ġe y
Ġm akes
od e
c rib
Ġeas y
Ġl a
anc es
n ot
ĠM y
Ġpro ject
ĠM ar
ip s
Ġdoes n
Ġcount ry
Ġf ar
A n
Ġ201 2
A T
Ġsoc ial
f ort
y le
p os
f or
ivid ual
Ġm ater
er al
ĠSt ate
Ġrese arch
m ost
The re
i ans
v iron
Ġc amp
Ġhapp en
Ġc reat
Ġact ually
Ġh ours
Ġ19 9
Ġst ory
Ġposs ible
c hed
Ġde al
a ff
Ġn on
Ġf ore
R E
Ġw ent
ĠC o
Ġbene f
Ġvide o
ĠJ ohn
Ġcom es
Ġqu ality
Ġm om
Ġcre ate
id d
Ġp ot
Ġso ft
Ġvis it
t ain
Ġtr y
u ro
Ġneed s
Ġke y
Ġm ind
Ġst ep
ie f
Ġmus ic
Ġperson al
Ġtoo k
ĠC ar
Ġ- -
Ġtr ad
Ġgovern ment
me nd
Ġc ir
Ġem ail
iqu e
Ġc ame
f er
Ġ1 6
Ġc ut
Ġyou ng
ak en
Ġo pportun
l ished
a pp
Ġex ample
Ġf ocus
Ġt re
fe rence
Ġhum an
Ġit em
Ġother s
Ġqu ick
Ġon ce
r ies
ent ial
Ġc ity
Ġre du
Ġm ult
ward s
ĠS u
n ers
Ġear ly
Ġ Â
Ġind ividual
ĠC an
Ġf ive
on es
Ġed uc
Ġcont act
Ġbel ow
Ġar r
ver age
Ġl ink
Ġt em
Ġy et
' ll
o or
u ation
e b
w h
! !
if t
Ġf ield
at ic
i enc
u ly
un ch
ĠR ep
S T
Ġ |
Ġpur ch
Ġp age
ĠB ro
ĠM ed
Ġh ot
Ġthough t
Ġor ig
Ġto ld
Ġchar act
Ġinv ol
Ġh ig
ull y
Ġn et
id es
if y
is k
viron ment
Ġstart ed
Ġre ason
Ġ ident
ro om
Ġdevelop ment
Ġl ater
ut er
a pe
H ow
Ġ vers
W hen
ur ther
Ġman ag
Ġpartic ular
Ġsp ace
ĠA ss
Ġcl ose
st er
Ġty p
b r
Ġfrie nds
Ġcle ar
Ġw ind
our n
B ut
Ġ :
it or
pl ay
Ġhe art
c hes
Ġm il
g es
Ġspec ific
Ġcomp et
ĠA m
l oad
Ġbe aut
Ġw a
ut ure
ate g
A R
Ġrequ ire
ort s
l er
ro ll
oo se
Ġpr ice
Ġany thing
Ġph ys
Ġwom en
ill ed
Ġpro b
Ġs ound
Ġaut hor
Ġ1 4
Ġmonth s
ĠThe se
Ġac ross
ĠUn ited
ĠC he
Ġapp ear
o ber
Ġbr ing
Ġp ick
ĠG od
a f
og raph
i ver
ĠY ork
ul ation
ct or
Ġch all
Ġproble m
Ġcont ent
Ġc e
Ġto t
l f
ens ive
b ack
r om
Ġh alf
Ġ201 3
Ġw alk
Ġper fect
r ict
s w
ĠD o
Ġstr ong
Ġcom b
an ies
ĠN ot
p ro
Ġ1 00
Ġknow n
Ġsome one
Ġre d
Ġst ore
Ġse en
ic y
ĠAmeric an
Ġsh are
Ġwhe ther
ĠC ont
Ġp ie
ĠE n
Ġp ack
Ġme as
our ce
Ġpr iv
Ġbl og
id ay
ĠS te
Ġp ar
Ġst ay
i od
ne w
rip t
Ġh ope
Ġcl aim
il ities
Ġf re
1 5
je cts
ĠIn tern
ra ft
re w
Ġg ames
or ld
Ġan al
Ġe conom
S o
Ġab ove
ĠO ne
Ġbu y
Ġ1 7
Ġfr ont
ĠHow ever
Ġv ol
is on
a i
her s
Ġde m
g le
Ġbe gin
g o
ib ility
is ter
Ġindust ry
Ġen s
il ar
p ar
Ġe ither
u ed
Ġde li
nd ing
Ġare as
Ġpl ac
os p
Ġrec om
ĠC al
Ġp ort
ac y
ur ch
o on
Ġdisc uss
Ġs um
ir m
Ġm ar
Ġam ount
ight s
Ġf uture
O n
u se
pec ially
re et
c le
Ġre le
Ġa ge
ut ions
Ġam ong
Ġe t
Ġan t
Ġbelie ve
iv al
ĠN e
t ime
Ġf ace
ic ro
Ġs ix
Ġc ult
f ic
Ġp lease
Ġsu per
Ġresp ons
Ġa ud
Ġex c
as ing
Ġ X
Ġhist ory
ĠM in
Ġevery thing
Ġ2 5
ĠM e
Ġdo g
Ġen c
it es
Ġg iven
ĠIn st
ur ity
il le
Ġfav or
th ough
Ġquest ion
il t
- -
ĠC ount
Ġ1 3
ĠM c
Ġwho le
âĢ ĵ
atur al
C h
b all
Ġsing le
Ġag o
Ġ /
y l
Ġ2 4
Ġm or
Ġf all
Ġt aken
ĠC ity
Ġbre ak
Ġab s
ĠP art
p ly
f ully
g ing
E N
c o
. )
ĠP res
Ġd ue
Ġa ff
p s
Ġr ange
Ġj o
c ing
Ġw atch
ĠS erv
ur al
Ġal most
Ġth ird
ĠE uro
Ġper iod
Ġwork s
ious ly
Ġiss ues
le ment
est s
ĠY our
am s
Ġcomp anies
Ġc red
Ġ5 0
o id
Ġpre t
Ġ ess
Ġp ub
Ġacc ording
d d
1 3
ab or
um e
Ġoff ice
our ces
sel ves
Ġrecom mend
Ġb ad
Ġrep res
ĠB o
at ors
Ġfe atures
Ġsim ple
d e
Ġm ess
m b
ĠN ational
T o
v ent
1 8
ain ed
he ad
Ġen vironment
Ġstud y
Ġrequ ired
am a
2 00
y r
ic ation
Ġmod el
1 4
O R
h od
c he
Ġs ent
E D
og n
Ġ z
ll ing
2 5
ver t
Ġcomm on
y ear
Ġtr ying
I D
Ġt aking
ĠCom p
ific ation
Ġtechn ology
itt ed
ru g
Ġm iss
Ġwant ed
Ġ #
Ġmin utes
Ġpret ty
Ġrel ations
Ġfrie nd
Ġm ot
Ġre pl
et y
Ġadd ress
ĠA b
Ġl ay
Ġide a
ro du
ce ll
Ġman agement
ob ile
Ġatt ack
Ġde l
Ġg irl
Ġlike ly
Ġf urther
Ġmed ia
Ġcustom ers
Ġf und
Ġbeh ind
Ġperform ance
Ġser ies
ĠSe c
Ġen er
Ġquest ions
E S
an ks
Ġpol it
Ġbl ood
ov ed
w here
Ġask ed
ĠD r
Ġtra ck
Ġr ad
A L
c er
i res
Ġent ire
Ġpoint s
ent al
Ġe ff
ive ly
Ġevery one
led ge
ct ed
y n
ĠIn c
Ġst op
m y
c y
it ch
Ġr ate
Ġb ar
g ress
Ġcons ider
id ence
/ /
Ġl o
Ġprob ably
Ġcon duct
us ed
Ġes pecially
Ġfin anc
Ġbuild ing
ur ance
Ġs we
id ed
: //
Ġel se
a pt
ĠG u
Ġneed ed
Ġresult s
Ġcle an
ĠO ur
Ġinst all
ĠW ill
2 2
Ġse arch
Ġcom ing
Ġw ond
itt ing
Ġval ue
Ġto ol
Ġ ...
Ġf ail
i ol
Ġhow ever
Ġst at
fic ult
Ġsu gg
Ġh ost
Ġfil m
in o
Ġse lf
Ġdet erm
Ġcontin ue
Ġse lect
R e
Ġb all
Ġs ens
Ġprovid ed
Ġcomp uter
Ġh on
ĠT H
ĠJ an
on y
ag n
ĠK e
Ġc rit
i ate
Ġdo cu
ĠN orth
um b
Ġup d
Ġfin al
I C
ĠA ust
ĠI m
I T
Ġd ou
pr il
c ript
ch ie
Ġnot hing
Ġoff ers
Ġadd ed
ĠC or
Ġst aff
Ġwe b
a ur
Ġqu ite
em pt
Ġdif ficult
Ġex ist
ĠT w
ĠP ar
Ġt ou
itt en
e es
ip le
if ul
Ġprofess ional
Ġis n
Ġs ize
el t
or g
Ġ201 1
ed s
u f
Ġr isk
Ġan im
Ġplay ers
Ġl iving
Ġm atter
Ġin j
Ġst e
Ġprovid es
ir t
res h
Ġev ents
ĠS chool
Ġo pp
Ġne cess
u ge
g est
Ġinclud es
Ġc ard
et er
ĠG o
Ġext ra
Ġde ath
Ġsim ilar
1 7
Ġup on
ĠP er
im ate
Ġty pe
I S
ĠG r
Ġbl ack
Ġpos ition
Ġvar ious
Ġc op
ĠSt ates
Ġt it
m it
Ġcan not
ĠEuro pe
Ġac cept
Ġd am
un g
ĠP e
Ġs qu
pp er
Ġcharact er
Ġin it
6 0
ĠD ep
Ġp ark
Ġtra ining
Ġwrit ing
Ġrelations hip
Ġte xt
Ġhig her
er a
Ġass ist
ruct ure
Ġw ar
Ġin n
Ġmed ical
o le
Ġproper ty
ag ue
ĠJ une
ĠG l
Ġd ig
Ġiss ue
Ġsim ply
ul ated
Ġso on
ul es
Ġterm s
Ġpartic ip
Ġr ather
Ġf it
ĠCent er
Ġeng ine
Ġrun ning
Ġchang es
ab les
ang u
Ġde b
a ily
o e
Ġan sw
Ġpart y
om es
ob al
olog ical
ĠE d
a ction
Ġsa w
Ġus ually
Ġexper ienc
Ġwee ks
Ġword s
ĠQ u
Ġcons um
ĠH is
Ġse x
Ġtra vel
c ial
Ġsign ific
ĠW orld
ĠP ark
Ġrec ent
h ib
Ġst ra
Ġt able
Ġl and
Ġmet hod
ĠA fter
ĠM ark
Ġfor ward
Ġn ice
Ġc ook
ĠS m
Ġph one
Ġtr ue
ib r
ĠT ra
8 0
Ġp ict
Ġgener al
Ġimpro ve
n ed
Ġdef in
Ġapplic ation
Ġag ree
Ġc ell
Ġsoft ware
ĠO ct
re g
Ġshow s
Ġd ate
le x
n es
Ġener gy
Ġf oot
Ġg round
ad es
Ġmem ber
Ġseem s
s c
re me
ĠJ ust
Ġl og
Ġv ict
Ġann oun
ĠD es
Ġnet work
Ġw ays
Ġproble ms
Ġincre ase
Ġco ver
Ġdes crib
A l
Ġart icle
ag ing
Ġf ire
ra ig
Ġ201 0
Ġfe ature
ĠM arch
Ġs ong
ir it
ar get
as k
Ġun ique
ition al
Ġsal es
ove red
A C
Ġind e
Ġh it
Ġd om
Ġlead ers
re ct
ear ch
Ġtot al
u ary
ĠAmeric a
s y
c ome
Ġpr int
et h
Ġk ids
ist ration
Ġrec ently
ĠM ore
Ġp arent
ru ction
Ġa chie
4 0
ĠU s
ĠCount y
f l
Ġo il
Ġhe ld
Ġdesign ed
ĠH ouse
Ġconc ern
ĠG e
is es
Ġro ad
anc ed
ĠA pril
ad a
O U
ed eral
Ġass oci
Ġf ast
Ġthrough out
Ġrec ogn
ĠS outh
uf act
ĠF ace
Ġet c
Ġs le
Ġlong er
Ġpop ular
ar ter
ĠP re
Ġplay er
Ġsk in
Ġout side
ĠPres ident
ach ing
oo gle
P h
ĠS ome
Ġem b
Ġpre p
ĠA ct
Ġspe ak
Ġn orm
Ġl oss
ĠP ol
p ut
Ġopt ions
Ġreg ard
Ġdis play
Ġre nt
Ġyour self
.. ..
Ġcour t
Ġr ound
Ġvers ion
Ġrepres ent
ĠB ar
atur day
b ased
ĠWe b
ĠRe g
Ġfun ction
Ġbl ock
Th at
A S
Ġread y
Ġcou ple
Ġd rug
Ġp le
Ġacc om
Ġwh ite
ĠS y
Ġ4 0
r ing
Ġbo x
or ing
Ġle ave
ĠH ar
if f
Ġa ction
Ġorig inal
Ġt akes
Ġbeaut iful
Ġn atural
av ing
Ġha nds
ĠA f
Ġwom an
Ġrece ive
Ġens ure
le ction
at est
Ġest ab
Ġw ide
Ġsa fe
Ġm atch
am ed
Ġdetail s
ĠE l
ĠS er
Ġsignific ant
Ġfam il
Ġreg ular
Ã ©
o om
att le
Ġknow ledge
Ġf ig
Ġimp act
Ġmom ent
iz ing
Ġany one
Ġcom fort
ĠSe pt
Ġrem ain
ĠW est
Ġ x
Ġopportun ity
Ġpract ice
Ġst ock
Ġitem s
Ġhapp y
Ġpa per
Ġde ep
ĠM r
Ġprogram s
Ġrece ived
ĠA ug
am ent
Ġbook s
ist ic
ud e
Ġex am
Ġsa f
Ġde fe
ast ic
o es
ou l
M y
f r
a ign
W ith
Ġch oose
Ġcurrent ly
Ġh y
Ġc ause
Ġ ,
Ġl it
Ġsec urity
Ġs ense
h aps
Ġeduc ation
S h
Ġwor th
et t
Ġins ide
ĠW ar
ĠAss oci
Ġwas n
Ġ =
Ġcol lect
n a
Ġread ing
g round
ad em
Ġcl ick
Ġind ic
Ġus er
ĠD av
Ġapp ly
Ġ2 2
ĠS oc
A ll
ĠN ow
Ġsugg est
' d
i pping
Ġd est
ĠB y
ĠE m
Ġn ational
Ġh tt
ĠP at
en ing
in ary
Ġb ase
ur g
Ġl ate
op s
b it
Ġright s
re l
ish ing
ic les
Ġs at
Ġinf l
Ġmor ning
art ment
Ġv ia
Ġb ed
ad u
ĠB ra
Ġey es
Ġro le
Ġne g
ou ra
Ġc al
Ġcre ated
im um
Ġtreat ment
Ġfinanc ial
Ġv iol
az ing
Ġquick ly
Ġres pect
ĠSt ud
ĠFace book
ffe cts
IN G
Ġsystem s
f ace
Ġfor mer
Ġc am
Ġcont rib
Ġl ost
Ġpr ior
Ġ2 1
ke y
Ġaddition al
Ġcare er
Ġthem selves
Ġc ases
Ġset t
Ġfavor ite
ough t
Ġat tend
Ġco ol
Ġm ix
l t
h ood
Ġw all
Ġb al
Ġcol or
ĠD ay
Ġab ility
O T
i ation
Ġinclud ed
Ġmater ial
Ġgo al
es e
Ġinvol ved
und ay
Ġs il
Ġsc reen
ol ution
Ġpriv ate
Ġreport ed
Ġs us
Ġco ll
ĠNew s
c ast
li er
A t
op h
Ġp an
Ġsaf ety
Ġapp e
ond ay
us iness
Ġcustom er
C raig
Ġl ic
it c
Ġf ight
Ġplay ing
Ġrequ est
augh t
Ġt al
Ġex act
Ġcred it
at ory
ab y
O ur
ourn al
ĠAr t
Ġch ance
ĠD on
Ġbo ard
Ġlook s
Ġf air
Ġle ar
Ġpress ure
nd ed
ĠP a
Ġlevel s
19 16
Ġex cept
Ġbe gan
o ff
e k
Ġpol icy
Ġtra il
l ike
v ille
Ġb ott
Ġrel ated
ĠJ uly
ed d
Ġ ill
ac hed
ĠCal if
Ġus ers
Ġallow s
er ve
Ġsay ing
Ġa verage
o ke
an a
Ġ2 3
Ġinterest ing
ĠWh ile
Ġprodu ction
Ġstand ard
Ġdr ive
) ||
Ġwork ed
Ġget s
s u
ĠS en
Ġte le
ill ing
Ġchall eng
Ġca pt
Ġtou ch
Ġt arget
er c
as hing
ec ut
Ġl ower
ove mber
ĠG oogle
ict ion
Ġim med
Ġst yle
Ġf a
Ġv ac
ĠO ff
C om
Ġpot ential
bo ard
Ġbec ame
ĠH igh
Ġwr itten
Ġ ut
Ġev al
Ġde ad
Ġc oun
Ġcl os
air s
A M
Ġf ile
idd le
ut h
Ġmeet ing
ĠEng lish
ĠM ich
Ġpurch ase
Ġmy self
ĠG ra
Ġdec ision
Ġl angu
Ġte ac
Ġk new
Ġdev ice
av es
Ġl atest
ou d
C l
Ġeffect ive
g u
Ġc and
f ield
ĠDep artment
Ġc ra
Ġo bs
al d
ĠA ir
Ġg en
ĠM on
Ġve h
m a
ĠCh ar
Ġcost s
Ġint rodu
Ġwond er
Ġm id
Ġsur pr
O M
Ġgroup s
Ġp ers
Ġde g
Ġinst ead
un t
at form
Ġeas ily
Ġcl ients
O S
Ġch oice
Ġexp ress
ĠF eb
Ġha ir
Ġpart s
Ġcont ract
Ġrem ember
Ġgo es
ke nd
Ġgrow th
Ġf u
2 4
Ġg e
Ġa w
Ġinte gr
Ġmov ie
ess ion
B e
ĠAust ral
us es
Ġcamp aign
Ġe mer
Ġpat ients
Ġdis e
en ge
m ing
orn ia
ĠS an
Ġatt ention
Ġman ufact
Ġlead ing
Ġre lease
Ġaut om
as ons
ĠHe re
Ġleg al
pl es
Ġdra w
ip ment
Ġstud ent
2 1
The y
Ġatt empt
ĠH er
Ġim m
Ġor d
Ġins urance
i pe
Ġl ives
Ġh uge
Ġp ull
Ġsk ills
Ġse par
Ġm ention
Ġp red
Ġsub ject
Ġpro jects
Ġit self
O ne
ĠS w
w ood
ord s
ĠC our
on se
Ġlook ed
Ġm ach
ĠSept ember
ic ations
Ġhe ar
ang er
Ġ201 7
Ġcent er
Ġcond itions
Ġst ru
ĠCol le
ĠM us
cl us
Ġto wn
ro wn
Ġdown load
Ġpr im
id ge
b l
Ġpl ant
rough t
Ġst uff
Ġbu ilt
Ġlear ning
Ġqu al
9 9
Ġpro p
2 3
pend ent
Ġse ll
Ġcom ment
Ġactiv ities
s p
h a
Ġ2 8
Ġdec ided
Ġhe ard
h am
Ġwr ong
ĠS unday
ren g
Ġbra nd
Ġon es
es ter
Ġfe ed
Ġsum mer
Ġintern ational
ĠU p
Ġnecess ary
? âĢĿ
Ġpol ice
Ġstart ing
r is
Ġf resh
Ġl ed
ar a
un k
ĠN et
al es
ĠAug ust
ro te
Ġm other
ĠInd ian
Ġst ates
ĠJan uary
o x
b or
ĠFr iday
7 0
Ġpart ners
Ġg ave
ve y
ec ause
Ġinvest ig
v al
i am
Ġwr ite
ce ed
Ġj ud
Ġb oy
Ġfl ow
Ġm obile
Ġd iv
N o
Ġ201 6
ad d
Ġsu bs
Ġpres ident
ĠHe alth
ĠV al
ce mber
ys is
cript ion
Ġdocu ment
Ġb ud
Ġdo or
j ust
Ġm ag
Ġsa ve
Ġopt ion
Ġe p
Ġ200 8
ĠT V
Ġ201 5
Ġvar iety
as te
ĠO f
id a
Ġprote ct
ĠA g
l im
Ġbenef its
Ġc at
he l
Ġt our
Ġ201 4
ffic ient
Ġsomet imes
ĠOct ober
Ġinter view
Ġv ot
Ġav oid
Ġhim self
Ġl if
st r
Ġa ffect
mer cial
Ġnot e
a el
Ġm ass
ĠAd d
Ġlim ited
al t
Ġbeh av
U S
ĠF in
row s
ĠCalif ornia
Ġloc ation
h old
it ation
Ġpl atform
Ġl ab
ĠL a
Ġ +
g ar
Ġexpect ed
Ġdev ices
at ives
Ġc ross
Ġ6 0
Ġsh ot
u x
Ġad min
ĠD em
Ġhigh ly
Ġg ives
Ġsp ent
ide red
av y
Ġcomm it
Ġp en
Ġcl ub
ir ing
Ġcir cu
Ġce le
ur ning
ĠP lease
ues day
Ġsh oot
ĠThe n
Ġthink ing
ĠO b
Ġn ature
Ġs n
ĠN ovember
n ame
Ġpl ans
ĠS aturday
Ġenc oura
or ks
i os
Ġar ch
ven ue
Ġ200 9
ent y
ĠI nt
ĠWe ll
ĠR ed
id ents
l ight
id ing
Ġh or
Ġb ank
k ing
Ġd aily
p ose
Ġtr ip
Ġam azing
Ġansw er
Ġf elt
Ġse nd
m as
E C
Ġd ri
ag ed
Ġappro ach
Ġs old
c il
Ġa ware
ol f
ĠFr om
b ody
Ġplay ed
ĠComm un
ĠL aw
Ġgl ass
âĢ¢ âĢ¢
Ġsh all
ĠRe ad
en ed
ĠP ost
Ġins p
Ġcomplete ly
Ġde part
Ġtalk ing
Ġsit uation
n y
re c
Ġadv ant
iz es
Ġide as
ĠC ons
Ġs en
ound s
ĠD el
ens ion
r ay
ol ute
Ġe ffects
Ġrele ased
Ġwe ight
o pping
Ġ2 6
ĠD irect
ĠRep ublic
ww w
v est
Ġf ine
ur b
ib ly
om en
ru ary
Ġf irm
Ġr out
Ġex cell
Ġsl ow
A P
ar ies
Ġpie ce
Ġdirect ly
p ite
Ġcolle ge
N D
ĠBl ack
Ġphot os
osp ital
Ġsc he
u k
Ġfeel ing
Ġth ous
Ġhelp s
Ġmater ials
ru pt
Ġd ark
Ġdiffe rence
ĠAssoci ation
Ġf ederal
Ġh ol
Ġc ode
ĠA c
ĠP M
Ġpolit ical
Ġmain tain
Ġs ource
ite ly
Ġf arm
Ġtr ied
Ġp ath
Ġcomple x
E T
Ġmarket ing
m ark
is ions
Ġc ert
m ission
e ch
ĠAf ric
Ġcons idered
Ġprovid ing
ir th
Ġe at
Ġd ro
Ġcount ries
Ġpro gress
Ġimp lement
k y
ĠE very
ĠA cc
Ġdig ital
is f
Ġbro ad
ĠB u
urs day
Ġloc ated
iv ity
her n
it ter
Ġw ood
Ġim age
Ġs un
Ġ2 7
oc r
Ġinvest ment
ĠM onday
Ġg iving
Ġof fe
Ġn ation
ograph y
Ġb rought
Ġcolle ction
Ġext reme
ĠPro f
Ġmult iple
Ġent er
ĠTh om
Ġinn ov
Ġwa it
Ġpub lished
ĠF irst
Ġreport s
in ner
Ġg old
Ġphys ical
Ġcons ist
Ġtr ust
ĠJ e
ain t
Ġc y
Ġgo als
ĠFl or
Ġhtt p
ĠB usiness
Ġeff ort
Ġv oice
Ġrel ig
Ġequ ipment
Ġsc ore
E x
ic ed
ĠW ind
Ġmod ern
Ġa part
itc hen
Ġtyp es
al y
ĠE ven
Ġre ach
u le
st on
Ġch urch
Ġmay be
ul ations
ĠA re
iv il
ap an
Ġne igh
Ġh our
ak er
Ġs ort
S he
Ġcir c
ac hes
ĠTH E
Ġcont ain
Ġw rote
ĠColle ge
Ġresp onse
Ġsp irit
Ġtit le
w ise
il es
Ġpa id
Ġcap ital
ver se
Ġl ack
ĠDe cember
om s
m ore
ĠâĢ ¦
Ġsh own
ren ces
ut ed
Ġus es
ren ch
Ġc up
Ġf ans
B y
Ġde p
ĠT ex
Ġwee kend
Ġse ction
Ġb illion
ĠM icro
m itted
Ġpos itive
ap ers
A fter
Ġteam s
i able
Ġm at
Ġfin ally
Ġser ve
Ġ2 9
te e
Ġgl obal
Ġre ve
Ġd ed
Ġres ources
ard en
Ġst ories
erv ed
Ġemploy ees
E L
Ġw arm
Ġcon v
Ġf ix
ĠG ener
Ġfin ished
E O
Ġb i
Ġapplic ations
Ġst age
ar ily
Ġspe nd
Ġcon vers
T I
Ġbe g
ĠA ut
Ġto wards
ĠB el
anc y
as c
Ġst ructure
im ately
ate ver
we ll
Ġcor por
eng th
Ġcar ry
l a
Ġsle ep
Ġw ife
Ġd rop
Ġnear ly
Ġcond ition
ashing ton
Ġprev ent
Ġocc ur
Ġstate ment
Ġey e
om ing
Ġw ish
ĠY ear
Ġpro ced
Ġ20 20
P A
ur t
b and
Ġre v
à ¤
ond on
Ġd ry
U n
ĠIntern ational
Ġparent s
ĠF ree
Ġg reen
ure r
Ġb aby
ĠB rit
ĠServ ice
Ġro ck
ch ange
Ġplac es
Ġmess age
ic a
Ġad ult
or ge
Ġdem and
y m
d own
ĠD is
Ġim ages
âĢĿ .
ch an
Ġs on
Ġexact ly
Ġpat tern
Ġcor rect
it ary
ĠSt reet
ĠH all
am b
Ġdeli very
ĠI N
Ġown ers
Ġst reng
Ġdr ink
Ġhe at
se e
Ġchang ed
ash ion
Ġsit es
ed nes
Ġg one
Ġachie ve
Ġinterest ed
so ft
se c
Ġrest aur
it ute
l s
Ġpre c
Ġfull y
Ġmeas ure
augh ter
ĠDav id
Ġr ates
m p
Ġk n
Ġd ire
Ġbra in
Ġdo ctor
Ġh op
Ġpre m
c raft
Ġinc ome
od ay
sy ch
y ond
i ately
Ġgrow ing
Ġparticular ly
Ġt ick
ag er
Ġc ateg
Ġsuccess ful
Ġ19 8
Ġannoun ced
ĠS ch
Ġpre fer
Ġob ject
Ġcom ments
und red
Ġdise ase
Ġsp ot
Ġcult ure
Ġover all
Ġsub st
ĠIntern et
Ġstra ight
Ġro ll
Ġmov ing
Ġlangu age
Ġfre qu
Ġchar ge
it able
ibr ary
Ġfe ll
ĠT uesday
Ġse ven
ĠWh ite
Ġm ill
un ction
Ġsol ution
p ri
Ġopportun ities
i pp
ĠÂ £
A D
ic ated
ĠG erm
Ġdevelop ed
ĠK ing
ĠRe c
es tern
Ġfor ce
ar c
Ġorgan iz
Ġper haps
ex ample
oo s
Ġcon cept
Ġtra in
Ġincre asing
or row
Ġcertain ly
2 8
Ġorgan ization
ĠPh il
Ġqu arter
ĠPro gram
Ġl oved
w ide
Ġd ream
Ġm ax
Ġf ra
Ġspe ed
ĠO ut
Ġdist rib
Ġresp ond
Ġbegin ning
Ġser ious
Ġpur pose
Ġal tern
Ġallow ed
ust r
du c
im s
Ġf ear
Ġfe et
Ġimp ress
ĠJ ack
ednes day
um n
Ġfl oor
Ġnorm al
Ġabs olute
O L
Ġ ing
oc ol
Ġw ild
S e
ous ly
i ant
ĠTe chn
P ro
Ġwant s
Ġtem per
Ġbusiness es
Ġal one
ĠA v
ĠC le
z z
N ew
Ġde pend
He re
Ġturn ed
r ast
in ated
Ġhist or
Ġbro k
ĠW ashington
Ġw ww
Ġredu ce
Ġpr ices
I G
Ġapp l
Ġb ill
ar ant
Ġmanag er
p re
Ġdefin itely
Ġd ress
Ġstru gg
Ġsl ight
Ġhappen ed
Ġinfl u
Ġm ount
Ġactiv ity
ter m
ĠH ome
) :
2 7
Ġm er
l in
Ġc ash
Ġpr inc
Ġbas ic
ĠSu per
Ġear lier
Ġcomple ted
Ġt en
Ġf ather
9 0
re ed
ĠChrist mas
Ġh ous
Ġp ages
b ed
ĠA M
ĠM ost
Ġc as
Ġmod els
ly ing
Ġprom ot
Ġhelp ed
et ic
as y
Ġexist ing
ĠAl so
Ġcons ult
Ġa ward
Ġappro pri
Ġcele br
T H
z e
Ġsat isf
Ġe ight
a ult
Ġtr ade
Ġm is
Ġp et
Ġimmed iately
Ġ200 7
Ġrequire ments
I I
Ġann ual
ĠBro wn
ĠApp le
a res
ĠG reen
Ġtool s
Ġdou b
Ġim ag
se qu
Ġgreat er
ag s
P S
Ġdirect or
ĠS im
Ġ ver
Ġcom mercial
ĠF e
Ġin form
ib er
an ch
ĠL ondon
Ġnum bers
Ġu lt
Ġcand id
ĠFlor ida
al ed
ĠG ood
Ġpro t
Ġr ules
Ġra ce
Ġha ven
Ġsm art
ĠChrist ian
Ġinst it
Ġindividual s
Ġcircu it
Ġlo an
ul ate
o ly
Ġwe l
Ġt err
Ġad vert
Ġoffe red
Ġplan ning
ist r
ay er
Ġcomp ared
Ġl oad
ac es
Ġac qu
az ine
Ġrad io
Ġincre ased
Ġwho se
un te
Ġcl ient
Ġfamil ies
Ġjob s
ĠTr ans
Ġfin ish
Ġmov ed
ist ry
Ġwould n
ĠI S
Ġm aster
Ġal though
Ġexcell ent
Ġsc ience
Ġpower ful
Ġh undred
Ġbenef it
for ce
ĠL et
ĠB ig
ĠG roup
I L
ĠU K
ron ic
pe cts
ĠTex as
ĠE ar
ing er
ad o
ord er
ĠCh ina
ĠFeb ruary
Ġ @
Ġcreat ing
v is
Ġk itchen
Ġmil es
Ġfl av
he t
Ġb le
ative ly
he st
N ow
ĠE v
il ing
Ġanal ysis
Ġf at
ic ine
b on
Ġcl in
ad y
Ġprev ious
Ġn amed
Ġst ress
ĠCour t
Ġtrad itional
s et
Ġob tain
ĠAn ge
ĠRe view
Ġcould n
Ġsh op
Ġprodu ce
ĠO ther
Ġem ot
amp ions
r am
ĠM et
7 5
ĠâĢ ¢
ĠInd ia
Ġhot el
Ġmean ing
Ġchall enge
ĠG reat
Ġex erc
Ġb and
ant ly
ig er
Ġ200 6
Ġj ump
Ġcent ral
Ġre asons
Ġbud get
h ouse
Ġfr u
" .
ol ic
ap ter
ĠTh ursday
Ġsur v
Ġphot o
ĠJ apan
ĠT re
Ġth reat
ĠC oun
Ġc it
Ġare n
ĠM or
enc ies
Ġw ine
Ġst ick
Ġl ines
Ġdeli ver
Ġex ecut
m m
ĠSt r
ĠM od
Ġrepl ace
Ġg un
Ġconne ction
Ġt rou
ĠCan ada
Ġb ur
ĠP ort
Ġeconom ic
Ġex tend
a it
Ġdis app
Ġinst ru
v ant
Ġass ess
f ord
Ġ â
ĠAn y
ĠJ es
Ġa head
Ġhealth y
ag o
z y
ust ain
w ith
Ġrespons ible
ist ics
ĠMich ael
Ġst ar
3 5
Ġbl ue
ĠE ast
Ġcall s
Ġp ow
Ġsol utions
Ġanal y
S ome
Ġf em
Ġg ain
Ġpo or
Ġke pt
Ġu nd
Ġ201 9
m at
d om
Ġsur round
os ing
B C
1 00
Ġoffic ial
it ors
i pped
ĠG et
al ing
Ġconne ct
Ġgu ys
Ġstat us
ĠDes ign
is l
ĠThom as
Ġtr uck
Ġg as
Ġm iddle
t ies
Ġprofess ion
Ġadvant age
com ing
Ġde mon
p m
Ġr ank
ĠC amp
ĠMark et
Ġexper t
Ġfollow ed
Ġreview s
p en
ĠBo ard
in ate
2 6
ie nd
Ġc old
Ġlot s
ĠOff ice
P lease
ĠA nt
it ude
um s
Ġswe et
4 5
Wh ile
ĠM ac
Ġen h
or age
Ġl ik
Ġgr adu
Ġes c
Ġwork ers
ĠServ ices
Ġd en
Ġoff ering
Ġfr ame
ĠDe velop
I s
C H
Ġser ver
ĠO ver
ffe e
ve re
Ġocc as
Ġon to
ic o
Ġpost ed
D e
ĠB est
Ġdam age
A r
Ġgu y
e nd
c are
Ġaff ord
Ġsh ipping
Ġschool s
Ġc ore
ĠP al
Ġme chan
Ġsoc iety
Ġapp rec
Ġcam era
Ġmach ine
. |
ub e
Ġjo in
Ġunderstand ing
enc es
ate gy
v ision
ĠIn ter
us ing
r ied
Ġco ach
ĠE duc
ph one
Ġ3 1
Ġbe yond
ĠM art
Ġdeg ree
m od
ot a
L E
ac ity
Ġs ale
Ġl ock
ĠS ur
ĠW ork
ĠPa ul
Ġacc ur
Ġeas ier
á Ģ
F rom
in y
Ġad just
Ġinc red
Ġcomp l
Ġlit er
Ġlet ter
Ġgener ally
erv ation
Ġknow s
ent ially
ĠEng ine
Ġlaw s
Ġgu ide
ĠG old
Ġtr uth
Ġlead er
D o
2 9
i ar
am ing
ĠB ook
Ġob v
Ġcan cer
Ġf an
Ġatt ract
Ġseem ed
O V
ĠM any
ĠF orm
Ġf ab
Ġopen ing
Ġset ting
N ot
ot o
Ġstep s
od es
Ġplac ed
Ġsp read
ĠF rench
Ġdou ble
Ġinj ury
ĠO F
Ð ¾
Ġact ive
U R
Ġbehav ior
in ion
Ġcontin ued
Ġm ur
a ctions
Ġelect ric
m pt
ĠSc ience
im ent
Ġback ground
Ġhapp ens
ĠCl ass
Ġme ant
Ġtra ffic
i j
Ġev idence
Ġrequ ires
ak ers
Ġact ual
Ġstr ateg
Ġc ry
Ġb reat
Ph one
edd ing
5 00
Ġb irth
Ġg ift
Ġref er
um an
ĠP ress
Ġassoci ated
Ġexp and
Ġche m
Ġreg ion
du le
if ying
Ġres ist
Ġstud ies
Ġp sych
Ġdeterm ine
Ġto ward
Ġveh icle
Ġl ength
C T
Ġ ur
Ġh ospital
Ġpict ure
yr ight
? "
Ġb oo
Ġpat ient
Ġrest rict
ĠRes earch
Ġgu arant
Ġmove ment
Ġthan ks
g n
Ġ8 0
3 3
ind er
Ġeconom y
Ġse lection
ĠC ong
Ġac adem
ĠD ist
Ġra re
ic ip
g a
Ġstand ards
ĠIn formation
Ġgra nd
Ġlar gest
ill er
ie l
hip s
Ġsu ff
c ont
ĠEng land
ĠT om
o oth
Ġc ast
ĠM al
qu e
? ?
Ġprodu ced
g al
ĠS pr
Ġwh atever
Ġbas is
Ġcon ference
ĠAustral ia
Ġserv ed
os ure
if ts
Ġpart ner
Ġgirl s
Ġfil es
Ġsen ior
ĠSt ar
Ġ201 8
all s
Ġprote ction
Ġw at
am m
ĠEurope an
Ġm icro
Â ®
Ġdescrib ed
Ġextreme ly
Ġdec l
Ġfa ith
Ġth r
ĠSy stem
Ġconst ruction
ck s
M ore
ĠM iss
o pped
or ney
ĠI r
Ġfig ure
ĠJ ames
Ġsim ulated
Ġdo ll
om an
Ġappropri ate
Ġl abor
Ġadv ice
ĠH ist
ĠGo vern
ĠPar is
ĠWh y
ĠR ob
ul f
Ġn ut
in ally
Ġun it
M S
ĠR E
Ġf urn
Ġpass ed
Ġclaim s
ĠMan agement
Ġhelp ing
un n
Ġthan k
Ġpop ulation
olog ies
Ġd ied
o very
Ġlearn ed
ĠH el
ĠS l
Ġpe ace
fort un
ĠJ er
Ġear n
m en
se y
ĠR oad
f ast
ĠB ill
Ġnot ice
ĠLe ague
Ġtr uly
ov ing
anc ing
ĠDem ocr
6 5
est ival
stand ing
Ġwind ow
ĠB ank
Ġbott om
Ġear th
L C
Ġdr iving
Ġst ation
Ġbec omes
ĠWind ows
ĠS pec
Ġhe avy
Ġregard ing
hen s
ĠMicro soft
ĠF ound
Ġman age
Ġpay ment
ist ered
Ġold er
Ġb an
ĠCoun cil
The se
u gg
Ġthous ands
Ġgu ess
Ġs and
im al
Ġbro ther
Ġ *
Ġoper ations
ad ing
Ġchalleng es
it ar
Ġre pe
Ġca used
Ġg ar
land s
ĠW ednesday
Ġpro pos
ul ed
Ġret ail
ent ed
Ġb orn
M ay
O W
a per
Ġ9 0
iz z
it ure
ro y
ĠR ich
Ġprinc ip
Ġrem ains
Ġthere fore
Ġcl ot
Ġ200 5
ĠE ach
Ġc overed
Ġanim als
Ġsh ip
Ġest im
s es
Ġre b
D on
Ġh us
Ġrun s
Ġlim it
es ome
ro s
ĠL ife
Ġc ivil
ud d
ow l
ĠS am
Ġsc ient
l ant
Ġrecord s
Ġ ir
Ġpl us
port s
iss ions
ick s
rou d
Ġpie ces
Ġ <
v in
il s
ĠChe ck
Ġlay er
os ition
st ate
ĠO h
Ġtax es
Ġre venue
Ġf ashion
ra w
Ġd aughter
Ġappear s
Ġaud ience
Ġent ertain
ĠCh urch
ber g
ĠC ap
ĠSe e
ul a
Ġwe ar
ĠR ober
ester day
Ġsupp ly
Ġorganiz ations
Ġass ign
i ers
ĠGener al
ad s
ir gin
Ġselect ed
ip l
D A
Ġgr ant
om er
oc al
Ġbig gest
Ġshow ed
om b
por ary
C C
Ġmon itor
uck y
Ġm ist
ĠR em
ĠAn n
Ġpresent ation
w in
ĠS ince
Ġreturn ed
Ġp al
Ġsee ing
ang ing
ov es
row d
ĠB re
C ont
Ġt on
Ġing red
ur ies
ĠM S
Ġspe nding
Ġeven ing
ild ren
O r
ĠC r
Ġinit i
Ġvol unte
Ġcompet ition
ree k
et te
ĠM at
Ġb ought
Ġbe at
ĠJes us
r ight
ĠN Y
m ail
Ġst reet
os is
ĠOb ama
3 4
Ġlink s
Ġestab lished
Ġeval uation
f in
ĠB ecause
Ġgra ph
Ġst ream
Ġsp orts
ĠP ublic
Ġsec ret
bo x
Ġl ands
Ġreal ity
Ġcal c
Ġmajor ity
ĠUS A
Ġeff orts
Ġsh opping
ĠS ub
Ġapp oint
e ed
ĠPe ople
Ġch ann
ĠT y
pect ive
ĠS um
Ġestab lish
ĠCl ub
Ġest ate
Ġcomp on
rap y
Ġsur face
Ġcop y
Ġlar ger
ĠV ol
ĠP C
te xt
Ġm ission
Ġpost s
Ġexpl ore
pt ion
Y our
C on
Ġb attle
o ices
Ġa im
Ġro b
I P
Ġinde pendent
Ġcomfort able
Ġb rows
Ġupd ate
is hes
Ġ19 7
Ġform s
am ic
it ness
ĠU nder
Ġc atch
oo per
ac ed
ĠS pe
Ġpict ures
Ġra p
ĠM ain
ĠTw itter
er g
Ġstreng th
Ġval ues
ĠL ake
az on
ĠH ot
ĠB ay
ook ing
cept ion
ĠS un
A b
ress ion
ĠDe c
ĠI T
Ġun c
Ġmil itary
pl ace
Ġexperienc ed
A A
Ġr ich
Ġla unch
Ġh arm
Ġagree ment
in n
Ġe gg
Ġn ames
ell ow
ĠB en
i est
Ġbal ance
f ree
Ġtrans fer
Ġwonder ful
ĠOn ce
âĢĿ ,
l ast
Ġwh om
k now
Ġf ill
Ġcl osed
Ġbr ief
ĠR el
Ġal b
ens es
Ġt er
ĠComm ission
_ _
Ġadd ing
Ġhig hest
Ġconne cted
Ġr an
Ġfore st
Ġcharact ers
Ġse at
Ġexperienc es
om a
f it
Ġsol id
or por
Ġh om
P ost
Ġs ustain
ĠU se
ic ing
ro id
l ife
Ġoffic ials
er o
ĠPl ay
Ġdef ense
Ġco verage
ĠM il
ce l
Ġcit iz
Ġpro s
Ġstr ategy
Ġcon ven
Ġcont roll
Ġad op
Ġele ments
Ġb ath
Ġcontin ues
Ġsy mpt
Ġwa iting
Ġs outh
Ġkeep ing
ĠP erson
ĠW ater
c oh
Ġnum er
Ġsc en
Ġenvironment al
oy al
Ġclear ly
Ġapp arent
Ġfind ing
it z
ĠEduc ation
Ġprim ary
Ġslight ly
and er
as p
ll a
Ġcor ner
Ġsepar ate
Ġsur vey
Ġd anger
Ġf ant
Ġbut ton
ĠF ore
I ON
I M
Ġuse ful
Ġt iss
Ġple as
Ġdemon str
h y
ri age
Ġhon est
Ġp air
Ġvis ion
ĠCon st
ĠBrit ish
ĠComp any
Ġ err
ĠW all
Ġv s
Ġpl ants
Ġup gr
Ġex hib
ĠM ag
Ġabsolute ly
Ġ ice
Ġant i
Ġemer g
Ġco ffee
Ġpract ices
Ġf lex
ĠM ake
Ġbec oming
il ed
ĠD an
ĠAmeric ans
Ġpl enty
ĠCar ol
Ġcrit ical
ĠY es
) |
h ab
Ġte nd
Ġmem ory
a ven
ra el
Ġadv ance
in ter
Ġcreat ive
D S
ĠW omen
Ġdevelop ing
ic on
Ġsmall er
Ġdi agn
Ġcent ury
Ð µ
Ġcap acity
he ther
z en
Ġwill ing
ĠS k
r or
ĠPl an
e al
Ġt im
Wh y
Ġ7 0
ĠT ime
w orks
ines e
Ġcontin u
Ġtest ing
Ġprocess ing
. ||
Ð °
Ġf ish
Ġc raft
b ut
Ġsche dule
Ġmethod s
ig ation
re es
Ġfu nds
Ġn ove
Ġref lect
i ance
Ġexpl ain
or ter
Ġrec ip
Ġth us
w ord
ĠC are
ĠIn s
ite ct
c ient
Ġal le
Ġspe ct
Ġst orage
at ically
Ġhe aring
p oint
Ġpred ict
ĠT imes
5 5
Ġsh ut
Ġlist ed
ĠCl ick
n ight
Ġfac ilities
Ġfoot ball
ak ed
Ġart ist
Ġcommun ication
ĠUn ion
Ġthough ts
Ġc rowd
Ġfor get
ĠS al
B l
Ġar gu
ĠCol or
Ġanim al
Ġhus band
ill a
" ,
ĠFr anc
Ġsound s
ct ors
Ġend ed
Ġown er
A d
Ġsp ring
ĠA tt
Ġv ote
Ġv irt
ĠHar ry
Ġintern et
Ġtw ice
Ġoper ating
Ġconduct ive
i ency
Ġded icated
ĠM er
Ġfe e
4 7
Ġk illed
g ment
Ġwe ather
Ġother wise
ĠA ND
ourn ament
I R
Ġess ential
Ġle aving
fe rences
G et
Ġde lic
Ġsign ed
Ġf illed
Ġdec ide
ĠJ ew
Ġ >
Ġdire ction
ĠSoc ial
Ġwel come
Ġshow ing
Ġth row
Ġrel ax
y er
Ġcoll abor
Ġcommun ities
ĠCong ress
Ġappe ared
us ion
Ġsec ure
ĠA P
L ast
E very
ual ity
ic ians
our ney
Ġfre ed
ĠInst itute
Ġexc ited
ra ck
t r
Ġi Phone
c ious
Ġw edding
en a
Ġpo ly
se mb
ĠGe orge
h ow
Ġmanag ed
Ġtechn ical
ĠDevelop ment
in ating
ĠR iver
Ġl ose
Ġs ession
Ġag ency
S A
ar i
Ġpo ll
Ġ4 5
Ġfru it
wh ile
ĠProf ess
Ġwor ry
Ġ ign
Ġr ide
R A
ĠR ock
Ġleaders hip
i xt
âĢ ĺ
Ġle aves
E M
Ġcre am
r ical
arr ied
ĠIs rael
Ġdiscuss ion
Ġdet e
Ġut il
Ġproced ure
Ġcomb ination
Ġdri ver
Ġp roud
Ġex clus
ent ure
Ġmention ed
A pp
Ġdes pite
Ġd inner
ĠL ou
Ġaud io
ĠS ol
Ġt aste
Ġdepart ment
Ġel ast
Ġpass ion
Ġout d
Ġinte nded
Ġsee k
ten ance
ĠL ike
ĠSoc iety
Ġe th
Ġbr ings
Ġgener ation
ĠM em
y e
Ġf ol
Ġv an
im b
Ġfour th
Ġfl u
W ell
Ġpark ing
fr iend
a e
Ġleg isl
Ġad apt
Ġne ck
Ġd iet
rest ed
ĠF ood
Ġsc hed
Ġrem ove
Ġfund ing
ĠJ ournal
) ;
Ġfact ors
pos es
am in
Ġsh ared
ĠD et
ĠH D
l or
Ġep is
ar ge
Ġmost ly
Ġpart ies
Ġpresent ed
ĠD own
Ġdes k
Ġcr is
ĠP ot
re y
Ġim pl
EN T
Ġh omes
Ġpl ays
Ġappro x
Ġsh ock
Ġr at
oll y
r im
wh ich
ĠT O
Ġassist ance
am ily
ĠR et
out s
ide o
Ġar m
Ġclass ic
Ġdisc over
Ġfam ous
Ġk ick
Ġtrans port
th at
on a
c her
V D
Ġp m
Ġbu ying
ĠW il
tern al
ĠL ord
Ġte aching
ĠDirect or
Ġb ul
ar ry
Ġe ating
Ġvis ual
ĠT op
Ġc ru
3 6
Ġj ournal
Ġconf ig
g l
Ġmeas ures
ĠC am
Ġwin ter
Ġfeed back
Ġres idents
Ġide al
Ġform at
Ġwalk ing
Ġbrok en
S P
Ġk id
ĠC D
t ion
Ġc ab
ĠW ay
ber t
I V
Ġc art
