Ġ t
Ġ a
i n
h e
r e
o n
Ġt he
e r
Ġ s
Ġ w
a t
Ġ o
n d
Ġ c
i t
o r
e s
i s
e n
o u
Ġ f
Ġ b
in g
Ġ p
e d
a n
a l
Ġt o
Ġ m
a r
Ġa nd
Ġo f
Ġ in
Ġ d
i c
l e
Ġ h
a s
o m
i on
Ġt h
l l
â Ģ
en t
Ġ l
v e
Ġ e
s t
Ġ re
Ġ n
r o
Ġ y
Ġ g
l y
Ġ I
c t
Ġb e
Ġ T
u t
e t
o t
Ġ is
Ġy ou
Ġ S
i d
Ġ on
a y
Ġf or
o w
Ġ A
u r
Ġ C
s e
i m
i g
a d
c e
a m
v er
Ġth at
Ġ u
c h
i l
it h
Ġs t
at ion
o l
i r
Ġw ith
âĢ Ļ
Ġ M
Ġ it
Ġ he
Ġw e
r a
Ġ P
Ġw h
Ġ B
Ġa n
Ġa s
i ll
er s
k e
i f
Ġp ro
t er
Ġa re
Ġh a
g e
Ġ W
Ġc on
l d
o o
he r
u l
Ġo r
at e
Ġ H
es s
p p
Ġ D
c k
Ġa t
Ġs e
Ġc om
m ent
o re
r i
es t
ĠT he
Ġd e
Ġ F
u s
Ġ 1
Ġ R
ig h
a b
t h
Ġw as
Ġ (
r om
is t
Ġ 2
Ġn e
p e
Ġe x
u n
Ġ L
an t
it y
re s
Ġs u
q u
Ġ v
i ve
o p
e m
Ġha ve
Ġ r
or t
Ġ âĢ
Ġ G
Ġ N
a in
Ġyou r
ar t
Ġth is
Ġ E
u st
Ġn ot
Ġf rom
u m
n t
Ġs h
e l
o s
i es
a nd
Ġa l
Ġb y
igh t
Ġc h
Ġc an
Ġ le
al l
om e
Ġ O
i e
ar d
ou t
Ġw ill
ou ld
u d
Ġd o
Ġa b
re d
ou r
i v
Ġw or
g h
o st
0 0
al ly
t e
o d
Ġp l
' s
Ġa ll
Ġ J
r ou
as t
c i
Ġ j
e ar
id e
a k
in e
T he
Ġ k
u re
a g
f e
p er
Ġs o
Ġh as
p t
Ġm e
Ġw he
Ġb ut
a ck
âĢ Ŀ
ic e
Ġu s
ct ion
a ge
a c
Ġa d
t her
Ġo ut
ic h
Ġcom p
Ġu p
a ke
Ġ U
on e
oo k
Ġthe y
in d
Ġm ore
s o
a re
Ġthe ir
o g
r y
ver y
on g
Ġ en
ab le
im e
Ġm y
p l
at ed
oo d
Ġt e
c c
ou s
Ġon e
Ġh is
it e
am e
i z
an s
Ġc l
i ke
i p
Ġs a
Ġab out
Ġwh o
or m
Ġ im
ĠT h
Ġo ur
ĠI n
b er
ĠâĢ ľ
Ġcon t
Ġg o
ion s
r u
Ġm an
c l
Ġf e
an ce
n e
d u
a ct
Ġwh ich
Ġ K
Ġ2 0
i a
t o
as e
Ġre s
a il
i b
Ġwor k
ig n
i re
Ġ Y
re e
f f
re at
ay s
a ch
o c
a p
Ġa pp
ar y
ation s
a ce
Ġp er
ic k
ul t
Ġo ther
v en
e p
a u
Ġof f
ĠS t
Ġy ear
Ġt ime
Ġ qu
u b
. .
ic al
as s
Ġs ome
Ġl ike
u e
Ġan y
Ġal so
i le
Ġd is
n ow
ar k
Ġ "
ou nt
o ve
Ġg et
Ġu n
en ce
Ġ V
f orm
Ġh ad
or d
ĠI t
Ġne w
res s
er v
Ġs p
Ġthe m
ing s
Ġbe en
Ġp art
Ġwe re
ĠC h
Ġ 3
on d
Ġa g
o se
ve l
Ġthe re
Ġp e
Ġo ver
Ġwhe n
Ġwh at
Ġw ould
it ion
Ġhe r
ou gh
a v
i al
Ġa r
ent s
Ġ if
in k
Ġ -
or s
Ġth an
Ġt r
Ġj ust
en s
ou nd
Ġ20 1
Ġ ro
Ġp re
p ort
il d
in t
Ġs pe
o b
ir st
m er
Ġk now
is h
Ġre c
Ġbe c
op le
w n
ĠW e
Ġin to
Ġne ed
o v
Ġsa id
re n
ow n
or y
f ter
nd er
Ġh ow
ĠH e
at er
Ġs c
o y
Ġa cc
Ġa m
rou gh
l ic
it t
ad e
Ġc o
Ġt w
ver s
Ġit s
Ġpe ople
ol d
an g
n ing
Ġd es
on s
Ġf irst
w e
u al
Ġb l
cl ud
Ġm ay
c es
Ġs he
Ġn o
ĠâĢ ĵ
ci al
Ġcom m
i an
au se
' t
am p
he d
at es
Ġon ly
l p
Ġm ake
f t
u ll
Ġt ra
r ic
Ġm ost
re nt
ment s
Ġp o
d ay
Ġbe t
Ġad d
Ġ1 9
Ġb ack
e nd
Ġhe lp
Ġ 4
Ġpro v
Ġl ook
i ly
at ing
Ġin d
Ġe very
ter n
ĠTh is
Ġe m
Ġw ant
Ġf l
Ġin clud
rou nd
Ġth rough
h ing
Ġ 5
is e
Ġtw o
Ġcon s
Ġse e
i ous
ĠR e
ie w
Ġu se
Ġa ct
Ġwe ll
Ġthe se
) .
l es
g r
Ġpro du
Ġb u
Ġu nder
e w
Ġa fter
k s
se l
Ġp h
e ct
it ies
p h
if e
fe ct
Ġc ould
is s
o ll
Ġs erv
x t
r it
f ore
c ed
T h
ur n
Ġsu pp
he n
ro w
if ic
Ġd if
t ing
Ġ very
a w
u ch
Ġyear s
Ġs y
le ct
Ġre l
Ġw ay
Ġin c
Ġpl ay
Ġe ven
Ġg ood
Ġre g
ers on
Ġman y
er t
on t
Ġin v
Ġh im
an ge
Ġre m
Ġim p
Ġ ra
al s
| |
Ġp r
j ect
f ul
Ġn ow
pe ct
c ess
Ġc ol
os s
Ġthe n
ak ing
Ġwhe re
in ess
Ġ2 00
Ġe v
Ġsh ould
Ġst ud
ĠY ou
Ġ ke
o ol
ation al
o ck
c om
Ġs m
ot h
Ġd id
b s
ib le
as ed
Ġr ight
ol og
il ity
t s
id ent
Ġd on
at h
an y
Ġbec ause
Ġex per
Ġse c
g et
ul ar
w ard
Ġst art
t y
i ed
Ġo wn
ĠU n
ur ing
b le
er m
ĠW h
u res
ow er
) ,
Ġg reat
. âĢĿ
Ġ $
ic es
Ġg u
Ġd own
Ġth ink
Ġa c
Ġm uch
ĠA s
form ation
Ġb us
Ġf in
Ġat t
ĠS e
y s
Ġto o
ot her
he s
h ip
ĠA nd
at ive
Ġ ent
Ġsu ch
st em
u p
Ġd ay
ic t
or k
it s
Ġl ong
ra ct
Ġag ain
om et
Ġh igh
I n
e ll
a ir
Ġde c
it ed
vel op
Ġt ake
al th
Ġs et
ar ch
Ġ 6
Ġin st
ĠC om
Ġre ad
Ġth ose
ic s
Ġhe re
Ġf ind
en er
g an
u nd
Ġbe ing
Ġin s
l i
Ġdo es
Ġbe l
ri b
Ġc all
Ġ &
Ġbe fore
c y
Ġin te
Ġm on
Ġwe e
Ġe nd
Ġsh ow
Ġb est
Ġm ade
ĠP ro
Ġdif fe
Ġp res
Ġp erson
n er
ĠD e
as on
âĢ ľ
u ally
Ġwor ld
ĠA n
Ġm in
Ġc ar
al k
Ġas s
Ġh ome
l ine
oll ow
i x
ch ool
Ġre qu
Ġf am
Ġin formation
u es
Ġs ur
Ġl oc
ĠI f
Ġb r
Ġl ast
re st
w ay
Ġl ife
a x
Ġc he
Ġa v
2 0
Ġs im
ĠN ew
an k
Ġbus iness
i o
.. .
W e
Ġm ark
Ġm ed
Ġ1 0
sel f
n g
gr am
Ġha nd
v ing
in ce
Ġo p
Ġ 7
at her
Ġm em
Ġsy stem
f fect
in s
Ġe ar
Ġus ed
Ġde velop
ub lic
Ġp ol
Ġwh ile
a ve
Ġle ad
ĠB ut
s s
at ch
l ed
ou se
Ġtr ans
Ġin ter
iv es
. "
ch n
Ġsu b
a z
Ġar t
p r
Ġc re
Ġre ally
Ġgo ing
ak es
ar m
Ġc ount
Ġm od
Ġre t
n ess
Ġn um
Ġth ough
Ġe ach
p le
im es
, âĢĿ
Ġa round
ce pt
Ġ 8
Ġd et
Ġsupp ort
al e
Ġdes ign
i ence
Ġv is
l and
Ġdis c
Ġprodu ct
v iew
Ġf ollow
mer ic
re ad
ĠA l
in es
Ġc our
Ġs omet
al ity
ction s
we en
Ġs er
ire ct
Ġc are
v ed
Ġst ill
Ġs ay
Ġfor m
Ġc ur
Ġcomp le
ri end
ĠS h
ut ion
g g
e ver
Ġte am
Ġprov id
en e
Ġad v
Ġpo int
iz e
et s
as h
ĠF or
rou p
Ġch ar
d er
Ġdiffe rent
Ġs l
Ġf ound
Ġs ign
ou n
i vers
Ġch ild
Ġb ook
Ġs ame
le ase
ag es
Ġcomm un
Th is
Ġr un
Ġ ed
Ġg r
Ġst r
Ġs k
at a
itt le
Ġbet ween
Ġfe el
Ġa ut
ĠA r
Ġex p
a h
ust om
Ġth ree
ĠS o
m an
Ġpl ace
ut e
Ġc le
Ġb oth
ĠThe y
ar s
W h
Ġ 9
I t
Ġfe w
w ays
Ġb o
t he
Ġe as
ĠC l
00 0
Ġst ate
ion al
ĠB e
Ġg l
Ġpro gram
Ġl ot
Ġha pp
ĠL e
Ġl ove
Ġp ost
ĠA meric
Ġf ree
l ess
t en
Ġm et
ist s
t on
Ġp ur
Ġre p
Ġim port
i ent
iz ed
od y
Ġf un
Ġpro cess
Ġpro f
e x
am es
Ġth ings
b e
ver n
Ġf ull
i red
Ġto p
th ing
olog y
v es
et y
Ġex t
Ġg ener
or n
it al
ĠA d
Ġl ittle
Ġmon th
Ġl ar
ant s
ail able
Ġf act
Ġre port
Ġre al
at ure
Ġl ist
o h
Ġd uring
Ġhe alth
ro ss
c ent
b ers
Ġpl an
Ġte chn
c er
Ġke ep
ar n
Ġcom e
Ġop en
Ġapp ro
Ġde f
Ġf il
u g
c on
er ing
, "
Ġf r
Ġre f
Ġus ing
Ġp oss
Ġo b
u c
ie ld
Ġre st
Ġp at
Ġpart ic
1 0
ic ally
Ġis s
Ġc ent
Ġc ustom
Ġres p
ra nd
m s
iv ing
Ġcont in
g y
Ġsomet hing
at t
o ad
Ġin t
Ġwith out
o ot
is hed
Ġp ut
Ġinte rest
t t
Ġbet ter
in ed
in ing
Ġres ult
Ġt y
Ġan other
Ġm ust
Ġg ot
Ġc or
Ġall ow
Ġb ig
Ġp ri
Ġv ar
Ġinclud ing
Ġs chool
a red
Ġg ame
Ġm ight
Ġf riend
Ġne xt
Ġal ways
ĠThe re
Ġcomp any
Ġs ol
at ur
ĠB l
Ġav ailable
g er
ent ion
Ġp ass
Ġhe ad
Ġsm all
Ġqu est
Ġd ist
Ġmark et
Ġt ry
us s
Ġw r
Ġcon f
Ġst and
Ġs ince
Ġfam ily
Ġ ide
Ġg roup
ĠâĢ ĺ
Ġsec ond
en se
Ġm ain
i qu
ĠS he
Ġor gan
i k
re en
st and
ĠH ow
Ġbu ild
Ġne ver
Ġwee k
pl oy
Ġw ater
Ġd ri
Ġe ffect
Ġt ri
Ġv al
Ġo pt
Ġp ay
Ġd ata
Ġo pp
âĢ ¦
Ġh ard
ert ain
is ion
ate ly
Ġnum ber
Ġm us
Ġw om
Ġm ov
Ġas k
Ġinc re
Ġc r
Ġre ce
ĠO n
is m
Ġimport ant
amp le
i er
a j
Ġsu re
Ġpro ble
ill ion
r ist
ĠA ll
l ing
ro l
el s
Ġ i
ĠF r
Ġp ublic
Ġo ld
Ġp ower
w are
E R
Ġexper ience
m e
Ġex pl
Ġd irect
ĠP l
ĠâĢ Ķ
ĠE x
Ġb ro
Ġle vel
one y
Ġin f
ivers ity
Ġd ays
Ġserv ice
1 9
ren ce
Ġper form
t ed
Ġ Q
Ġpro ject
I f
cc ess
Ġ '
ĠI nd
Ġagain st
Ġc ost
r al
i or
Ġe l
Ġspe c
Ġg ive
Ġon line
ir d
Ġcl ass
Ġl ess
âĢ Ķ
Ġg row
Ġle t
Ġl aw
Ġw in
Ġinv est
Ġ1 2
w ork
c o
ĠI s
Ġse em
as es
p s
Ġab le
Ġl ight
o k
ard s
Ġbel ie
Ġs ays
Ġb re
Ġ ve
Ġ 0
Ġf our
pe nd
in al
Ġre se
Ġc a
u ck
Ġp os
ort un
Ġh um
Ġt est
Ġcur rent
Ġprov ide
at s
ĠT e
Ġs it
en cy
ot e
Ġu nt
ĠP h
ra ph
he re
e red
i ents
Ġ1 8
Ġt urn
Ġme et
our s
Ġor der
iv id
Ġ Z
H e
vern ment
g in
ĠC on
Ġd i
em ber
an n
Ġwith in
ab ly
Ġle g
ou th
Ġto day
ru ct
c ing
ff ic
Ġj ob
Ġo per
pp ed
ent ly
Ġp op
at or
5 0
a ut
o pe
ĠC ol
iss ion
m ed
r on
ĠTh at
Ġan n
ĠU S
e c
p os
Ġbe h
at ter
Ġpro per
id er
is ed
. ,
r ation
Ġa way
Ġpre v
Ġserv ices
re t
pp ing
Ġv iew
i um
Ġ est
o int
Ġm aking
ot t
Ġwork ing
o f
Ġh ist
Ġcour se
Ġ .
Ġacc ess
ain s
Ġde m
Ġpro te
en g
Ġf ood
ĠM an
Ġare a
Ġc ase
Y ou
Ġc ap
Ġadd ition
h or
Ġp rom
Ġs ing
Ġen g
I N
Ġw rit
Ġe qu
Ġt ru
Ġwe bs
ne y
ir on
u red
Ġn ight
if ied
id s
Ġchild ren
Ġspe cial
ĠO r
e ad
Ġth ing
Ġch ange
Ġs al
ĠT o
w w
l ish
Ġwh y
Ġph ot
ĠS p
te nd
Ġp ast
le y
Ġch ang
Ġrec ord
ur y
ĠCom m
Ġunt il
or ies
p or
Ġlook ing
om m
it ions
ĠT r
re am
Ġwor d
in a
if y
Ġk ind
Ġpres ent
ĠS c
' re
Ġf ac
Ġp ract
it ing
or th
um p
le ction
au gh
g ed
Ġm oney
Ġcon st
c u
s h
Ġloc al
Ġunder stand
Ġprof ess
Ġle ft
ĠR es
Ġb as
ĠCh rist
ar ing
ĠC ent
ab ility
m in
Ġse ason
3 0
j oy
ir l
Ġs ite
Ġof ten
con om
Ġstud ents
Ġde v
Ġin tern
so ci
Ġev ent
Ġcon d
Ġact iv
Ġro om
is ing
Ġlar ge
Ġt erm
Ġv ide
Ġt imes
Ġsu ccess
Ġem ploy
iz ation
Ġto get
age ment
Ġtoget her
ĠG od
Ġt alk
Ġimp ro
Ġ1 5
Ġn ame
ĠM ar
Ġind ust
ri es
Ġdid n
le t
Ġte ll
Ġex pect
Ġd r
A s
are nt
iv en
Ġapp lic
Ġche ck
1 2
Ġcomple te
oh n
ent ial
ic le
ut es
Ġ es
ill s
Ġd ra
e e
Ġha ving
Ġal ong
b o
ĠC an
Ġen ough
iv ed
Ġc reat
aj or
en n
b y
read y
Ġle arn
Ġ [
Ġs ide
ĠN o
Ġne ar
Ġm ove
b r
p art
ĠW hen
Ġs w
ver al
in ation
Ġp ain
oc us
Ġe ver
Ġsh ort
Ġa ir
Ġh ouse
O N
Ġcommun ity
an e
od e
as ter
ivid ual
ĠWh at
al f
Ġinclud e
ur s
Ġt reat
it ive
Ġproduct s
Ġbec ome
Ġ1 1
ĠUn iversity
Ġcount ry
Ġd one
ot s
Ġoff ic
Ġoff er
ater ial
Ġcall ed
Ġmem bers
ord ing
Ġl ine
Ġp a
s ide
! !
Ġm en
Ġ19 9
a im
Ġm il
Ġacc ount
ĠM ay
Ġm ar
Ġst ory
Ġ3 0
u ro
ĠW ith
Ġal ready
Ġbu y
Ġtr ad
Ġb it
Ġcon ne
' m
Ġrese arch
er n
Wh at
Ġc ertain
ene f
er y
Ġperson al
Ġb ody
Ġl ive
t ain
Ġfollow ing
Ġf ar
F or
Ġen joy
ow s
Ġc ame
v iron
Ġposs ible
un e
S t
s c
ĠA t
ore d
Ġo cc
Ġse veral
Ġm akes
Ġneed s
Ġgo vernment
er r
Ġfe at
ĠAmeric an
Ġcont rol
Ġother s
Ġme an
ail s
Ġnew s
Ġc amp
Ġp ot
1 1
ra p
Ġget ting
Ġind ividual
E S
Ġqu ality
Ġc ou
Ġdo ing
ĠE ng
Ġf ore
us h
it her
Ġeas y
o ver
Ġwebs ite
ut ure
i en
A T
Ġso cial
an ces
Ġre view
ĠC ar
ĠF l
Ġwom en
iqu e
Ġt re
Ġh old
o ice
Ġme ans
Ġb ased
Ġret urn
ort s
Ġl and
s on
Ġn on
Ġm ajor
Ġle ast
o or
Ġm illion
a ff
Ġw ent
Ġthough t
Ġl im
Ġm ind
m ber
Ġ |
Ġmus ic
Ġf ocus
Ġe lect
Ġact ually
A R
at ic
f er
' ve
Ġvis it
Ġcom es
os ed
ĠM y
pt ion
w h
Ġdoes n
Ġed uc
ro p
Ġe y
id d
f or
Ġyou ng
Ġb enef
Ġtoo k
i ans
ci ally
Ġac ross
Ġl a
ĠJ ohn
Ġf av
Ġopp ortun
m ost
Ġcre ate
Ġ- -
Ġf und
Ġper cent
on es
le ment
m m
n ot
O R
a pe
ull y
Ġcle ar
Ġw on
Ġm om
ĠS u
du ct
id es
Ġde al
Ġchar act
Ġan al
Ġe conom
Ġon ce
viron ment
y le
Ġcont act
ĠS te
A N
Ġm ult
c hes
Ġpartic ular
The re
ward s
Ġinv ol
c hed
ĠA m
Ġm aterial
Ġor ig
Ġhapp en
Ġqu ick
ĠA pp
ro om
ap s
Ġl ow
Ġdevelop ment
a pp
b ook
l oad
Ġso ft
ĠC o
ak en
Ġstart ed
âĢ ĵ
Ġn et
Ġy et
Ġ Â
Ġc e
Ġ ess
Ġf uture
fe rence
Ġl ater
Ġre ason
Ġex ample
ur ther
Ġc ut
ar r
p ro
Ġc ity
Ġ vers
ĠR ep
Ġt em
on y
a i
Ġto ld
Ġbr ing
Ġfriend s
A nd
Ġr is
Ġstud y
l f
Ġstr ong
Ġear ly
Ġmonth s
ul ation
Ġl ink
Ġspec ific
Ġ ident
Ġsh are
Ġf ive
is ter
Ġh ours
ĠM ed
Ġre du
l ished
Ġbe aut
u ff
Ġper fect
ip s
og raph
Ġhe art
u se
Ġhum an
g es
am a
Ġke y
Ġp ar
ĠUn ited
ĠThe se
Ġp ress
d e
Ġt ax
Ġst ep
in o
Ġbel ow
id ay
Ġty p
Ġw a
Ġbe gin
Ġh ig
ĠP r
Ġpol it
our ce
Ġcomp an
Ġh ot
Ġknow n
A n
ll ing
Ġ1 4
st er
c le
Ġrequ ire
Ġvide o
if t
res ent
our ces
Ġ1 6
ĠSt ate
ĠS y
Ġcl ose
ĠIn tern
oo se
ate g
o ber
s w
Ġit em
Ġem ail
Ġproble m
ĠB r
l ight
Ġre le
- -
Ġapp ear
Ġco ver
ĠF e
ut ions
Ġaut hor
ur ity
B ut
re et
ĠO ne
Ġe t
ĠN e
Ġf ield
os p
Ġevery thing
' ll
Ġvar i
Ġde li
ic y
p ar
i od
o on
Ġch all
ĠW or
Ġcom b
c rib
Ġdisc uss
ill ed
Ġpri v
un ch
Ġp ack
ac y
Ġf ace
ĠE n
Ġcomp et
Ġpur ch
Ġan t
ĠC ont
Ġ X
c he
il ities
it or
H ow
Ġindust ry
h od
Ġhist ory
er al
Ġp age
le ge
Ġpro b
Ġen er
Ġw alk
n ed
ĠY ork
ĠD o
th ough
Ġs ound
re w
Ġc ult
ĠIn st
Ġen s
Ġg ames
Ġg iven
1 5
n ers
O n
Ġresp ons
W hen
Ġmin utes
l er
Ġwho le
Ġrel ations
Ġst ay
Ġbelie ve
Ġsp ace
b all
Ġse en
Ġquest ion
Ġsome one
il ar
Ġ201 2
il t
Ġam ong
Ġp ie
g o
ĠHow ever
Ġt aking
ens ive
Ġsing le
Ġp ick
Ġag o
Ġm or
ra in
our n
Ġwhe ther
p ly
Ġto t
Ġw ind
id ence
Ġadd ress
ur al
ne w
ac es
atur al
Ġbre ak
Ġsu per
Ġ /
Ġa ge
Ġh alf
Ġ1 00
Ġst e
pe cially
Ġpr ice
ain ed
ĠN ot
her s
sel ves
ĠS erv
a f
ib ility
S o
Ġen c
Ġmed ia
ĠM e
gg est
u ed
id ed
Ġh ope
Ġcont ent
pl ay
Ġg irl
ct or
Ġam ount
Ġcle an
C h
g ing
ric t
Ġser ies
Ġs ci
Ġen vironment
ious ly
Ġcompan ies
Ġiss ues
Ġany thing
Ġse x
Ġp ub
Ġj o
A S
Ġcl aim
I S
Ġman ag
og n
ĠC ount
led ge
is on
Ġd ue
m b
ab or
Ġv ol
1 3
im ate
ir m
f ic
f ully
Ġ1 3
Ġf all
Ġm ot
o x
Ġto ol
Ġfr ont
Ġph ys
Ġm ess
Ġrec omm
d d
Ġc red
ĠB ro
Ġp lease
1 8
ur ch
Ġrecomm end
Ġc ra
Ġab ove
E D
Ġcomm on
Ġtechn ology
ent al
Ġf re
Ġquest ions
Ġr ange
Ġ1 7
A L
Ġst ore
1 6
Ġa ud
ĠM c
R e
E N
an cial
Ġcons ider
ĠE uro
Ġper iod
Ġb ad
ĠCom p
Ġe ff
ĠG u
Ġc rit
u ation
un g
Ġide a
Ġme as
Ġ2 4
ĠC al
ĠC ity
Ġsu ggest
v ent
Ġresult s
Ġw ond
Ġbuild ing
Ġbl og
Ġener gy
Ġp ort
Ġa ff
ir t
Ġal most
Ġw atch
c ome
Ġbl ack
2 00
b ack
Ġ z
Ġe ither
ĠP res
Ġs ix
as ing
Ġtra vel
il le
Ġwork s
i ver
itt ed
el t
s y
Ġfil m
Ġpoint s
Ġcomp ut
ĠO ur
c ri
Ġth ird
Ġ2 5
us ed
/ /
Ġb rand
am s
Ġf urther
Ġt aken
Ġcon cer
Ġent ire
ĠM in
Ġwrit ing
Ġevery one
I T
an ks
at ors
as k
ĠC he
Ġd ou
Ġtry ing
Ġlike ly
1 4
ĠY our
ri e
ri ed
Ġb ar
ĠG o
Ġtra ck
it es
Ġne cess
ce ll
: //
ro du
Ġdo cu
or g
_ _
ver t
o id
f ort
Ġm iss
Ġ #
Ġd ig
Ġcustom ers
. )
ĠJ an
Ġc al
Ġtra ining
Ġre pl
le x
ob al
op y
Ġp ict
and s
il i
pl es
Ġty pe
om es
ov ed
ive ly
Ġc ir
Ġse lf
ĠSt ates
Ġneed ed
ch ie
g est
i res
Ġse arch
Ġare as
Ġwant ed
Ġpre t
i ol
um e
ĠN ational
Ġfeat ures
Ġfav or
Ġrelations hip
ar ning
Ġes pecially
Ġ :
Ġsim ple
Ġwe b
Ġm ag
Ġspe nd
Ġval ue
Ġoff ers
Ġ5 0
Ġimpro ve
Ġde b
fic ult
Ġman agement
Ġex c
res h
i ally
Ġc ard
ĠS chool
m y
y ear
Ġprote ct
Ġpartic ip
g le
Ġr ather
Ġhow ever
Ġs ent
Ġe le
ic ation
ĠA fter
Ġvar ious
f act
t ime
Ġqu ite
ĠT w
Ġst op
Ġoff ice
g ress
Ġiss ue
ĠP e
I C
a ur
Ġel se
Ġ201 3
Ġask ed
T o
ific ation
2 5
1 7
Ġre d
Ġmet hod
Ġh ost
Ġinst all
Ġsign ific
um b
Ġcom ing
Ġprob ably
itt ing
Ġf oot
ight s
ru ction
ĠG r
if ul
Ġw ays
Ġte xt
Ġpret ty
Ġadd ed
ĠWor ld
ĠEuro pe
z e
Ġsim ply
it ch
U S
Ġl iving
Ġo il
Ġdif ficult
Ġprovid es
Ġp arent
ic ro
Ġbeh ind
w here
Ġup d
Ġrequ ired
Ġev ents
Ġst aff
Ġperform ance
Ġproble ms
Ġris k
Ġcontin ue
ĠE d
Ġan sw
y n
Ġwh ite
ĠS outh
Ġab s
Ġb ed
Ġso on
ĠH is
he ad
ĠN orth
Ġacc ording
et h
ro ll
Ġword s
ĠW ill
Ġde ath
Ġpos ition
Ġex ist
o le
Ġnot hing
l u
Ġm atter
Ġg ra
ĠG e
Ġexper ien
ĠD ep
Ġprofess ional
itt en
Ġis n
ach ing
Ġc ell
o e
Ġd am
Ġa ction
Ġh y
v al
Ġh on
ition al
l t
ĠQ u
Ġcharact er
ru g
Ġin it
Ġpop ular
Ġph one
Ġrep resent
ĠSe c
ang u
pp er
ab les
ib r
am er
ĠS m
min ist
is es
re me
Ġprovid ed
ĠP art
ol ution
pr il
ĠT ra
Ġf ail
a pt
Ġpre p
ie f
ĠM r
Ġt ou
ĠT H
Ġass ist
ĠA ust
n es
a ily
Ġs ize
ob ile
ĠM ark
ĠP ark
Ġcons um
Ġimp act
Ġdet erm
ur ance
Ġt akes
ĠA f
Ġro le
Ġsim ilar
R E
Ġin n
ĠP er
Ġwee ks
ul es
Ġr ad
ĠAmeric a
Ġyour self
Ġro ad
Ġfin al
Ġpart y
iv al
Ġg round
an c
ĠD es
ĠO ct
cl us
Ġann oun
Ġl og
Ġrec ent
Ġsub ject
Ġinclud es
Ġin j
Ġs we
Ġac cept
A C
ĠCent er
Ġfor ward
u ge
Ġincre ase
Ġn atural
Ġproper ty
ĠP ol
Ġconne ct
Ġ201 1
A l
ĠC or
Ġun ique
Ġseem s
ĠJ u
Ġtru e
ĠA b
Ġse lect
ĠG l
Ġchang es
ĠJ ust
ad es
Ġsignific ant
Ġd ate
med i
ĠD r
Ġas soci
Ġrequ est
Ġknow ledge
ĠD is
Ġext ra
ast ic
re g
ove red
ist ic
Ġa chie
Ġw ide
Ġf ire
ver age
Ġart icle
ĠK e
u fact
Ġk ids
Ġup on
i et
ar get
Ġgener al
Ġout side
Ġatt ack
Ġst at
Ġse nd
Ġoffic ial
Ġg en
Ġcan not
ĠB ar
ĠS ome
Ġfin ancial
Ġrec ogn
id ge
Ġc ook
Ġreg ard
Ġlong er
Ġdo g
Ġmem ber
y l
Ġl oss
Ġshow s
Ġfun ction
2 2
ar ter
ĠA ug
r ing
Ġres pect
ad a
6 0
Ġh tt
Ġsu m
ĠM arch
g u
em pt
Ġ201 0
op h
Ġrun ning
Ġhe ld
Ġcre ated
Ġex am
Ġsec urity
Ġt it
Ġsa fe
Ġsystem s
I D
Ġcou ple
ĠB o
Ġs ong
Ġest ab
Ġr ate
Ã ©
Ġsa w
an a
Ġmod el
Ġf ig
et er
e es
av ing
Ġeduc ation
op s
Ġan im
Ġst ri
ĠPres ident
at ory
Ġdesign ed
ĠCount y
Ġb ase
Ġcol or
an ced
Ġspe ak
Ġle ave
Ġlead ers
Ġcol lect
n a
al es
Ġus ually
Ġread ing
ou ra
p ut
Ġany one
u ary
Ġsoft ware
Ġf a
Ġcont rib
Ġ x
Ġbo x
Ġb ott
Ġsk in
Ġopt ions
Ġind e
am ed
Ġmom ent
ĠH ouse
Ġhig her
Ġread y
Ġwor th
a ign
Ġtreat ment
Ġpa per
Ġthrough out
ear ch
Ġp ark
Ġpr int
Ġbeaut iful
Ġag ree
Ġco ll
Ġh it
iz ing
Ġn orm
Ġreg ular
ĠJ une
Ġopportun ity
ĠA g
ud e
Ġdet ails
it er
Ġw ar
Ġorig inal
Ġ ill
Ġrece ive
f ace
ĠD av
ac ed
Ġl ives
f fe
Ġeng ine
ĠA ct
Ġs ens
Ġ19 8
Ġdef in
b ased
Ġrece ived
Ġgrow th
ĠSt ud
ĠW est
Ġdes crib
m it
es e
ou d
Ġch oose
âĢ ¢
Ġl ay
Ġnet work
Ġens ure
er c
Ġbl ood
re ct
Ġet c
Ġl at
Ġplay ers
Ġs le
Ġb all
ĠI m
Ġpot ential
Ġins ide
ĠP a
h ib
r ight
idd le
re m
ed eral
Ġbook s
Ġf ast
Ġt able
Ġs ense
Ġem b
Ġne g
Ġtot al
ir it
Ġc ause
Ġgo al
Ġmed ical
Ġsal es
Ġ ,
ĠD ay
Ġl o
Ġrec ently
ci ety
Ġn ational
ĠA pril
ĠIn c
as hing
Ġd om
Ġl ost
Ġm ach
Ġp ric
ĠB y
Ġl ate
ain ing
Ġapplic ation
Ġcl ick
b or
Ġ ...
Ġvers ion
Ġst ra
Ġfor mer
Ġwond er
Ġst ruct
l ike
Ġhapp y
en ing
ys is
o es
if f
Ġcurrent ly
Ġpri or
Ġde ep
Ġpat ients
Ġitem s
Ġthem selves
Ġv iol
ag ing
Ġexp ress
Ġpolit ical
Ġc oun
ĠN ow
in ary
o ff
Ġus ers
Ġcour t
h am
Ġpriv ate
Ġbo ard
atur day
Ġcom fort
ĠSe pt
Ġf it
Ġm ass
am ent
c il
Ġpol icy
Ġde pend
i ber
h a
ad em
Ġcare er
Ġmor ning
Ġcont ract
Ġha ir
ac hed
Ġa ffect
li er
Ġd est
Ġat tend
ĠD on
c ast
ĠO b
Ġto wn
Ġhand s
W ith
Ġdec ision
Ġp le
Ġim m
Ġpract ice
oo gle
Ġp ers
Ġmeet ing
ed s
O T
Ġn ice
4 0
Ġdri ve
Ġaddition al
Ġb al
Ġv ia
ag ue
Ġex act
art ment
Ġprodu ction
ĠRe g
p ri
ic les
ĠS pe
a ction
at form
Ġgo es
O U
g round
o ke
ut h
Ġle arning
Ġit self
Ġcred it
2 1
Ġ ut
Ġab ility
e k
ĠH igh
ĠE l
Ġprogram s
Ġterm s
Ġc ases
Ġm other
Ġwork ed
Ġcomput er
Ġ ri
Ġob ject
Ġde g
Ġo bs
Ġst yle
Ġcond itions
M y
ĠM ich
Ġce le
Ġinclud ed
O S
ĠH ar
ourn al
Ġt arget
Ġquick ly
Ġlevel s
O ur
ĠHe alth
olog ical
Ġrem ember
Ġcustom er
Ġpr im
Ġde l
ab y
Ġdis e
Ġright s
A M
Ġactiv ities
et t
air s
az ing
Ġw all
im um
ict ion
or ing
Ġwas n
Ġ2 1
Ġcamp aign
Ġmy self
n y
Ġco ol
ir th
ĠM ore
Ġs at
Ġbl ock
en ces
Ġch ance
Ġm atch
Ġcl os
h ood
A ll
er ve
Ġ4 0
ec ut
Ġ ur
it ary
Ġbe gan
2 4
h aps
m ing
w ood
Ġv ict
Ġman ufact
Ġplay ing
Ġ201 4
rough t
ĠAr t
ĠP ar
ĠJu ly
Ġe p
Ġinvol ved
ess ion
Ġte ac
as ons
ĠT V
Ġaut om
ĠFe b
l s
ip ment
und ay
Ġwom an
ĠWh ile
Ġcount ries
ĠB u
us es
Ġsk ills
at ives
Ġwr itten
ĠO ff
Ġbu ilt
Ġs qu
Ġappro ach
Ġsum mer
Ġp an
Ġapp e
on se
r is
' d
IN G
ĠS an
Ġwr ite
ĠW ar
Ġlat est
Ġint rodu
Ġim medi
Ġinst ead
ĠF in
Ġf ight
Ġst ock
ĠU s
Ġwr ong
Ġgr ad
Ġnecess ary
Ġ201 6
Ġeas ily
Ġbec ame
ond on
ĠAs soci
Ġins p
ĠE m
Ġar ri
Ġm ix
Ġj ud
Ġleg al
Ġchall eng
st r
Ġc and
Ġl angu
Ġlook s
ro wn
Ġpres ident
p ose
ed d
ill ing
ĠO f
Ġdra w
Ġon es
Ġb ur
Ġre v
ove mber
Ġ200 9
Ġre lease
Ġr ound
ĠCh ar
Ġinvest ig
Ġsur pr
Ġe mer
ren g
j ust
Th at
Ġdown load
s u
Ġatt ention
ffic ient
Ġintern ational
Ġor d
Ġsc reen
Ġse ll
Ġstand ard
it c
ĠS w
Ġsa f
Ġdec ided
Ġg ave
he l
A t
Ġm ention
i am
Ġl ab
un t
Ġc as
Ġf elt
Ġp red
Ġwe ight
Ġve h
Ġgl obal
ĠDep artment
ĠHe re
k y
Ġf resh
Ġsh all
Ġide as
ĠC our
ip le
Ġd rug
ĠAust ral
Ġs il
ĠV al
it ter
ĠAf ric
Ġlead ing
augh t
P h
l im
Ġs us
Ġh ol
Ġb i
Ġmain tain
Ġrel ated
Ġc y
Ġatt empt
ke nd
ĠB rit
Ġs un
att le
ĠFr iday
Ġcost s
Ġh uge
Ġapp ly
ond ay
Ġtou ch
S h
it te
ĠF ace
Ġl ower
ĠP at
Ġgroup s
Ġfavor ite
ĠH er
Ġproject s
Ġch oice
r ay
ĠEng lish
Ġset t
ĠI nt
Ġcl ients
ough t
Ġpro pos
Ġex cept
her n
Ġey es
Ġpl atform
u x
am b
Ġres ources
Ġmov ie
Ġenc oura
Ġsay ing
Ġdis play
Ġb ud
er ous
ic ated
Ġt our
Ġpol ice
ĠAug ust
est s
Ġinte gr
Ġs n
Ġhe ar
Ġstud ent
ĠM on
Ġmarket ing
Ġallow s
ĠG erm
Ġeffect ive
Ġb ank
E C
Ġb oy
ro te
Ġreport ed
es ter
Ġ200 8
Ġs old
Ġde fe
Ġus er
Ġdocu ment
Ġd aily
Ġtr ust
Ġ2 3
Ġh or
al t
Ġf air
Ġhim self
h old
ĠBl ack
Ġmod ern
iv ity
ver se
C l
p ress
Ġc ross
ide red
Ġf ile
ĠCal if
b it
u le
Ġparent s
Ġk new
Ġm id
B e
Ġst ru
ĠJan uary
Ġvari ety
Ġse par
m on
O ne
7 0
ĠNew s
ĠS aturday
Ġget s
Ġa w
Ġp ull
av es
Ġa verage
Ġd iv
ent y
ci ous
ĠOct ober
Ġthink ing
" .
Ġg ives
ĠM us
ve y
Ġd ark
8 0
Ġansw er
Ġ2 2
ag ed
Ġde ad
as te
Ġcom ment
Ġr out
ĠF rom
Ġim age
Ġinterest ing
Ġdo or
w ise
Ġdig ital
Ġ201 5
ce mber
Ġpl ans
ĠAd d
Ġdr ink
Ġhe ard
Ġopt ion
Ġn ature
Ġplay ed
ĠS ci
E T
cri ption
av y
Ġcent er
Ġl ed
Ġsaf ety
ci p
ak er
u el
ĠSept ember
Ġpart s
ĠS en
ĠL ondon
Ġexpect ed
n s
ĠThe n
ĠâĢ ¦
ic ations
Ġex cell
N o
Ġte le
Ġpurch ase
ĠU K
Ġs ource
Ġad minist
en ge
Ġg iving
Ġg reen
id ing
se c
ĠN et
Ġcomplete ly
Ġinf lu
Ġde cl
us iness
ens ion
il es
m ission
oc r
is c
Ġpie ce
Ġl if
Ġcon duct
ir ing
2 3
Ġprev ent
Ġp ath
O M
al y
it ation
ĠIntern ational
Ġb rought
ĠS unday
ĠA c
ĠC ons
it ute
Ġde part
p ite
p re
Ġsa ve
ke y
bo ard
ĠD em
Ġey e
.. ..
orn ia
Ġbenef its
Ġst reng
Ġw ood
v ille
Ġstart ing
Ġse ction
Ġent er
ce ed
ĠS ch
Ġtyp es
Ġloc ated
Ġdet ail
Ġbeh av
ĠA ut
ĠS er
Ġpub lished
is ions
ĠD irect
a el
Ġorgan ization
ashing ton
ap an
Ġ201 7
I L
Ġam azing
9 9
Ġt al
il ies
o om
z y
Ġcons idered
al d
re l
Ġpl ant
ĠJ e
ĠN ovember
Ġsit es
g ar
Ġc at
Ġv ac
Ġeconom ic
ar ies
Ġn ation
Ġsit uation
err or
k ing
Ġprovid ing
ish ing
en ed
Ġv ot
Ġst ates
ĠR ed
im ately
Ġl ic
Ġar ch
osp ital
A fter
r s
Ġro ck
Ġc opy
Ġsl ow
Ġfe ed
b and
Ġc amer
Ġsomet imes
it ution
Ġrele ased
Ġdirect ly
Ġav oid
Ġnot e
Ġpos itive
A P
m a
Ġdev ice
Ġcol lection
ww w
Ġsu bs
Ġfe ll
ur t
c ies
om en
Ġcon vers
Ġmult iple
mer cial
ĠG ener
y ond
eng th
iv il
Ġsc he
Ġinter view
P ro
ĠRe ad
Ġst ories
Ġfl ow
Ġfe ature
ĠFace book
Ġd ating
Ġbro ad
or ge
ĠA N
Ġimp lement
Ġcond ition
Ġ2 8
Ġof fe
ĠA ir
Ġins urance
f ord
E L
Ġhigh ly
id ents
Ġturn ed
Ġext reme
ib ly
Ġresp onse
ĠSt reet
Ġloc ation
sy ch
ic a
ĠP ost
Ġequ ipment
an cy
Ġcele br
ru ary
f l
Ġwee kend
Ġplay er
ag n
c ol
Ġst uff
Ġf ather
Ġre ach
Ġcons ist
Ġqu al
urs day
ar i
ĠComm un
ac hes
ĠW ind
Ġad ult
Ġrest aur
ĠA re
Ġs on
ar ily
Ġpr in
erv ed
n ame
ĠA cc
Ġl ack
s p
ĠP lease
Ġanal ysis
Ġf ine
Ġw arm
Ġh our
ra ft
Ġfl oor
Ġto wards
ĠG oogle
Ġsp ent
Ġpart ners
Ġlook ed
Ġadv ant
Ġlim ited
Ġeff ort
ed nes
ĠS im
ĠK ing
Ġtool s
ues day
augh ter
Ġorgan iz
Ġindividual s
Ġre ve
ren ces
r am
Ġd ress
Ġreg ul
ĠCalif ornia
Ġpro gress
Ġp en
Ġ2 6
Ġm obile
) :
Ġth reat
Ġhelp s
Ġf ix
Ġphys ical
Ġca pt
ĠP re
Ġeffect s
Ġm is
Ġf irm
Ġim ag
Ġt ick
nd s
ad d
ĠF irst
Ġsc ore
Ġne igh
Ġnear ly
b ur
Ġinn ov
Ġc up
r ast
Ġw rote
Ġa ware
m ore
Ġgrow ing
Ġhtt p
Ġg old
ĠDe cember
Ġc ode
ĠW ashington
Ġ +
Ġb and
Ġcertain ly
Ġcol lege
iz es
Ġemploy ees
E O
ar a
ant ly
Ġt en
Ġpl aces
ain t
ĠL a
ĠServ ice
Ġm ount
Ġsol ution
Ġ *
Ġd ro
ĠU p
ite ly
Ġcl ub
The y
Ġs en
itc hen
I ON
Ġ6 0
Ġdist rib
Ġb irth
Ġcomple x
Ġmaterial s
ĠRep ublic
âĢĿ .
ĠC oun
o pping
Ġd ream
Ġcor rect
Ġresp ond
f ield
ut ed
ednes day
Ġsub st
Ġmess age
Ġcar ry
Ġtri ed
itte e
id a
Ġbusiness es
Ġra ce
Ġactiv ity
z z
ĠG roup
Ġtem per
ĠInd ia
Ġhist or
Ġw ife
Ġwant s
Ġexper t
ograph y
se qu
Ġf arm
Ġtrad itional
ĠF ree
ĠE very
Ġe at
ĠWe ll
Ġcon cept
Ġdevelop ed
Ġreg ist
Ġbegin ning
Ġlangu age
Ġfull y
Ġd ed
Ġdise ase
Ġg e
Ġphot os
Ġfin ally
ĠE ast
u ate
ĠDav id
ĠO ut
Ġmil itary
ĠCol lege
Ġsp irit
Ġtri p
r an
ou l
Ġachie ve
Ġdem and
a ult
Ġex erc
ĠM onday
ĠJ es
ĠTH E
Ġs ort
ĠJ apan
Ġb ra
Ġu lt
Ġsuccess ful
ol ute
Ġfeel ing
un k
Ġdirect or
v in
Ġcult ure
Ġcir c
Ġexact ly
ĠCh ina
b um
Ġm at
Ġ2 7
Ġparticular ly
d own
m as
Ġw ish
i pping
Ġsp ot
an i
Ġth ous
Ġal tern
m itted
ard en
Ġdiffe rence
Ġsh oot
od ay
ĠWh ite
Ġprev ious
ag er
a res
l in
Ġocc ur
b ody
Ġpa id
w ide
Ġgo als
it able
y ing
ĠI N
Ġsh ot
E x
Ġwho se
Ġfe et
he t
3 5
v ant
Ġinterest ed
ĠM ost
Ġfam ilies
ron ic
Ġmov ing
Ġtalk ing
v est
Ġacc om
Ġplan ning
Ġt er
Ġ201 8
Ġpric es
Ġwe l
Ġsle ep
Ġstra ight
Ġst age
Ġspe ed
w or
ĠP M
ru it
ĠR uss
Ġ ver
Ġear lier
Ġd ry
Ġh ous
Ġim ages
Ġf ear
Ġcons ult
b l
P S
m ark
Ġmay be
v is
Ġst ress
ĠA M
Ġchar ge
4 5
ate ver
al ing
om s
Ġhe at
ĠL aw
? âĢĿ
Ġal one
Ġanal y
ate gy
om ing
Ġ200 7
he st
ĠTe chn
Ġh op
Ġpur pose
Ġdeli ver
ord s
Ġpress ure
ar ant
ĠP al
und red
as c
B C
Ġreport s
Ġinde pend
Ġdo ll
Ġapp l
Ġb aby
Ġopportun ities
ĠI I
Ġprom ot
Ġser ious
Ġass ess
o ly
du c
Ġpre m
ren ch
ĠOb ama
Ġcreat ing
Ġb ag
ven ue
Ġse ven
Ġexcell ent
re ed
Ġre nt
ound s
Ġev idence
Ġk n
Ġdou b
Ġtit le
u k
r ig
Ġwa it
Ġappro pri
Ġdem on
ĠCour t
ra el
Ġunderstand ing
Ġt ur
Ġin form
O L
Ġ er
Ġreg ion
an cing
Ġsol utions
Ġteam s
row s
A D
Ġannoun ced
ĠPa ul
ibr ary
ash ion
Ġschool s
Ġem ot
s et
im in
Ġimp ress
He re
ĠE ven
Ġstate ment
ĠM or
S he
Ġe ight
Ġtr ade
Ġcor por
ex ample
D e
ri al
ĠWe b
Ġg as
Ġincre ased
il s
Ġqu arter
Ġa im
ch an
Ġhealth y
om b
we ll
Ġrem ain
Ġcap ital
p m
Ġ =
Ġsh own
d om
Ġd ire
or age
Ġf ans
Ġnorm al
Ġser ve
Ġbud get
Ġv oice
Ġr ules
Ġus es
Ġob tain
Ġpat tern
ĠPro gram
Ġpict ure
Ġsm art
Ġl oved
Ġnum bers
Ġrequire ments
ĠFeb ruary
ub e
ĠAl so
Ġpo or
Ġsur v
Ġdev ices
N ew
ck s
Ġro ll
qu e
Ġsci ent
Ġb illion
al ed
ĠPro f
ĠM et
ĠG reat
Ġex tend
Ġapplic ations
ĠÂ £
es tern
pl ace
Ġinst ru
ĠIntern et
Ġc ert
Ġrel ig
Ġc ateg
ĠTr ans
in ner
Ġg rand
p en
Ġf ederal
Ġinvest ment
Ġover all
is l
am m
Ġpro ced
I G
Ġcould n
Ġmean ing
Ġallow ed
Ġop in
Ġbe yond
ĠG reen
is f
Ġcom ments
ĠE ar
Ġfre qu
ch ange
Ġhappen ed
v ision
Ġac qu
Ġsci ence
ĠJ ack
Ġa ward
Ġu nd
Ġf em
c ause
2 7
g en
an ch
Ġal though
ic ate
Ġstru gg
Ġm iddle
ĠB usiness
Ġincre asing
Ġchang ed
Ġr ates
ord er
Ġbenef it
U n
B y
Ġmeas ure
ĠAssoci ation
ecut ive
b an
e ch
ĠSy stem
Ġa part
Ġimmedi ately
Ġlet ter
it iz
Ġredu ce
Ġch urch
ar c
Ġl iter
Ġfor ce
Ġconst ruction
ĠL et
Ġm ax
for ce
Ġrespons ible
Ġsh op
Ġcand id
Ġre asons
ous ly
Ġjob s
ĠR om
ĠH ome
Ġsupp ly
Ġgl ass
nd ed
Ġl oad
ĠServ ices
Ġd en
Ġadv ice
Ġmach ine
m p
N ow
Ġstr ateg
Ġen h
Ġmil es
h ouse
Ġ2 9
Ġpat ient
Ġb le
i able
Ġoffe red
2 6
se e
ĠTh ursday
Ġf at
Ġw ww
ĠI S
Ġb ill
Ġp et
Ġc old
Ġcom mercial
ĠCan ada
Ġa head
Ġg one
Ġcont ain
Ġown ers
ag o
re ci
ĠBo ard
Ġann ual
D A
Ġcan cer
Wh ile
Ġchall enge
Ġ19 7
ĠIs rael
Ġm er
Ġstud ies
ĠJes us
Ġh us
Ġh undred
Ġper haps
Ġ201 9
Ġs ale
Ġl ik
Ġal bum
ĠAs s
Ġgu ide
ĠT uesday
et ic
Ġad vert
2 8
Ġt rou
ĠInd ian
ĠO ther
Ġp ow
ol f
Ġassoci ated
Ġpre fer
Ġgreat er
Ġhelp ed
ĠRes earch
Ġw ild
Ġdeg ree
Ġcon c
Ġprodu ce
Ġtru ly
Ġf ra
Ġc ru
I s
Ġpower ful
i ant
Ġas pect
Ġdefin itely
il ing
Ġlar gest
rie f
Ġn amed
Ġcl in
ĠIn ter
Ġbas is
Ġgirl s
Ġso ciety
Ġsp read
Ġabs olute
Ġdam age
1 00
Ġsu st
ĠG et
ol ic
Ġsl ight
t ies
Ġact ive
Ġref lect
Ġche m
p a
ul ated
Ġfollow ed
Ġd ang
ĠM od
ĠH all
Ġdou ble
Ġare n
ist ics
S T
ĠB ook
ĠAn ge
Ġev al
ing er
Ġmov ed
Ġjo in
Ġcl ient
in y
Ġprofess ion
Ġgu y
L E
Ġbl ue
com ing
Ġdo ctor
Ġeconom y
Ġess ay
Ġbro ther
c are
ak ers
ĠC ong
Ġacc ur
Ġess ential
Ġsp orts
Ġoff ering
ĠCoun cil
le g
ĠR et
Ġ200 6
Ġstr ategy
ffe e
or row
Ġl ines
ĠA nt
Ġst ar
ĠD el
I P
ĠMich ael
ĠW ednesday
Ġp ages
Ġopen ing
k er
os ing
Ġst ick
Ġstep s
Ġ ing
ĠI T
Ġeff orts
Ġphot o
ĠG old
Ġwe ather
o oth
Ġfa ith
Ġg ar
Ġdeli very
im ent
ist ry
re y
3 3
ĠP ort
ĠChrist mas
Ġb rain
Ġpop ulation
b ed
ĠD ist
Ġbott om
Ġsur round
Ġadvant age
Ġeas ier
ĠB ra
I V
O W
Ġset ting
Ġf ab
Ġorig in
Ġfin ish
Ġcomp l
ĠT ex
ud d
ĠM any
9 0
Ġad just
Ġstruct ure
ative ly
ĠChrist ian
Ġnot ice
Ġcamer a
C om
ĠL ord
ap ter
er ry
Ġgu ys
Ġlot s
Ġb reat
ĠJ ames
Ġwork ers
ĠE duc
Ġwonder ful
use um
ĠEurope an
ĠO F
Ġc ash
ad o
Ġpart ner
Ġn ut
ul f
Ġcomp ared
amp ions
Ġlead er
am ic
Ġmove ment
ĠY ear
Ġc ry
un te
Ġserv ed
Ġocc as
Ġpro s
Ġl ength
Ġbas ic
ĠC le
ic o
Ġke pt
The se
Ġ20 20
Ġrun s
it ude
Ġb orn
Ġco ffee
Ġbe g
Ġfr ame
ĠSu per
ly ing
Ġwould n
hip s
ĠP C
ĠOff ice
our ney
Ġregard ing
ĠBrit ish
ĠR em
? "
Ġapp reci
and er
ĠM icro
Ġob v
ĠB el
ĠT y
ter m
ĠGener al
oo s
ĠAn y
Ġhelp ing
ic ip
er o
Ġpe ace
Ġlearn ed
Ġcomp on
T H
am in
Ġtr uth
Ġcl ot
Ġtra in
ĠB ill
Ġes c
Ġappropri ate
Ġk itchen
ĠPl ay
Ġstreng th
Ġd ied
Ġpict ures
Ġre b
ust r
Ġswe et
Ġcreat ive
__ __
b on
Ġrepl ace
Ġexist ing
ĠR ock
ĠG ood
Ġfin ished
O V
ang ing
ĠFl or
Ġhot el
Ġcontin ued
ĠO ver
Ġsu ff
ign ed
ĠR ich
Ġhus band
ĠS ur
ify ing
m at
Ġre pe
Ġatt ract
k en
ov ing
ĠMark et
as y
ĠB est
Ġintern et
Ġcrit ical
Ġinc ome
ĠM ac
so ft
im al
Ġant i
S e
Ġ ir
Ġwe ar
ĠDe velop
Ġexp and
Ġpass ed
ĠRe view
Ġinit i
Ġcall s
Ġh om
Ġtrans fer
us ing
Ġveh icle
I M
2 9
Ġc ast
Ġlar ger
Ġprote ction
Ġorganiz ations
ve re
ĠRe c
Ġcomple ted
olog ies
Ġtrans port
Ġg un
ac ity
ĠB en
ĠP ri
Ġcon ference
Ġsat isf
Ġaff ord
Ġpl us
Ġapp oint
hen s
edd ing
Ġun f
rap y
Ġsee ing
ĠS pr
D on
Ġw ine
Ġsur face
ite ct
i j
ĠWind ows
ĠS l
Ġgo vern
ĠW ork
i pped
Ġn ove
ĠC r
Ġent ertain
Ġte nd
6 5
Ġc ivil
Ġgener ally
Ġcharact ers
er ia
se y
Ġf ant
land s
Ġexperien ced
ĠB ig
Ġfig ure
Ġha ven
ru pt
Ġthan k
ĠWh y
Ġaud ience
Ġw at
ic ed
Ġdis app
ic ine
ad y
Ġback ground
ĠCh urch
Ġh omes
ĠE v
Ġg ift
ĠA v
te xt
ic on
g n
Ġknow s
f riend
ĠF ound
Ġconne ction
Ġto ward
ĠAn n
Ġ â
E M
od es
Ġar r
Ġreview s
Ġcent ury
port s
Ġf an
Ġre ality
Ġac adem
re es
Ġdri ving
st on
P lease
ĠAustral ia
Ġpie ces
Ġcontin u
Ġsec ret
ĠP ress
Ġstat us
Ġm ist
erv ation
ĠS ol
Ġp sych
A A
du le
bo x
ĠB ank
Ġpro t
Ġme chan
N ot
Ġb atter
um an
Ġextreme ly
a e
am ing
ĠR oad
ĠComp any
ra w
o pped
Ġh arm
Ġv irt
g ency
ĠS T
pect ive
Ġbig gest
ro s
ĠF rench
Ġgu arant
ĠMan agement
ore s
ĠTex as
i os
Ġd aughter
ĠO h
ĠM art
Ġinc red
Ġhig hest
Ġrequ ires
Ġ @
ĠM em
ann el
S ome
il ed
Ġon to
A r
Ġdemon str
Ġestab lished
Ġb ath
Ġwh atever
ĠR ober
Ġv ill
az ine
7 5
Ġact ual
Ġ8 0
por ary
Ġelect ric
ov es
O P
Ġst orage
ĠTh om
Ġold er
ĠM ary
Ġm ill
ĠS un
Ġm ission
Ġst ream
Ġr ich
Ġmanag er
w ith
D o
as ure
Ġst ation
U R
k now
ĠT ime
Ġl ock
ph one
Ġm att
os ure
Ġhigh light
ĠS am
um n
ĠSu pp
Ġcoll abor
C H
Ġt on
Ġn ames
Ġcomm it
it ar
Ġseem ed
ĠInst itute
Ġm aster
5 00
Ġme ant
ent ially
Ġra re
row d
* *
k in
ĠDem ocr
ĠTw itter
Ġst reet
Ġestab lish
ĠR ob
Ġmem ory
Ġmod els
i ers
Ġprim ary
o ices
Ġchalleng es
Ġh ospital
Ġv ir
Ġun it
m pt
C on
ĠP ublic
Ġro b
Ġprodu ced
Ġbal ance
ĠJ ew
l a
a ven
Ġhe avy
z a
Ġgu id
ĠPe ople
Ġ3 1
Ġar gu
ĠPh il
ri an
Ġmon itor
ĠM ag
en cies
Ġc ards
Ġdevelop ing
Ġmanufact ure
ĠH ot
ĠDirect or
ac ing
Ġfact ors
Ġres ist
C C
Ġthere fore
ĠApp le
Ġt im
it ors
âĢĿ ,
is co
uck y
Ġpl aced
oc al
Ġrem ains
l ook
it ure
Ġref er
ortun ately
m en
Ġuse ful
k i
at ically
Ġgu ess
ĠOn ce
s es
Ġcent ral
est ival
Ġcol le
ĠDes ign
Ġleg isl
Ġk ick
Ġstand ards
nd ing
or ial
Ġfil es
ĠSe e
Ġcommun ities
Ġd rop
Ġvis ion
Ġc overed
ĠL ife
Ġmethod s
Ġrem ind
Ġsex ual
Ġ3 5
Ġ9 0
g ers
Ġcomfort able
Ġc itiz
ul a
Ġpain t
re ak
ĠC ap
Ġex hib
Ġbec omes
Ġbehav ior
ĠS ub
stand ing
Ġpay ment
Ġpart ies
Ġb ow
Ġ200 5
Ġcell s
ĠR iver
rou d
ĠCl ass
ĠC amp
Ġwind ow
ĠBe cause
Ġm icro
Ġsu mm
y er
Ġsc en
Ġeven ing
ens es
ĠP R
ĠPl an
Ġview s
ill er
ul ate
ri age
Ġj ourney
g l
âĢ ĺ
Ġvict im
Ġcommun ication
Ġsc ene
ul ed
d o
ĠComm ission
Ġsh ared
ĠH el
in n
Ġad op
Ġexperien ces
Ġbe at
ĠFlor ida
) ;
Ġhapp ens
Ġret ail
Ġse lection
Ġfl av
Ġlink s
P l
ĠB ay
wor ks
Ġdescrib ed
Ġv ote
ent ure
v ention
ĠW he
Ġwa iting
Ġfind ing
Ġthous ands
Ġspend ing
ĠE ach
ber g
Ġofficial s
Ġf urn
ot a
Ġpost ed
oll y
Ġf ashion
r or
Â ®
Ġsen ior
i pe
Ġdeterm ine
F rom
e ed
Ġj ump
Ġopen ed
ĠP et
b ut
ĠEng land
ĠCong ress
g al
ĠS ince
oy al
Ġlim it
ĠCl ub
Ġse m
3 4
ol ate
Ġrecord s
Ġut il
Ġkeep ing
Ġt ips
Ġmajor ity
EN T
Ġwatch ing
am ily
Ġsec ure
Ġear th
Ġform s
Ġtest ing
cl es
Ġfor get
oo per
Ġte aching
Ġrad io
it ness
st ate
Ġdec ide
" ,
Ġthan ks
Ġoper ations
os ition
Ġtra ffic
ĠA P
ĠC are
p oint
at ab
Ġtechn ical
Ġclaim s
Ġg ain
ĠEduc ation
ĠM iss
ĠM ex
ĠH ist
Ġear n
iqu es
Ġj ournal
Ġown er
or ney
m ail
Ġmult i
Ġpr ay
Ġcontin ues
f ree
9 5
l ast
ed y
Ġwas te
ant a
Ġpl enty
se mb
Ġshow ed
i ency
Ġla unch
on a
Ġpre c
ra b
Ġca used
l ig
Ġsol id
Ġl abor
o very
Ġex clus
g ment
Ġth us
p et
y m
Ġpol ic
ot o
Ġcompet ition
ent ed
ell ow
Ġexerc ise
et te
az on
Ġappear s
Ġele ments
Ġother wise
ĠSm ith
Ġpresent ed
ĠSci ence
ro y
Ġra p
s pe
Ġl ose
Ġm ail
Ġman age
Ġest im
i ation
Ġe th
ĠUS A
Ġde p
Ġneigh bor
A b
ap ers
Ġr ule
os h
Ġtri al
Ġwin ter
as p
ĠBro wn
ĠU se
ĠDe c
it z
est ic
Ġs ources
ĠT om
Ġag ency
Ġupd ate
C ont
Ġmention ed
Ġf ish
a ctions
ĠL ake
om in
Ġtra il
p an
Ġsust ain
tern al
Ġprep ared
m iss
Ġrem ove
P ost
Ġgr ant
Ġcr is
Ġep is
ines e
Ġtemper ature
Ġdire ction
Ġleaders hip
ĠR el
f ast
Ġ7 0
st e
Ġide al
Ġs and
Ġs now
ĠM ount
ild ren
ĠA lex
os is
ĠT O
Ġim pl
ne ct
ĠL ou
Ġadv ance
Ġb ul
Ġ ice
l or
ĠT or
Ġclear ly
Ġe fficient
Ġanim als
Ġa ctions
ĠIn formation
Ġt ask
4 4
ĠGe orge
ĠAl though
Ġval ues
n ight
Ġwill ing
cri pt
ct ors
Ġvide os
Ġend ed
ĠOn line
ĠM at
Ġb oo
Ġappro x
Ġcra ft
cept ion
Ġpass ion
ĠS il
h y
Ġsp ring
ro id
R A
Ġwh om
Ġexc ited
ĠT op
Ġt ree
Ġf ol
Ġle aving
Ġpract ices
Ġc atch
ad ing
Ġh ar
ĠC D
un ction
in ct
ant ic
Ġdepart ment
Ġc rowd
Ġm ort
M e
Ġg raph
Ġvol unte
ord in
Ġfund s
ĠB ur
ĠF ore
Ġfore ign
all s
ĠSt ar
Ġstart s
ĠM ake
Ġing red
ic ago
Ġbut ton
Ġlaw s
Ġindepend ent
in c
Ġpo ll
Ġpo ol
Ġlist ed
Ġsh ip
Ġco ach
Ġb ird
ad s
Ġadd ing
M ore
Ġwel come
Ġst y
Ġp air
Ġfam ous
3 6
Ġrel ax
ag s
ĠAfric a
Ġdes pite
ĠW ood
out hern
ĠSt r
Ġk id
Ġopin ion
r ont
Ġra ised
i pp
Ġth row
ri pt
Ġcap acity
w ater
fe rences
im b
Ġbec oming
Ġshow ing
Ġded icated
d oor
Ġsh opping
Ġ >
Ġsu gar
Ġfoot ball
ĠD et
Ġk illed
r d
Ġb rief
B l
c raft
Ġdec isions
c ont
Ġf lex
Ġinc or
A d
Ġsy mpt
Ġ ign
ĠGo vernment
Ġdocu ments
Ġhon est
is hes
ĠL ear
Ġdi et
Ġcoun ter
ester day
Ġspec ies
Ġbr ight
Ġcont ains
Ġdisc over
Ġdri ver
3 2
Ġm ur
Ġart ist
Ġclass es
Ġs ession
Ġsche dule
act ive
ĠBl ue
Ġrestaur ant
Wh y
ger y
ĠP ower
Ġcl osed
P A
ĠB er
Ġcon ven
ab ilities
Ġmanag ed
Ġsh ape
Ġf ill
Ġcas ino
ĠAN D
ĠS ing
Ġr ank
Ġinj ury
ĠS a
ĠC ur
3 8
Ġc ore
Ġv s
h ow
ree k
Ġsc hed
ĠV ir
Ġch air
Ġfac ilities
Ġenvironment al
Ġmost ly
Ġdi agn
ili ar
ĠL ike
w ord
ĠS al
ck et
Ġident ify
5 5
Ġe gg
Ġslight ly
ak ed
Ġres idents
ĠAmeric ans
ĠU nder
Ġbuy ing
Ġdiscuss ion
k a
Ġ19 6
Ġsmall er
f it
Ġp roud
ten ance
Ġsepar ate
u gg
ĠComm ittee
ar ge
Ġsh ut
Ġmin ute
Ġhand le
Ġnot es
l ife
O D
Ġb on
Ġvis ual
Ġfl u
Ġreturn ed
Ġcomb ination
M S
Ġexper ts
Ġnum erous
Y our
ĠV ol
3 7
Ġb ought
Ġcor ner
ĠCar ol
Ġchang ing
wh ile
Ġmot or
Ġrelationship s
ick s
ick en
Ġprev iously
i ance
es ome
Ġpres ence
go ing
N A
Ġn or
ĠW ater
Ġwin ning
Ġcover age
ĠA tt
oo p
Ġs outh
Ġr at
ĠJ o
Ġm ental
Ġrele vant
Ġselect ed
B S
at ures
I A
ĠL ove
B A
ul ations
Ġconcer ns
Ġcirc um
ĠSc ott
Ġcon text
Ġart icles
Ġ200 0
Ġt aste
Ġagree ment
in i
ĠCl ick
Ġhe aring
oc olate
Ġadv anced
Ġoper ating
h ab
Ġpolic ies
ce l
Ġle aves
Ġask ing
r ad
wh ich
Ġexpl ore
D F
Ġhol iday
Ġcol ors
out s
Ġc ab
ĠChe ck
Ġabsolute ly
4 8
Ġad apt
Ġfl at
Ġpack age
Ġpost s
u pp
Ġj oint
Ġp al
um ber
Ġwalk ing
Ġs ch
n o
Ġb attle
Ġc art
wh at
Ġla un
Ġthough ts
ur ies
ĠF ood
Ġn orth
Ġpl ants
Ġfre ed
Ġclass ic
ĠV is
Ġexp ensive
ĠIn s
G et
Ġconnect ed
ill a
Ġwor ry
Ġaltern ative
Ġre ached
Ġind ic
Ġtrans l
! "
w in
ĠT imes
Ġadminist ration
Ġg arden
os en
Ġcons id
Ġbr ings
y a
Ġse qu
ĠCent ral
ĠO pen
know n
Ġlead s
Ġallow ing
A cc
Ġw edding
ĠLe ague
Ġfour th
Ġfocus ed
P R
ĠS um
Ġcorpor ate
M ay
Ġencoura ge
ĠT ur
um in
Ġd inner
ĠD iv
ĠMicro soft
ĠM al
ĠG rand
Ġlist en
L e
Ġr ide
L ast
ci ent
Ġdec or
Ġsit u
Ġaccom pl
Ġform at
Ġd ut
Ġr id
Ġcar s
Ġfab ric
Ġsh aring
Ġa p
Ġfor ces
ĠFr anc
t op
Ġest ate
Ġinit ial
Ġdog s
n et
Ġe ating
I R
Ġnove l
Ġspe ct
Ġcl oud
ĠCh inese
Ġput ting
Ġfeel s
ĠProf ess
ĠD own
Ġm outh
ig an
Ġdoub t
Ġra in
Ġ200 4
Ġr ise
or ter
and a
ĠJ er
Ġnot ed
ĠDevelop ment
Ġevent ually
ra g
T S
Ġdef ense
us ion
ĠM ad
Ġsound s
Ġcomp ar
Ġmin or
Ġsign ed
Ġteac her
i xt
Ġgener ation
n oon
ra ce
us hing
ĠIs land
Ġcon cent
ĠAr ch
Ġun less
Ġmark ets
ĠF ire
Ġar m
Ġsm ooth
is ation
Ġm ap
Ġlo an
Ġar rest
Ġbeaut y
ĠM il
Ġprofession als
ĠM ain
Ġfund ing
Ġf illed
ĠY es
un ning
ĠCh icago
Ġcomm itted
t ion
4 7
Ġm o
c oh
Ġe lection
N e
ic ians
ĠH ill
th at
Ġrespons ibility
ĠL u
ol es
Ġde lic
Ġve get
e ction
ĠW in
ll ig
Ġse lling
ĠV e
Ġappe ared
Ġcal c
ĠThe ir
Ġarch itect
D es
us hed
res p
Ġfe e
uc le
Ġun c
re hens
ig r
Ġsign s
Ġoper ation
ear s
Ġfriend ly
roll ed
Ġneg ative
Ġs pl
ruct ure
Ġsong s
f in
g a
Ġcl imate
Ġconvers ation
Ġsee k
ĠU N
ĠFr ank
Ġse a
c her
S te
ci pe
ĠTw o
ĠH y
Ġg all
Ġinflu ence
ĠW omen
Ġser ver
ĠGerm an
Ġdes k
Ġassist ance
n el
ult ure
Ġra ise
ĠPro ject
te red
! âĢĿ
ĠC ustom
Ġprin ci
om a
Ġse ctor
ĠL in
ĠSo ciety
Ġyou th
Ġf if
ĠN Y
Ġfem ale
Ġn ine
Ġro of
Ġgu ests
og rap
ĠUn ion
ĠB et
Ġent ry
Ġdist ance
Ġcre am
z en
Ġfac ility
Ġth r
ident ial
ĠSo cial
r im
ĠRe al
Ġimport ance
Ġexpl ain
Ġpred ict
i us
Ġfor g
ri ve
Ġman ner
Ġprocess es
Ġd u
ĠB ack
ĠMed ia
if ts
Ġsa v
Ġ4 5
Ġacadem ic
Ġsecond s
ĠI r
ĠTe am
Ġt error
Ġour selves
Ġch ief
Ġopt im
Ġpl ays
Ġread ers
Ġjo ined
Ġed ge
Ġmeas ures
r ical
ess ions
Ġal le
omm od
Ġd atab
Ġwe ap
ĠM el
ĠF orm
ĠT est
A dd
ĠCon st
Ġwrit er
R ead
p o
ob e
ĠEng ine
Ġteac hers
Ġre ference
all ed
J ust
Ġperform ed
arr ant
Ġmet al
ĠCol or
y e
Ġcomm and
Ġst ated
Ġsh ipping
Ġj u
Ġacc ident
A pp
os es
Ġsur vey
Ġhold ing
Ġcult ural
Ġexc iting
Ġmin imum
Ġd ie
ĠT oday
ĠJ ournal
Ġanim al
ĠAfric an
ĠFound ation
ĠCommun ity
Ġrem oved
Ġpre gn
Ġchar ges
ĠEar th
ĠM er
Ġtre es
Ġsympt oms
en a
ĠJ ud
ild ing
Ġart ists
Ġtrans form
Ġapp arent
at in
Ġmed ium
Ġinterest s
Ġproper ties
a it
Ġw ire
Ġrese arc
ĠDist rict
Ġtyp ically
Ġspe ech
Ġsupp l
pos es
ĠWh o
Ġset s
E very
room s
Ġsw itch
Ġ Ã
an o
Ġtell s
y ou
Ġcon v
Ġdeb t
ri a
Ġcitiz ens
ĠM ass
ra q
Ġtop ic
ber t
S A
Ġat h
ok es
L A
Ġqu iet
Ġche ap
u ce
Ġadult s
Ġchem ical
Ġte ach
Ph one
Ġcall ing
ĠMc C
i i
s hip
og ue
How ever
is her
ĠE lect
Ġr an
Ġar g
Ġph il
k ins
Ġf uel
ĠFr ance
Ġroom s
3 9
ist an
Ġmar ried
idd en
4 9
Ġm ale
Ġappl ied
8 8
Ġafter noon
m et
Ġintern al
d en
Ġs itting
Ġl ived
C T
Ġup gr
Ġb an
Ġb rows
as er
Ġst ret
Ġmar riage
Ġthem e
ĠThom as
ĠPart y
Ġc ities
Ġenjoy ed
Ġsupp osed
Ġtechn iques
ĠQ ue
3 1
ic ian
um s
ĠW all
Ġun its
Ġmiss ing
ĠRober t
Ġd er
ĠVal ley
ive red
Ġproper ly
Ġconsum ers
ĠN ov
ĠGerm any
Ġfe es
ĠIt s
Ġdisc ount
Ġwebs ites
Ġl iber
? ?
Ġinte llig
0 1
ĠL ight
Ġve ter
L C
Ġposs ibly
ci pl
ĠC EO
up s
ĠAm azon
Ġste el
Ġc aught
Ġinst ance
ur ation
ĠP eter
Ġdist rict
W ell
Ġmov ies
Ġde pos
er g
Ġv an
Ġdet ect
ed ia
ĠC ard
Ġdis p
Ġsp ort
Ġhelp ful
ĠSpe cial
ĠI P
ĠD i
ĠJ ones
ph as
Ġrecommend ed
ĠAc adem
Ġtot ally
u able
ot ic
Ġpropos ed
od ies
omet imes
Ġviol ence
Ġfail ed
Ġinf l
ĠR ad
ĠL ong
ĠTh anks
ĠD uring
Ġex change
Ġsc ale
k et
!! !!
Ġjud ge
ort hern
clud ing
Ġfam iliar
Ġam b
Ġbe ach
ĠT re
Ġsh ock
Ġwe ak
y an
ĠEx per
Ġsp ons
pect ed
ĠW il
ĠI D
Ġbus y
S P
Ġm ir
Ġpur poses
Ġprof ile
ost on
Ġgreat est
Ġdec ades
Ġdisc overed
ĠM ot
ĠVir gin
ĠL ook
Ġdetail ed
Ġinst it
Ġsw im
Ġapprox imately
ĠH ol
e qu
Ġy esterday
ĠI ll
Ġserv ing
ĠO ld
Ġe ffic
Ġwor se
Ġfact or
ĠT im
ut s
Ġapp s
4 6
Ġp un
ĠI raq
Ġp ush
ir ty
Ġem p
Ġrep air
Ġord ers
ĠW ord
Ġcont em
Ġin fe
Ġhe ro
ri p
Ġ5 00
ars h
ner gy
Ġocc up
Ġingred ients
E W
Ġt ough
Ġsu it
Ġmain tenance
as ks
b our
Ġval id
ĠP ay
Ġass um
Ġrap id
m es
Ġb urn
ĠAt l
Ġdoll ars
Ġpl astic
ar io
ĠS and
Ġc op
le ts
5 9
Ġre venue
Ġfor ced
ĠD ig
Ġcon sequ
Ġf ruit
Ġt ight
Ġpark ing
ĠMus ic
v an
Ġk ill
Ġto w
ir ation
ĠL os
Ġenh ance
Ġmax imum
Ġinte nded
ĠW estern
ĠSh ow
Ġconf lic
ĠOn ly
Ġun s
Ġaccount s
e al
Ġex ecutive
ĠL and
Ġconcer ned
ĠR E
Ġt ro
ĠH am
Ġland sc
Ġeduc ational
Ġspecific ally
Ġlab el
Y es
Ġqu ot
Ġacc ommod
Ġstand ing
Ġcomb ined
T e
ĠI d
Ġcircum st
Ġtrou ble
Ġqu ant
Ġappro ved
ĠC all
ri er
Ġstore s
it a
ĠF ind
Ġprocess ing
Ġprom ote
t ra
Ġy es
av ig
Ġmot iv
tt ers
ĠTr ump
are n
Ġfail ure
L et
coh ol
l ist
Ġse at
ĠJe ff
Ġlic ense
ce an
Ġintrodu ced
im inal
ĠJ ul
ens ions
Ġtw ice
Ġsupport ed
Ġfreed om
Ġa id
Ġel imin
ĠJ im
Ġemer gency
ĠM ont
ĠT ake
pr ise
Ġannoun ce
C an
b u
Ġfl ight
Ġm ine
ĠD ata
Ġaffect ed
Ġ200 3
Ġse vere
Ġdrug s
ing ly
Ġm ent
n ov
or ry
dd en
Ġth ick
Ġca uses
Ġcris is
ĠJ oe
ĠCan ad
Ġp m
Ġd yn
ag ram
h and
Ġrem ark
Ġreal ize
Ġne ck
Ġbuild ings
ĠY OU
Ġconf idence
Ġtele vision
0 5
ĠOr gan
ĠF amily
ĠTechn ology
w o
Ġg ather
Ġmen u
C he
oc ation
Ġpr ison
Ġtechn ologies
cu it
Acc ording
ĠV ict
Ġbring ing
Ġsy mb
Ġprovid er
l ock
u nder
Ġw itness
F e
Ġvisit ors
ĠMed ical
Ġsch ol
. âĢĻ
r ick
ar p
Ġdel ivered
Ġu ne
ĠO N
ĠSt and
Ġdesign s
Ġsal t
Ġsupport ing
Ġdepend ing
re ens
Ġcour ses
ĠG ar
Ġp ure
Ġed itor
Ġext ensive
Ġarr ange
ĠCh ris
ang ed
Ġimpro ved
Ġincor por
Ġst im
Ġbeg ins
Ġdes ire
Ġsur gery
Ġd ial
Ġst opped
A meric
Ġpro p
ĠA ward
Ġloc ations
rast ructure
oss ible
Ġtest s
ĠRep ort
Ġd ance
Ġhtt ps
Ġpan el
Ġarri ved
ĠM ike
ĠF il
ult ural
Ġaspect s
Ġcar ried
ĠB ob
ĠD an
Ġbro ken
7 7
Ġany where
ide o
Ġun iversity
ĠBe ach
Ġhundred s
Ġre cipe
ĠLou is
Ġb ound
ĠNet work
Ġsu dden
rel ated
Ġconsid ering
Ġt ables
ĠA L
Ġcomp rehens
Ġte en
ar ian
Ġmod e
Ġl unch
Ġlaun ched
C S
Ġadvert ising
ult y
U N
ĠAnge les
ol a
Ġ200 1
ĠA S
Ġdec re
Ġturn s
i est
Ġconsum er
Ġcateg ory
ĠAcc ording
Ġt un
ĠL ab
Ġoffic er
erv es
U T
Ġf old
Ġcomp lic
ĠEn ter
Ġvol ume
Ġag reed
Ġdra ft
R es
ĠH aw
ĠD ou
Ġbut ter
ĠJohn son
i at
k ay
Ġpick ed
Ġdefe nd
Ġin put
ok ing
ĠG ame
Ġs ides
Ġre cip
em s
Ġs oul
or ough
Ġend s
al ian
Ġbel ong
Ġrelig ious
E n
ĠH ave
Ġr ub
Ġprep are
Ġan g
Ġsee king
f ol
â Ħ
ĠPro duct
ĠK ore
ĠSec ret
Ġs ac
Ġpay ing
Q u
Ġlight s
bur g
Ġaud io
iven ess
Ġwe alth
Ġoccas ion
Ġres ource
Ġspe aking
Ġdis cl
Ġ200 2
clus ion
Ġclean ing
ĠWill iam
ro ad
ĠD en
ĠF ederal
. |
ir med
ĠO ffic
Ġfant astic
ĠJ ose
Ġemploy ee
ĠP an
Ġfav our
Ġl ux
Ġl ibrary
Ġbro wn
Ġindust rial
Ġpers pective
Ġ rom
Ġe c
Ġl iqu
ĠA ud
ucle ar
! )
S ee
Ġtick ets
het ic
ĠH uman
Ġexpl ained
Ġtell ing
Ġhistor ical
Ġhous ing
Ġb ike
ĠF und
Ġv ary
V D
Ġst ars
Ġcommit ment
ĠA T
Ġun ivers
Ġbig ger
Ġso le
k es
ĠN OT
Ġfun ctions
ploy ment
Ġtrad ition
Ġdeterm ined
Ġaw esome
Ġcompon ents
Ġf aster
ow nt
ĠIn vest
Ġcr ime
Ġredu ced
ic it
ĠM a
Ġrem aining
ĠCon ference
Ġbatter y
Ġtru ck
ĠJapan ese
ĠB re
S c
ad ed
Ġentire ly
ĠC am
ĠB oth
Ġfore st
r ate
is er
ond s
ĠLe ad
E E
i ability
ib ilities
Ġtre ated
M ost
à ¤
Ġh un
Ġident ified
Ġexam ples
Ġinvestig ation
or ation
ĠSte p
h t
ĠA D
Ġch osen
Ġparticip ants
e en
ul ous
el ines
Ġappear ance
Ġupd ated
i as
Ġag ent
Ab out
Ġboo st
Ġs ister
ĠB oston
Ġem phas
Ġreg ister
Ġmil k
pre ne
Ġclos er
Ġfl o
Ġf ly
Ġch ocolate
b ing
An y
ĠL ast
Ġinsp ired
Ġproced ure
Ġmatt ers
Ġconf ig
âĦ ¢
e v
Ġo dd
Ġh ur
rom e
Ġe lement
Ġfood s
Ġconcer n
Ġsqu are
Ġimag ine
F L
ĠC y
ĠC ath
ĠâĢ ¢
Ġthe ory
il it
Ġcrit ic
os oph
Ġag encies
Ġspirit ual
Ġfeed back
Ġt ast
re prene
ĠG en
I F
Ġbelie f
Ġparticip ate
ĠSec urity
Ġphot ograph
Ġkind s
Ġfor t
Ġinstit utions
U s
Ġf le
ĠN or
Ġj oy
ĠMex ico
ĠN C
Ġro t
ĠSen ate
Ġout put
Ġfil ms
Ġwork sh
Ġrel atively
Ġworld wide
Ġvict ory
ampions hip
Ġattack s
ific ations
Ġs ample
Ġcol our
Ġupd ates
Ġme at
ap ed
Ġtrad ing
F irst
Ġmed icine
ĠChar l
Ġab use
ĠC A
Ġwe aring
Ġclin ical
I I
O C
Ġ error
Ġs ad
Ġr ough
Ġs an
ĠW ay
ĠSer ies
Ġscient ific
ĠW ild
Ġch oices
Ġplan ned
Ġg ro
g age
Ġ3 6
Ġfurn iture
e per
ĠV iew
Ġrec overy
ĠSt art
h ors
ĠC at
Ġmot ion
m osp
p ret
Ġeffect ively
w est
Ġinstall ation
Ġs am
ĠO R
Ġconf irm
Ġdom in
8 6
Ġch ain
ĠTh ank
Ġco ast
Ġdang erous
Ġex cess
Ġiss ued
Ġn one
Ġhon or
O r
Ġstrateg ies
A m
Ġl it
Ġregist ered
ĠP erson
Ġneighbor hood
Ġm ut
Ġcut ting
Ĥ ¬
re al
Ġde press
Ġcont rast
Ġcre w
. '
ĠB i
Ġres ol
Ġemploy ment
Ġk ing
ĠAd minist
p ass
Ġto m
ĠO per
Ġchar ged
ĠHist ory
K e
ĠM ur
Ġcent re
i ams
Ġst orm
Ġrest rict
Ġch at
Ġfell ow
Ġme re
ĠHe ad
Ġfield s
Ġp ump
Ġel ig
Ġhouse hold
C E
ĠS k
ck now
Ġpract ical
last name
er ies
Ġautom atically
ĠMart in
U p
al a
igh ter
Ġmass ive
0 7
ig ration
ĠM ax
Ġper man
Ġi Phone
Ġrem ote
app y
Ġw arrant
ĠMin ister
Ġprovid ers
ne ver
Ġpos itions
Ġconst ruct
Ġinstall ed
Ġveh icles
ĠM useum
Ġcircumst ances
Ġun like
Ġbelie ved
Ġmag n
Ġepis ode
ge nd
4 2
x i
Ġcre ation
Ġkeep s
Ġrep ut
ĠRuss ian
Ġtop ics
F r
ĠC up
Ġpurch ased
ĠInst ead
Ġobv ious
ĠE nergy
Ġbre ast
d ro
Ġadv oc
Ġaccept ed
Ġident ity
ĠCarol ina
Ġwor st
ĠCor por
Cl ick
Ġsh ares
Ġknow ing
Ġadminist r
T A
Ġrecord ed
Ġdistrib ution
Ġmom ents
ĠAb out
Ġfix ed
ĠV er
Ġengine ering
Ġdatab ase
Ġthe rapy
Ġher self
Ġmiss ed
: ||
M an
Ġexpert ise
Ġresearc hers
5 6
M A
ĠDe f
ar row
Ġwhe el
Ġen em
Ġl augh
Ġsc r
ĠPro v
Ġaccur ate
ĠS to
ĠG ra
Ġus ual
Ġinvest ors
Ġshoot ing
D S
est yle
el ess
Ġansw ers
Ġreve aled
ap es
0 8
ack s
v a
Ġpub lish
O ver
Ġc ro
ĠM P
ĠM en
ĠW here
ab et
ĠPro te
Ġemot ional
ost er
ĠK now
Ġ3 2
ĠRuss ia
Ġv it
Ġob lig
Ġreturn s
ot i
olly wood
ĠPar is
Ġm al
Ġfor th
Ġgu est
ĠPol ice
Ġboy s
al og
ĠM att
Ġoffic ers
ab led
ĠTh ose
Ġass ign
ĠIs l
-- --
ĠH en
Ġsurpr ise
S ince
Ġtre nd
h us
s m
ĠRe v
Ġfollow s
Ġcomprehens ive
u ated
Ġconst antly
ĠRepublic an
Ġs in
Ġch annel
Ġinc hes
Ġdom estic
Ġfol ks
Ġm el
ĠD u
og a
AT ION
Ġch apter
Ġout door
Ġrece iving
Ġhappen ing
Ġcompet itive
ĠGl obal
Ġrestaur ants
Ġr ing
The n
Ġsu itable
Ġte a
ĠDe v
opy right
Ġar ms
Ġcount y
c an
Ġp ed
Ġsc ored
S p
Ġequ al
Ġdr am
Ġgu ard
ĠP ac
I nd
he nt
ĠE xt
t r
ĠT own
ĠC as
az z
Ġelect ronic
C A
ak s
we ight
I m
i ors
Ġp in
Ġro w
Ġwin ner
Ġa cknow
Ġtur ning
ĠM o
Ġpro ceed
pa per
Ġauthor ity
Ġsett ings
Ġf ro
Ġinf rastructure
re ets
ĠM S
ĠH D
com m
at re
es h
Ġme al
Ġincre ases
Ġsuggest ed
Ġdest roy
Ġinnov ative
ĠWe ek
Ġregular ly
Ġ3 00
Ġsignificant ly
v y
Ġgood s
Ġentertain ment
Ġw al
Ġcomm ission
ĠM aster
Ġatt orney
Ġcr iminal
Ġsubst ant
ourn ament
Ġf ulf
Ġdo ors
Ġhold s
Ġcy cle
Ġt aught
ĠVirgin ia
Ġ <
Ġv en
Ġsh oes
ĠSec ond
ind ing
ert s
O h
ll a
ĠSte ve
Ġperfect ly
Ġal cohol
Ġbas ket
Ġinvol ve
g ent
Ġs ick
Ġjust ice
Ġear ned
Ġval uable
An other
Ġlove ly
l o
ĠAnd roid
ĠL ist
0 9
Ġre new
ĠAs ia
Ġprotect ed
Ġnot iced
e ah
ĠI ran
Ġw id
Ġcont ro
Ġprote in
ow ing
Ġch art
Ġat mosp
Ġwind ows
7 8
ac he
Ġsy n
z er
od d
ans as
Ġfact s
Ġrout e
Ġvac c
oos ing
ĠAr ts
Ġport ion
Ġinstru ctions
ĠMan ager
Ġt rib
Ġre form
Ġsim pl
Ġmonth ly
ĠCont rol
Ġdisapp oint
ĠMay be
b i
at o
ĠT em
ĠInd ust
ĠCent re
Ġpolit ics
Ġmag azine
ri ble
ĠK en
Ġextend ed
Ġfrequ ently
Ġdis h
Ġra nd
Ġmess ages
Ġcandid ates
0 6
4 3
Ġg rown
Ġu pper
Ġcon ver
Ġen able
Ġdis s
gy pt
ĠKe ep
Ġrecogn ized
Ġinde ed
M ar
in ations
ĠM iddle
Ġsched uled
M any
en ced
O ther
d ate
Ġ iron
ill y
Ġrel iable
Ġfight ing
h i
rit ing
Ġcook ing
Ġill ustr
Ġguarant ee
âĢĻ ,
ĠL ibrary
ĠAustral ian
âĢĻ .
ric s
y ard
ly mp
Ġ4 8
Ġcra zy
e f
ĠL t
ĠL og
x y
ing u
Ġhous es
Ġincred ible
Ġath let
Ġa f
Ġ20 21
Ġen force
Ġri ver
Ġche ese
Ġsymb ol
ĠCanad ian
G E
Ġex ternal
ang er
Ġcare fully
ĠS qu
Ġpo ly
Ġproced ures
he red
Ġb read
Ġris ks
c ers
Ġd ump
ĠA R
Ġgra b
Ġown ed
Ġsupport s
Ġsk y
Ġform ed
Ġauthor ities
Ġwall s
Ġappe al
ĠS ar
Ġco vers
Ġregul ations
0 2
Ġreg ional
ĠVict or
ĠP enn
Ġgr ade
or al
Ġh urt
Ġcandid ate
Ġl osing
Ġy ards
ĠMich igan
Ġp il
as tern
Ġch icken
ag on
M r
Ġn urs
Ġle ague
ans ion
a id
semb ly
5 8
Ġsp oke
Ġimp ossible
Ġinnov ation
Ġcons erv
L Y
Ġrand om
T oday
Ã Ń
ĠF OR
ĠCh ief
Ġsc ript
ĠCol umb
ĠPl us
On ce
Ġdeb ate
Ġh ook
ut ing
Ġreason able
in em
A re
w ing
or a
ens ity
Ġsm ell
Ġbrand s
ĠOh io
Ġlay er
P e
u a
al se
ĠL im
Ġsp r
Ġtr ig
Ġfeat ured
ir ms
ĠAn other
Ġdist inct
Ġsuccess fully
Ġdeg rees
Ġtick et
ĠF air
Ġbl ess
ul ing
Ġup coming
Ġbirth day
ĠW al
Ġv ast
Ġtax es
Ġn ative
Ġg rew
ĠP ass
Ġpl ate
Ġcamp us
f ortunately
p at
ĠS P
Ġaff ili
Ġdes cription
Ġdec ade
Ġt ack
ĠCh ildren
itution al
Ã ¡
ĠT it
H S
Post ed
G B
O f
om an
Ġfac ing
Ġassess ment
Ġle tters
le te
ĠE conom
Ġde als
Ġde light
ĠG irl
ĠE nd
Ġinf o
ani el
Ġ ille
el ine
ĠRich ard
S pe
h ost
ĠB ush
D r
u gh
Ġdel ay
Ġclot hes
Ġh ate
Ġappreci ate
Ġd im
Ġreal ized
Ġph ase
Ġtyp ical
19 9
Ġfig ures
4 1
ĠC ir
Ġed ition
Ġsitu ations
Ġt ail
Ġstud io
RE E
Ġrout ine
r id
Ġl oves
em ic
int s
Ġeffic iency
Ġsil ver
Ġn avig
os ite
Ġk ne
Ġsus p
Ġw arn
ĠE qu
ord ers
Ġmill ions
Ġt iss
ĠB as
ĠIt alian
ĠS ports
Ġvis iting
mer ce
Ġafford able
Ġad m
Ġun able
Ġmus ical
l ines
Ġconduct ed
ĠA ff
ang es
Ġchalleng ing
T C
T ER
Ġv ul
Ġbo at
resp ond
ĠYou ng
Ġent ered
Ġsur f
l ong
Ġhor se
ĠSupp ort
g as
p erson
Ġbe er
ĠJ on
Ġhealth care
Ġplan et
ĠAut hor
Ġorigin ally
ĠAcadem y
Ġreport ing
!! !
ĠWill iams
Ġ ?
Ġaware ness
Ġpros pect
Ġt ank
ind er
Ġfun ny
Ġconf irmed
en ch
ĠM ic
Ġrecogn ize
ĠTh rough
clud ed
Ġinc ident
in et
Ġco ordin
= =
H A
ĠB oy
Ġcommun ications
5 7
Ġte eth
Ġpull ed
et her
R S
g s
ĠG al
P C
in ally
ĠS ign
m l
Ġser iously
b al
ĠB ow
Ġfirst name
Ġserv es
Al so
f rom
Ġj ack
Ġmus cle
T r
Ġha bit
Ġbreat h
ĠLe e
ĠSpr ing
Ġn arr
ĠA ri
ĠF ull
l aw
ĠS af
Ġfair ly
Ġcont est
i h
ad ium
ĠCo ast
Ġd ates
Ġdi verse
Ġpresent ation
Ġcoun sel
Ġbe ar
ĠF estival
Ġdiffe rences
ĠCont act
Al though
Ġs essions
Ġph arm
ĠAd v
n ic
ĠH and
Ġres olution
Ġmanufact uring
Ġmount ain
ĠB rand
Ġdef ined
Ġdiscuss ed
F ree
c ons
cl ing
Ġsurpr ised
el f
Ġmeet ings
a wn
r as
ĠA ccess
Ġsu c
Ġprom pt
Ġsub mit
Ġdri vers
ĠCont in
p ot
ear ing
Ġyoung er
ĠP age
Ġac id
Ġret ire
Ġpattern s
Ġsurround ing
Ġtom orrow
ĠP ub
Ġcap able
ĠL o
Ġeng age
Ġbreak fast
ic ing
b orn
ĠW alk
ck ing
Ġrev olution
Ġvictim s
0 4
ĠAr my
ĠFranc isco
c a
re te
ĠBe fore
ĠSc ot
T R
er ation
Ġis land
ĠO lymp
gh an
ail ability
Ġdro pped
Ġve nd
iver se
Ġexpress ion
Ġt iny
cl ass
r um
ĠF ollow
Ġc ake
Ġcomm ittee
Ġev il
Ġposs ibility
ĠS on
ĠB ible
ĠO S
OV ID
6 6
Ġag es
ĠGe org
Ġvill age
Ġc ooper
Ġaut hors
Ġbon us
ĠE gypt
Ġmix ed
s he
Ġ icon
es ides
end ar
Ġnorm ally
Ġt ag
ĠD ie
um es
ov al
Ġem pt
A Y
int on
Ġi P
Ġsuggest s
Ġs ou
ĠL ive
Ġprof it
Ġexclus ive
ĠDig ital
M L
or ne
ic an
E d
ĠIn f
Ġpay ments
Ġclose ly
Ġc orn
ot al
Ġro ot
Ġoper ate
Ġslow ly
Ġlist ening
Ġt asks
Ġinter ior
ĠWhe ther
Ġy ellow
aw ay
U L
ot y
Ġpro ve
ag ues
Ġinv ent
Ġre in
Ġfeel ings
Ġgrad uate
I nt
g reg
Ġent reprene
Ġexpect ations
Ġtal ent
ual ity
Ġhard ware
ic ial
Ġstand s
Ġstret ch
t le
Ġs izes
ĠF arm
al le
ĠC oll
ĠR ights
Ġmach ines
Ġprem ium
Ġf uck
ĠL ittle
Ġatt rib
Ġass ets
ĠPh ot
ĠSp irit
Ġco ck
Ġon going
ĠC reat
Ġpartners hip
ĠC ert
Ġhe ight
Ġtalk ed
osp it
Ġconsist ent
p es
Ġent hus
Ġbed room
ust er
a per
m ar
p ay
ĠA rab
com es
Ġsh ift
Ġra il
Ġadv is
Ġpriv acy
Ġneg oti
Ġadd s
Ġdep th
Ġadv enture
Ġpass ing
Ġpre par
Ġfl ood
ĠL ink
Ġtw e
Ġperson ally
atur ally
ĠJack son
Ġguid ance
ĠT our
Ġevery day
Ġa st
Ġs ight
Ġwalk ed
ĠMus lim
Ġlik ed
h an
ed ing
Ġlegisl ation
ĠP rem
ĠD C
Ġcollect ed
Ġimmedi ate
Ġv ital
ress ion
Ġregist ration
Ġton ight
ĠJust ice
Ġsus pect
Ġprot est
we et
Ġur ban
W here
n am
Ġrel ief
Ġtrans ition
Ġan cient
in er
ĠS up
Ġsl ot
ograph ic
ell y
Ġobject s
f oot
ain ts
ĠE p
cl aim
Ġargu ment
Ġsustain able
0 3
ĠS et
ul s
Ġpl ug
Ġsa uce
F C
ĠM id
Ġmin i
Ġlic ens
Ġth in
ĠN ight
ĠE r
Ġsome where
ĠDo es
Ġth orough
el come
Ġstate ments
Ġflow ers
Ġhop ing
is k
Ġh ang
ĠH ard
Ġvirt ual
P er
ĠChar les
Ġc able
ĠL ind
Ġintegr ated
ig ure
ĠJew ish
Ġso ci
ĠNe xt
ĠB al
Ġorgan ic
Ġf o
ĠIt aly
Ġaccess ible
res ents
Ġag ents
Ġcar bon
Ġpers ons
) ||
ĠC ross
Ġsu fficient
Ġfeat uring
ĠG ames
G o
Ġp apers
Ġsh ots
st ers
ĠDiv ision
. ||
Ġhe ll
Ġsol ar
Ġhum ans
E ven
le ments
Ġh all
Ġn uclear
ĠC ode
Ġtest ed
Ġult imately
b el
as hed
ĠR ight
Ġexp osure
Ġimprove ment
Ġre ward
Ġcomp ens
ĠY et
ist ers
ER S
ĠI re
Ġst one
red it
Ġaut o
Ġnecess arily
Ġg ay
ĠC ast
ĠW atch
Ġphot ograp
Ġpain ting
Ġ199 9
Ġill ness
Ġdelic ious
o in
Ġleg s
Ġb are
om y
Ġpro of
el lect
Ġnet works
Ġlink ed
it age
pro fit
L ook
ĠP ack
ĠR est
rie ved
Ġalle ged
ĠC ook
Ġb at
Ġh its
Ġst reets
sec ut
Ġbelie ves
y ers
5 2
Ġb anks
Ġar ts
Ġbow l
Ġphil osoph
o pp
z il
ĠC ost
Ġant icip
Ġdescrib e
Ġsub sequ
Ġex ecut
ĠAnd rew
Ġinform ed
is ms
Th anks
Ġsuff ering
ld er
u ine
Ġl ie
ĠF our
ĠPr ice
Ġliqu id
pe l
Ġsk ill
Ġgl ad
Ġdeal ing
u ction
ent le
et ime
Ġfor um
ownt own
Ġtr ick
Ġconf ident
ĠThere fore
Ġimpress ive
ra cy
Ġappro val
Ġstrugg le
Ġ id
ast ers
Ġtra ined
Ġinst ruct
Ġpercent age
Ġbott le
D uring
Ġshe l
Ġlight ing
Ġreplace ment
Ġcontem porary
w hel
Ġwrit ers
ĠInt e
Ġless ons
ĠHot el
o ch
Ġsm ile
Ġorgan ized
un ior
li ance
Ġt ut
um ps
Ġ err
Ġfac ilit
Ġbas ically
ut ch
Ġch ose
Ġatt ached
Ġfound ation
c ase
ur ning
Ġhas n
Ġlo ans
Ġt all
Ġprom ise
Ġtal ks
C ol
Ġrep resents
ĠH ospital
Ġabs or
ĠS her
Ġdi am
Ġappoint ment
P M
d es
he m
art ers
Ġexpl ains
Ġvul ner
Ġent r
og en
ber ry
z ing
st ream
ĠLt d
A B
ĠTr ust
ES T
Ġdis cipl
Ġro se
Ġrem ained
Ġ7 5
Ġfil ed
Ġobtain ed
ĠGu ide
ro ke
ĠC re
Ġag ric
Ġfind s
Ġce rem
ac hel
ĠEn vironment
Ġp od
Ġth read
Ġany way
Ġco al
ĠSo ft
ly n
ĠR am
ast s
b a
ian a
Americ an
ac c
Ġ3 8
ob by
Ġvers ions
Ġvir us
Ġmonitor ing
on ed
ĠB ox
ult s
st one
Ġn arrow
qu ir
ĠO pt
Ġint ent
Ġinj uries
Ġlik es
Ġg olf
et ing
ĠP ot
ure au
an ing
ĠS ite
ob s
Ġind ex
vent ional
Ġh at
Ġhe av
ple te
Ġcru cial
7 6
m ade
se ll
Ġestim ated
Ġb order
u zz
an ish
ĠM ult
Ġele v
Ġple asure
ĠUs ing
Ġbrows er
Ġatmosp here
Ġb odies
Ġre ar
ĠC H
Ġw et
ĠH im
ĠK n
amp ion
ou ch
ĠU t
Ġbl ind
Ġrecord ing
Ġconst ant
Ġresist ance
Ġm and
Ġn ob
ĠC e
Ġaut hent
Ġschol ars
ĠH ollywood
Ġcor respond
Ġclot hing
or able
ĠC ra
ĠH or
Ġpl ot
3 00
Ġg ear
Ġas ide
gr ad
Ġext ent
ĠPl ace
Ġexpress ed
Ġprofess or
as ant
ĠP DF
Â °
Ġord ered
t a
ĠD VD
ĠMount ain
Ġsuppl ies
b les
ra ge
Ġj e
Wh o
Ġmov es
Ġobv iously
Ġ Ð
Ġnear by
ra id
in cluding
Ġl ad
Ġhead s
Ġfore ver
ĠSt at
Ġcons cious
Ġgu itar
Ġresult ing
Ġcreat es
ĠRom an
ĠF ar
Ġread er
ay lor
ĠM ach
Ġact s
ixt ure
nd a
ad el
ab eth
ĠG all
ĠV an
ĠColor ado
Ġreput ation
V iew
ĠAg ain
Ġsuc ceed
f ront
Ġrec y
ĠLe g
Ġscient ists
Ġconven ient
Ġph r
Ġsign al
Ġimpro ving
Ġmembers hip
Ġtre nds
ĠS outhern
ĠF riend
Ġ1 50
Ġinter pret
u ment
Ġtechn ique
Ġbroad cast
Ġrepe ated
Ġsearch ing
Ġstri ke
ste in
abet es
Ġout standing
ĠU k
Ġsp in
ĠEx ecutive
ĠStud ies
Ġsurpr ising
st ar
Ġgr ass
Ġdirect ed
C D
Ġf alse
Ġsome what
ath y
Ġlif estyle
Ġprec ise
Ġp ounds
ot ton
Ġcelebr ate
Ġrelig ion
ĠCath olic
Ġcol umn
Ġwat ched
Ġmur der
ĠB on
ce ler
Ġact ing
Ġcut s
Ġd ining
Ġpur su
xi ety
Ġp it
ĠF urther
T ube
Ġs oph
ĠC B
Ġne ither
Ġwere n
Ġm useum
ul ating
Ġcomp r
Ġte ch
ĠHel p
ĠIr ish
am ber
te en
Ġfl ash
br idge
Ġlandsc ape
Ġf asc
ĠR un
Ġev ol
Ġb ond
Ġweap ons
Ġconflic t
i ot
Ġ3 3
ĠApp lic
B ec
st ood
c ue
Ġ )
ĠE ll
ann a
Ġp itch
le vel
ĠT ri
ĠS n
pl ate
d y
iz z
Ġun us
J ohn
ĠE U
Ġsa ved
Ġdom ain
x ic
Ġdef ault
Ġbath room
ĠSecret ary
ĠF ield
Ġsp aces
Ġ199 0
Ġple ased
Ġsty les
C O
M P
P re
s we
Ġcl ar
Ġincreasing ly
ĠR ay
Ġ3 7
Ġcopy right
Ġdut y
ĠR oyal
ins on
Ġcontrib ute
ĠAre a
Ġoccur red
Ġcateg ories
ĠH arr
og ether
Ġshe et
ĠS earch
Ġr ig
Ġbr ill
Ġlarge ly
ĠS ometimes
Ġam end
Ġla pt
ĠE s
Ġno ise
az e
Ġinter face
Ġstr ange
ĠL ow
Ġreg ions
Ġbro ke
ĠInst agram
Ġwide ly
Ġrent al
ĠB udd
Ġro les
20 13
Ġdefin ition
Ġter rit
Ġrefer red
ound ed
R I
il st
Ġal ive
Ġtrack s
Ġp ra
Ġw est
Ġsav ings
Ġl uck
ĠT ru
ĠBl og
Ġer a
Ġch oosing
Ġprim arily
Ġdrink ing
r ich
if ies
Ġdo ctors
Ġinvol ves
Ġp ace
Ġweek ly
ann ed
Ġplatform s
Ġapart ment
Ġso il
Ġag gress
Ġexper iment
ask a
Ġmo ist
B ook
Ġtw enty
Ġclaim ed
Ġimplement ation
E A
S S
r ite
ĠL iber
Che ck
ĠKe y
Ġpropos al
Ġstrateg ic
ĠJer sey
Ġprinci ples
o ir
ĠD ate
ĠCh air
Ġperform ing
ĠFin ancial
Ġinsp iration
U P
Ġe ase
ĠH a
Ġconsum ption
hold ers
ĠR yan
Ġres erved
Ġpot entially
C ar
S m
ne ll
Ġapparent ly
Ġelig ible
ol it
Ġex ec
Ġent it
Ġeval uation
E G
ĠJ ac
ivers ary
u ing
r ition
Ġin ner
Ġman ual
Ġun w
Ġcir cuit
P r
to col
ĠPol it
ĠSystem s
Ġp hen
ur b
ĠR on
ĠDown load
Ġre action
Ġamount s
Ġsubs crib
en ger
Ġmain ly
cip al
ĠIre land
i ac
t hen
Ġcl imb
ik es
Ġsend ing
Ġdiv ision
ĠAss ist
B I
G u
Ġachie ved
Ġpow der
m aking
ĠS anta
ĠK ent
Ġover whel
Ġbr idge
Ġfac es
p age
li ament
Ġmanag ing
ĠH on
r ated
Ġv ent
ĠTh us
Ġmark ed
Ġ199 8
Ġl ucky
ĠSup reme
Th ank
Ġcontrol s
ĠPac ific
l ive
Ġst ake
Ġwith d
ĠD aily
ark s
Ġass ault
Ġfavour ite
ĠC a
ĠC OVID
ĠK im
ony m
ffe red
Ġh ole
Ġh idden
ĠM A
ĠD id
ten se
Ġgen uine
ers hip
ĠR oom
Ġcl ock
in os
ĠH ope
ann els
ĠO il
Ġins pe
% .
B u
ĠB ell
Ġk m
Ġmag ic
h tt
Ġn ic
ĠGeorg ia
T V
Ġp ill
Ġp ipe
Ġfound ed
Ġkn ock
Ġcompon ent
Ġperman ent
t ers
Ġe ast
ĠF ed
Ġoff ices
Ġprogram me
Ġaccompl ish
Ġintellig ence
J an
ĠP oint
less ly
in ter
is dom
an while
ac le
ap ing
ĠDis c
id ays
b ar
Ġsp okes
Ġfl ag
Ġaf raid
Ġper mission
Ġcontinu ing
Ġt ab
Ġst uck
Ġopp on
Ġrequest s
8 00
Ġo ven
Ġm ile
ur rent
Ġj ew
Ġprior ity
Ġst ood
ĠL ED
ĠCon nect
Ġcapt ure
Ġge nder
Ġad s
ĠS ky
Ġmanufacture r
5 4
Ġd ust
ition ally
Ġform al
Ġgener ate
Ġposs ess
p ir
ur a
Ġpro ven
th is
Ġpass word
Ġg ifts
w as
Ġd ivid
Ġeng aged
Ġsens itive
H ave
Ġtrans p
Ġt ip
Ġb ab
Ġl ies
ig er
am ental
Ġ4 00
ict ed
ok en
in ch
C L
Ġattend ed
____ ____
E P
Ġwas h
Ġz one
Ġqual ified
Ġcollabor ation
r un
ie ce
Ġopp osite
Ġstrong er
re qu
ĠE ss
ĠV ideo
Ġincred ibly
Ġbird s
Ġlux ury
ĠTh ree
av a
Ġfac ulty
Ġtreat ments
Ġw ins
ion e
ĠF ort
iz abeth
Ġflav or
ĠC O
Ġdevelop ers
ĠGo vern
Ġille gal
Ġfl our
ĠSp anish
Ġh ire
ĠK enn
Ġcap abilities
Ġfore cast
Ġb omb
ĠT ax
Ġch ances
ĠAdminist ration
N ote
Ġinvol ving
ĠC ond
Ġse es
Ġshould n
Ġexp enses
ad ow
ĠF ox
Ġdri ven
ĠR ose
co ver
ann y
Ġexcept ion
Ġfif th
Ġevery where
Ġobs erved
amb ling
Ġflex ible
m ond
Ġsub mitted
ck ed
ĠEx pl
Ġport fol
R ep
d ated
v ard
enn is
ur able
Ġsa ving
form ance
Ġhistor ic
Ġpur s
ĠAd am
Ġdraw ing
Ġdepos it
5 3
ð Ł
ĠS at
ĠN ote
Ġp ink
Ġd ad
ci a
Ġ3 4
c ific
Ġdra wn
Ġlim its
Ġhop es
ĠN ever
the w
Ġout come
oc racy
Ġmem ories
Ġext ract
er ate
Ġin tense
Ġhead ed
ĠPh ys
ĠDis ney
t es
ren cy
ĠSt an
ĠWe bs
ific ate
ĠPol icy
Ġfind ings
ĠZ eal
Ġle ather
Ġinv ited
Ġrecommend ations
Ġrepl aced
Ġvac ation
Ġguid elines
b re
Ġw ra
Ġh ospit
ĠR o
ĠL abor
let ter
Ġele g
Ġempt y
) |
P ress
Ġcommon ly
b its
Ġres ume
Ġult imate
ĠMarket ing
in ent
orm al
Ġca using
Re g
at i
Ġrel ative
ĠRet rieved
Ġtransport ation
Ġmort gage
ĠProfess or
Ġsubject s
Ġintrodu ction
on na
ou red
ĠD og
ĠJ r
ĠLear n
Ġev olution
Ġelect rical
ĠQu est
9 6
ro g
iz er
Ġexpl an
Ġinfe ction
Ġl oving
Ġ20 22
Ġfunction al
Ġt ournament
ĠS us
if orm
ĠF ather
co in
Ġdream s
ĠBrit ain
Ġpublic ation
ĠD ar
Ġhost ing
9 8
S ub
ĠS H
Ġvot ers
Ġliter ature
s en
Ġvis ited
ĠK ar
Ġgener ated
Ġlaw yer
st ra
ĠCl inton
l ers
Ġb unch
Ġr ating
Ġdeb ut
Ġr ising
Ġnew ly
ĠWor ks
Ġy ield
Ġse ed
Ġsh arp
Ġdesign er
Ġegg s
Ġg ene
ĠP ract
Ġdes ired
Ġav ailability
Ġfall ing
Ġconsider ation
z ona
ll ed
ĠW ales
Ġthink s
Ġdec ent
Ġdeep ly
Ġfit ness
Be fore
Ġinstru ment
ellect ual
ath an
Ġdise ases
Bec ause
p ack
Ġa wards
on to
iz za
Ġphot ography
Ġf irms
Ġsh ops
Ġany more
Ġrec over
Ġstruct ures
Ġtiss ue
b ury
Ġb ull
oun ter
ĠJose ph
st s
ol ar
ĠAs h
Ġqu ote
amp s
olog ist
ĠAcc ount
et ary
ĠB a
ĠZeal and
P art
t ail
Ġt act
Ġsupp lement
ĠDemocr atic
Ġb att
AT E
Ġenforce ment
v ate
ĠJ enn
in te
Ġn om
Ġbe ll
im ize
Ġch annels
ian o
ĠCon f
Ġexist ence
Ġrecogn ition
Ġregard less
Ġprint ed
b oy
Ġf estival
ĠF red
ĠTra vel
ĠBra zil
C R
es sel
Ġme als
ph y
ĠBu ilding
Ġmat ches
Ġc ute
ut er
ir ts
Ġindust ries
ES S
Ġprepar ation
ĠHe art
Ġexp ansion
w orth
Ġsol ve
Ġalong side
Ġbag s
9 7
Ġhe l
Ġse asons
ink ing
Ġcare ful
ĠFor ce
Ġprefer red
w art
ru ption
Ġvis ible
ĠSil ver
Ġarrest ed
ĠC ab
Ġredu cing
Ġforg ot
Ġcont rolled
Ġequ ival
err ing
ĠH oly
Ġsy nt
ĠTra ining
Ġdepend s
if er
ate ll
qu ality
Ġesc ape
ĠTe ch
y es
ing ers
20 12
ĠE sc
Ġmer ch
H is
Ġre act
ĠM ill
ĠG reek
Ġch arm
Ġexp osed
Ġhard er
Ġst rict
ĠTh ough
Ġcont ained
Ġframe work
ĠCorpor ation
Ġc os
ce ived
miss ions
Ġspl it
S u
se ason
ĠYou Tube
Ġexper im
Ġwrit es
ĠSaf ety
O ct
al ty
ĠH un
ist ed
Ġevery body
y stem
Ġ ;
ĠRes p
Ġredu ction
ĠT al
F ollow
Ġb act
Ġst ead
Ġconne ctions
T wo
Ġt or
ĠC ON
ĠV ill
Ġprodu cing
Ġob st
Ġliter ally
Ġcompar ison
ĠA venue
Ġr u
Ġarri ve
ĠDemocr ats
M ed
u ct
iss ions
ĠCl in
Ġbre aking
Ġdyn amic
al ysis
ĠWh ich
Ġfin ance
Ġhand ling
Ġsche me
adel ph
i ate
Ġc am
ow ers
ĠP op
Ġv ice
Ġref und
Ġdra g
st ery
ĠSt ore
Ġacc ord
Ġcommun icate
âĢ¦ .
ĠStud ents
Ġcarry ing
ĠSe a
Ġpost ing
Ġmanag ers
5 1
Ġm ood
Ġunder t
Ġend ing
Ġjo ining
Â ·
ĠM obile
Ġan xiety
L ike
ĠT urn
et ry
Ġst unning
ĠB ru
ĠR a
Ġext ension
is a
le ep
ĠO k
ĠU lt
Ġc oc
ĠT er
ĠA ction
Ġcomp are
Ġsp ots
Ġpe pper
Ġelect ed
Ġhy per
ĠSm all
Ġsac r
Ġrem oval
Ġobject ive
il a
ĠF act
Ġperson ality
Ġscen es
Ġb ars
ĠC ru
ens us
Ġlog o
Ġtit les
Ġdepress ion
Ġsu ffered
Ġsm oke
Ġbeh alf
Ġcook ies
Ġenter prise
Ġdoll ar
Ġt one
ar ry
Ġwhe never
ĠA wards
in ity
Ġcon vin
Ġcomput ers
ĠT erm
ĠB all
ant ed
be ing
Ġre ject
ĠE ric
Ġmark s
Ġopp osition
Ġeng agement
Ġl au
] .
Ġn aturally
ol is
ĠS S
ĠO p
all as
Ġapplic able
Ġconsequ ences
w ar
ig ation
ĠF ord
Ġunder stood
Ġ6 5
Ġinter act
F i
Ġrec on
Ġass ume
Ġtrans action
6 8
ĠP ak
ĠL LC
Ġla id
Ġtravel ing
Ġh ung
ĠAs ian
Ġfac ed
Ġthous and
A F
Ġb ench
ĠSh ould
c ut
Ġst om
Ġbut t
Ġcomp at
Ġtrack ing
Ġencoura ged
Ġg entle
ur ities
ĠCount ry
Ġpro hib
Ġk illing
i ro
Ġle ct
Ġdis pos
ĠV iet
Ġpar am
it o
ĠD aniel
Ġind icate
Ġfil ter
ĠBro ad
V ER
W he
he ast
ĠT aylor
ĠD rive
Ġcons ists
Ġinst ant
Ġt ape
Ġse ats
Ġun com
Ġpo cket
friend ly
ĠC R
el ing
ick ing
6 4
w an
Ġl atter
Ġdest ination
ĠN on
ĠSp ace
Ġbase ball
Ġfra ud
Ġune x
Ġb ills
Ġaward ed
Ġiniti ative
ar on
Ġl oud
Ġsh ower
Ġsuper ior
Ġpub l
U D
d is
u ous
Ġm m
ĠH ou
Ġair port
à ¨
ĠD O
ri ers
ĠR od
Ġph ones
Ġgot ten
adelph ia
d ays
th rough
Ġcrit eria
nes ota
Ġbox es
Ġcoun cil
Ġl ady
Ġbl ank
ĠF REE
Ġmaintain ing
ĠTy pe
ĠDie go
ic ious
Ġfund amental
Ġunus ual
Ġg od
Ġis ol
ĠW H
oc ated
Ġcent ers
Ġparticip ation
f all
Ġw arning
ck er
Ġle gend
Ġins ight
ik ing
Ġz ero
ĠAf ghan
or ous
ĠC N
Ġm ac
Ġy ard
ĠS uch
ĠF all
ĠG M
Ġcover ing
Ġmist ake
Ġp ul
ot ed
Ġ199 6
iam i
Ġsudden ly
B ack
P ub
il er
che ster
E X
Ġh am
el ry
Ġad equ
ial s
T ra
ĠP sych
Ġar my
ĠÂ »
Ġf ishing
ĠL y
ĠSt ill
Ġra w
ino is
ĠRad io
c ular
Ġt um
Ġbasket ball
it is
AN D
Ġrequest ed
Ste p
m akers
Ã ¢
Ġt ie
Ġt ub
us al
ĠAr m
Ġmor al
Ġcolle agues
O O
Ġg aming
ĠE th
erv ing
Ġput s
Ġcr ash
Ġocc urs
Ġnews paper
Ġinj ured
Ġvolunte ers
Ġsam ples
Ġcontro vers
p ed
Ġb oss
Ġas ks
Ġal t
Ġstay ed
E F
W ill
p ost
Ġs ought
Ġm a
Ġg iant
Ġpres ents
pr int
Ġdem ands
b ration
ac her
Ġres idential
Ġsold iers
e pend
il ty
Ġst ored
Ġcal endar
Ġt ied
Ġf inger
Ġcheck ing
ha ust
Ġattempt s
Ġpow ers
ll er
ĠE nt
ĠPr ime
Ġspeak er
Ġattract ive
Ġmere ly
swe red
as hes
Ġl ists
Ġequ ally
ĠT reat
ĠN ick
Ġact or
Ġess entially
ĠII I
f a
ok ed
m al
um er
ĠOr ig
b ell
ĠF un
ĠCar l
Ġsuggest ions
Ġcas ual
ĠD am
ĠL atin
Ġche st
clus ive
ĠP S
Ġ5 5
ĠAg ency
Ġin ch
ĠN orthern
ĠO x
Ġatt itude
Ġha z
Ġim per
Ã ¼
et ies
ĠE mer
ia h
ĠPer haps
ĠP en
Ġdisplay ed
Ġju ice
A ut
ĠM ah
ĠP ut
Ġconcer ning
bur gh
d s
Ġw ake
Ġw ave
it i
ĠS ir
int age
ĠKing dom
ĠAri zona
Ġcomp liance
omet hing
Ġop ens
A ug
en ess
Ġun known
IL L
Ġcomplic ated
6 7
Ġad j
erv ations
Ġstrong ly
ĠBr ad
Ġt ired
Ġra cing
D P
Ġshould er
Ġmanufacture rs
l van
Ġre ly
Ġst able
ĠE astern
Ġgreat ly
ER E
S ec
Ġm ob
B est
ĠA ge
Ġle ts
Ġperson nel
Ġdef ensive
Ġinit ially
d a
ĠR oll
ĠRe qu
ĠOr der
Ġ199 7
' '
at ers
Ġg ap
Ġsc an
Ġpo ker
Ġac celer
Ġpoint ed
ili pp
ugh t
Ġb one
Ġm ixture
st ep
ĠS av
Ġretire ment
F ind
g ov
ing ton
ra ction
ĠD un
Ġstru ck
ir a
ir us
um a
Ġgrant ed
Ġpregn ancy
ic ide
Ġh ip
Ġl oyal
Ġr iding
Ġhead ing
ĠMed icine
Ġrepresent ed
Ġsubs id
Ġentit led
8 5
Ġmed ication
Ġleg it
ĠPr in
b ro
w ords
ik i
Ġens uring
Ġp and
ĠT able
Ġpl ain
book s
Ġerr ors
h igh
u ana
are t
Ġappro aches
Ġsing les
ĠRepublic ans
h our
Ġse ctions
Ġch ronic
Ġfr ustr
Ġsent ence
Ġarchitect ure
Ġrapid ly
ĠB ern
B M
s ite
ĠEl izabeth
ĠEngine ering
Ġl es
ĠD ream
Ġv essel
Ġun em
az a
Ġcert ified
Ġf lying
Ġcon ventional
rit er
Ġpri ze
Ġassist ant
ĠCap ital
an es
Ġst ations
ĠSp ain
Ġprep aring
im er
ĠP A
ul um
Ġ( $
Ġstay ing
Ġrespect ively
Ġcontrib utions
ĠPerson al
ĠH as
Ġsp ark
be red
Ġcharacter istics
Ġportfol io
Ġt ill
ain e
Ġblock s
G ood
Ġthe r
pend ing
Ġfall s
W or
ĠM iller
our se
Ġaddress es
c ar
AR T
n ce
ĠRe f
Ġent ering
roll er
S im
nd ers
ad or
Ġan swered
Ġme ets
Ġad mit
ĠK at
Ġcomb at
Ġwire less
4 00
i our
ĠW i
Ġ3 9
Ġmin imal
Ġnight s
ĠSen ior
z ed
ĠL ew
Ġcomp rom
Ġ4 2
, âĢĻ
ĠM ember
ĠH old
ile y
Ġplan e
Ġopin ions
Ġs orry
Ġo kay
ĠT ry
ĠCur rent
Ð ¾
ord an
Ġpurch asing
r itten
re r
Ġn ations
ĠD ark
ĠSe ction
Ġto mat
ate ful
Ġqu e
Ġass igned
in ating
Ġb orrow
Ġoff ensive
Ġperform ances
Ġclos ing
orge ous
R em
w ich
ol t
Ġacc used
U M
ĠC redit
erm an
Fe b
ĠT ool
Ġless on
ĠTe le
wh o
Ġassoci ation
a ud
ĠÂ ©
E ach
G A
Ġen ables
ĠB rian
Ġchild hood
Ġcamer as
Ar t
Ġw ise
Ġtra ve
Ġsm oking
ĠUn fortunately
Ġsk i
ĠSum mer
b ow
Ġor ient
Ġdo se
Ġup load
Ġra ising
li ers
Ġ199 5
ĠC ivil
og y
Ġrem em
ĠHen ry
j a
le ctions
ent h
Ġfew er
Ġaccess ories
Ġunc ertain
Ġhost ed
ĠHar ry
S E
al o
ĠMem bers
ĠU r
Ġcol on
Ġcal m
ĠMag azine
Ġequival ent
m o
Ġd iversity
ĠL ocal
ĠAn th
ĠKe vin
ac on
Ġtr im
Ġmin ister
Ġclass room
ĠMin nesota
Ġ198 0
Ġsuff er
Ġcerem ony
ĠLear ning
ĠC ub
ĠN O
Ġret urning
h ire
Ġl ip
Ġstud ied
Ġair craft
Ġconc ert
or ic
ig en
ron ics
Ġoffic ially
Ġble nd
Ġl oose
Ġad mitted
ĠPro per
Ġadop ted
i pt
Ġl in
ĠP rom
ĠB ase
ĠBu y
Ġelectric ity
Ġb aking
ick et
In st
Ġprogram ming
Pe ople
Ġg ained
ul pt
Ġvis its
Ġmus cles
Ġenjoy ing
Ġhighlight s
ĠFil m
ĠS ales
ra ine
ag an
Ġupgr ade
p any
Ġs ke
Ġm old
Ġr ural
Ġwor ried
ĠSt ory
ĠEx press
ĠDav is
Ġvolunte er
Ġl ens
ĠP ur
ĠG ro
ak a
Ġlif etime
Ġrecip es
Ġrestrict ions
Ġo cean
ĠM D
ĠH aving
Ġv ibr
Ġgraph ics
Ġre aching
se x
Ġab and
Ġj ur
Ġrequire ment
Ġgovern ments
Ġst ir
ĠE st
Ġsur ve
Ġinterview s
Ġconc rete
Ġswim ming
Ġbrill iant
il ton
Ġde ploy
os c
Ġcou p
â Ĥ¬
re ction
ĠG arden
Ġlapt op
Ġhad n
Ġpack ed
sy lvan
mon th
Ġdang er
Ġscore s
Ġs outhern
ĠH art
Ġout comes
% ,
Ġd owntown
Ġex ceed
Ġind icated
ĠPro cess
Ġcour ts
ĠC ou
Ġwe ird
ĠPal est
ĠQue en
ĠColumb ia
j e
v as
ond er
Ġadv ent
angu age
Ã ³
Ġhe aven
Ġmy th
up id
i ary
Ġw isdom
Ġor ange
Ġco at
Ġdi abetes
Ġrare ly
Ġfound er
br id
isc al
Ġworksh op
a fter
j ection
ce nd
if fe
and y
Ġequ ipped
Ġanaly t
ĠIll inois
Ġheav ily
Ġcon clusion
ĠN ame
Ġinter action
Ġtem porary
C omm
Ġl ift
ke l
os a
ĠKore a
ĠWebs ite
Ġstom ach
Ġst ages
ĠComm on
rodu ction
Ġapply ing
ck ets
ĠL A
Ġ4 9
ij uana
Ġwat ers
Ġphilosoph y
Ġp ig
ow ed
Ġde eper
us her
ĠK ansas
Ġun ion
ĠSe attle
v iously
ed ge
ĠN ic
Ġar ray
Ġdam aged
reg on
Ġus age
ĠUS B
Ġdr ama
Ġdeath s
Ġloss es
c m
Ġ4 6
ĠMr s
Ġaccur acy
Ġp p
ug s
ĠBar b
er k
ter y
ph ones
' .
Ġ âĢĻ
ch ar
Ġfr anch
ĠSw ed
Ġexhib ition
a ver
Ġp ushed
Ġbl ow
Ġcry pt
st al
ĠB it
Ġse gment
Ġinvest ments
Ġprint ing
ĠIns urance
ĠC ase
ĠHou ston
Ġp upp
ĠF oot
Ġex haust
Ġimm igr
z es
Ġb id
ĠD ub
Ġprov ed
ĠW as
Ġex ists
Ġsome body
Ġimprove ments
Ġconcept s
Ġtrans actions
Ġann iversary
Ġdecl ine
Ġsurv ival
htt p
c or
Ġthe rap
ĠO K
od ge
Ġ4 4
Ġlist ing
C ons
i ag
in tend
pl ed
ap ore
Ġsc oring
Ġrepresent ative
Ġtemper atures
look ing
w ear
ĠI de
ge l
ĠL at
Ġgu ilty
ĠWith out
C o
L ear
Ġl ung
ĠC apt
Ġcon vey
Ġcont aining
Ġrespons es
ĠI ce
Ġwh ilst
Ġinter active
sylvan ia
ar ly
cc er
IG H
Ġ !
Ġr um
8 7
Ġh ide
ĠM iami
ĠN ation
Ġint ention
Ġsubstant ial
st ract
ĠS C
ĠR en
Ġex port
ĠJ osh
ach us
Ġoff ense
Ġemot ions
ĠC ut
ĠD allas
ep ing
Ġopp osed
Ġgra ce
Ġter rible
ĠFore st
ĠSt one
ĠCh ild
ĠSe lect
rib e
Ġmind s
ĠGu ard
ĠProfess ional
ĠSto ck
ĠiP ad
d f
se ct
Ġk it
Ġdes per
ĠSte el
he mat
Ġprov ision
Ġorgan is
Ġ199 4
Ġinn oc
Ġdiv or
Ġstrugg ling
Ġtro ops
Ġpil ot
l ow
ĠO l
St ud
ĠBro ok
Ġenthus i
Ã ¶
Ġ ~
Ġc ul
al i
ĠG i
Ġs ed
Ġd ental
ĠAll en
Ġview ing
Ġfocus ing
ĠPhil adelphia
ĠM ir
Ġcontract s
Ġsome how
Ġun iverse
ĠCh all
Ġinst ruction
Ġroad s
Ġowners hip
R L
Ġb old
ĠO ak
Ġins ert
ĠBr idge
Ġcontrib ution
ĠRead ing
Ġauthent ic
6 9
Ġf its
Ġout s
Ġeng aging
ĠSm art
ĠI M
Ġr ice
Ġpriv ile
Ġintegr ation
Ġphen omen
R C
T ake
Ġt ort
Ġpregn ant
S C
Ġ vert
if ting
Ġveget ables
Ġ( âĢľ
op her
Ġheart s
Ġimm une
Ġenem y
6 3
b reak
j i
or gan
Ġbu ff
Ġsumm ary
s is
Ġf ru
ĠN atural
Ġres ident
Ġfl ower
Ġtarget s
Ġdrink s
Ġimplement ed
Ġreve al
. ;
ĠC L
Ġse vent
Ġper mit
Ġint ellectual
Ġfarm ers
Ġsurv ive
at hered
Ġg ate
Ġdis aster
Ġtre m
ĠSar ah
et ers
ffect ive
AL L
Ġclub s
x x
Ġdis pl
Ġest imate
ĠTor onto
im p
Ġne ut
Ġpand emic
ĠL as
row se
Ġinst itution
Ġm g
Ġsatisf action
ĠC P
ĠG reg
Ġsh irt
Ġcompens ation
Ġg orgeous
Ġhe aling
Ġch ampion
ĠK h
Ġcompl aint
âĢ ³
Ġor al
ĠN FL
ard ens
Ġrec re
Ġwithd raw
Ġinspe ction
Ġm ad
ĠE vent
Ġcomb ine
Ġt ap
Ġn ose
ĠN AS
Ġfact ory
% )
ut y
ra pe
Ġcan n
clud e
clud es
Ġexcept ional
Ġtele phone
Ġdistrib uted
Ġunex pected
ĠM other
Ġun iform
Ġele ctions
ĠCons ult
Ġf ur
Ġmeas ured
isc ons
ĠWil son
Ġcop ies
Ġconserv ative
p ower
Ġc m
an th
Ġhe ating
ĠTh ink
Ġspeak ers
Ġacqu is
ĠC amer
Ġal ter
ors es
20 11
enn es
Ġbreak s
Ġwond ering
Ġcontain er
Ġdivid ed
ĠBe aut
Ġpack aging
Ġcir cle
Ġrat io
iscons in
ĠT alk
ĠS em
ĠB ang
Ġvot es
Ġnarr ative
Ġt ons
uck s
Ġperiod s
Ġjud gment
col n
Q L
r at
ot he
ch arge
Ġcon vert
ri x
ĠL ine
ĠV ery
Ġem ails
Ġcons ent
Ġcomple tion
sc reen
D is
Ġd il
ĠN umber
Ġsign ing
Ġfocus es
ĠHaw ai
in th
Ġth y
ĠD NA
ag raph
Ġto ile
ro it
h op
Ġm ole
Ġ1 20
od ing
Ġatt ach
ĠEx am
Ġbrother s
re ts
Ġto ler
ĠF a
Ġins pect
ĠEd ition
ĠFin ally
Ġemer ging
wor ld
ĠMat thew
Ġj ail
ix ed
ver ty
ĠH T
Ġwant ing
ĠLe vel
p ers
Ġp orn
om ed
ĠP o
the less
ps on
Ġdescrib es
ĠStep hen
v als
Ġf illing
Ġm ask
Ġh itting
st yle
ĠR ub
Ġcorrect ly
Ġl y
ĠB at
Ġcom edy
Ġpric ing
Ġtarget ed
Ġacknow led
f ers
Ġexpl o
Ġemploy er
ĠOffic er
Ġf ib
et ts
Ġde ck
Ġk il
Ġact ors
ĠPh ilipp
Ġattend ing
Ġpray er
Ġb ass
ĠM s
Ġdecl ared
ur se
ĠJ am
Ġemot ion
ĠProte ction
Ġse eds
Ġsp a
Ġsc rew
Ġlaw su
Ġstudy ing
Ġf iction
ter ior
Ġintrodu ce
Ġpromot ing
Ġgall ery
Ġlicens ed
g or
ou ri
ĠE X
Ġsy nd
Ġstr ing
ĠStud ent
Ġbur ning
d ney
m ates
Ġb es
ĠA B
ĠC ro
Ġpro tocol
ĠJ ay
Ġlet ting
Ġspecial ist
ĠPr int
Ġmaintain ed
Ġsatisf ied
Ġmist akes
U nder
le e
om atic
Ġg ig
ĠM ade
ĠB ad
ĠB and
ĠR og
ĠBe ing
ĠSoft ware
Ġv enture
Ġdis hes
j o
Ġvot ing
ĠA C
Ġtri ps
ĠTr ade
Ġcup s
7 9
M ake
un es
ap se
Ġneigh b
ĠExper ience
Ġc odes
Ġin fect
ĠB ul
Ġform ula
the y
M ark
Ġf est
Ġl iability
Ġsc reens
Ġpass es
Ġconsist ently
ĠPenn sylvania
8 9
A V
Â ©
ĠC ooper
Ġpe ak
Ġpo verty
Ġemploy ed
Ġess ays
Ġcompet e
Ġant ib
ĠCustom er
r ary
Ð µ
on ic
ĠT ony
ra ctions
ort ion
ĠPro du
Ġparticip ating
Ġhor iz
p ool
Ġd ual
Ġpre ced
Ġrec ruit
Ġsign ature
Ġhot els
Ġaddress ed
Ġlangu ages
Ġsem i
Ġc otton
ce eds
Ġst ability
Ġcom pe
ĠE T
Ġk iss
Ġsp ir
ĠCh apter
Ġmass age
D ay
a un
b ra
en cing
Ġemploy ers
atell ite
Ġdis miss
erv ice
Ġpr ime
Ġset up
Ġstat istics
Ġflex ibility
Ġh iring
ab il
ust ration
Ġres ort
ĠSe x
Ġregul atory
g ener
oun ce
man n
ĠGold en
o cc
in st
ĠRes ources
ĠNe ed
Ġpurs ue
Ġaccord ance
Ġhe s
em ed
ĠAs k
ar at
Ġrec all
Ġprodu cer
ific ial
viron ments
ĠStand ard
Ġrough ly
ĠM un
Ġ4 3
Ġtrad em
Ġrele ases
Ġpack ages
Ġcele bration
Ġpublish ing
Ġbr anch
Ġsing er
Ġcheck ed
Ġbuy ers
Ġrespond ed
av or
ink s
Ġser vers
Ġgr ateful
Ġdiscuss ions
Ġelse where
Ġlay ers
Ġcert ification
Ġdemonstr ate
H igh
ĠJ ane
ass ion
hes is
Ġmove ments
ĠVe gas
r us
Ġ ðŁ
Ġm ild
Ġl ake
Ġg ym
ut ter
ow ered
ĠM ajor
ĠO regon
ast ed
Ġwin ners
W elcome
m od
ĠS ab
the re
OR E
Ġmir ror
Ġenc ounter
ĠDes pite
Ġstock s
Ġarri val
ĠAtl anta
re ll
Ġdef ine
Ġpresident ial
ĠIndian a
Ġven ue
in ated
ĠC reek
Ġguarant eed
k o
ĠD ave
ud es
aw a
co pe
Ġentr ance
Ġre nov
av al
ang ers
Ġshe ll
Ġdifficult y
ĠJud ge
Ġannounce ment
ĠI mm
Ġst ain
Ġne uro
Ġchar ity
Ġdri ves
ĠSte ven
achus etts
i el
im m
Ġch a
ick ed
ord inary
Ġconsult ation
ĠH ay
ĠF L
ien ces
Ġappoint ed
c alled
Ġh unt
ol id
ĠM oon
Ġro ots
Ġsc ope
Ġpr ide
Ġtrans mission
ĠQ uality
Ġ: )
Ġcontrib uted
C opyright
Ġs od
ĠF R
ĠCh ampionship
ock s
Ch rist
Ġfunction ality
Ġdesign ers
Ġsol o
Ġconst it
D R
Ġconvers ations
Ġphotograph s
Ġth ro
Ġg ambling
um m
ress ed
ĠAd vis
U se
is d
Ġcomp lim
Ġrel ation
ĠBook s
Cont act
Ġgro cer
Ġp ushing
Ġal ign
ĠSt aff
Ġsur ge
Ġground s
Ġhol es
Des pite
iat ric
Ġdram atic
6 00
u ating
ĠB BC
Ġse ar
ag ers
ĠCont ent
Ġacqu ired
Ġmatt ress
E l
om er
Ġpro port
ĠO wn
Ġab ilities
ric ulum
g ame
Ġm it
ĠS ep
ĠAd vent
ĠBro ther
Ġut ility
ow a
ĠD ri
Ġse am
ib l
Ġdeliver ing
Ġiniti atives
hy th
onym ous
Ġage nda
ams ung
ath on
Ġestim ates
p ing
Ġautom atic
Ġhol idays
ĠT R
Ġsp ray
gr ade
Ġra b
M on
Ġt err
pp ers
ĠThe atre
rou s
Ġcl im
ĠK ind
ĠSh ort
Ġvot ed
ĠH IV
oc key
Ġpain ted
Ġord inary
Ä ģ
Ġn erv
ol s
ĠB ody
ous es
Ġdestroy ed
Ġsubsequ ent
7 2
G R
ot es
ur g
ĠJ un
Ġbo ot
Ġto oth
ĠD oc
ac ular
Ġres idence
Ġsc ream
Ġreg ulation
pro of
G reat
Ġte asp
ĠCl ark
200 9
Ġprin cipal
ĠRem ember
Ġarg ue
d on
ĠC li
ĠV en
Ġins ights
Ġdevelop er
Ġvers us
Ġden ied
Ġvirt ually
M et
c est
h ist
ĠB h
Ġ2 50
Ġadvant ages
Ġkne e
on ly
Ġw estern
Ġsafe ly
Ġdesk top
1 50
K E
P L
ĠI V
ot te
Ġdo zen
ĠCh ange
ish ment
Ġ8 00
Ġresult ed
m ble
v ol
Ġo ught
Ġover se
Ġsecond ary
Ġimportant ly
Ġview ed
Ġblog s
Ġcampaign s
Ġbehav iour
ist ent
cu se
Ġhy dro
Ġdiv ide
Ġaim ed
ĠGovern or
ĠPak istan
Ġb ands
Ġm ic
ĠSh op
Ġtri es
Ġsing ing
Ġclick ing
ĠAtt orney
umin um
ĠScot land
ĠHe ll
Ġke ys
ĠDe an
es y
ĠC ome
Ġcon j
arr ing
J oin
Ġm oon
Ġover come
Ġhard ly
ĠMar c
ĠRom ney
Ġsequ ence
Ġang ry
he rent
Ġc ow
Ġh anging
ĠI ss
ĠB ull
ci ence
Ġres id
ric ted
Ġ4 1
Ġcreat ivity
G l
c hers
ay er
qu arters
ast y
Ġper m
ĠCan cer
ĠPart ners
Ġrepe at
H D
u is
re p
Ġn omin
Ġfin ishing
20 17
Ġgold en
Ġelimin ate
' ,
am i
ĠM ov
oo f
ul ator
ĠE D
ĠSt ation
Ġmin istry
ĠSer ver
ĠProduct s
Ġunlike ly
im a
ir k
if ier
Ġdist ingu
ĠArt icle
ĠAut o
Ġdecre ase
? )
T op
Ġre fe
Ġst upid
ĠW isconsin
ĠE asy
ĠK ids
Ġhapp iness
Ġsure ly
Ġsubs cription
Ġexpand ed
w ill
Ġh oney
Ġwe igh
Ġdut ies
n ie
Ġf ed
Ġf ingers
Ġin hib
Ġe lder
ĠS ov
Ġ19 70
Ġgener ations
ĠInd epend
off s
ĠAir port
Ġexplan ation
B L
cy cle
cript ions
ĠC OM
ĠM om
ĠB M
Ġv oc
Ġwhe els
Ġvend ors
g ments
Ġs orts
Ġch ampionship
Ġag ed
Ġbo ards
Ġexpl os
Ġdiagn osis
Ġdial ogue
N et
a ire
w all
Ġn orthern
ch ing
Ġ199 3
Ġto ys
Ġaccount ing
ĠMod ern
Ġtrail er
Ġlad ies
T ime
Ġy oga
ĠM aterial
ĠJ ordan
so le
ĠAnd erson
Ġgar lic
G ener
ĠA p
Ġr uling
min ute
Ġbank ing
Ġathlet es
ig ious
ĠM ess
Ġan gle
ie ve
Ġ6 4
Ġdisc overy
Ġexpl oring
Ġcheck s
Ġsix th
IT Y
Ġviol ent
ĠPat ri
Ġsett lement
ĠMot or
g i
v i
v ity
Ġn it
ĠF A
ĠF ac
ab ama
aw s
20 10
Ġref used
Ġlow est
Ġdemonstr ated
Ġjew elry
c r
o en
ĠW ould
ĠG ene
ĠJ ason
ĠIsrael i
Ne xt
Ġprinci ple
igh th
Ġab road
Ġen orm
Ġsupp liers
Ġaim s
m ic
ĠM it
Ġconf ront
Ġspec ified
ĠÂ ·
Ġpar alle
Ġindic ates
f ire
Ġto xic
we ek
Ġprodu ces
Ġtext ure
Ġpen alty
Ġvulner able
Ġf iscal
ĠL iving
Ġres erve
ult ane
Ġacc um
irl ines
St art
Ġstreng then
Ġwood en
U C
w alk
at ile
Ġte nder
ĠV ice
ĠEx change
Ġbenef icial
Ġdire ctions
ĠMass achusetts
ĠSqu are
Ġtut orial
ĠLew is
6 1
G H
g iving
Ġre ferences
Ġ9 9
Ġcou ples
ĠSol utions
f unction
ĠC ore
Ġwor n
pt on
Ġman ip
Ġinv ite
Ġobject ives
ĠAfghan istan
. -
it ate
Ġsupport ers
il ation
Ġrel ating
Ġnob ody
or i
Ġd ent
ĠP ers
Ġde fect
Ġret ired
Ġphys ician
Ġcra ck
ĠAust in
ĠStud y
Ġpan els
ĠAnn ual
ĠMem orial
Ġconcent ration
on i
ĠS ize
Ġdis order
ĠH ur
Ġyour s
gg ed
ĠFor um
Ġ5 2
ĠCol lection
Ġcapt ured
W ork
op t
Ġthem es
Ġear s
Ġexam ination
Ġtal ented
ĠAv ailable
itz er
Ġliber al
Ġstim ul
Fr iday
l og
ut en
ag en
Ġpre cious
Ġbl ame
air y
ĠSy ria
Ġgar age
Ġhospit als
d ep
f ound
m outh
Ġl aser
ĠB ud
ĠR ick
Ġman if
Ġsc ar
Ġmar ijuana
IT H
Ġmechan ism
ĠLin coln
Ġwarrant y
O ut
t ains
Ġcon ce
Ġcom ic
un n
Ġal arm
Ġsw ing
ĠPr ince
ĠWord Press
Ġunivers ities
Ġf ool
ĠT en
id ers
Ġexp ense
Ġpick ing
Ġemphas is
ĠIsl amic
ĠEnvironment al
p iece
Ġc her
ers ion
ĠO cean
Ġwor ship
Ġspe ll
Ġrep ly
AN T
ĠSy dney
Ġâ Ĩ
7 4
D id
c ore
or se
Ġp uzz
ot ion
ist a
ree ment
Ġprodu cers
Ġra c
Ġgl obe
Ġposs ibilities
lim ited
Ġconven ience
Whe ther
g ood
Ġa er
Ġg onna
ol i
ĠB ry
Ġen vironments
Ġ9 5
ĠBl ood
Ġrepresent atives
ĠPat rick
Ġsubst ance
orne ys
Ġin du
ro ph
Ġcar pet
Ġdocument ation
Ġthreat s
Ġimpress ion
Ġphr ase
Ġterrit ory
H L
ur ches
se a
ĠD om
ick ets
ĠDe ad
ĠMin istry
Ġlay out
Ġgraph ic
ĠM u
ĠE ver
Ġpres cription
ĠCl oud
Ġhost s
asc ular
Ġearn ings
7 3
ĠC ry
ĠB ed
ĠK elly
Ġoper ational
Ġreview ed
ĠSing apore
ĠAL L
2 50
b at
Ġf ert
Ġh orm
Ġy e
Ġle mon
ĠTh ings
Ġass et
Ġconvers ion
Ġinfl amm
8 4
Ð °
re nd
Ġw ider
se ction
ist ing
ĠG ive
Ġle af
v ation
Ġb ub
Ġg athered
ĠA F
Ġbook ing
Ġexc ite
d r
o ons
Ġrank ed
Ġinvent ory
Ġs lic
Ġact ively
ĠEvery one
Ġaccom pan
Ġab und
fe e
av ed
ĠWe ight
Ġret ain
Ġequ ity
Ġassoci ate
Ġsleep ing
Ġfrequ ency
Ġscen ario
Ġbact eria
ĠVill age
D own
R el
Ġp atch
Ġre ven
ĠL yn
Ġrec ru
Ġref uge
Ġbare ly
quir y
el ve
ac les
ater n
Ġfollow ers
Ġposs ession
Ġkey board
200 8
EC T
ĠRec ords
A v
s ized
Ġin ev
ĠS U
ĠP itt
os pel
Ġ19 60
ax y
ĠVictor ia
G e
Ġb ene
Ġha bits
Ġad mission
Ġcl ip
ĠFr ont
Ġtrust ed
Ġweap on
u er
Ġv ine
Ġch ips
ish op
ĠSe ason
Ġ199 2
ĠAnt on
Ġcompl aints
I O
S U
Ġf ired
ĠA li
ĠM L
sh ire
Ġexam ine
itar ian
Ġsole ly
H er
Ġal leg
ĠO s
Ġball s
Ġdro ve
Ġtrem end
l ined
v ia
Ġd ies
am el
Ġsc ulpt
Ġdump ster
Ġentreprene urs
Ġfl ights
Ġabs ence
ĠDon ald
Ġaccompl ished
ennes see
ĠB reak
ab out
Ġro lling
Ġsal ary
Ġfant asy
Ġremark able
p ire
s uch
ĠS ound
Ġdes erve
Ġann oy
Ġhope fully
Ġstop s
Ġhy p
Ġbeg un
H P
Ġc inem
ĠH um
ĠG row
Ġam pl
Ġreg ime
Ġtri als
Ġwal ks
Ġnurs ing
s l
u ates
w a
at oes
om ic
op er
Ġwork place
Ġcons ervation
Ġnews letter
ĠMet hod
bour ne
Ġaggress ive
G oogle
Ġover night
Ġmin ing
ĠPh ill
ĠMach ine
un ct
ĠâĢ Ŀ
Ġj unior
ĠChrist ians
Ġfund ra
Ġtable t
Ġcert ificate
Ġp izza
nt il
Ġem issions
Ġform ation
Ġexperien cing
Ġcontinu ous
ĠMary land
Ġepis odes
Ġrom antic
Ġfranch ise
E ng
Ġbe ans
Ġpar agraph
ĠUs er
Ġappl ies
Ġchemical s
Ġfulf ill
ĠS M
Ġle an
Ġra ces
ĠAn g
Ġsl ide
Ġsk illed
Ġpurch ases
Ġste am
Ġdefe at
Ġexerc ises
TH E
Ġadministr ative
Ġoverwhel ming
C al
Ġc ig
Ġm aps
Ġh orses
ĠB arn
un a
Ġcol ours
ĠIsl am
J u
g ain
s ome
Ġh ired
ĠD or
Ġr anging
Ġoper ated
Ġrad ical
Ġsurround ed
IV E
ĠT am
ĠE N
Ġun cle
aw are
Ġimm igration
ĠMod el
Don ald
8 2
Ġl ibr
ĠP ict
Ġunder lying
Ġdem ocracy
mark et
W H
Ġcomp osition
ĠTh ird
Ġbel t
Ġsex y
Ġmount ains
Ġpassion ate
Ġhun ting
ĠViet nam
e y
et he
att an
Ġorgan isation
sc ale
Ġimpact s
ĠSci ences
Ġutil ize
Ġpod cast
T y
ĠI C
ian ces
Ġdevelop ments
ĠPh one
Ġmeaning ful
V P
at al
ing ham
ĠR ome
ĠL ady
ĠChe m
ĠPa per
Ġnerv ous
if ully
ĠN E
Ġbott les
Ġengine ers
D av
Ġst roke
ob b
Ġbr ush
Ġadequ ate
S aturday
Ġs li
ĠE ag
el le
Ġwork er
Ġco aching
Ġed iting
Ġtest im
Ġrepresent ing
Ġresol ve
M onday
h ome
Ġt ube
Ġst ack
Ġal ert
ell o
Ġpain ful
ĠEvery thing
ĠCas ino
Ġthorough ly
h o
ol en
Ġwork out
ĠV in
ĠCh ampions
r ine
Ġs ne
Ġg rey
ĠB ureau
ĠH ind
ĠD ays
est ed
ors hip
x id
à ª
Ġb ite
Ġg ang
ĠN ature
Ġmy stery
Ġinv ention
Ġprom ised
Ġrespect ive
c al
ĠS ix
] ,
d ale
Ġre verse
ig ence
ĠH ills
ĠBl u
Ġbal anced
Ġfrequ ent
O rig
f irst
Ġd uration
if ted
rop ical
pro f
ĠReg ist
Ġcab in
F OR
at ar
ch o
ĠE state
Ġsh ips
Ġdis ag
Ġdef ic
k ers
Ġup set
Ġinst antly
eng ers
rop ri
Ġamong st
Ġnetwork ing
Ġeval uate
6 2
M arch
v o
in f
Ġf ake
Ġe ager
ĠP ast
Ġ1 000
ĠL es
ĠO cc
Ġlaw yers
Ġprom inent
on ut
Ġd ys
op en
arent s
Ġident ification
ĠMiss ouri
Ġjur isd
P T
Ġh ub
Ġch airs
per t
Ġcomple ment
Ġrespons ibilities
Ġrepresent ation
ĠCor p
Ġfa ult
Ġhor ror
win ning
O s
c ard
Ġinter actions
Ġrest ore
Ġphys ically
back s
ĠBu ild
8 3
F l
or ious
ar th
ent er
ĠK ong
ĠWh it
Ġan ger
rag on
ĠDen ver
ĠUk raine
Ġs ons
ot ive
ĠA h
ĠW riting
ĠR us
ĠN ations
Ġshort ly
Ġgen etic
Ġtack le
Ġeleg ant
gor ith
F A
b ian
Ġp ic
ĠComp uter
Ġsle e
Ġt ong
Ġc rown
Ġf t
ound ing
Ġro y
ĠPalest in
a o
a is
d ri
Ġbe ef
fe ction
Ġcomp os
Ġpopular ity
ĠAdd itionally
it ches
ĠI L
ĠA z
ĠR out
els on
Ġprom ises
de f
Ġprotect ing
ĠMore over
in als
re tt
ort ed
ĠSh are
Ġed it
Ġsens or
Ġimpress ed
Ġbreat hing
Ġinfe ctions
ĠT ro
ow een
ĠB E
ĠB uff
act er
ĠSci ent
Ġrub ber
ĠHarr is
7 1
I ES
h r
an ches
ous ing
Ġac res
ĠDet roit
ĠOx ford
O b
r idge
Ã ¨
ĠS aint
Ġcont ents
Ġsim ultane
Ġproduct ivity
fl ow
Ġeth nic
Ġp ets
Ġth rown
ĠM oo
ĠH ong
Ġre hab
ĠIn nov
Ġres cue
Ġche aper
Ġsub tle
Ġgen re
ĠStud io
ocr atic
iffe rent
ĠM ind
Ġmy ster
Ġleg acy
Ġview ers
crib ed
Ġimm un
Ġmatch ing
Ġsmart phone
ĠKent ucky
Ġg ross
ĠA st
Ġsign als
ĠOr ange
Ġacqu ire
Ġbatter ies
Ġgather ing
ĠContin ue
Ġcompat ible
Ġorganis ations
ĠS ure
ĠSt yle
ĠAl abama
Ġdra in
ĠEd ward
Ġult ra
Ġadvert ise
O B
d og
and al
Ġdis rupt
itt y
Ġweak ness
ĠAtl antic
Ġfasc inating
on ing
Ġto ss
ĠR os
Ġfall en
Ġextra ordinary
Ġpark s
ĠElect ric
Ġcooper ation
ĠS ale
ang le
Ġinvest ing
Ġrepl ied
ĠEm ail
Ġsett led
ĠTrans port
Ġstream ing
v it
Ġa x
it ivity
Ġp our
Ġd ying
ĠD ick
ab ling
ĠG ree
ĠCh annel
Ġdon ations
ĠAn aly
ok er
Ġdeli vers
ĠWork ing
Ġrid ic
f ish
Ġdes ert
cy cl
Ġmed ic
Ġmed ications
Ġpublic ly
ĠReg ional
Ġgun s
F inally
p apers
he ld
Ġre cept
ft en
olog ists
ĠDe ath
Ġhome own
Ġbuy er
ĠIm pro
Ġquot es
ĠMic hel
P at
ĠR oy
ĠR oss
ab is
ĠL uc
old s
Ġsl ots
Ġpass age
Ġcollect ive
Ġnut rition
u z
ĠM arsh
ĠW ars
ĠN ob
Ġsus pend
Ġdead line
Ġtim ing
e z
Ġ rib
Ġa est
Ġc ogn
Ġbu g
Ġ8 5
Ġbab ies
Th ose
Ġdi pl
Ġaffect s
Ġquant ity
am ics
Ġind oor
Ġref ers
Ġtem plate
Ġdam ages
ĠLin ux
Ġworksh ops
ĠI owa
ĠW W
Ġpublic ations
Ġ0 1
Ġtax pay
Ġodd s
Ġunem ployment
m ind
ĠH R
ĠF inal
ĠL i
Ġcan cell
Ġqual ify
ĠReview s
Ġrob ust
ĠLim ited
inte rest
ĠA ve
Ġas semb
Ġcon secut
ĠD ise
Ġar med
li x
Ġdocument ary
grad uate
t own
ĠP ain
itt ers
istic ated
Ġoccas ions
8 1
o a
Ġthe ater
Ġv intage
ĠE ve
Ġmod ified
be an
ĠMay or
for ward
b est
Ã ¤
he art
id en
Ġwh is
ĠF re
ĠL aur
ĠO nt
Ġinter vention
ĠBe h
Ġfil ing
Ġoccasion ally
G M
Ġw ishes
ĠM ust
ĠP L
ĠB alt
ĠSt adium
Ġprov isions
ah a
ĠEd itor
Ġcy ber
Ġencoura ging
B oth
D ate
Ġas sembly
Ġsp oken
Ġinc ent
Ġpromot ion
ĠOlymp ic
C ra
W atch
ĠB aby
ĠAm ong
ĠAlex ander
ĠInte rest
S ign
b age
ĠS D
ĠS port
ĠJ ess
ap olis
ĠAn alysis
Ġchar ging
co very
Ġsqu ad
A ct
A pril
k ind
o ard
Ġl ips
ĠL ess
Ġrem oving
Ġcred its
Ġhar vest
ĠTur key
ol ph
ĠVis it
Ġconstruct ed
Ġassign ment
ĠGirl s
V is
a us
is hers
ĠB ab
Ġany body
Ġint ensity
ĠEn joy
Ġprospect s
b et
m n
y o
er a
ic ut
ĠS elf
ĠW ik
ĠR h
ĠMon th
rim ination
Ġbutt ons
ĠSov iet
Ġexcite ment
er ior
Ġc ats
ĠS ant
ĠM oh
em an
ĠU RL
Ġher itage
oun ced
AS T
Ġstri king
Ġtransfer red
xy gen
ĠT oy
ĠV eter
ĠUn ivers
Ġspect acular
Ġbelief s
Ġprocess ed
Ġprof its
Ġconnect ing
Ġgovern or
Ġlock ed
Ġestablish ment
a ul
Ġw age
Ġre ception
Ġ7 2
Ġcur riculum
Ġref rig
Ġcr imes
ĠTra il
iff s
Ġtown s
Ġconfig uration
Ġtrig ger
i very
m g
u um
Ġt ears
Ġd ancing
ĠC S
ĠC T
ĠAll iance
ĠPh oto
ĠMex ican
Ġaccommod ation
C all
i ology
ĠT ennessee
ĠC over
ĠM ap
ĠJ erry
ĠAl bert
Ġcur rency
Ġpolit icians
achel or
l ah
ĠT ell
Ġwas hing
ict ions
fort able
N Y
R ed
ĠD I
Ġper mitted
Ġfin est
Ġfin ancing
Ġcor on
Ġenh anced
ĠNC AA
h ol
Ġm ature
as ion
ĠN avy
Ġsh it
Ġi OS
Ġgen es
Ġnut ri
ĠJew s
ĠApplic ation
Ġa ver
ĠS EO
ĠD rug
Ġtem pt
Ġaff airs
Ġple asant
Ġcelebr ated
Ġveter an
Ġarrange ments
g ra
o z
et ch
Ġex ch
Ġsh apes
os it
Ġun lock
ĠV P
Ġcult ures
ĠSim on
New s
m other
Ġt ies
is an
Ġm ath
ĠC M
Ġcon cluded
ĠU C
lect ed
Ġ6 00
Ġgirl friend
Ġinstru ments
ĠAff airs
Ġfacilit ate
Ġdispl ays
Ġt ire
Ġd irty
id al
ĠM oney
Ġse ctors
Ġtouch down
ĠClass ic
ĠC ell
ĠH P
ĠF ive
20 14
Ġ0 8
Ġintegr ity
Ġb io
os ystem
Ġbet ting
ph an
Ġcur ious
Ġdef ence
ĠPh arm
ĠCo ach
Ġwild life
Ġconvin ced
ĠAnth ony
ĠC opyright
ĠSt ra
Ġdifferent ly
S W
w he
ĠF ab
qu is
ĠE M
Th rough
Ġtrans formation
IC E
a a
Ġm igr
ĠS amsung
Ġse min
Ġal ike
Ġcomp act
ĠAs sembly
Ġhand ful
Ġ* ||
Ġvacc ine
ĠIndust ry
ay ing
im ore
Ġwhere as
Ġche f
St ar
ĠMed ic
Ġhuman ity
ĠJe an
ĠFurther more
H i
Ġbre w
Ġinvestig ate
bl og
ĠPri vate
ĠKore an
ĠC F
arr ass
Ġspeak s
ĠDef ense
o vers
ĠG P
ĠRep resent
ĠHar vard
Ġexpand ing
. ]
N C
i ar
re c
Ġn ail
Ġst em
if ice
are st
Ġass ured
US T
Ġbed s
Ġign ore
Ġenorm ous
? !
z ens
ĠR ail
ĠPer formance
Ġacknow ledge
Ġt ours
est ion
Ġcomp assion
Ġattempt ed
Ġflu id
Ġdisappoint ed
ĠGall ery
Ġconsecut ive
ĠG ulf
Ġover view
J une
c ure
h ard
Ġ ]
Ġw ines
Ġst er
ĠF ast
ac ent
Ġtr ash
Ġmake up
Ġke en
Ġloc ally
Ġpract ition
Ġmechan ical
Ġacquis ition
P res
c s
ay a
ĠA lp
Ġr ush
ure r
ather ine
Ġens ures
Ġinn ings
Ġcritic ism
Ġwarn ed
ĠUt ah
Ġin ex
cl osure
Ġass ists
Ph oto
ht ml
H ome
d em
Ġs its
Ġo z
Ġbe ings
us hes
âĢĿ )
ric ts
ĠAnd y
IS T
ĠPar liament
Ġdro ps
Ġunivers al
Ġvit amin
ĠEconom ic
Ġf iber
Ġb ot
ing e
ut or
Ġmet ers
mm a
ĠCour se
Ġchair man
Ġspect rum
Ġneighb ors
P ri
nd ry
Ġd urable
ĠM ove
Ġproduct ive
ĠTe xt
Ġdr um
ĠAuthor ity
ĠChall enge
F T
c ul
ĠS O
ĠP ick
ĠH al
ĠAn ne
ĠPe ace
ĠCommun ications
ĠEnter tain
D irect
Ġp ants
ess ed
ist ical
ĠN ig
ĠE P
pl us
Ġpr on
Ġdepart ments
Ġreve als
Ġso ccer
ĠAl aska
Ġprof iles
Ġint rig
ird s
Ġeng ines
ĠSc he
Ġcollect ing
Ġreb u
ĠConst itution
ĠDu ke
a ft
g ly
Ġt ent
Ġ4 7
Ġdirect ors
Ġcap ability
Ġoffer ings
Ġpet ition
Ġa uction
Ġc ous
ĠI ron
ĠP ow
ĠB an
apt ers
Ġexclus ively
r ange
Ġc ord
ĠG h
Ġch opped
Ġback up
ĠNot hing
Ġimag ination
Ġthrow ing
Ġinvolve ment
oen ix
9 2
ĠS now
ur ious
Ġal gorith
Ġpl acing
Ġmet ab
Ġpar ad
Ġfab ulous
Ġsoph isticated
9 4
ĠD utch
ne cess
au x
Ġdon ation
ĠQu ick
Ġaccept able
Ġcolle ctions
Ġscr atch
Ġdiscipl ine
Ġw aves
ĠH ig
ĠH appy
Th ursday
Ġdefend ant
Ġbene ath
Ġt ale
Ġt une
ĠP y
Ġde leg
Ġint im
Ġdev ast
Ġo live
Ġm ouse
ar ia
ĠS ide
ĠF uture
ĠLe on
Ġold est
ĠRev olution
f ather
l an
Ġn urse
ĠG re
aut hor
Ġscreen ing
ĠRel ations
ro t
ĠE mb
Ġdis orders
Ġread s
be at
ĠHow ard
Ġrat ings
p res
em ail
ru b
Ġ0 7
Ġprev ention
Ġconsider able
S M
p y
Ġg ains
ate ur
Ġr ally
Ġed ited
enn y
Ġcook ed
Ġbul k
Ġt ear
ĠS E
ĠD iam
ĠR ain
ĠIn n
ĠCon vention
Ġcat alog
ĠMor gan
Ġlabor atory
Ġphotograp her
ĠAssist ant
Ġe uro
Ġnew est
Ġrece ipt
Ġsal ad
Ġelect ro
AR D
Ġload ed
S ource
Ġp or
ut ical
ol as
ĠB B
iz ations
Ġev ident
ĠMan ufact
Ġoil s
Ġviol ation
Ġâ Ĥ¬
P al
it ative
Ġdesign ated
Ġenc ount
ĠAP I
ĠSing le
ĠBow l
ĠCreat ive
L ife
Ġh ill
Ġre n
Ġse al
ĠL ib
Ġrep airs
Ġhum or
ĠApp ro
ĠHigh way
Ġir rit
Ġtoile t
ĠB urn
Ġpro pri
ĠL ic
Ġ3 60
Ġ5 1
Ġgener ic
Ġcou rage
Ġemb race
Ġpow ered
D oes
P G
ct ic
Ġan ch
ĠD J
Ġinc om
Ġann ually
ret ion
ĠMc G
Ġparalle l
Ġs atellite
ĠS ony
ĠA I
Ġgener ous
Ġoper ator
Ch ar
Ġfig ured
ĠYear s
Ġfro zen
M od
f r
h ill
n ut
ore t
ost ic
Ġbr anches
Ġgl ory
Ġhy brid
Ġfem in
ĠBer lin
ĠCam bridge
ĠCra ig
Ġd ess
st op
ĠM ars
un s
Ġr ou
Ġnot ion
Ġsh ipped
ĠCle an
Ġarg ued
h ave
t w
ĠT oo
ĠS ave
ĠMan chester
Ġvert ical
B N
M ich
O ff
T uesday
W ednesday
Ġw ing
Ġin hab
Ġdesign ing
ĠSim ply
Ġenem ies
Ġagric ulture
Ġsynd rome
D ec
ou ver
ut her
se lling
ak i
Ġpres erve
bo ards
Ġappreci ated
" )
e le
m ate
Ġth irty
Ġl oop
Ġass ert
Ġspecial ized
Ġtem por
gu ard
aught ers
Ġsett le
reed om
Ġspons ored
ĠYOU R
g ie
ĠR s
ĠO pp
Ġsp an
Ġgr at
ĠAg ric
B R
Ġt ension
Ġh al
Ġg reet
ĠRes erve
Ġsn ap
Ġcru ise
L ove
an ke
Ġth rew
Ġbe aring
ĠC ape
Ġst opping
ust ain
ip es
part y
Ġpsych ological
Ġs our
Ġd ict
Ġst olen
ĠB L
ĠG R
Ġch ip
ĠDe b
Ġdest ruction
edd ed
Ġbur den
add y
Ġsuppl ied
Ġteasp oon
f und
Ġbro ker
ĠFriend s
Lear n
P ol
ĠB rew
ĠN orm
Ġco aches
Ġcount s
Ġ0 9
Ġdifficult ies
Ġneut ral
M c
Ġc ub
en z
Ġin k
Ġd ough
Ġsl ip
Ġ0 2
Ġste re
Ġcool ing
Ġmat hemat
Ġsty lish
ĠId ent
lah oma
l ie
Ġp el
ĠA th
ĠE C
Ġqu it
Ġ6 6
Ġrequ iring
P D
w ind
im ens
ation ally
ĠM ail
Ġend less
Ġprocess or
Ġclin ic
Ġinfl ation
b urn
ĠC C
ch ildren
ĠR ace
ĠL anguage
Ġdis ability
Ġlast ing
con f
anc ouver
Ġexcess ive
ĠLind a
ĠConnect icut
Ġtremend ous
ĠT ai
ĠN BA
ak h
Ġatt orneys
Ġcar ing
Ġemb arrass
ĠEar ly
ĠLu ke
G S
b ie
ic ular
Ġg al
Ġmusic ians
ĠJust in
Ġpull ing
Ġfeed ing
Ġemp ower
igen ous
im s
am on
Ġinst ances
Ġexpect ing
ĠAg reement
ĠH ad
ĠH ERE
ah oo
do ors
Ġf ancy
as m
ĠO sc
ord on
Ġcomple ting
Ġsil ence
ĠLa ure
Ġveter ans
ĠTit le
Ġlawsu it
a fe
w hen
ĠG ab
Ġab stract
Ġoper ators
Ġfast est
Ġargu ments
Ġadop tion
Ġcomplim ent
9 3
K S
M in
n ormal
Ġw rap
ĠW ITH
Ġr hyth
Ġapp le
ĠV A
ĠUn it
Ġcar ries
Ġ199 1
Ġauthor ized
Ġaud iences
comm un
Ġdivor ce
Q U
S upp
h ot
Ġb its
Ġde ar
ag a
Ġ5 6
ĠAr k
Ġseem ingly
ĠGr ant
Ġdecl ined
ĠHall oween
Ġlimit ations
Ġsurf aces
Ġr ated
ace utical
Ġsp are
Ġart istic
AS E
ID S
Ġstra w
Ġsell er
Ġaccommod ate
rape ut
Ġsh oe
rit is
Ġhand ed
Ġcent uries
He y
ĠFin ance
Ġdress ed
Se pt
Ġremind ed
Cont in
Ġinterpret ation
ethe less
F orm
Ġc ust
ĠC ow
ĠD R
us er
Ġmar gin
ĠComp et
Ġdeterm ination
Ġpers u
Bl ack
Ġcompe lling
S L
st ore
Ġg rain
ĠL iter
ry ing
ĠCh amber
ĠCon c
Ġcontact s
Ġbeaut ifully
Ġpoll ution
Ġforgot ten
m ont
ĠS EC
th ur
ond a
Ġoper ates
Ġengine er
Ġsou p
i y
ĠW E
ĠH oll
ĠD ur
ĠF ant
ab s
ĠN ort
Ġj ury
Ġreal istic
ier ce
Ġworth y
V I
u an
w riting
Ġl obby
ac co
cent ly
Ġpass engers
Ġcompet itors
Ġcult iv
Ġinsp ire
tr ans
ar ation
Ġback ed
Ġhand y
sc ribe
ĠComp an
Ġrom ance
Ġmoist ure
ĠR ow
Ġsu icide
ĠN ut
ru p
Ġbel oved
Ġref res
Ġexpl icit
ĠSc ript
Ġce iling
Ġlog ic
Ġstead y
, '
u h
Ġc ited
Ġb inary
ut ers
ĠH it
Ġex pend
Ġal uminum
ĠInd ex
Ġanal ys
Ġgrad uated
Ġconsult ing
ĠEv ents
ĠCre ate
Ġagric ultural
Ġprecise ly
J e
he alth
re ated
Ġto y
ĠR and
ĠK itchen
Ġadv ised
AC T
Ġattempt ing
Ġw ard
st orm
Ġg am
ĠT an
au c
Ġroll ed
ĠDou ble
Ġt ang
Ġl ying
ĠS ong
Ġst rain
Ġact ress
Ġsupp lier
Ġgu ides
On ly
Ġaltern atives
ĠRet urn
ĠRober ts
Me anwhile
Ġintellig ent
ĠMoo re
R et
ĠC art
Ġsh orter
uss ion
Ġmain stream
Ġreflect s
ĠLead ership
à ¸
id ity
Ġsh ame
Ġch urches
Ġall erg
ber ries
ov a
ĠBe at
Ġland ing
Ġwind s
Ġfru its
I AL
ou b
Ġd ash
ad er
ĠP il
ĠB ron
end ed
Ġconf used
Ġeffect iveness
Ġthreat ened
Ġhop ed
in ction
ol k
ĠP ear
Ġcomp osed
av irus
Ġhy d
> >
p ub
s ub
se mble
Ġ( "
form ed
Ġsupp ose
Ġed ges
ĠBl oom
Ġ0 6
Ġexhib it
ĠWin ter
9 1
A ss
g on
Ġhe m
ater al
get s
Ġtru cks
ĠAN Y
Ġmeasure ment
Ġhonest ly
g ins
Ġ ||
Ġp ione
ĠM uch
ant e
ĠG il
Ġen abled
Ġtime ly
Ġ5 4
ĠYou th
L D
Ġt ires
Ġo h
ic ity
ĠT ree
ag ine
pl ing
ĠK ate
Ġdis abled
Ġrel ate
ful ness
IN E
ĠPract ice
F igure
Ġw ides
Ġo xygen
ĠM ort
Ġag greg
Ġshe ets
az ed
Wh ich
Ġcond em
Ġvari ations
Ġshel ter
H aving
ĠB C
ĠW ine
ĠF ile
ĠN ik
cc a
Ġmed itation
Ġconf idential
Ġefficient ly
ĠWalk er
ĠChair man
le ans
ĠS ac
il itation
Ġr it
Ġpre view
20 15
OU R
Ġri val
Pro f
Ġretail ers
Ġentreprene ur
Ġan cest
ĠH ost
Ġsh ade
ud ge
Ġdiscuss ing
Ġport ra
ĠSchool s
ĠGl ass
Ġtit led
Ġemer ged
sec ution
Ġcorpor ations
Ġentertain ing
Ġrob ot
Look ing
ĠKenn edy
Ġvibr ant
ĠB ased
Ġsee ks
20 16
Ġart ificial
ĠPri or
Ġadop t
c ount
Ġc ater
Ġb ust
id th
Ġfl ags
Ġredu ces
Re view
ĠInt ell
alt ies
Ġconver ted
Ġanticip ated
T P
Ġn an
ĠA pr
ĠC and
ĠP oly
ĠR ound
Ġsh adow
iv a
ĠCh oose
Ġcare ers
Ġgr ay
ĠIm p
Ġglass es
ĠOrgan ization
ĠBit coin
B el
Ġd irt
ut ors
ĠW y
ĠH an
ĠG olf
ĠJ ob
vent ions
iction ary
ĠSpr ings
Ġexec ution
Ġinnoc ent
Ġp up
Ġp iano
st ic
ir able
ĠD ak
ĠL ane
Ġcar rier
of fee
200 7
ĠLaw rence
Ġir re
ĠPlan ning
Ġoppon ent
Ġtong ue
ĠEntertain ment
m ers
Ġf ought
am ous
Ġtra ged
Ġmod erate
lish ing
ĠAm b
Ġdeli ber
e ven
Ġg ently
ĠN ich
Ġcustom ized
light s
ĠCont ract
ĠDo ctor
Ġpropos als
spe cific
Ġaffili ate
I B
Ġ Î
ĠT rib
ig e
Ġr uled
Ġad verse
Ġgr an
Ġpersonal ized
Ġfund ed
ĠOnt ario
ĠC ann
ĠF ish
op les
Th ough
Ġsupp lements
OU N
Ġprogress ive
Ġfear s
icip al
Ġincorpor ate
Ġec osystem
Ġcorrespond ing
Ġv ocal
Ġrece ives
Ġjud ges
F F
Ð ¸
or ical
ĠC orn
ĠP ath
We b
Ġbi ological
Ġbound aries
ĠAud io
Ġaccompan ied
M us
ĠA qu
Ġsu p
Ġper pet
Ġ19 50
ty pe
pr ises
ĠPl ant
Ġterm inal
Ġland s
Ġkn ife
Ġsustain ability
ĠCharl ie
Ġw are
ĠD yn
Ġaddress ing
Ġstain less
G od
re ach
ĠB R
um ble
ail and
Ġcontract or
Ġlab els
Ġm un
Ġh oly
Ġst adium
ol ine
Ġr anks
ud i
pl ates
ell a
ĠMan h
ĠPer fect
ĠEm ploy
Ġcitiz en
ĠArch itect
Ġlegit imate
Ju ly
A c
C urrent
w ed
Ġsh aped
os ph
Ġout er
Ġent ries
Ġadv ise
Ġgr ants
Ġlight weight
Ġemb ra
Ġspokes man
S unday
b led
p read
in ar
he w
ie re
Ġdev oted
Ġtreat ing
Ġaud it
Ġder ived
b ound
n atural
um my
Ġpo etry
Ġsy mp
ik a
Ġdepend ent
Ġimplement ing
Ġfo am
Ġparam eters
iag ra
Ġelder ly
Ġc rop
ro gen
ĠC hen
Ġv oices
Ġpl ates
|| $
Ġend e
Ġworld s
ugg ed
d i
ĠA BC
Ġfoot age
ĠTH IS
str ong
Ġflo ors
g ate
Ġ ..
Ġo k
ĠH om
est one
au g
Ġhand led
ĠInd eed
ĠMe et
Ġachie ving
Ġsepar ated
Ġpeace ful
ĠBet ter
Ġl iver
Ġg ut
Ġdo zens
vel and
li hood
ĠPh D
ĠBar ack
Ġanaly ze
Ġimpl ications
ĠTem ple
Tr ans
Ġtwe et
ĠPrem ier
ĠCB D
Ġstake holders
Ġgrocer y
E m
ib bean
Ġper ception
Ġdet ection
Ġport ray
Ġstri p
Ġexcell ence
Ġinflu enced
Ġunf ortunately
Ġcab inet
2 000
w oman
im mer
Ġst amp
Ġsh out
Ġwhere ver
In tern
ĠEx cell
Ġgrad ually
ĠJo in
Ġtransl ation
Ġmerch and
Ġcontrovers ial
Ġhaz ard
C ustom
it ched
Ġin sect
ast ing
Ġplace ment
ĠNY C
Ġconscious ness
Ġb other
ĠS ource
ĠN EW
el a
iss a
Ġsec ured
Ġent ity
oun ge
Ġcalc ulated
v ada
ill ance
Ġco ins
Ġ0 3
Ġqual ities
Ġmotiv ation
ĠExpl ore
s ur
ĠT otal
ĠN a
ĠE aster
Ġ5 3
ĠAl an
Ġrad iation
ĠSpe ed
Ġteac hes
ipp i
M D
g ic
Ġr ational
ip edia
Ġinter pre
Ġart work
els h
Ġpop ulations
ĠSte wart
iver pool
Ġfold er
Ġwra pped
C or
T E
w ick
Ġs isters
Ġc it
es is
ĠL ad
Ġun necess
Ġconsult ant
Ġpaint ings
Ġterror ist
ĠHam ilton
Ke ep
B ig
m aster
Ġto ll
th od
Ġover s
Ġ5 7
Ġdec iding
Ġrest ricted
Ġwa ist
Ġquarter back
Ġdiscount s
Aug ust
ĠAnton io
L a
O K
d ers
u ke
Ġo d
Ġb ones
Ġcont roller
li est
Ġshow case
IT E
Ġsignific ance
Ġdiagn osed
ĠBru ce
m ph
Ġre vers
ĠA k
Ġst ones
Ġhe nce
ĠP ed
el and
ĠV ancouver
ĠAn imal
ĠEx p
Ġagree ments
Ġaccom pany
Ġjack et
Ġicon ic
m atic
Ġsc al
Ġam en
Ġenjoy able
ĠGr ay
Ġ198 9
ĠVal ent
Ġreported ly
Ġcelebr ating
Ġsurv ived
Ġsacr ifice
le nd
ĠT ob
ĠC ool
Ġde emed
ĠV it
Ġloc ate
Ġhold er
ĠSu ccess
Ġpick s
200 6
Ġmechan isms
ĠTerm s
Ġremem bered
M I
ĠC rit
est y
Ġsu its
ĠE ffect
Ġen abling
let te
hold er
Ġrock s
Ġtrou bles
ĠLook ing
S earch
Ġp ound
ĠS weet
Ġbu nd
ĠCom plete
Ġappro ached
Ġbre ed
IC K
Ġdark ness
ĠDet ails
ĠConst ruction
Ġcoal ition
ĠFoot ball
Ġimmigr ants
Ġsimultane ously
ĠBalt imore
in ate
Ġd rew
ear ly
Ġen roll
Ġpre ferences
Ġtw ist
Ġmem orable
Ġvar ied
Ġexpl oration
ĠGr ad
Ġsusp ension
ĠQuest ions
ĠPitt s
f ight
Ġs ake
ĠR at
ci ples
Ġag ing
ug ar
Ġhead quarters
ĠUS D
EL L
Ġmount ed
ĠProper ty
N S
Ġl ately
Ġout fit
ĠK y
oth y
ĠFl ash
Ġfavor ites
Ġsil ent
Ġnavig ate
ĠSus an
IGH T
i per
am ine
Ġwe lf
Ġcomp ly
iss ippi
Ġprof ound
Ġmarket place
Ġconf usion
omm y
Ġbul let
ĠFranc is
ĠMel bourne
Ġarrange ment
ĠHT ML
ĠS A
ĠW ire
ĠG ary
In ter
Ġmod ule
Ġel ite
Ġprotect ive
Ġcy cl
Ġjump ed
Ġhung ry
Ġaband oned
B et
J ul
on ia
Ġthe atre
Ġst ays
ĠAnd re
OR T
Ġtour ism
Ġwood s
ĠAut om
Ġachieve ment
Ġwelf are
Ġp y
ir ates
ĠM E
Ġr ust
Th ree
Ġvari able
Ġsens ors
---- ----
ĠInte gr
V A
à ¥
Ġ %
Ġv ib
Ġhigh way
Ġmag ical
ĠRec ord
Ġrelax ed
ĠScott ish
Ġconfirm ation
Ġbless ed
ĠMit che
D I
g ence
Ġt ennis
Ġte ens
Ġcl oth
az ines
Ġgrow s
Ġinvest ed
Ġident ifying
Ġfail ing
Ġep ic
ĠSim ilar
t est
Ġp add
ar ound
ĠR S
ĠL am
ap h
Ġpre tend
Ġshould ers
Ġdisc rimination
Ġtechn ological
Ġsuper b
Ġjo ke
Ġbur ied
Ġm aker
Ġn a
Ġg re
ĠB attle
Ġown s
ell ing
Ġdri ed
Ġ0 5
ĠOr leans
Ġpot atoes
Ġswe at
ĠEm pire
Ġnation wide
h as
Ġt u
Ġh arsh
ĠB uck
ul in
ĠH air
ĠBe ck
Ġla wn
ĠX box
medi ate
Ġclos est
ĠFore ign
Ġoverse as
Ġa rom
Ġg host
ĠS W
Ġsu ite
ĠN az
ĠSe veral
Ġcommun ic
Ġint u
Ġdirect ory
ĠPh oenix
Ġcontact ed
pro du
Ġste pped
Ġautom ated
tra ck
Ġreject ed
pl an
Ġpo ison
pr ing
Ġrout es
Ġcomplex ity
Ġreflect ed
Ġfol k
ĠM aking
Ġv ig
Ġcourt esy
umn i
Ġathlet ic
Ġpra ise
olit an
Ġoppon ents
H el
g ree
i ov
Ġt a
Ġf ut
Ġb in
ĠP ant
ĠH us
ĠD ra
Ġret reat
He alth
AC K
ĠIndust rial
Ġsevent h
Down load
b ably
r ison
ĠD ue
ĠL arge
Ġres erves
Ġpo ckets
ĠMc K
Ġdescrib ing
Ġarr anged
Ġsecret ary
Ġlegisl ative
Cra ig
C le
b es
y our
it udes
Ġd ia
Ġd ont
ĠW ol
pl ant
ĠK ings
Ġche er
Ġtrad itions
ĠNet her
Ġbroad er
Ġindepend ence
ĠCle veland
spe ed
ĠCharl otte
Ġpharm ac
Ġscholars hip
ĠTreat ment
D el
m ay
t age
on ies
at tered
Ġd aughters
ĠR ot
qu er
qu al
Ġthere by
Ġreg ards
Ġav o
Ġelect ronics
Ġste ep
Ġobs erve
Ġdiscl osure
Ġwid th
== ==
ĠOk lahoma
ĠBrook lyn
itzer land
O X
Ġsa il
Ġac ute
Ġcoll apse
ĠPort ug
ĠFollow ing
O OD
w riter
Ġc um
or ia
Ġf ails
Ġm art
Ġin her
Ġd ive
ĠS om
ĠS au
ĠA le
art s
Ġte nds
Ġapp et
Ġgl ob
su pp
Ġsepar ately
Ġwarm ing
Ġap olog
Ġm akers
Ġha ck
now ned
Ġadd iction
Ġbu zz
Ġmin im
Ġdemand ing
ĠMcC ain
D C
S en
ĠS ud
ĠF alls
od ed
ĠAl tern
Ġpresent ations
ĠCent ury
Ġcontrib uting
Ġround s
Ġharm ful
Ġwides pread
m itting
t able
or ient
ĠC os
ĠH ub
Ġshe lf
Ġdress es
Ġpsych ology
Ġflav ors
Ġanalyt ics
ĠCapt ain
ĠMedic are
P P
h ou
Ġa qu
Ġthe sis
ĠM ission
Ġinst itutional
Ġpres um
Ġdisc retion
Ġdeal er
Ġ198 8
ĠRob inson
ĠR ap
ĠSt ars
Ġsc rap
Ġsumm it
oty pe
ĠJenn ifer
W S
ing le
ic he
ĠH op
ĠK it
Ġsp o
Ġshe d
Ġend orse
Ġadv ances
Ġpass enger
Ġline up
ĠJohn ny
Ġtem ple
Ġaccept ance
Ġpric ed
Ġalbum s
ĠBel g
Jan uary
Ġexperim ents
Ġuncom fortable
f lix
le ading
Ġl ap
ail ing
rib ution
ĠBl ock
Ġexpl aining
Ġprom ising
Ġviol ations
Ġrepeated ly
ĠDise ase
T om
Ġc ure
Ġf itting
are r
Ġtre asure
ĠMe eting
Ġload s
M s
e rest
g ical
Ġw rest
Ġc ree
ch air
ond e
Ġrece iver
Ġclass ified
Ġspecial ty
ĠPr im
Ġparticip ated
in ery
Ġb icy
ĠC her
ĠG ay
Ġval ley
Ġdr unk
ĠMe anwhile
Ġsatisf y
Ġtransp arent
Dav id
L ist
a ired
l ies
ch ain
Ġover look
Ġprov ince
Ġgr id
ĠIs lands
Ġcand y
ĠPort land
Ġvend or
Ġexecut ives
Ġvessel s
Ġc ush
as ures
Ġne at
qu et
ail ed
Ġover t
Ġpre st
Ġref lection
Ġref erring
Ġrest oration
sh ot
Ġess ence
Ġclaim ing
Ġmeas uring
.... ....
Ġsurv iv
Ġassum ed
l ar
ĠL ater
ĠG ov
Ġdef icit
Ġopt imal
ĠCar ter
Ġrecommend ation
Ġ198 7
Ġmother s
Ġur ine
Ġrelax ing
Ġmotiv ated
ĠAdv anced
Ġmanif est
I E
g reen
Ġb ay
ĠK rist
anc ers
Ġdraw s
Ġtransform ed
Ġoblig ation
Ġrecy cl
Ġlegend ary
k ed
Ġre aches
Ġex it
Ġex em
ĠG as
Ġpur ple
Ġdist ricts
ane ous
Ġvol unt
Ġtomat oes
G r
M C
Ġth umb
ĠG ordon
ĠAr gent
Ġca ution
St ate
Ġcompet ing
Ġcal ories
Ġmanufact ured
Ġmeasure ments
ĠMag ic
Ġdisp ute
Us ing
Ġdim ensions
w l
Ġb ikes
ll y
ĠM atch
ĠW elsh
Ġdis k
ĠWith in
eral d
Ġstrugg led
Ġnove ls
icon duct
Ġvan illa
ĠCe le
O G
Ġ1 10
ĠG PS
ĠAl ways
ĠCo le
Ġlog in
Ġpros per
Ġjournal ists
ĠCast le
ĠManh attan
A G
P ay
p ur
Ġt ar
Ġsec urities
Ġ18 0
ĠSur vey
er ver
Ġp ant
Ġl bs
iv als
Ġpe er
Ġshe ep
Ġread ily
Ġbo ots
be y
Ġdist ract
Ġcross ing
Ġfra gr
ĠBen j
Ġrit ual
st ock
ment ed
Ġsh r
Ġsh ield
ĠY eah
Ġgu ided
Ġbr ut
ĠAd ams
Ġtext s
Ġtour ist
Ġver ify
c ap
f ly
ĠC ould
oo ps
all ing
out heast
ĠSo x
Ġactiv ists
St ill
Ġcomput ing
Ġcas inos
Ġcoc onut
d ing
w atch
Ġre ct
ĠP ric
op es
iv ities
ĠAr c
ĠLe gal
Ġpri est
Ġspecial ists
Ġcrit ics
Ġselect ing
lim inary
Ġminor ity
!!!! !!!!
ĠâĨ Ĵ
k g
Ġp ays
ĠD ating
ĠSh ipping
ivid ually
ĠZ e
Ġtou ched
ĠAdd itional
gl as
Oct ober
m aker
is ers
Ġre actions
Ġfor ums
ĠC old
Ġhe al
ĠY ellow
Ġbr on
Ġear ning
Ġcount less
Ġcle ver
Ġrep orter
ĠAm y
Ġvac uum
ĠHawai i
Ġt orn
Ġin cl
Ġh ike
ĠF le
ĠF DA
Ġex terior
iz able
oc y
Ġform ats
Ġcontract ors
Ġep id
ĠSen ator
W ant
Ġre de
Ġg est
Ġg rip
ĠT ok
Ġcor ruption
pos ed
sh ore
Ġattack ed
ĠMet al
Ġestablish ing
ĠStr ateg
Ġrefrig er
Ġd ot
Ġh orn
ĠI BM
ĠR idge
Ġcont rary
Ġinc idents
omet er
Ġorgan ize
Ġleg ally
Ġident ical
Ġbed rooms
ĠHer itage
ĠIS O
Ġisol ated
U K
i ated
ĠF er
ne ys
Ġfl esh
ĠRe lease
ĠCom b
con st
Ġbad ly
) (
Ġre wards
form ing
Ġfree ly
Ġcap s
ĠMar ine
ĠCar ibbean
Ġvari ables
Ġlo vers
Ġliter ary
ĠOver all
oles ale
Wor ld
c at
ur d
ĠR ather
qu es
Ġj am
ric ane
ĠCol lect
Ġtable ts
Ġalleged ly
s chool
ĠF IG
Ġex cuse
ĠUn like
Ġrep rodu
ĠInc re
Ġinsp iring
Ġboy friend
Ġstraight forward
Ġfort un
Ġnavig ation
ropri ate
7 00
e ffective
it ants
is ons
Ġwork force
ass ador
Ġco pper
Ġret ro
Ġcur ve
Ġ0 4
Ġaddition ally
sh ine
ĠInt el
Ġtow er
Ġexperim ental
g un
Ġ vel
Ġb ases
ĠH ug
ĠN ash
Ġle ase
Ġdefe ated
vis or
Ġutil izing
= "
ĠP ad
Ġdis abilities
Ġpart ly
Ġdif fer
Ġport able
ĠCons erv
ĠGree ce
u ations
ĠB enef
Ġad min
Ġout doors
ru e
Ġfil mm
umb ing
Ġaffect ing
R P
Ġf oster
ĠS alt
ĠB Y
ass es
Ġany time
ĠV ar
land o
Ġser ial
Ġmar ine
Ġbank rupt
rapeut ic
O pen
l ink
Ġw ings
Ġc ents
am ins
Ġas h
Ġse w
um ing
oc he
Ġinvest or
Ġapplic ants
ape l
Ġut ter
Ġcontain ers
Ġappreci ation
Ġrank ing
Ġsitu ated
En ter
Ġ 00
Ġst reak
ĠM agn
ĠW at
ap or
Ġtra ils
Ġeas tern
Ġcook ie
Ġdram atically
ĠGal axy
O H
S ometimes
p op
Ġw ars
Ġy eah
Ġg ardens
ad ows
ĠH E
Ġdo ct
ne ath
Ġun pre
Ġar bit
Ġam id
Ġbase ment
ĠIm age
ĠSa fe
ĠHun ter
Ġpubl isher
Ġadvent ures
Ġthro at
d am
e ared
h is
Ġn aked
ĠC raft
Ġreport ers
Ġpat ience
Ġhy pot
ĠMain e
aren cy
N ov
k m
Ġp ix
ce ive
ĠTh ailand
amp a
Ġinv al
ĠAn na
ĠSc reen
ĠMc Donald
EN D
Ġprior ities
ari os
Ġhom eless
Ġcolle ges
n ote
Ġs ink
Ġf ate
ur red
ĠB ath
iz ard
Ġsc ared
row ing
Ġstri ve
Ġsqu ee
ĠJac ob
Ġproport ion
m ad
Ġd ivers
Ġh iking
as ive
Ġg aining
ĠS ett
ĠW right
ĠG OP
ĠE le
Ġpresent ing
Ġnice ly
ĠBroad way
Ġlibr aries
Ġb ol
Ġb oring
Ġp unch
Ġth ou
Ġbe ating
te ch
ip her
Ġsa ves
act s
Ġgener ating
Ġref use
ĠMiss issippi
ĠWay ne
Ġadvoc ate
Ġnegoti ations
Ġorient ation
Ġly rics
H z
Ġin herent
Ġre nder
ur u
ie v
irt ual
Ġaccept ing
ĠTy ler
Ġoblig ations
Ġinstruct or
Ġsurprising ly
F S
Ġt ropical
Ġw ound
Ġm arch
ĠC oc
ĠW ant
ĠD omin
Ġent ities
ĠDe ep
Ġdeterm ining
Ġmix ing
ĠCons ider
ĠTur k
Ġt ags
Ġb out
al so
ve t
ad vant
ĠM as
ĠB us
ĠB esides
Ġde lete
ĠF at
ĠL E
ĠE S
ren a
Ġ19 59
Ġshow c
az y
Ġtestim ony
ĠNig eria
ĠNether lands
Ġw ore
st ration
ol ars
iz on
Ġspe eds
own ed
Ġ5 8
Ġpat ent
Ġint imate
ĠInd ians
Ġprevent ing
Ġdepart ure
ĠAss ess
Ġeth ical
ĠQue ens
oster one
Follow ing
Ġsuspend ed
B ay
B ased
W est
b rew
is ure
Ġb esides
ar o
Ġth resh
pt ions
Ġrel iability
Ġcol ored
ple x
Ġopt ional
pro duct
ĠOper ations
Ġ `
Ġbe aches
ĠV ision
Ġpo le
Ġfl aw
Ġattract ed
ĠRus sell
t wo
v ious
Ġd ign
ĠT ogether
im ents
Ġr ings
Ġcomb ines
AS S
yl on
Ġur ge
ĠSw itzerland
Ġnut s
Ġrenew able
ĠJon athan
dep th
D et
j ud
Ġf ence
Ġh int
Ġre nd
ĠI RS
ĠR ules
Ġbo ats
ĠChrist opher
200 4
ĠChe l
Ġblock ed
Ġsubscrib e
bre aking
Ġt iles
st age
ĠL ux
ure rs
Ġfe ver
oll ar
ĠCom pl
Ġ7 00
Ġmoment um
Ġprint s
Ġcorpor ation
Ġign ored
ĠSwed en
ĠH em
Ġtra uma
Ġsuggest ing
umb led
Ġsens itivity
Ġremind er
ym ph
ĠGra ham
ĠUr ban
Ġjurisd iction
s ize
Ã ±
ĠC ash
ĠB aker
Ġpro l
Ġsp ouse
Ġpe ers
Ġcons olid
be cause
ĠReg ion
Ġsus pected
ĠAnge l
ĠPri ze
Ġf et
Ġp aste
ĠC offee
ĠB irth
Ġpro st
ĠF igure
ĠR io
ĠG T
gg ing
ĠShe l
Ġlaunch ing
Ġpoll s
Ġmut ual
Ġclimb ing
Feb ruary
k ward
Ġb om
ot ing
el ed
ĠV erm
Ġtreat s
Ġpress ed
Ġfre el
ĠMin i
Ġregard ed
Ġappe aling
Ġadjust ed
usal em
Ġprivile ge
Ġtraged y
Ġw ages
Ġf ont
ĠF resh
em et
ĠG a
ĠN BC
Ġch apters
Ġmus h
Ġfriends hip
Ġmag azines
Ġhon ored
ĠAssoci ated
claim ed
ĠPhilipp ines
Ġconj unction
e ous
Ġs ized
Ġw and
Ġf er
Ġf itted
ĠF reedom
Ġal ien
Ġch ampions
ĠJ oy
Ġdes ires
Ġmin imize
ON E
idd ing
Ġattend ance
ĠBill y
Ġdelic ate
ĠThanks giving
Ġinflamm ation
Ġo un
ĠL ot
ĠG iven
Ġpl aint
ac hers
ont al
ĠDe al
Ġi T
Ġcamp ing
Ġcapt ain
Ġjournal ist
Ġprop ag
ĠEnter prise
G en
h ar
Ġb ureau
st ick
Ġle verage
pt ic
ink le
Ġrel atives
Ġtrans it
Ġcor rel
Ġunt o
Ġpress ing
Ġstruct ural
ĠUp date
** **
ĠRest aur
ĠCond itions
r ors
ĠT ips
ĠT arget
ĠF ra
Ġim aging
Ġacc idents
Ġhome work
ĠAl ice
ĠMar ia
Ġincorpor ated
Pub lished
D ep
M art
u it
Ġt att
Ġl ighter
Ġis lands
ĠS kin
ĠM B
ĠW olf
Ġsa fer
ĠSt op
Ġco in
cept ions
ĠInd ones
Ġinstall ing
Ġcolor ful
Ġanaly sts
Ġbrief ly
Ġconv ince
Ġattrib utes
Ġcomprom ise
f are
Ġn est
ĠB ond
ist ance
ĠE V
ci um
Ġtw elve
Ġ5 9
ĠPro p
Ġnews papers
Ġmedic ines
m ary
on z
Ġl one
ro duct
ĠT X
id ges
ĠD ance
Ġso ap
20 18
Ġcou pled
ĠFe atures
che stra
Ġphys icians
Ġrespect ed
Sh are
ĠCompan ies
he imer
Ġin clusion
ĠB ah
Ġcon vention
ĠR aj
ist ically
ĠAl ong
Ġext rem
Ġint ensive
Ġconst ra
ĠPer ry
Ġtarget ing
po ons
P E
e re
Ġp ose
Ġd airy
ĠS ad
am ents
ĠD iet
ĠN AT
Ġtr icks
Ġunder ground
Ġinter rupt
Ġlist ings
âĢ¦ ]
uck er
Ġcap ac
Ġnon profit
ĠCor ps
Ġsen iors
Ġtur b
OV E
Ġsem ester
Ġd imin
Ġk iller
Ġrec overed
Ġdif f
Ġ6 2
Ġeduc ate
ĠCons umer
ĠSch olar
Ġpros pective
May be
ĠFrank lin
Ġkil omet
Ġdys function
. :
Ġde put
ĠG race
Ġdes p
Ġlong est
Ġfr ames
Ġcost ly
ĠUS DA
Ġexist ed
Ġaccur ately
Ġvir uses
Ġcos m
Ġunnecess ary
Ġamen ities
P ublic
h uman
er als
Ġ( @
ĠE SP
Ġout let
ĠY anke
ĠSt ay
Ġbo oth
ĠNe vada
new s
Ġfa cial
Ġstrugg les
Ġthr illed
Ġdelight ed
Ġrecy cling
ĠTru e
! ).
i ological
s k
Ġp itc
st art
Ġat e
ĠN elson
Ġab ortion
ry pt
Ġ3 50
ĠCom ments
be c
Ġprote ins
Ġcreat ures
Ġcompan ion
Ġdig it
ĠTechn ical
ĠPal m
Ġdiam eter
Sec ond
Gener al
ĠLaur a
S H
u ity
w ritten
in yl
pe red
ĠL isa
du e
Ġvers atile
Ġemb od
Ġtour ists
Ġfarm ing
ĠTechn ologies
Ġindepend ently
Ġalleg ations
Ġmyster ious
et ooth
ĠB ol
Ġr ug
Ġcle ans
Ġobs ervation
Ġcondition ing
ĠDel hi
Ġoccas ional
Ġeditor ial
ĠNAS A
Ġperm its
ĠIndepend ent
Ġreven ues
o ks
r ons
re ls
Ġf are
an ne
Ġm ales
Ġsh ake
Ġmod ify
ĠTr ad
Ġdeal ers
sec urity
Aut hor
Ġphenomen on
Ġthe ft
Ġon ion
Ġst arter
ĠM ix
em ade
Ġsh ine
oy d
Ġdes erves
Ġfl ip
Ġcons ensus
Ġmort ality
Ġfuck ing
i op
is p
ur ring
Ġan x
ĠD E
Ġr ic
ĠE lement
Ġcons ume
Ġdon ated
Ġinte nd
ĠAn sw
ĠAd vert
Ġorder ing
che ck
Ġ198 6
Ġclos et
ĠMal ays
ĠMuslim s
T O
Ġh ills
Ġg el
ĠT odd
ĠC ass
ĠB io
ĠN J
ĠU V
Ġ6 3
19 16
Ġseason al
Ġintern ationally
ows hip
Ġreason ably
Ġphys ics
ask et
ĠPre p
ĠOther s
Ġven ues
ĠPitts burgh
emet ery
w estern
on ge
ag ne
Ġper ceived
Ġun re
Ġsc ary
Ġno on
Ġunder neath
br is
Ġeconom ics
ĠAm end
Ġwond ered
Ġden y
Ġcomplic ations
Ġflo ating
Ġcorn ers
Ġsurve illance
G reen
o ven
re ate
ĠB ear
ĠFr an
ĠSp ot
ĠRes ults
wh ite
Ġappear ing
Ġvol umes
Ġcross ed
Ġburn ed
Ġfle et
Ġdesper ate
ĠMov ie
f i
om ore
Ġe ighth
ĠP ink
ĠR ule
ĠJ en
rit ers
Ġnow here
Ġcle ared
sh irt
arent ly
ern and
Ġvari ation
Ġobs ervations
Ġdownload ed
Ġinflu ences
ĠWood s
Ġhousehold s
Ġlau ndry
B ar
j ack
Ġm ice
ĠA aron
ĠB apt
um mer
ard less
ĠHe at
ential s
Ġpar liament
Ġrepl acing
ĠIm port
Ġemb edded
Ġpredict ed
Ġdistinct ive
h al
j u
Ġb er
ic ts
ĠA part
ĠF ashion
qu est
ag ger
Ġun ve
ĠCom ment
Ġrest ra
uss y
ĠMar g
Ġsend s
Ġsubst itute
Ġgovern ance
p ace
Ī Ĵ
er gy
Ġre vel
ĠD al
ĠR ab
th a
Ġsh y
Ġj azz
Ġres on
Ġ10 1
Ġsub mission
ĠAr thur
Ġval ued
Ġprev al
ĠGr iff
Ġconv icted
ĠColl ins
opp ers
Ġtrave lling
Ġtradem ark
Ġcogn itive
Mich ael
M em
V C
i w
v ised
ĠS QL
Ġst abil
Ġan th
us ive
ĠL ock
ĠV i
Ġsec rets
Ġatt ractions
Ġbr ick
oot ing
cu its
Ġblog ging
200 3
Ġexam ined
OU T
ĠMor ning
sen al
U E
n i
Ġt sp
ĠT el
Ġal ph
Ġwhe at
Ġar c
cent ury
rol og
ĠTe a
Ġaff air
Ġbur st
mark s
Ġresist ant
ias m
Ġcontro lling
Ġsubsequ ently
U I
b in
Ġre nowned
ro e
ĠB ag
Ġde le
Ġcan cel
ac o
Ġtra ins
com ed
Ġprogram mes
pos ition
Ġstri kes
Su per
Ġcann abis
Ġsear ches
st airs
ĠC ars
Ġst airs
ĠP ent
ĠL iverpool
ĠK aren
Ġind ividually
com pass
Ġret rie
work ing
Ġste al
Ġchalleng ed
Ġlab our
Ġdress ing
ĠJer usalem
Ġclar ity
ĠBenj amin
Ġh ockey
ĠF ine
ĠG ib
um ph
ĠK ay
Ġ9 00
Ġunderstand s
Ġbehav iors
Ġdro pping
ĠDak ota
d ered
Ġm os
Ġin quiry
ll o
iv ic
ass y
ĠSe an
Ġ6 7
Ġland ed
Ġdead ly
Ġloyal ty
h h
u ced
re k
ord ination
Ġback s
Ġdem ocratic
Ġpath s
Ġpen et
ĠChristian ity
ĠCle ar
Ġhar ass
uis ine
Ġmerchand ise
F R
N ovember
ol ved
Ġpro x
Ġcon ferences
ĠR F
Ġr amp
Ġle ak
Ġfl ows
com merce
Ġcomment ary
Ġgrand mother
Ġadj acent
ĠTai wan
W A
as ma
ĠD im
Ġrem ed
arm a
ah o
Ġair line
ĠReg ister
Ġveget able
Ġcro ps
Ġglob ally
Ġn erve
ne red
Ġbl ast
Ġcount ies
Ġsupport ive
ett le
ĠDou glas
Ġproceed ings
T able
he lp
Ġre ass
ro lling
ĠH ousing
op ic
Ġun limited
Ġbet a
Ġloc als
Ġexp ed
Ġpost er
Ġcontin ually
Ġequ ality
Be ing
ĠEv ans
Ġincor rect
B en
Â £
Ġh ood
Ġcon gress
ĠR ice
Ġsu ited
ĠN ap
oc ate
Ġra pe
Ġinf ant
Ġenjoy s
ateg ory
Ġvari eties
Ġhor rible
Ġaw kward
ĠThom pson
Rem ember
je ctions
F ull
U RE
d ig
r in
Ġ ic
Ġg au
ul u
Ġind ication
ock et
Ġdist ur
AS H
Ġencoura ges
Ġneigh bour
DA Y
ĠLab our
ĠPalestin ian
g ro
h u
Ġp ad
ar se
Ġl un
ĠT ig
ĠV ersion
Ġar th
rit os
Ġconst itutional
ĠRes ort
Ġspecific ations
Ġappear ances
Ġaw ful
Ġtal ents
F in
s ervice
Ġb ail
Ġra ck
Ġmon etary
gg y
Ġvisit or
elt a
Ġ198 5
Ġtact ics
ĠCli ent
T ON
f our
l ay
Ġm aj
us cript
Ġnot able
Ġfr ight
Ġbuild s
ĠBr ing
Ġtravel ed
clus ions
ĠAct ive
Ġbi as
ĠNet flix
Ġdecre ased
Ġspir its
J o
l on
al m
ĠS end
ĠA G
ĠO ri
Ġind irect
bs p
Ġfun eral
Ġintegr ate
Ġutil ized
Ġquot ed
ĠPrem ium
Ġexecut ed
Ġdisag ree
ĠOsc ar
9 00
M ENT
Ġs illy
Ġb ored
Ġh o
ol ester
Ġcon sole
ĠD ad
cl ick
Ġco inc
AR E
200 5
Ġrecip ient
ĠCert ified
Y et
re my
Ġb rowse
ig ue
Ġlike wise
Ġpart ially
Ġpe oples
Ġro ster
Ġra cial
ograph ical
Ġsuggest ion
ĠBar ry
Ġarch ive
Un fortunately
Ġeval uated
ĠPlay er
ĠRock y
Ġshel ves
quir ies
Sept ember
P erson
S outh
ĠT ouch
ĠS ER
ĠB eth
ĠO w
Ġconduct ing
Ġanaly st
ĠF al
pect ives
Ġdiv ine
Ġconsist ing
Ġconsist ency
Ġbra ve
ĠBel ow
Ġdisapp ear
Pl ay
ĠSum mit
Ġterror ism
ĠCN N
Ġnutri ents
Ġto b
ĠHe nd
Ġrel ie
âĢ¢ âĢ¢
Ġimm ense
ĠTor res
Ġhabit at
Ġstrict ly
ĠA RE
Ġr ides
Ġher bs
Ġdes cend
Ġpoint ing
Ġfr idge
Ġtri ple
Ġdam n
Ġpromot ional
Ġhighlight ed
Ġhero es
bu ilding
Ñ Ĥ
ĠP resent
red ited
Ġout break
ĠInst all
On line
Ġtrain er
Ġstrength s
Ġprec ision
Ġchart s
ĠBase ball
L P
P oint
b ath
b ling
g hed
Ġw ax
Ġl ined
Ġsh ore
ced ented
Ġdon ors
Ġmod ules
Ġassoci ations
Ġfresh man
Ġbra ce
ĠInvest ment
Ġdomin ant
ĠMur ray
N G
d irect
ĠH unt
ĠG B
ĠLe ave
Ġknowledge able
OM E
Ġorganiz ational
ĠGet ting
Ġsport ing
Ġbell y
P aul
R ight
S an
S et
Ñ ģ
ĠI R
et ics
ĠW ard
Ġout lets
ĠY oga
Ġafter wards
Ġfil ters
for ced
Ġbar riers
ĠPost ed
Ġspread ing
Ġchem istry
Ġconcent r
Ġdiam ond
ĠEmer gency
Pres ident
or ig
Ġd ub
ĠA er
ĠC ulture
Ġback ing
Ġdon ate
arch y
Ġcar b
Ġ9 7
ĠAd ult
enn a
Ġpack ing
Ġavoid ing
Ġkick ed
Ġtail ored
b ase
c ode
Ñ Ģ
an cer
ĠS ustain
se arch
ra ham
ĠF an
ist ant
ĠO bs
ĠJ obs
vers ion
Ġmod est
Ġhealth ier
ĠIs a
Ġvol tage
Ġwel comed
ĠRob in
Ġcraft s
ĠBeaut y
ĠiT unes
S un
i pper
u j
Ġs ore
Ġb ree
Ġl over
ĠS omething
ĠAd obe
ĠMan ual
Pro duct
Ġprin ter
ĠCap it
ĠCurrent ly
ĠOcc up
Ġridic ulous
I Z
P H
i em
p in
ch a
ĠB oo
um bers
ĠO tt
Ġbu gs
ĠLe ft
Ġdist ant
atter y
ĠCan on
Ġeduc ated
Ġclean ed
Ġadapt ed
Ke y
Ġmand atory
ĠPatri ots
dri ven
ĠAth let
B O
N EW
a ci
al ia
ĠH omes
ĠWh atever
Ġrun ner
Ġ[ âĢ¦]
Ġsell s
Ġcry ing
Ġingred ient
Ġspons or
Ġmagn ific
ĠClin ical
Ġrecruit ment
ibl ical
Ġhomeown ers
f ive
Ġw re
ul ent
ĠH o
ĠH u
ĠF BI
Ġr anges
ĠN G
ĠE c
Ġch amber
oc ur
Ġsub t
Ġ8 8
Ġsoon er
ĠSam uel
ĠOffic ial
iov ascular
M at
x ide
Ġv iagra
ĠG ate
hes s
ĠCom merce
Ġdem o
OR D
Ġbon uses
v ance
Ġb onds
ĠC itiz
ie ces
Ġar ise
Ġra ises
Ġnic he
A tt
ve ment
ĠT ed
ĠJ ar
ĠU ntil
Ġmet er
Ġint ake
Ġconf using
ĠOr lando
ĠBr ight
irm ingham
Ġcry stal
Ġremind s
ĠLiber ty
D B
Ġt anks
ĠM erc
if le
ĠN ative
Ġpart ial
Ġbl ade
Ġbook ed
ĠBr un
ĠDel ivery
Ġmail ing
M ax
N ational
Ġd ensity
Ġh iding
ĠM osc
ĠP in
Ġde bris
ĠR u
ĠL en
os ures
ĠCl ay
Cl ass
Ġmid st
Ġroll s
ĠAnt i
ĠRem ove
Ġconcent rate
Ġwitness ed
Ġcharm ing
ĠWik ipedia
f old
ll ers
ch ron
ĠP ap
ĠB art
Ġcon tend
all ow
Ġman ages
ĠFr ame
Ġwa ited
Ġpromot ed
Ġcounter part
Ġoccup ied
Ġtables poons
ĠAdminist r
Ġbatt les
H appy
Ġe rect
ĠM ason
ĠP oll
ĠF ight
ĠR d
ĠO d
ose x
ble m
ĠSh aw
Ġpri zes
Ġcamp s
Ġconnect ivity
Ġcelebr ity
ĠMor ris
cipl inary
Ġshock ed
Ġking dom
GB T
ĠGi ants
C ent
K now
Y eah
g roup
Ġp ile
ed a
ans hip
Ġsur gical
Ġform ing
Ġsk irt
Ġprof itable
cer pt
Ġpack s
Ġport al
Ġcollabor ative
mind ed
he im
om as
ro be
am med
ol o
ment ation
ĠL oss
em en
ĠK r
ĠSt orm
Ġclass ical
AN S
Ġdraw ings
ĠCamp bell
Ġdetect ed
Ġw ool
Ġb anned
ĠS ens
ĠR acing
ĠL an
ĠCh ase
Ġdig est
yl an
Ġsubst ances
Ġachieve ments
Ġappl iances
Ġthank ful
Ġacknowled ged
ĠDiam ond
h ole
l ad
Ġre un
ĠS L
ĠS in
ĠB ird
ke ys
Ġpro ceeds
ĠH ans
ĠH amp
Ġ1 30
un ge
pl ess
Ġcomm od
ĠPro gress
... "
Ġeas iest
Ġtravel s
Ġfloor ing
ĠMarsh all
. ),
A K
Ġm amm
Ġin ject
ĠC ream
ig ma
ĠH orn
qu ire
Ġgr ades
Ġgr asp
Ġbre ach
ĠTr uth
Ġcir cles
Ġforest s
Ġsurve ys
Ġbes ide
orient ed
P s
d rop
r imin
es ity
Ġp ills
ount ain
Ġun h
ens ed
20 19
Ġfound ing
ling ton
ĠZ en
Ġcy cling
ero ids
Ġfundra ising
F urther
N orth
Ġre ign
ĠM all
Ġan k
ge red
ĠF ly
ĠF em
Ġj unk
Ġpre ference
Ġmon ster
Ġpen alties
Ġscen arios
Ġenthus iasm
Ġmob ility
ĠTransport ation
. ).
b one
Ġb atch
ar ity
ess ional
ĠN urs
Ġman ually
Ġres il
Ġspe cially
akes pe
Ġrest ored
ION S
olester ol
N ever
Ġp ale
Ġp orts
id el
ke e
Ġsh ades
ard ed
Ġj ar
Ġdeal t
ĠGu y
ĠWar ren
Ġweekend s
ĠUp on
ĠAv oid
Ġcontinu ously
ĠSol ar
ĠDemocr at
Ġrid ers
Ġinfect ed
S am
as is
Ġg em
ot hing
ĠW a
Ġcont rad
ĠAl t
Ġrese mb
AC E
Ġsn ack
Ġaw a
Ġobtain ing
Ġmax imize
Ġsust ained
IM E
Bl ue
Ġsubscrib ers
Ġuncertain ty
A nt
T w
Ġre ck
ĠS ay
ĠF urn
ĠN one
art en
ĠIn iti
ĠK el
Ġmay or
Ġfin ishes
li ver
ix on
Ġmed al
Ġsl ides
Ġexpect s
ĠÂ §
uff y
urch ase
Ġsold ier
Ġded ication
ĠCamp aign
Ġdelay ed
Ġje ans
Ð ½
it le
Ġb orders
Ġh ind
am an
ch i
ĠP D
pp y
ĠF ro
ĠR ent
Ġtw in
Ġstart up
ĠCom mercial
ĠCl imate
ruct ive
ĠGu id
Ġbar rier
Ġnecess ity
ĠCommun ication
ĠTool s
Ġavo ided
X X
ard o
ĠK a
Wh ite
Ġgl uc
Ġpract icing
Ġrev ol
Ġprem ier
ĠIS BN
Ġspons ors
Ġvary ing
Ġaest hetic
Ġanalys es
Ġunpre cedented
L ocation
T Y
v acy
Ġf oss
Ġp ork
Ġm igration
ig o
Ġhe ated
th ink
ĠL ower
op edia
iz ers
ĠK al
ĠY ahoo
Ġam p
olog ically
Ġimpro ves
ze ch
Ġgrad uates
Ġinvestig ating
Ġpartners hips
ĠSim ple
ĠCommission er
ĠHol iday
Ġmagn etic
Ġdispos al
ĠPsych ology
Ġlin ear
ĠIntell igence
N OT
b ank
Ġm ock
ĠA irlines
ĠD er
Ġpat io
ĠBl ues
play er
Ġinvestig ations
Ġdefe nding
Ġpen cil
Ġmeant ime
Ġfert il
Ġcust ody
ĠValent ine
o ft
ĠP ra
Ġle ver
Ġcomp ound
Ġres ur
ange l
Ġhand les
chn ology
Ġ' :
ĠRes ource
Ġcreat or
Ġmiss ions
ĠMet ro
Ġfat al
Ġcompl ain
Ġabsor b
Ġelev ated
Ġevol ved
Ġamend ment
ĠL uck
ĠL arry
ĠG ill
ial is
ĠWe ather
Ġneed ing
Ġfin an
Ġinj ection
Ġ198 4
Ġcomment ed
Ġfem ales
ĠPet e
Ġplug in
Ġtransp arency
Ġthresh old
1 20
M icro
R ich
h ma
Ø §
ĠT ar
th an
ĠE ye
ont in
Ġatt raction
Ġsim ulated
ĠCol on
app ropriate
Ġdest inations
Ġstress ed
ĠLead er
ĠBas ic
Ġcoup on
arat us
akespe are
1 000
C are
w y
Ġf ame
ĠA id
Ġse ver
ĠL em
ĠK ath
Ġam ateur
Ġpres cribed
Ġsk ip
Ġcor rupt
Ġpast a
itch ing
ĠEss ay
worth y
z o
Ġb ump
ed ed
Ġin clusive
ĠP H
Ġv inyl
op ard
Ġall ies
Ġour s
Ġgener ator
Ġprot ests
ĠSa udi
Ġremark s
Ġassign ments
ĠMult i
Ġdess ert
B usiness
H ar
Ġl iable
ĠD ragon
og an
Ġfirm ly
Ġtast y
ĠLeg isl
A ir
Ġd ur
ĠS el
ĠA y
ag g
ĠK night
ĠCh i
Ġtra ce
Ġinv itation
Ġ7 8
Ġpartic les
Ġbreak down
umb ai
Ġvill ages
Ġresol ved
/ .
B ER
R ec
S w
Ġc ave
ĠT N
ĠC BS
ad ays
ĠP as
Ġse gments
ĠR AM
ĠL ay
Ġdis advant
con nect
ĠComm and
Ġbit ter
ows ki
ĠCo al
Ġport ions
Ġlog ical
Ġtast es
pat ient
Spe cial
. (
p df
Ġ verse
ĠS leep
Ġj et
Ġper f
Ġpre liminary
end ing
Ġmod er
ĠLe ban
Ġmain tains
Ġlack ing
ĠUp dated
Ġjump ing
ĠOrig inal
ĠRout e
B r
D ig
Ġf ond
Ġp ond
ĠC ov
Ġde ployment
ĠG er
ac re
Ġ- >
Ġappro aching
Ġel abor
Ġrad i
Ġsn acks
ĠMon te
Ġplant ed
Ġdistrib ute
ĠPal ace
Ġadjust ment
Ġfif ty
Ġhun ger
Ġlaugh ing
ĠAgric ulture
S ur
Ġthe oret
Ġc ant
an ut
le tt
Ġnot ing
Ġch ill
ĠO ften
ĠJ oh
Ġqu ery
ĠV ent
Ġtra ff
Ġrun ners
Ġint r
ott age
Ġreb ounds
?? ?
Ġconsequ ence
Ġlit igation
Ġpursu ing
ĠBuff alo
ĠMosc ow
C ard
D ata
H ope
Â »
Ġu gly
our t
.. ...
ĠWe e
Ġinf ring
ai ro
Ġener g
OS T
atin um
Ġkne es
Ġspa cious
M E
P O
in is
ĠB ott
ĠF ocus
ĠG raph
we alth
Ġlist ened
Ġcr usher
ĠNe il
AC H
ĠSch olars
Ġwel coming
Ġped est
ĠColumb us
ĠCamer on
ĠFa ith
e lect
g irl
ã Ģ
Ġd iving
ĠM and
Ġch ains
Ġsc andal
arm s
Ġsun ny
Ġroll er
Ġath lete
ĠResp onse
ĠInnov ation
L ong
d ed
h aw
u ments
ri ors
ĠL if
ĠG rey
Ġprov in
Ġca f
ron es
Ġpract ically
ĠRes erved
ĠSu ite
ĠIm ages
Ġaltern ate
Ġstream s
inn amon
Ġcraft ed
ĠStr ong
Ġarg ues
Ġcock tail
othe rapy
Ġprest igious
ĠTok yo
C ome
m are
in ers
Ġd at
ro se
ĠC it
Ġst iff
ĠP ope
iv an
ĠJ oint
ĠJ unior
ĠJ ava
Ġoff set
Ġind ul
Ġunder graduate
Ġgood ness
Ġresp ir
ane an
app ro
Ġattack ing
Ġassess ed
Com p
Ġsequ ences
ĠMad ison
Ġwealth y
Per haps
ĠEsc ritos
Ġhes itate
Ġannoy ing
a que
s or
Ã §
Ã Ĺ
Ġpro secut
ust ed
ĠU P
Ġun ions
Ġac ids
Ġ6 8
20 20
Ġtop s
Ġfr ustration
ann ah
Ġcreat ure
Ġtem plates
ĠEd ge
ĠPark er
ĠCorpor ate
ĠOlymp ics
ĠOpt ions
D em
g ans
Ġb aked
ĠT on
ĠC V
ig s
il m
ĠThe ater
ĠG ard
ie val
Ġbl oom
Ġart ic
Ġed itors
Ġorgan izing
ĠPart icip
Ġqual ifying
Ġthreat ening
Ġload ing
ĠJim my
Ġfrustr ated
ĠBarb ara
Ġinev itable
oub ted
Ġfortun ate
Ġp airs
ra h
Ġde ce
âĢ¦ âĢĿ
ĠInd ividual
Ġcost ume
ades h
Ġreward ing
ĠSher iff
Ġprohib ited
Pol ice
Ġmun icipal
ĠVerm ont
b n
c ost
l arge
z heimer
Ġan onymous
Ġrel uct
Ġvis ibility
Ġaccess ed
Ġeng lish
by e
Ġtrad ed
ĠSy rian
Ġfunction ing
ĠStud ios
Ġpan ic
Ġscient ist
Ġcompar able
ĠOrgan ic
ĠEqu ipment
A h
V ery
W E
c am
Ġthe rapeutic
ic ting
ĠS ou
Ġpro long
ĠD est
ĠF isher
Ġdec ides
Ġ7 3
Ġcell ular
Ġcy cles
Ġsumm ar
ĠLouis iana
Am ong
Over all
Ġsoci eties
Ġcha os
ĠBrother s
iconduct or
P ar
p her
Ġto dd
ĠT ower
ĠW ash
Ġse ating
Ġcom ed
ĠL ang
Ġnot ification
ĠHe aven
br aska
Ġneg lig
Ġri vers
ĠUs ers
ĠRich ards
Ġfort une
Contin ue
Ġrefres hing
Ġf ires
ĠT rain
Ġde er
ĠN OW
um atic
ine e
Ġhas s
Ġrec alled
Ġear liest
Ġrele asing
Ġdocument ed
Ġoccur ring
Ġcatch ing
ĠWal ter
Ġtob acco
e em
Ġt ales
en cer
Ġd a
ĠT a
ĠM os
Ġso y
Ġcont amin
ĠV oice
Ġrec ession
ĠBe gin
Ġsince re
Ġz ip
Ġclos ure
Ġmid night
Ġstick s
Ġappoint ments
ĠWhe el
ĠMil itary
Ġdu pl
ĠId aho
Ġtun nel
ĠPub lishing
Ġpipe line
ing o
âĢ ²
ĠS und
ke ep
ĠW edding
ĠW rite
ĠK u
ress ing
Ġshe er
Ġbu ck
ĠPro s
Ġtrans cript
Ġbo om
Ġmet ap
Ġinflu ential
Ġpromot es
ĠAny one
Ġindic ating
ĠBet ween
Ġdiscl ose
ĠCert ification
Ġcous in
H ello
W ind
m us
Ġb inding
ed e
Ġst ew
Ġcl uster
Ġres ign
Ġsp ine
Ġreg ret
ĠSh an
Ġhold ers
rop olitan
Ġstat istical
sec ond
OW N
Ġpal m
Ġoccup ation
Ġfle e
Ġsymbol s
ĠDub ai
ĠESP N
Ġin equ
Ġe ternal
ĠW onder
ĠR ush
pe ople
Ġout look
ĠSp a
Ġautom ation
Ġexcept ions
ĠMon itor
Ġgar bage
Ġjoint s
ĠVis ual
Ġcinem a
ĠMichel le
S ch
Ġm elt
ar ium
ĠS pect
ĠB oot
ĠB irmingham
ge nds
ĠF ell
ĠR ange
ĠR isk
iv est
ĠV iol
Ġatt ain
Ġrev ised
Ġlic enses
ĠGreat er
Ġswitch ing
ĠResp ons
ĠRog er
ĠAmend ment
? âĢĻ
Ġa meric
Ġc er
Ġn urt
ĠM C
The ir
iz ar
Ġres ervation
ĠRe ally
rol ogy
Ġlight ly
ĠNe uro
Ġabs ent
ĠQu arter
ĠTH AT
bor ough
ĠAssoci ate
Ġarri ves
point s
Ġpray ers
Ġpun ishment
cons cious
Ġfrustr ating
ĠFant asy
N eed
P ort
b id
m em
u els
it utes
al g
ĠC isco
ĠB ou
ĠR y
ĠE li
Ġnew er
Ġag rees
Ġve gan
Ġsw ord
Ġfund ament
Ġ16 0
Ġcomb inations
ourn als
Ġstruct ured
ios ity
ĠCamp us
Ġdu o
Ġquiet ly
Ġtun ed
Ġadvoc ates
Ġsacr ific
Ġtomat o
Ġpropri etary
L ight
c os
ar ians
Ġbe ats
am as
ĠW oman
sel s
Ġ7 7
Ġmem orial
ps y
Ġland l
Ġrespons ive
Ġclean er
Ġtou g
ĠKe ith
Ġ198 2
Ph ot
Ġnation ally
Ġapart ments
Ġfaith ful
ĠCir cuit
ĠChampions hips
ĠChel sea
Ġh ilar
ion ed
ĠA CC
ĠB iden
ill o
ĠL uther
Ġam bit
Ġbl ues
Ġbu cket
OR K
af ood
oura ge
Ġsepar ation
De cember
Ġarchitect ural
ĠPhys ical
Orig inally
Ġmetab ol
j an
n or
r int
Ġw ounded
Ġp ine
ĠF am
Ġper ipher
Ġsp am
Ġacc l
Ġpo em
Ġsub ur
ĠBe yond
Ġrecommend s
Ġextend ing
Ġillustr ated
Ã³ n
Ġstimul us
Ġcoron avirus
V al
f its
al ph
le ased
ĠT rip
id o
Ġst ating
ĠM ath
ĠL ocation
Ġj er
ĠU A
Ġback yard
Ġsl a
Ġprev ents
Ġz ones
Ġanim ation
Ġemer ge
Un iversity
Ġkid ney
Ġsac red
Ġelig ibility
Ġtrib ute
ĠBlu etooth
ĠArk ansas
F our
d el
r ant
er ness
Ġl enses
ro ck
Ġle ar
ĠSt ories
ue z
Ġ6 1
Ġ7 6
ĠZ one
ĠMar vel
Ġprior it
Ġimag ined
ĠWild life
Ġsubstant ially
Ġobst acles
Ġrecon st
Ġlect ure
Ġalt ogether
ĠBM W
g ot
w idth
as ury
Ġg room
id ency
ĠB or
ĠW elcome
Ġne arest
un ks
ĠL GBT
any on
Ġinst inct
ins p
Ġgl oss
Ġopt ical
Ġtravel ers
ĠSpe aker
Ġfarm s
Ġwitness es
Ġdomin ated
ĠMur phy
Ġperman ently
Ġbless ing
Ġrevolution ary
Ġast ron
c hen
in come
on al
Ġp anc
ĠS ter
ĠM es
ge ls
ist le
op ter
Ġso fa
ĠK l
Ġpe nding
ank ed
Ġret ention
Ġhon ors
Ġdest ro
Ġarri ving
ĠVal ue
Ġmat ched
pa id
ĠJess ica
ĠDI Y
T otal
c ourse
e xt
h alf
Ġd ip
Ġhe els
ert ation
Ġmodel ing
Ġintrodu cing
Ġinvestig ated
Ġbi ology
Ġdoub les
Ġunf air
Ġbeat en
Ġlux urious
Ġadvoc acy
Ġphr ases
ĠEs pecially
ĠLabor atory
Ġbub ble
Ġintim id
S ep
at ility
at ched
or ph
Ġm ud
se en
ĠH ud
ab ul
ain ted
te lling
Ġso cks
ĠAr n
ffic ial
Ġanim ated
bor ne
Ġcool er
Ġgrad uation
Ġspot ted
Ġtend ency
Ġdim ension
Ġrhyth m
oubted ly
T ech
Ġc akes
Ġc yl
Ġin ning
ic os
ut o
ĠG round
Ġen compass
cl ock
Ġmod es
Ġbo il
Ġdist inction
Ġconst itute
Ġbas ics
ĠRep orts
Ġ14 0
Ġblog gers
Ġaff irm
Ġconsum ed
ĠHar per
Ġsand wich
Ġbrows ing
Ġsynt hetic
aret te
Comm un
intend o
Ġroy al
F ood
M B
Ġd ated
ĠC arm
ĠP ul
ĠP ier
ac er
Ġcomp aring
Ġcount ing
ĠQ ual
ĠTra ck
Ġdel ays
Ġtur key
Ġassum ing
Ġrot ation
ĠJam ie
ĠSud an
H ist
d et
ĠA CT
if iers
Ġdis g
ĠSe ven
Ġ9 6
Ġappro ve
An n
Ġtouch ing
Ġlif ted
Ġprem ises
Ġextend s
Ġsurround ings
Ġbreat he
Ġvir al
ĠStr ategy
Bu y
ĠStan ley
E s
G L
R ober
c in
re z
Ġc age
Ġl amp
Ġg ri
Ġfor k
ri ving
ĠF el
ĠR ES
ĠK id
Ġsl ice
Ġspec ify
Ġign or
Ġindic ator
Ġelimin ated
Ġbelong s
Ġcompr ised
Ġdeploy ed
Stud ents
S il
n is
re f
ed u
ĠA ub
ĠW A
ĠH ab
ĠF err
ĠL ost
ĠE gg
ag u
ĠCh rome
Ġdisapp eared
Ġsou ls
ĠPolit ical
atern ity
Ġrecycl ed
W ould
Ġthe e
ĠT u
ĠB os
ust ral
cl osed
Ġro pe
Ġgu ilt
Ġmed ian
ĠCo ordin
ĠSy n
Ġadjust ments
Ġpharm aceutical
Ð¾ Ð
ĠBeh av
Ġbankrupt cy
p rom
s ign
he ro
Ġc uisine
Ġbe ars
im en
am ination
Ġst rand
Ġhe lic
ri k
ĠL ar
Ġcl ue
ĠCh icken
Ġro d
Ġtra pped
ific ates
Ġbo asts
Ġsol ving
pro v
Ġsci ences
Ġconsider ably
Ġaccording ly
Ġflow ing
Ġsatisf ying
ĠCare er
Ġcoast al
Ġnurs es
ĠUnivers al
thod ox
L ead
p ensive
Ġm ph
as ia
st ory
im ated
ĠM N
Ġas leep
Ġwas hed
Ġnot ified
Ġnot ify
Ġout line
Ġman uscript
Ġun ited
ang o
Ġcomm ands
hed ral
Ġwell ness
Ġrem od
Ġinvestig ators
Ġpoor ly
Ġterror ists
ĠMaterial s
Ġa ug
Ġf isher
Ġl ane
Ġst eroids
ĠP ic
Ġr ul
pro te
Ġur ged
Ġur gent
Ġgrand children
Ġcru el
Ġeth ics
Des ign
ĠBrand on
Ġtrick y
Ġpursu it
Ġtherap ist
gi ene
ĠVeter ans
Ġdevast ating
H y
S y
f aces
r ise
ĠD ylan
oc a
ĠSt orage
Ġsc ent
Ġimp osed
Ġ6 9
Ġins ane
Ġname ly
Ġcou ch
Ġgra ve
ĠFin n
ĠOF F
Ġ> >
Ġadapt ation
Ġtransl ated
ĠFed eration
V ol
at ics
Ġc ort
Ġd read
le en
Ġg ad
Ġfor ty
Ġdes criptions
ĠAl zheimer
Ġwr ist
ator ies
ĠSc ar
Ġconst itution
Ġtrad es
tain ing
Ġsent ences
Ġautom otive
Ġsell ers
Ġinform ative
ĠProgram s
Ġhom emade
ij ing
ĠJeff erson
Ġtast ing
________ ________
Ġlau ghed
Ġles bian
Ġther mal
Ġemotion ally
H R
I X
P an
m ile
o i
ĠC ertain
ig hed
ĠM M
ĠG ot
ob i
Ġ9 8
ĠPl atform
IN D
ili ation
Ġcharacter istic
Ġdatab ases
Ġsan ctions
Ġgrab bed
ĠClin ic
Ġuncle ar
Ġpractition ers
Ġware house
Ġambit ious
f illed
o is
p al
im edia
Ġas pir
ener y
Ġgr ill
Ġgr ind
Ġcr imin
de velop
Ġcard iovascular
anc ies
Ġund ers
Ġdemonstr ates
Ġelement ary
Ġcrypt ocur
Ġpuzz le
ĠHig her
E lect
n ames
Ġthe ories
ing ing
um ns
Ġsh irts
Ġch ron
out ube
Ġvis a
Ġfree ze
ats on
Ġsal mon
US A
ĠPol and
ĠEm ily
Ex per
Ġdemon stration
Ġadjust able
ĠNever theless
d oc
ĠS ugar
ĠP el
ĠW R
ĠW ords
Ġab normal
ĠCh ocolate
row ave
Ġass ure
ĠAl b
Ġmet rics
Ġexpl ores
IN K
Ġfore x
Ġprotect s
Ġdyn amics
ĠUk rain
Ġtempor arily
G old
p ically
ï ¼
ul ates
Ġsh ifts
Ġcan vas
Ġle isure
Ġj aw
omet ric
ĠSo on
Ġpot ent
ĠNot es
Ġposition ed
Ġearth qu
ĠDoc ument
Ġabund ance
Ġmagnific ent
D en
Ġn u
Ġn inth
ĠA w
ĠM O
ul ative
os o
ide os
are l
Ġqu arters
ĠRe be
Ġact ed
Ġdevelop s
Ġtechn ically
Ġwarm th
C P
S l
t ic
Â ´
Ġb ully
st an
Ġg ast
ĠT erry
ir s
ĠB ot
ĠF if
ac cess
Ġsl im
ortun ate
enn ial
ĠPart ner
ĠSw iss
ĠLink s
Ġnomin ated
Ġintu itive
m i
it err
Ġp ics
ĠP red
Ġcon greg
Ġv on
ĠN at
Ġsp ite
Ġmin eral
Ġbreak through
ĠUs ually
ĠCons ervation
ĠAgain st
Ġexec ute
ĠVP N
ĠRestaur ant
Ġaccl aim
J ack
S orry
h ouses
Ġa ffe
ĠS oul
ĠC zech
ĠC anyon
Ġat he
Ġup s
Ġclear ance
Ġcomb ining
Ã© s
amm ar
ĠHor se
Ġvine gar
ĠRegist ration
Ġdign ity
ĠHamp shire
S k
T alk
b oth
in ance
is ible
Ġto e
ĠH at
ĠG un
Ġch ick
Ġen zy
Ġqu art
Ġ9 2
Ġ' '
ĠCon ne
AR S
Ġswe ep
ĠPal in
Ġfabric s
Ġsmooth ly
Ġconv iction
ĠUlt ra
Ġarth ritis
N E
n on
u v
y on
ĠP od
Ġare na
Ġ8 2
Ġgl ance
Ġreal m
Ġlaw makers
Ġbenef ic
ĠFe el
ĠDep uty
Ġwat ches
Ġmotor cycle
Ġupgr ades
Ġconflic ts
Ġtaxpay ers
ĠOpp ortun
ĠO z
Ġcl ips
Ġtra its
Ġph osph
ĠNot ice
ĠDes k
Ġball ot
Ġpen is
Ġassum ptions
ĠBoy s
ĠCru z
Ġrespir atory
- )
b usiness
Ġin aug
om o
ĠC able
Ġha un
ĠD elta
ĠN ancy
Ġdis charge
av ailable
Ġins isted
Ġvar ies
umb ling
Sh ould
Ġenter prises
Ġdemand ed
inc inn
Ġcloud s
Ġresearc her
T M
z i
Ġs ins
en h
Ġf ract
le ton
ĠT un
ĠG DP
um per
ber y
ell ed
Ġpick up
Ġformer ly
ĠPre vention
ĠExt ra
Ġmole cular
T I
c amp
Ġd ense
Ġfor cing
ĠA bs
ĠH alf
ĠL P
ĠJ azz
Ġcomp iled
Ġcar go
Ġcoll aps
Ġcivil ian
Ġment ally
ogen ic
Ġcontrovers y
Ġcompliment ary
ĠBapt ist
incinn ati
ĠL ions
Ġv ague
Ġal tered
ĠTh ai
ject s
Ġ9 4
Ġproject ed
ret ty
Ġupd ating
Ġlay ing
Ġgreen house
Ġsmart phones
Ġjournal ism
Ġintent ions
Ġsod a
Ġg ospel
ĠT iger
et on
ĠP ages
ĠH onda
ĠD ry
ĠR A
Ġch ase
ĠK il
av an
Ġjust ify
Ġbl own
ks hire
Ġass ass
Ġca res
conom ic
Ġmar ry
AR Y
ĠArt ist
ĠUs ed
Ġble eding
Ġesc al
ĠPR O
Ġcounsel ing
ĠFact ory
r ong
Ġt ens
Ġg rief
ur dy
ĠC E
ĠM asters
ĠH ung
Ġv o
Ġen act
ĠIn side
Ġun ity
Ġneed le
Ġco pe
Ġrem edy
io xid
Ġdr illing
Ġ198 3
Ġmis con
ĠLet ter
Ġcris p
Ġpredict ions
Every one
Ġcoordin ator
Ġadvis or
Ġpubl ishers
iterr anean
Ġ à¤
Ġe co
Ġn ails
ĠC atherine
ĠR anch
Ġne ur
Ġch olesterol
ov able
Ġplay off
Ġmet h
Ġinf in
uck ed
Ġmusic ian
Ġcirc ulation
Ġ197 9
Ġlength y
ĠPan el
b d
Ġt ones
an ium
ĠS oph
ĠA V
ĠH ut
ĠR achel
Ġres ervations
Ġdisc on
ĠCl ar
Ġref resh
Ġtri umph
Ġhum ble
Ġdi ver
atter ing
Ġpot ato
ĠGr an
Ġconnect s
Ġsun light
Un ited
ĠSing h
ĠFood s
Spe aking
Ġsoph omore
iot ics
C I
g ary
i aries
Ġp est
Ġn od
ĠS K
ul k
ĠR O
Ġun st
ĠHe y
ale y
Ġstr anger
ĠSpe cific
place ment
Ġfra ction
Ġfif teen
Ġfle w
Inst ead
E ar
m ir
Ġp oo
Ġm int
ll i
Ġst yl
ul ously
ĠE PA
all ic
ĠK le
Ġbus es
Ġob esity
Ġcustom ize
ploy ed
ok ia
IS S
Ġparticip ant
Ġfail ures
Ġtou ches
Ġassist ed
Ġconsum ing
na pped
Ġintegr al
ugg ing
Ġknock ed
Ġblank et
ĠAdvis ory
ĠMitche ll
L ive
m ill
Ġc attle
Ġf el
Ġy arn
ĠI A
ĠT her
ĠT ournament
im ity
un ny
ĠK irk
au kee
ced es
Ġplay offs
Ġright eous
Ġmem br
Ġaut on
Ġ12 5
Ġstrong est
de al
edd ings
Ġmer cy
ĠCr ime
Ġupgr aded
ĠProte ct
ĠEconom ics
Ġpill ow
Ġhorm one
1 10
J ames
L og
r ust
ĠT W
Ġst ove
ĠB ever
if iable
ĠF ame
ĠR ou
ĠR ating
Ġ8 6
Ġ' ,
Ġsens es
Cl oud
ĠIraq i
Ġtradition ally
ĠIran ian
ĠEgypt ian
ĠInf o
Ġdent ist
ĠEag les
e fficient
Ġm asc
Ġg um
ĠI F
ĠS ri
ĠP s
ĠB ald
Ġse aled
ĠL ag
ĠE ither
ĠJ ake
Ġk its
ign ment
Ġro ok
ĠBut ter
Ġ8 4
Ġreview ing
IS H
Ġblog ger
Ġpers pectives
Ġfair y
ĠJe remy
Ġcast ing
** *
Ġprison ers
Ġadministr ator
ĠArm strong
Ġdismiss ed
Ġconstit u
ĠSac r
k n
Ġw oke
Ġp ension
ĠA IDS
ĠC inem
ĠP ine
ĠD a
ĠO liver
iv ia
Ġqu een
ens en
Ġtra p
ĠNe braska
Ġblock ing
Ġbackground s
Ġhar ness
ĠVol ume
ĠAcadem ic
ĠHope fully
Ġsurge on
ĠBud get
Vis it
ĠNAT O
m ap
Ġh obby
ĠD od
ab a
op ing
Ġsh ifting
ĠTh or
Ġhapp ily
Ġfar mer
Ġsex ually
Ġsent iment
Ġimpact ed
Ġiniti ated
ĠPet ers
ĠStat istics
W ater
b ig
Ġl ining
Ġu pt
est on
port ed
Ġsl ave
ortun e
ĠComm ons
Ġcheck out
ĠFl oor
Ġsuper vision
ĠHis pan
lu x
Ġbehavior al
pir acy
ĠSwed ish
Ġpupp y
Ġwithdraw al
Ġrecru iting
ĠGab ri
C reat
K H
S D
Ġt ile
Ġd umb
ĠI an
Ġwe ights
em porary
ĠG ift
ĠN ice
Ġtra gic
ĠRe covery
Ġsomet ime
Ġfr ank
Ġste ering
Ġcal cium
Ġconsid ers
Ġteen age
ĠBudd hist
Ġnom ination
Rel ated
ĠHind u
Ġportra it
Ġfinan cially
P age
b ad
p oon
is ode
ĠC AN
ĠM umbai
ĠK han
Ġqu eries
ĠV ac
Ġcar riers
Ġanal og
ĠAdd ress
Ġdecl are
ĠPlan et
Ġpure ly
Ġlicens ing
Ġfo il
Ġunw anted
ĠPhill ips
Ġcancell ed
ĠTurk ish
( )
p ad
Ġth rive
ot ional
ĠM t
ĠM ut
ĠD ress
ĠL l
ight y
Ġen rolled
Ġco ordination
com fort
Ġpay roll
ee k
Ph il
Ġlif ting
ĠDirect ors
Ġtransl ate
Ġpump kin
Im age
ĠStan ford
ĠPict ure
ĠNash ville
E st
v ine
Ġm erc
âĢ Ĳ
am ation
ĠW alt
ĠH arm
ĠD ow
Ġsh ar
ib an
Ġfin ances
Ġsk etch
Ġpat ri
Ġcourse work
Ġeconom ies
Ġwond ers
Ġmass es
Ġcelebr ities
atab ase
ĠMad rid
ĠKnow ledge
oty pes
Ġrehab ilitation
ĠIniti ative
F O
M AN
O kay
T erm
l ace
p g
Ġs q
Ġm ate
ĠS aw
ad i
Ġhe d
ra cle
ĠP att
ĠH ence
ĠF lex
Ġex empt
Ġsh aft
ren cies
tt es
Ġreve aling
Ġver ified
OL L
Pl us
Ġment or
Ġgenuine ly
I d
e very
Ġ q
ĠD anny
Ġex otic
ĠG A
Ġal umni
our cing
Ġk g
atch ing
ĠBe ijing
Ġgl ow
Ġcor rection
ĠApp ly
ĠDes cription
ament o
Ġprompt ed
ĠPrin cess
Ġterr ific
ĠAssess ment
Ġanx ious
) ?
S ever
ou stic
Ġf iring
Ġm asks
Ġd oses
Ġl id
Ġl ymph
Ġst ats
ĠM ine
ri or
ĠG host
Ġ19 20
ank ing
Ġ8 1
ĠFor ces
Ġdr ill
Ġpar ade
Ġbar rel
Ġ198 1
itte es
ĠPost s
Ġinnov ations
well ery
Ġmax im
ĠHarr ison
C ong
C ount
c ond
Ġthe at
Ġg aps
ĠM ORE
op ath
and ra
Ġout rage
ind a
Ġexpl ored
Ġactiv ated
St and
Ġprob ability
ĠPark s
Ġmach inery
bor o
Ġeat en
Ġ197 6
ĠTre k
ĠInvest ig
ĠPhot os
ĠðŁ Ļ
Ġassemb led
ĠIndones ia
ĠYanke es
B E
P ower
y les
it ations
Ġl azy
ĠN HL
ĠE L
ry s
ĠV irtual
Ġar ising
Ġsub mitting
pr ising
ĠMin or
Ġprevent ed
Ġrespond ing
Ġassess ments
Ġdepos its
ĠWeek ly
ĠKind le
found er
ĠToy ota
ĠWire less
Ġic ons
p owered
Ġb od
Ġp ir
Ġp ear
ĠA rena
ĠL ie
Ġdo i
Ġpl umbing
Ġreal ise
Ġless er
sh aped
Ġnon etheless
ung le
Ġinterview ed
Ġprogress ion
ĠSur v
Ġfro st
ĠPot ter
Ġencount ered
I ts
P ack
R ob
S chool
Ġw ounds
es pecially
Ġm asters
Ġl os
Ġl ag
ĠT ampa
ur ally
ĠC elt
Ġst arring
ĠThe ory
ĠR eds
ak y
og g
ip h
Ġsp y
Ġ19 30
Ġunder go
Ġ7 4
Ġtrans mit
Ġmess aging
Ġcharacter ized
Ġill umin
Ġregul ated
ĠOther wise
Ġprofession ally
Ġoptim ization
Ġenhance ment
Ġpharm acy
ĠGrow th
imens ional
m art
Ġp iv
Ġp ads
Ġd amp
Ġg inger
Ġad oles
ĠK yle
Ġlike lihood
Ġdis ciples
ĠV IP
Ġcent res
ĠTe acher
Ġsche mes
ĠVol unte
ĠTest ing
Ġelimin ating
ĠStand ards
Ġreform s
Ġphotograp hers
C OM
r itional
at ured
Ġl ib
Ġe Bay
st ud
ĠH az
ĠF ig
ĠL OVE
Ġacc ent
Ġinv iting
Ġcol umns
Ġactiv ation
Ġpa ired
Ġmind set
ĠFe ed
So cial
Ġpred e
bur se
IG N
Ġstim ulation
Ġteen ager
Ġwal let
ĠBat man
Ġhoriz ontal
Ġdefic iency
Intern ational
m id
ã ģ
le vant
Ġth rows
ĠS r
ĠL ore
ĠN HS
ĠSt u
ade qu
AT ED
Ġlim iting
ĠSec urities
ĠGl en
ĠWar ner
Ġter rain
ĠCr usher
ĠKen ya
unn els
ĠCapit ol
L ink
u i
at on
ĠT ib
ĠB ishop
Ġcom ics
ĠR ing
Ġj ournals
Ġout lined
Ġfe ather
Ġtra ct
ĠUn less
Ġins ist
Ġgame play
ier ra
Ġaccount able
Ġsound ed
Ġgra pe
Ġgen ius
Ġrecogn ised
olute ly
Ġanaly zed
Ġrob ots
Ġindic ators
ĠSat an
ĠTurn er
Ġther m
Ġtradem arks
Ġalign ment
ĠMove ment
H ot
c orn
w aukee
is se
ĠB oe
ĠR C
ob ic
Ġunder m
hes ive
Ġinter fe
Ġint ra
ĠMed iterranean
che m
Ġblood y
Ġpred omin
ica id
Ġfat igue
ĠSand y
Ġtum or
Ġrac ism
ĠTig ers
Ġgluc ose
A gain
B B
t ics
Ġl aughter
ĠS we
Ġst atic
ĠD raw
ĠD ifferent
th ood
th ree
Ġch rom
Ġapp aratus
Ġun bel
Ġsp at
ĠNew ton
Ġop ener
Ġ7 1
Ġ9 3
12 5
Ġmil it
sc he
Ġattend ees
Ġmat rix
force ment
Ġunf ortunate
ixt ures
ĠExper t
Ġneighborhood s
Ġvit amins
Ġadm ire
ĠGuard ian
ĠEag le
izar re
C ap
C ON
M obile
T or
d iv
l it
Ġa ston
Ġn odd
th s
Ġsu cc
Ġpl asma
âĢĿ ).
ĠSt ream
Ġun su
ĠCh oice
ool s
Ġsl ower
ah l
Ġmet res
Ġclass ification
ĠBro oks
reg ular
yl um
Ġneg lect
Ġcat ast
Ġund oubtedly
Ġcolle ague
ĠArch ives
Ġcoordin ate
ĠPhot ography
ĠStat us
ĠCarl os
anth rop
Ġfest ivals
V ideo
W omen
l ift
re he
Ġb ang
Ġon ions
oo oo
Ġle nders
ould er
amp agne
Ġbet ray
In c
Ġmet als
ĠEx hib
Ġaccount ability
Ġcand le
ĠVictor ian
Ġalgorith m
ĠImp act
ĠMalays ia
m ain
in burgh
Ġs add
nd ant
ĠT s
ch ild
ĠM I
ĠH ours
ĠD ental
ĠThe rapy
ĠBl ake
ann on
Ġthought ful
che t
Ġz oom
Ġstri ps
Ġadminist ered
Ġhistor ically
ĠTrans fer
Ġ197 4
cel ona
Ġhilar ious
d ict
n ings
y ll
Ġf ights
Ġd rought
Ġg ard
ĠT ab
ĠA round
ĠC raw
Ġcon clusions
ĠO t
ĠIn sp
ĠV I
Ġpo et
Ġtrans fers
ĠSh ore
cast le
Ġmount ing
Ġstress ful
Ġretail er
ĠMount ains
Ġpool s
ĠMont real
Ġsan ct
Ġrenew ed
ĠBrazil ian
Ġrefuge es
ĠCompet ition
J un
he at
or us
Ġl b
ro le
ĠC ris
ke eper
Ġsu ck
Ġv iable
ast ics
ast ically
Ġper fection
ĠSt ri
Ġent ers
Ġbr ide
Ġbr ass
Ġinter val
Ġdef ines
Ġhard est
OR S
ĠMc M
aly st
Ġappropri ately
C ity
s ay
ab lished
Ġex ams
ĠG ospel
ĠN ag
Ġso cially
ip ed
ĠK an
ĠK ell
Ġsy rup
Ġhead lines
Ġcr ust
ĠMar athon
Ch ina
ĠHealth care
Ġjud icial
ĠRead y
ĠWell s
Ġremain der
ĠInter ior
Ġcrowd s
ĠTest ament
ĠLink ed
Ġmand ate
Rep ort
ĠBeaut iful
ĠHoll and
e u
o ise
Ġb arn
Ġl ou
Ġl akes
Ġcon gr
ĠF itz
ĠN i
Ġsh red
ĠJ ama
au er
Ġart if
Ġext ensions
ER Y
ĠÂ °
ĠNorth west
ĠOb viously
Ġautom obile
Ġdecl aration
Ġbudget s
ĠPhil ip
Ġslic es
ĠLuc as
ĠFurn iture
f ood
g inal
w ic
Ġwh olesale
ĠB rain
ĠD ame
ĠF M
ĠE ST
Ġoff line
Ġtr illion
Ġfl ed
the ning
Ġnever theless
Ġbelie ving
Ġelect ron
ĠÂ ½
Ġkey words
go vernment
ĠEd wards
Ġsimilar ly
Ġcoll ar
fl amm
Ġgrand father
Ġrelax ation
Ġsched uling
ĠFR OM
A lex
H ouse
c ur
r il
Ġc ough
ĠB ass
em a
ĠN ear
ard ing
fe ld
ĠY e
Ġdes irable
Ġinc ons
Ġsm iled
ĠCl ose
be it
rist ol
Ġrecord ings
Ġround ed
Ġconsult ants
ĠAnge ls
Ġliber ty
Any way
ĠRon ald
Ġpul se
Ġrecre ation
Ġtatt oo
l as
l ings
Ġd well
ic one
Ġg rap
ĠR ivers
Ġr ushed
ĠCh ron
Ġrel ates
get ic
In formation
Ġlast s
Ġ7 9
Ġshort s
Ġjo ins
ĠGr ade
head s
ĠAg ent
bl ack
Ġprem iere
Ġdiagn ostic
Get ting
Add itional
Pr ice
Ġinhab itants
Ġbrut al
Ġhass le
f erring
l ation
ĠT D
ĠS F
ĠF ortunately
Ġr h
Ġqu ad
ren n
Ġsm iling
Ġrest ing
Ġval ve
Ġbre eding
Ġve t
eng u
ĠAct ually
Pl an
ĠScient ific
Ġfoss il
T ry
e enth
t ails
Ġl ol
Ġe cho
Ġn ode
ĠT aking
ĠS ent
ĠC ultural
Ġwe ld
Ġad orable
ick er
Ġgl ue
oh y
Ġbit es
Ġreason ing
ĠBr ady
Ġansw ering
Ġlog ged
OL D
ograp her
ĠElect ronic
Ġprompt ly
boy s
ĠWi Fi
Ġcher ry
Ġincent ives
Ġdoct rine
E uro
F IG
M ain
M ac
Ġin ability
ĠS old
ĠB A
Ġapp ra
Ġsp ice
Ġco il
Ġinc on
Ġplay ground
Ġgr inding
Ġtechn icians
Ġopen ly
Ġref ined
Ġdiscuss es
Re al
Ġstick ing
ĠRE AL
Ġlabel ed
ĠApplic ations
ĠVin cent
Ġanch or
Ġward robe
ĠArgent ina
R O
R ad
o qu
Ġt read
Ġh ier
ch ant
ĠM itt
ĠM oses
ĠD A
ĠN ep
00 1
ĠU pper
ven ile
Ġsp ins
Ġsim ulation
Ġinter section
Ġpolit ically
ĠBr anch
Ġgra vel
Ġstat ute
Ġemb ark
ĠHill ary
Ġscr ut
Ġconvey ed
Av ailable
Ġende av
Ġvolunt ary
M en
P I
S ave
b ird
p ical
Ġs ung
Ġs ights
Ġc rap
Ġf ierce
Ġp estic
Ġp ipes
Ġm ant
om i
Ġre im
Ġy og
ĠM ack
ĠR aven
Ġgu ards
Ġfin als
Ġpost ers
Ġpromot ions
Ġoptim istic
Ġscream ing
Ġintrig uing
Mus ic
ĠElement ary
Ġgau ge
Sever al
D O
o el
Ġo ste
Ġp ist
ch anging
ĠB enn
ke ley
ĠW orth
ĠR uth
Ġsh ook
Ġle nding
ru ctions
Ġun p
ĠCh an
Ġinc oming
Ġinv asion
ĠAn im
Ġass urance
Ġdet erior
Ġgl oves
tend ed
Ġshort age
Ġexpress ing
Ġimag ery
Ġconc erts
ĠPri vacy
Ġkick s
Ġsched ules
Ġconcent rated
ĠVe h
fin itely
hand ed
Ġadministr ators
imp se
M M
l ap
o ors
s ky
Ġd ownt
Ġl ime
Ġn asty
ut t
ĠC incinnati
Ġcon clude
em ption
ĠK ra
Ġsc am
iss ance
ĠAl f
Ġplan es
Ġten ant
ĠPlay ers
ĠON E
Ġprotest ers
AV E
ĠðŁĻ Ĥ
N AS
r r
v ic
Ġp ussy
ĠP ure
ĠD ell
ĠD rop
Ġr het
ĠE R
el ong
Ġj okes
Ġuse less
cess or
Ġlast ed
Ġorig ins
ĠChe f
Ġemb ro
Ġ197 5
Ġcart oon
rim p
Ġrecre ational
ĠBreak fast
cycl opedia
ĠCele br
Ġdur ability
Ġaffe ction
A pr
O k
Ġo ak
Ġc od
Ġm es
et a
ad der
ĠE t
Ġab oard
Ġdis comfort
Ġinter ference
Ġkind a
ĠCent ers
af fe
Ġdam aging
Ġenh ancing
ĠDou g
Ġhospit ality
ĠTal iban
Ġsurviv ors
F unnels
c ott
h ad
l ied
in stein
Ġc ried
Ġto pped
Ġin box
ĠF it
em or
ĠN intendo
ĠE val
gh ai
ĠV ari
we b
Ġsol ved
Ġperform s
Ġhum idity
He ad
Ġmult ip
crib e
Ġant ioxid
Ġsens ation
Ġcrowd ed
cont rolled
list ed
avor ite
T el
s im
Ġd ull
ĠM ode
ĠB achelor
ĠD IS
ab el
Ġen light
pl ane
Ġcont ing
act ic
ĠY ale
Ġatt itudes
Ġins ulin
Ġmem or
Ġchar ter
Ġorgan ised
Ġtest osterone
ĠSte am
ĠMed icaid
af il
Ġmethod ology
Ġcitizens hip
ĠiP od
Ġevol ving
Ġconvin cing
ĠRog ers
Ġinev it
Ġexch anges
mph ony
M ade
Y ear
at able
Ġb ru
Ġn our
Ġg own
os ity
ud a
Ġfe as
oc ity
ĠV ista
Ġnew born
Ġmed i
ins ula
Ġperform ers
Ġlink ing
ĠState ment
ĠEn h
ĠMe g
ID E
Ġwar mer
ĠIm agine
col or
Ġregul ate
Ġ197 2
ĠON LY
Ġattrib uted
Ġsuspect s
Ġevol ve
ĠDri ver
ĠFA Q
Ġexem pl
C reate
Ġb ind
Ġu k
Ġst ance
ĠR V
ust ers
Ġdef ining
me ga
Ġactiv ist
Ġsw ift
Ġyoung est
Ġhon our
AM E
Ġhor r
Ġver ification
Ġtim ber
Ġsevere ly
Ġthick ness
Ġisol ation
Ġprotocol s
ĠIss ue
Ġmathemat ics
Ġrefriger ator
E v
h l
p arents
u ctions
Ġn ort
Ġde pri
th al
ĠG onz
Ġso vere
Ġsec uring
Ġmark er
Ġ8 3
ĠOut door
Ġgall eries
Ġdiss ertation
Ġaffili ated
Wor ks
Ġtort ure
ĠProdu ction
Ġvoc als
Ġpup ils
Ġaccompany ing
Ġdeput y
ĠMarg aret
ivest ock
f iction
g reat
Ã Ĥ
Ġo xid
ed ar
Ġm esh
ur ate
ol ia
Ġcon form
Ġv ou
Ġwor ries
so ever
Ġdis par
Ġfl ies
Ġfl oral
Ġ8 7
ĠAr senal
ĠQ atar
Ġve gg
Ġresearch ing
ĠRep air
Ġpred iction
Ġquant ities
ĠMont ana
ĠCir cle
ĠQuest ion
ĠOak land
Rober t
L ocal
N ET
Ġa pt
Ġp df
Ġn ost
ĠM az
ĠW atson
Ġv ivid
ine es
Ġk ills
Ġover ly
lic t
Ġco zy
Ġ19 40
omet own
Ġgl impse
Ġdist ress
Ġspecial izes
Ġkind ness
Ġtrad ers
ĠOff er
Se lect
ĠJul ie
Ġank le
L S
M ike
N on
V E
b ach
Ġd os
Ġl ounge
ĠM T
ke eping
Ġout reach
Ġpr one
Ġdon or
Ġmod ifications
Ġgl orious
Ġrep et
ĠMar ie
AR K
Ġcred entials
Ġten ants
Not hing
gl ass
Ġcontem pl
ĠDef ence
Ġpupp ies
D ear
b ot
re ctions
Ġh ott
ĠC rown
ol er
ĠD S
ment ioned
ach t
Ġback pack
Ġmod ification
Ġstr ings
Ġdry ing
Ġ197 7
ĠCustom ers
Ġcream y
App le
En joy
Int erest
Ġadvis ory
ĠHon or
Ġinsert ed
Ġslic ed
ĠSimilar ly
ĠBelg ium
A ccess
v d
Ġm i
Ġg y
ĠP T
Ġse lections
ĠF o
Ġcont ra
Ġrel ies
alth ough
Ġhere in
Ġbr idges
Ġgl uten
ĠSp ider
Ġsw itched
ĠFl ight
Ġquestion ed
Ex pl
isco ver
Ġimpl ies
Ġrank ings
Ġtiss ues
ĠPub lished
Ġenthusi asts
Ġtoler ance
Ġrenov ation
ĠFac ulty
whe el
Ġinex pensive
B ra
he astern
or ie
Ġbe ast
ĠS N
ĠS i
ur i
ĠP le
Ġpro pose
Ġcomp ounds
Ġpo ems
Ġimport ed
ĠAd just
Ġ197 3
Ġmechan ics
Ġguarant ees
Ġdiet ary
Every thing
Ġoverwhel med
Ġexplos ion
fr ame
Ġdele ted
E xt
m ount
m illion
s ki
Ġa irlines
in formation
Ġw icked
is al
Ġd awn
ĠT ask
ĠC ad
ĠC ards
ĠB ir
Ġpro state
ĠW es
ĠD if
Ġse as
Ġse wing
ĠG ardens
Ġad ul
Ġcl ay
ĠTh under
ĠK erry
Ġam azed
Th ink
ank a
Ġcustom s
Ġquick er
ĠDis cover
Ġsus cept
Ġpull s
Ġcry st
Ġunf old
Ġargu ing
Ġteen agers
orig inal
V er
Ġl od
Ġn ick
Ġst rap
ĠD ol
ĠR ate
ĠE mma
ĠCh ampion
Ġdes ce
less ness
Ġca ut
Ġlog istics
ĠSupp ly
ĠPub l
B D
D isc
M ult
ĠS outheast
ĠM IT
Ġas p
Ġpro cure
ĠW ILL
ĠR ic
qu are
ĠN okia
Ġsp ices
ĠAl most
Ġcur iosity
Ġpat ches
Ġenjoy ment
Ġfire place
Ġimm ers
Ġappe als
Ġpositive ly
Pro v
Ġcirc ular
ĠDel aware
Ġ196 7
Ġsimpl er
Ġsusp ic
Ġma pping
ĠHud son
R ock
f y
g ars
p se
w al
Ġa in
ĠM aj
Ġr am
ĠJ et
omet ry
Ġmin erals
Ġhapp ier
Ġcontin ent
Ġcompet ent
Ġbrand ing
Ġrad ar
ĠCoun sel
De velop
Res earch
Ġsucceed ed
intend ent
Ġdefect s
Ġinsect s
Ġtraff icking
g om
p ublic
Ġp ause
ĠC u
ĠP and
our met
io let
10 1
Ġopp osing
Ġcr ushed
ĠTe aching
Ġaccess ing
Ġface book
ĠGu est
Ġsurpr ises
bl ock
ĠBal ance
ĠMult iple
Ġsod ium
ĠBry an
Ġenroll ment
Ġfragr ance
Ġpitc her
ĠCoal ition
S al
he y
er ie
ĠT ap
ĠS pl
Ġst air
ĠP os
her ic
th on
ĠHe brew
Ġprov es
Ġimp air
ĠBe er
Ġgl am
Ġsmall est
Ġlive ly
Ġcontact ing
Ġplant ing
ĠProf ile
Ġ197 8
Ġ196 4
Ġtables poon
II I
olit ical
ĠLic ense
C y
D W
e ment
k h
u ber
Ġc ialis
Ġp ap
ĠH ack
ĠH app
ĠR T
ab e
iv ated
od a
Ġen rich
ĠK am
Ġsc out
Ġinv ented
Ġlot tery
Ġfree zing
Ġbro kers
ĠMe chan
EN S
Ġpath way
Ġver bal
Ġdiscl osed
OC K
ĠCost a
ĠWorks hop
ĠCommon wealth
Met hod
Ġcabin ets
S R
d isc
Ġf ried
Ġb ake
as a
ĠM Y
Ġgo ver
ĠEd inburgh
Ġgra vity
Ġdark er
Ġcast le
Ġcalc ulate
Des cription
Qu est
Ġcompr ises
Ġenthusi astic
Ġinspect or
Ġmit ig
Ġslee ve
Bel ow
Ġbicy cle
Ġconstra ints
ĠSER V
D ou
G iven
P eter
at ches
Ġc innamon
Ġf oul
Ġm ast
Ġl oses
Ġst ro
ĠP un
ĠG ir
Ġnot ably
Ġtw itter
Ġev ac
Ġcr ushing
ĠZ oo
Ġprofess ors
ĠSte in
OS S
Ġgas oline
ĠSur gery
Ġbath rooms
Ġpun ct
ĠCy ber
Ġdistingu ish
Ty pe
ĠChem ical
ĠBenef its
D ER
F ire
d ie
p ark
re b
Ġb acon
Ġin appropriate
le m
Ġn ap
Ġy a
am bers
Ġst ub
ĠF C
ĠE VER
um en
Ġsp ill
Ġacc us
Ġstud ios
ĠSh akespeare
Ġint act
Ġpri ests
ĠAb raham
Ġbal con
Ġdoub led
Ġesc orts
ĠÃ Ĺ
D ue
H E
b ott
re ne
is ive
ĠM i
ĠW AR
ĠL odge
ĠG H
Ġle ap
Ġle nder
ĠK az
Ġapp les
ition ing
Ġcomm ander
ph p
Ġhand made
the m
ĠLe x
ĠFl ore
ĠSu z
ĠCo x
Ġcompet itions
Ġ/ /
ĠAc cept
Ġmis under
Ġconcept ual
Ġcivil ians
Ġflav our
eal ous
Ġsimpl icity
Ġdistingu ished
Ġtu ition
ĠSett ings
Ġfreel ance
D E
b ay
Ġ 000
Ġwe aken
ĠD ictionary
ment ia
ĠO T
Ġres et
ĠV o
Ġover time
Ġtr ay
Ġrel ied
Ġint ric
Ġview er
ĠChe v
Ġri vals
Ġspot light
ĠHol mes
Ġpitch ing
uer to
G ive
b ag
f ull
r ams
Ġ à¨
Ġo re
Ġbe am
ay ed
ĠC otton
ĠP ump
ĠD owntown
ĠL oc
Ġcan al
ĠCh ance
Ġins ulation
ĠBut ler
Ġaut umn
ah n
ĠMc L
ĠDis play
ĠPar ad
ĠAssoci ates
Ġsil k
isc her
ĠRet ail
Ġveter inary
Ġnegoti ate
ĠPoint s
ĠHit ler
Ear lier
B ill
b ul
c ra
Ġt an
Ġc ables
Ġb illing
ĠC ant
ĠM ale
ĠP interest
ri en
ĠL CD
Ġv amp
ĠE dd
ĠU I
Ġthere of
Ġtr unk
arm ing
Ġsol ic
Ġcr ude
ĠPl aza
Ġel astic
sy stem
Ġlo ft
ĠPat ients
Ġlack s
Ġdiscover ing
Ġteach ings
erg arten
ĠNor way
ĠFour th
Ġrig id
ĠPolit icos
ĠFred er
ĠIde as
heart ed
health y
ĠExplore r
ĠUkrain ian
Ġcongr at
as i
st ation
ĠP rest
ĠB eng
op ed
Ġsh iny
Ġch ore
Ġoff shore
Ġrec alls
Ġimp rison
Ġstart ers
In s
Ġcare g
Ġaut ism
Ġaccess ibility
ĠBar celona
ris k
ĠFin land
fin ition
Any one
N umber
d ra
m itt
m ons
ĠS aints
Ġst un
ĠP G
ĠB attery
Ġor gans
ĠD oor
ĠR oche
ĠL ion
ĠE mm
Ġch rist
are ttes
ĠK ick
we g
âĢ¦ âĢ¦
ER T
ffic iency
sc ape
ĠGo ing
udd en
Ġtim eline
Ġfurn ish
Ġdisappoint ment
Ġabsor bed
ĠOpt im
Ġrib bon
ĠVit amin
insp ired
: :
Ġt el
Ġl amb
id y
Ġcom bo
Ġv ag
te nder
ne apolis
erv oir
up unct
Ġtrans mitted
Ġform ally
Ġcle aring
ĠMan aging
Ġapplic ant
bo at
ĠFl at
Ġlim itation
Ch ris
Re cently
Ġfoot print
Ġded uct
Ġdang ers
Ġunc ons
Ġtow el
ĠAdvent ure
ĠCry stal
osit ory
Ġplaint iff
J es
M edia
f amily
m el
t urn
Ġw ished
Ġc ens
Ġb ent
Ġin adequ
le tters
ot ine
ĠP O
ul atory
ĠD ent
ment al
ĠY or
ĠV ik
ons ored
ĠRe comm
ĠAn a
ix el
Ġspec ulation
-- -
Ġsound track
Ġste pping
200 1
Ġbra ke
Ġdecor ated
Ġroof ing
ĠGar cia
Ġhel met
ĠBrad ley
ĠCamer a
Supp ort
Form er
Ġprox imity
Ġtheoret ical
ĠRebe cca
Ġm atur
st own
Ġg ly
Ġbe verage
ĠC AR
il ateral
Ġhe y
ĠB ristol
Ġv om
ĠN an
ĠCh ile
Ġher b
Ġsc attered
ict ional
Ġser um
Ġgr ams
ĠCl iff
ĠLe o
Ġdem ographic
ĠSc ore
Ġbit coin
Ġspend s
Ġposition ing
Ġbal ancing
Ġinput s
Ġsam pling
Ġast hma
Ġdrag on
char ged
ĠPict ures
Ġmush rooms
O ld
P ut
f ocus
Ġb izarre
Ġp sy
Ġd are
Ġn ons
ĠT rial
et o
ĠM ong
Ġan ten
ud s
vel ope
Ġover head
Ġac ne
Ġactiv ate
Ġexpect ation
ĠApp arently
Ġsafe guard
ett ers
Ġrock et
Ġver b
Ġsem iconductor
ĠMil waukee
Ġemp ire
Ġmuseum s
Ġhoriz on
Ġtaxpay er
Current ly
Ġmetap hor
c ules
r ays
s a
er ial
ĠB anks
Ġcan ce
ĠO kay
Ġcont ests
ĠK ir
ĠSt age
Ġinv isible
ys ical
ĠDe pending
ĠSh opping
Ġ9 1
Ġcr unch
med ia
Ġeduc ators
ĠSte phan
ĠEn c
Ġcomfort ably
Ġten ure
Un like
ĠSol id
ĠHist orical
Fr ank
ĠArab ia
ĠPolit ics
ĠGene va
Ġappet ite
L ondon
U G
m ia
s ens
à «
it us
ĠC ake
ĠM ills
ĠB orn
Ġpro be
ĠH i
Ġse afood
ĠN iger
ĠRe form
ect or
the ir
ON G
ush i
ĠIntern al
Ġcred ibility
Sh ow
Ġworry ing
Ġsusp icious
Ġgod s
Ġembod iment
Micro soft
ĠTib et
I RE
f alls
Ġp ars
an ic
ĠA ld
ĠD raft
ĠL ength
Ġr im
art ered
Ġfe eds
ĠPol ish
Ġill ustration
ett es
reng th
Ġcert ificates
Ġnut ritional
Ġesc ort
ĠHist oric
Ġbelong ing
Ġmal ware
ĠCert ificate
ĠIss ues
Ġaggreg ate
Ġcommunic ating
Ġsever ity
P DF
b rand
h im
re ation
ar ious
ab ad
Ġex ports
ĠN H
Ġsh adows
ac ies
Ġsa iling
reat h
Ġun ch
Ġsc roll
Ġprov ing
ĠRe agan
Ġunder water
Ġpres erved
Ġmark ers
Ġseason ed
Ġconsider ations
Ġpaper work
ĠReg ulations
Ġdownload ing
Ġaw aken
Ġprefer ably
Ġfra g
ĠTre asury
bu ilt
ĠCa fe
Ġinstrument al
ĠDun can
ĠHart ford
ĠConsult ing
Ġdies el
role um
E nd
l ot
re nder
Ġc oding
an ia
ĠI o
ĠF ried
Ġal erts
Ġby pass
ag ain
ood le
ĠHe ights
Ġsc rub
ull ivan
cess ion
Ġsal vation
Ġcreat ors
AN CE
de v
Ġquestion ing
Ġut ilities
Ġshall ow
fl ower
Ġqual ifications
Ġrespond ents
Col or
Ġundert aken
ĠPow ell
Ġrend ered
Ġbom bs
ĠAdvert ising
. *
B ro
C AR
M att
Ġw ires
om ous
ro ts
ĠS it
ig m
Ġex cluded
ĠE lection
ust in
ĠIn it
Ġwhat soever
rib ly
Ġtri o
ĠAust ria
ĠSome one
Ġbud dy
Ġacqu iring
Ġeval uating
ĠAny way
ĠÃ ¢
Ġshock ing
Ġrecip ients
Ġrig orous
Ġmoist ur
Ġcush ion
ĠLeban on
% ),
H and
M al
T ell
a eda
d ates
~ ~
ĠT ickets
ĠR B
Ġpl ed
cl ip
cl ub
oc hem
Ġun for
ĠCh apel
Ġro de
Ġsm ok
Ġend ors
Ġpol ar
Ġcard iac
ĠHealth y
Ġcapt uring
que z
resp ons
Ġang les
Ġcommission ed
Ġvulner ability
ĠBon us
Ġlect ures
dis ciplinary
p ath
t ake
et ric
ĠP ool
ĠB ak
ĠH ook
ĠR ah
ĠR angers
ĠG ross
Ġsh ipment
ac a
ange red
Ġdisc rimin
Ġfree zer
Ġcent ered
Ġdi agram
Ġdev il
Ġmar vel
Ġce ment
Ġhuman itarian
ox y
Ġfilm ing
Ġdeterm ines
Ġdefin itions
With out
Ġbill ions
do i
Me et
bu ild
Ġcoup ons
Ġcul min
ibl ings
! ),
b ial
f ix
g ow
he rapy
at hetic
it ime
ol ves
ĠB T
ĠL anc
pl aces
Ġind igenous
ĠRe ed
Ġunder way
Ġins ult
ene z
atur ated
Ġnight mare
rop ract
Ġce ase
Ġris es
Ġtax i
Ġsent enced
Ġpers istent
Ġlength s
ĠPay Pal
Ġflo at
Ġbench mark
ĠBern ard
Ġski ing
ĠSab bath
rep resent
Ġrook ie
P LE
S O
S at
re a
st ead
ĠS hip
im o
Ġu mb
ĠH aven
el ia
Ġal igned
Ġall iance
ry ption
ove l
Ġpre jud
In vest
Ġsur pass
Ġexp ose
Ġdr one
ern ame
ĠIm per
ĠBob by
Ġanticip ate
ĠRequ ire
ĠKat ie
Ġcolon ial
Eng lish
FOR M
ĠPrim ary
ĠAub urn
gom ery
Ġgover ning
L aw
e ks
p ol
s hips
Ġ ì
Ġm im
Ġth under
ĠS or
ĠM is
ĠH ob
Ġwas ted
Ġex cerpt
per formance
ac cept
ire ction
Ġtr ump
Ġadd itions
Ġph ases
Ġinter ven
Ġchar ities
Ġfact ories
Ġpract iced
Ġshare holders
Ġfavor able
ĠSouth west
Ġhy giene
Ġmid field
Con nect
Ġforg ive
Ġsupposed ly
Ġtrig gered
Ġwarn ings
person al
Ġspin ning
Ġhaz ards
gener ation
L at
m ath
he a
Ġc ass
Ġd rown
se min
ĠM ob
Ġwe ars
ĠP aint
ge nder
ĠW ing
Ġ2 20
Ġv ic
ĠN Z
ci ation
Th ings
Ġinter vals
Ġinter ventions
Ġ8 9
Ġvis ually
Ġadv iser
Ġinform al
ĠMem ory
ĠBer keley
Ġillustr ations
Ġvent ilation
R T
W ow
Ġg ates
im eter
ĠM int
ĠP erm
ud er
ud ed
ne x
Ġsp oon
Ġrel ieve
Ġimp ose
Ġcount ed
Ġstr angers
Ġreal ised
Ġener getic
ourn aments
Ġexc av
US E
ĠTra ffic
Ġrecogn izes
Ġpers ist
Ġdrive way
ett a
Ġdiv isions
ram id
Ġadvance ment
Ġwilling ness
Ġshut tle
ĠArch ive
Ġoptim ize
ĠEngine er
App lic
ĠWall ace
Up date
Ġhook ed
ĠTele vision
ĠDub lin
ĠEvent ually
rat ulations
Ġseam less
T est
l iter
w ould
w ait
z el
on ents
Ġs ir
Ġs her
an or
Ġd orm
Ġe ld
Ġfor b
ĠB our
Ġan gel
Ġan gels
ĠR aw
Ġpl ag
ood les
ĠIn cludes
ne um
ĠRe uters
Ġrep ay
Ġpass ive
Ġz omb
Ġsle ek
Ġquarter ly
Ġcateg or
Ġ196 8
Ġassum ption
Sm all
OO K
Ġattach ment
Ġcig arette
S end
U lt
l ove
re view
it ated
ĠI G
id ad
ĠM end
ĠB le
ĠF ri
ĠR w
Ġsh ifted
ĠO UT
cl er
Ġra ft
Ġins u
Ġpost p
AT H
Ġcompan ions
Ġphys iological
Ġexpress ions
Ġple as
ĠInter view
Ġillustr ate
Ġdiscipl ines
Ġnob le
ĠDog s
Ġmic rowave
Direct or
Ġgrat itude
B esides
F ig
L ittle
f to
n c
w rite
à ©
in se
is le
Ġl as
ĠD ian
ĠR ib
Ġr ushing
ĠN W
Ġup side
ĠV illa
Ġback drop
aw ays
erm at
... ]
ss on
Ġdisc ontin
Ġfound ations
Ġrep ublic
Ġdig ging
Ġgra ins
ĠHer o
ĠInt roduction
Ġbra kes
sm ith
Ġlung s
commun ications
count ry
Hel p
Ġoun ces
ĠSustain able
B ox
n amed
p ent
Ġs ab
Ġb en
et al
ĠS ierra
ĠW ide
ĠL iz
ĠL oad
Ġbl owing
Ġ19 33
Ġmag net
Ġwild erness
Ġcommit ments
Ste ve
Ġder iv
Ġille g
ĠLaure n
Ġcosm etic
osex ual
S uch
c ot
s omething
â ĪĴ
it ored
Ġd ancers
ll or
Ġbe an
Ġst aring
ĠP i
ĠG RE
form er
ph is
ĠUn iverse
ĠWh ole
Ġmed ieval
ĠSo ci
Ġint est
ĠOr chestra
ĠSp encer
Ġsw itches
Ġvari ant
Ġhope ful
ĠGu arant
ĠPart s
ĠEm ployment
Ġliter acy
Ġcollabor ate
Ġrefer ral
Ġdu ct
Ġstim ulate
ĠBi ology
ĠGro ve
Ġrum ors
roph ic
Ġmart ial
h ang
Ġt v
Ġf og
Ġm arsh
Ġn ude
ĠA W
ĠC urt
ĠC airo
ver ages
ĠL it
res a
ĠN T
ĠN ord
ĠN athan
Ġover d
Ġmon ument
az i
ĠCon cept
ĠMed ium
Ġcrit ically
200 2
Ġdefin itive
Ġconduct ive
Ġregul ators
Ġband width
Ġclin ics
Ġlock s
last ing
ĠHy dro
ĠEll is
ĠRod rig
ĠPut in
aun ting
Ġexplicit ly
ĠPric es
ĠStrateg ic
F ace
F ound
F riend
c ence
d ec
Ġo v
Ġf art
Ġe book
Ġhe el
ĠB ike
ĠH erald
ĠL ots
Ġr ider
ĠG y
ac et
ord able
Ġsc oop
Ġsec ular
Ġteam mates
Ġpat rol
ĠEx cel
ĠCol in
ien cies
Ġtre k
Ch oose
Ġdom ains
ĠBu ilt
Ġanaly zing
Ġsurv iving
Ġharm ony
ĠHot els
Ġproud ly
ĠMer cedes
ĠJul ian
was her
ĠEth iop
Ġabund ant
ĠHug hes
ĠBirth day
Ġinevit ably
O p
Ġf res
Ġh ints
om on
ĠT ag
ĠA K
ĠM AN
ul se
Ġde nd
ĠF O
ĠJ a
ne e
Ġwork outs
Ġlong time
ell ar
Ġide ology
Ġdem ol
IN T
sh ow
Ġintern ship
Ġcrit ique
Ġstuff ed
Ġmis er
Ġrent als
Ġharm on
Ġoverlook ed
U ntil
V R
e ffect
i otic
k it
s n
s ure
in fect
Ġre lying
ĠH erm
ĠF itness
com p
Ġdown s
Ġrest art
Ġdist urb
Ġmar ginal
Ġcra w
head ed
Ġassist ing
Ġassess ing
Ġfat ty
ĠRich mond
Ġrail way
Ġclar ify
ĠBudd h
Book s
ĠLiber al
Ġtub es
ĠGrad uate
Ġbron ze
Ġwre ck
M ary
M iss
M aking
U B
f ashion
al one
Ġth igh
Ġg rie
ch y
ĠH our
ĠH ood
ĠR osen
ip ing
Ġam ple
Ġwell being
rit ic
Ġra ge
Ġvict ories
Ġintrodu ces
Ġtour ing
Ġarch ives
ĠPhil osoph
ĠStart ing
Ġstorm s
Ġrow s
Ġrandom ly
ĠBudd ha
Ġrac ist
Ġsemin ar
ĠSche dule
Ġelabor ate
Ġearthqu ake
N O
Ġc el
an ol
il ant
ĠP uerto
ĠD M
ĠL ed
ust ing
ry lic
ep s
we lling
ric ular
Ġins ured
Ġret ained
St ory
Ġident ifies
ĠChe ap
Ġsun shine
Sh ort
ĠGerm ans
TH ER
cont rol
Ġsyn c
atern al
quis ite
Ġren al
ĠPear l
fight ers
ĠPortug al
Ġcrimin als
" ;
F W
N T
S I
r ings
Ġw eddings
Ġb achelor
Ġg reens
Ġbe verages
ut ory
ĠA chie
ch t
ĠM ental
Ġpro sec
ĠD H
Ġcom merce
ĠE at
ens ation
Ġcomm ittees
ĠPro tocol
ĠDe cl
We ek
ĠTe en
ĠNe ither
Ġste ak
Ġparent ing
Ġcontrib utes
erc ise
Ġdoub ts
ĠEv olution
Con f
Ġdecor ative
Ġconfig ured
Ġgene alog
ĠJosh ua
ĠLib ya
Ġprosper ity
Ġadmin ister
Ġdistur bing
ĠShan ghai
Ġdiscon nect
B as
f s
l am
Ġs iblings
Ġbe ers
id ering
ĠR unning
ĠO P
Ġen vision
ren al
ific ant
Ġreg ener
Ġcar n
Ġnum er
Ġsl iding
Ġoper a
Ġequ ation
Ġpast or
Ġpar ish
Ġpress ures
ĠBr ig
Ġbar rels
Ġlog s
Ġgall on
Ġlandsc apes
Up dated
Ġconserv atives
Ġflood ing
Ġtherap ies
ĠNut rition
Ġexpend iture
Ġhott est
W alk
b us
u pt
w orm
Ġt in
Ġc ared
Ġbe nd
ĠC ort
ĠP arent
ĠW ake
ĠW ait
Ġch lor
ear chers
ack ed
ĠK ill
Ġres cu
Ġ3 65
ph ant
olog ic
Ġread ings
Ġreal izing
ĠBl air
ai res
Ġenvironment ally
Ġesc aped
Ġsand wic
Ġencourage ment
ĠDiv ine
ĠForm er
ii i
ĠMot ors
ĠDen mark
.' '
Ġdisappoint ing
Ġaffili ates
Ġbat ting
Sim ilar
Ġhydro gen
ĠML B
roduct ive
Ġsla very
F ive
P ass
S N
f o
l ength
n ia
is fact
Ġp oured
ĠT ommy
ir ie
ĠB uch
ĠW riter
ĠL G
Ġnot ices
Ġout dated
ib les
ĠPro bably
Ġcr icket
ĠInd igenous
ĠGr am
sp ot
Ġexhib its
Ġsear ched
Ġdipl om
Pri or
ĠGh ana
ĠSacr amento
A f
L R
y ards
re rs
Ġb ik
Ġb ats
Ġd Ã©
Ġh ats
ĠS id
il k
ĠD ennis
Ġv oid
um bs
Ġdis asters
av in
Ġserv ants
Ġeven ly
Ġinst itute
Ġmon itored
ĠPro ced
ĠLe af
Ġimpro per
Ġmean while
Ġfore most
mon ary
Ġbul bs
ĠThrough out
Ġcoordin ated
ĠDisc ount
Ġru in
Ġcul inary
ĠSU V
Ret urn
P ORT
T itle
c ook
v oc
Ġp ots
an che
Ġin acc
Ġh ips
Ġre he
Ġg reed
ad os
ĠM iles
ĠH A
ĠD iana
ĠF oster
Ġ( +
Ġcons piracy
Ġgu iding
Ġmark ing
Ġinter mediate
Ġdisc ourse
ĠEx pect
ĠCan al
de pend
18 0
Ġobs c
ĠGener ation
Ġfather s
Ġtight ly
Ġextensive ly
Ġvacc ination
Ġundert ake
Ġham mer
abul ary
3 60
E nt
S ure
w er
Ġg aze
ĠS IM
ad ata
Ġwh ites
ĠB ears
qu in
Ġv apor
Ġsh oppers
pl oad
Ġpre y
Ġsc enery
10 5
ĠSp art
AT A
Ġproblem atic
ĠX P
Ġhands ome
ĠHar bor
Ġinsp ir
sequ ently
Ġmer it
Ġvirt ue
ĠNov a
ĠOper ation
Ġimper ative
Ġimmigr ant
ĠMarc us
Ġgrap es
. /
M ad
m ake
s cience
ã ĥ
at uring
al ogue
Ġd uck
ĠB und
op a
ĠG aza
um ed
per or
Ġwho lly
oc aly
ob a
Ġrec ount
Ġsystem atic
Ġcor rid
Ġhead line
Ġhead ache
Ġmar athon
ĠJu an
Ġaim ing
Ġ197 1
inc eton
Ġ196 9
Ġsequ el
Ġforg iveness
ĠCou p
Ġexhaust ed
Ġencount ers
Ġendorse ment
ĠMerc ury
ĠStu art
) )
B T
W in
ĠC ogn
ĠO m
og ram
Ġapp rent
Ġyear ly
Ġacc redited
Ġ19 65
ĠDe fe
ĠÂ ±
Ġpark ed
Ġball oon
ĠDay ton
ĠSpe c
Ġstreng thening
Ġimag in
ĠJes se
see ing
ĠCle aning
Ġhighlight ing
Ġment ions
Ġschol ar
Ġped iatric
Ġtrib e
Ġsubsid iary
Ġanalyt ical
ĠRepresent ative
L L
W ashington
c ity
f an
Ġw ishing
or f
Ġn odes
ĠS ession
ĠP oker
ĠB erry
ĠB asket
os cope
iv o
ĠJ ourney
Ġj ealous
Ġout fits
Ġar row
ang a
Ġcomm ence
Ġrel ay
Ġbus h
Ġmon itors
Ġsystem ic
Ġpol ished
Ġwater proof
ĠZ ero
ĠCar r
Ġrele vance
Ġred ist
Ġswe lling
Ġprem ise
Ġimpl ied
ĠVer izon
Ġadm its
ĠLo an
ĠSn ap
Ġinspe ctions
ĠCub a
Ġhorm ones
inf o
ĠManufact uring
Ġsup reme
Ġhazard ous
Ġharass ment
Ġmetabol ism
ĠCoordin ator
C M
S ize
b ly
p hew
s ource
en berg
Ġto es
ĠC emetery
ig ent
ĠM illion
ĠM BA
ill on
ap le
ĠV ers
ish a
ov o
Ġgot ta
Ġhead er
rict ion
ĠPer iod
ĠGl as
ĠReg ulation
Ġsun set
Ġfix ing
uk i
Ġcalc ulation
Ġaccident ally
Ġphil os
Ġincent ive
olph ins
pres so
ĠBB Q
ĠScript ure
ĠExcell ent
Ġovers ight
f ox
p ic
Ġo we
Ġf ighter
an as
ar in
Ġh ose
ĠT orn
ay ette
im ination
ĠB P
ul ic
ĠR oot
ĠL akes
ĠN A
ĠK in
ĠK er
erv ices
Ġbet s
Ġfl ame
Ġserv ant
ĠCom ing
Ġchar itable
ĠCl aire
ik h
co al
Ġhum our
ĠPh ase
ĠCol omb
ĠApp s
ĠMin neapolis
Ã© e
Ġri p
ixt y
Ġveget arian
Ġremote ly
Ġwheel chair
claim er
ĠPack age
Ġhat red
ĠPrin cipal
ĠRepresent atives
ĠCand id
ernand ez
Ġacclaim ed
Ġunbel iev
, ''
H V
J on
S QL
c ats
h art
t oo
Ġp ave
ĠT A
ĠW aste
ĠG L
ĠY am
ach i
ach ment
Ġbl ades
Ġinv ites
Ġsub missions
Ġsk ate
ours es
ĠAm anda
ai ver
ster dam
Ġstat ue
Ġsens ory
ĠSw itch
ĠMon roe
Ġpath ways
Ġdelight ful
ĠIce land
Ġalgorith ms
Ġancest ors
ĠCov id
Ġhelic opter
B rand
b b
Ġs ang
Ġf ixtures
Ġp ins
Ġd in
ĠT ow
ĠM ak
ĠW ear
ĠF E
Ġch ic
Ġun cover
ink les
Ġbl onde
Ġbuild er
Ġpublic ity
ĠMar io
Ġpriv ately
Ġclick s
Ġstra ins
Ġfresh ly
press ion
Ġlic ence
Ġtow ers
Ġincorpor ates
Or gan
Ġreput able
ĠArab ic
Ġunve iled
ĠCitiz ens
L in
U AL
c ro
Ġw ipe
Ġc av
en za
Ġb is
Ġb ip
Ġst urdy
Ġpro secution
ard on
Ġsp inal
amp ed
Ġpat ron
Ġpos ed
Ġmar gins
ĠAt hens
pro cess
Ġred es
Ġdownload s
ĠGener ally
Ġbra ins
ĠBen ito
ĠVis a
Ġdepress ed
Ġmel ted
ĠUlt imate
Ġinfect ious
ĠTrib une
Ġbree ze
M el
T im
f est
Ð ²
Ġs id
ĠP OS
ĠH S
ĠD rew
ĠIn j
ĠIn come
ĠSt ain
ĠV el
ash i
Ġint ens
ann ers
Ġpersonal ities
Ġpar as
Ġpack et
ĠAb u
reg n
Be aut
Ġquant um
Ġscholars hips
Ġaccomplish ments
Ġspokes person
Ġexplo it
Ġcompos er
ĠLiter ature
Ġnodd ed
f ax
i ens
Ġt ournaments
ed uc
Ġm all
ĠT roy
am o
ĠF irm
ĠF iction
ĠR alph
ĠG em
red ict
og ging
Ġim pe
Ġsc ales
ues e
Ġche ek
Ġ9 11
be fore
Ġpos es
Ġlearn ers
ĠNot re
ĠMe asure
23 3
with out
Ġlaun ches
Ġmir acle
Ġdesper ately
ĠMu ham
Ġcorrel ation
Ġprolong ed
- $
F amily
K ing
T urn
b ucks
á ¹
Ġb apt
an im
ro d
ĠT ip
ĠF ail
ĠL aser
og s
ĠCh uck
Ġpe anut
Ġsm iles
Ġpass port
Ġsal on
Ġhalf way
Ġworth while
Ġbi ography
De v
Ġfra gment
Ġreflect ing
ĠHel en
Ġmur dered
Ġincorpor ating
ĠSk ills
Ġpursu ant
Ġaband on
Ġpic nic
Ġrebu ild
ĠExcell ence
Ġpropag anda
M ag
w ent
Ġa ka
Ġl ingu
st rom
Ġn inet
ĠT ank
ĠS orry
im age
im ming
ir i
ort ium
ĠE arn
Ġch i
ĠO racle
Ġsa us
ĠIn v
ĠCh a
ĠWe re
Ġcomm emor
Ġpres ervation
Ġgener ates
Ġsw ear
Ġvari ants
Ġbar gain
Ġabs urd
Ġaccept s
ĠArt icles
Ġdisplay ing
Ġvir gin
ĠOper a
ĠTown ship
ĠTru ck
Ġgam ers
ĠOtt awa
ĠLuck ily
Ġuncons cious
1 30
7 50
B rit
N ING
R est
i eth
n ik
Ġa ft
Ġb ounce
Ġp ier
ĠT ot
ur ry
ver ted
ĠB in
ĠF ear
um ar
ĠJ ets
Ġte e
Ġac oustic
Ġmin isters
Ġcur ves
Ġclass rooms
Ġve ins
ĠTe achers
There fore
ĠCo hen
ĠBo cc
Ġep it
zz le
ĠIN TER
Ġtrou bled
Ġcrew s
Ġmagn itude
Ġfulf illed
Ġsmell s
ras ound
Ġje wellery
Ġstead ily
Tra vel
dog s
P et
Q ue
R uss
d imensional
p resent
Ġs or
Ġp iss
Ġl ivestock
ĠS ites
ad al
ĠM ol
Ġwh it
ĠB arr
Ġan est
if i
ĠL ate
av il
port ant
Ġdes cent
Ġfl ick
ason able
ash a
ĠPl ans
Ġkind ly
Ġcred ited
ĠDep ression
ĠGl obe
Ġobs essed
ĠCr iminal
ĠMil an
ĠMont gomery
Ġprop he
Ġspr ings
Ġtack les
Ġamend ed
ĠPop ular
Christ ian
Ġslee ves
Ġsemin ars
Ġpractition er
Ġrou lette
Je ff
Ġinterpre ted
ĠCher ry
Ġunh appy
L O
e g
v ir
Ġf uels
Ġin quiries
Ġh ometown
ĠA ra
ĠR oof
pe at
ĠG ear
ĠIn fin
ys on
rib uted
ec hes
sh irts
ĠAm azing
Ġcir cuits
Ġrisk y
Ġrequest ing
Ġcollect or
Ġgrad uating
ĠRead er
Ġadjust ing
Ġlisten ers
Ġcompr ising
Sm ith
ĠCR M
Ġske pt
ĠCP U
Ġdivide nd
ĠAlbert a
ĠBehav ior
r ights
it as
Ġto x
le vard
Ġl ac
ĠA A
ig ion
Ġhe ter
ĠP izza
ĠH oney
ess a
Ġex h
Ġr ifle
ĠV R
ĠV ander
ĠV ideos
Ġfl aws
work ers
Ġsal aries
As k
Ġtext ing
Ġexam ining
Ġlif elong
Ġhonest y
Ġcheap est
Ġphil anthrop
erg us
Ġsyn chron
Ġcorrespond ence
ĠPartners hip
Ġsculpt ure
author ized
Ġflags hip
Ġbund le
Ġlone ly
Ġremed ies
Ġinequ ality
Euro pe
Ġyog urt
? '
N ame
w ife
Ñ ĥ
in flamm
ĠT ol
ĠB U
Ġse iz
Ġcan s
ĠJ os
Ġup ward
Ġen velope
ne g
|| -
ble ms
Ġfil med
Ġey el
iod iversity
Ġsil icone
Ġhol istic
ĠInt o
Ġcompl ained
Ġflu ct
ĠJo am
ĠMot ion
Ġyield s
Ġrecover ing
ĠAsh ley
ĠED T
Work ing
Ġallerg ic
Ġallerg ies
Ġod or
alg ia
G IS
e or
g anda
Ġa ids
in to
Ġf ing
ĠM oving
ĠR ug
ĠR NA
ĠN I
Ġsh aking
ĠV M
Ġsp icy
Ġbu cks
Ġgr in
Ġrese ar
Ġbas eline
St op
ĠCar bon
ĠBr us
Ġill usion
Ġfine ly
ĠProgram me
Ġden ial
Ġtransport ed
ĠRel ated
ĠQue bec
Ġstretch ing
Ġcater ing
Ġincl ined
ĠFam ilies
Ġinterfe re
C r
C amp
Ġo ct
Ġd ude
ĠP oor
ĠP arents
ĠP retty
ĠD B
ĠD aw
ri ages
Ġv ault
ĠG aming
âĢĿ ),
oc ide
we i
ĠDe rek
Ġav iation
Ġemploy s
So ft
Ġswe pt
Ġargu ably
ĠMain tenance
Americ a
Ġsad ly
Ġvacc ines
Ġinstruct ed
ĠCub an
Ġbuff et
Ġadvertise ments
Ġutter ly
Ġcongress ional
ĠGabri el
B ring
N N
g rand
x imately
er ting
Ġd ile
Ġn er
Ġg oogle
ĠI l
ĠA x
ĠC I
em ia
ĠE RA
Ġcomp rehe
ĠCh and
Ġher bal
Ġdes erved
ĠSh ield
Ġsk et
ex cept
ĠNe igh
Ġele ven
Ġrev ision
ĠOut look
Sub scribe
Ġsynt hesis
Ġmac ro
Ġimper ial
step s
ĠðŁ ĺ
umm ies
Ġrefe ren
Ġtutorial s
Ġinval uable
weg ian
clip se
+ +
A ustral
F ore
J im
M rs
h um
es ar
Ġb oun
Ġh ated
ĠC ock
se nd
Ġhe ck
ĠD atabase
ab we
Ġne phew
ĠL um
ĠN M
Ġsp awn
Ġjust ified
ĠCom par
Ġ10 5
ĠSh aron
ah u
Ġimport s
Ġopt ed
ĠZ imb
Ġpolit ician
Ch ildren
AL E
Ġcollect ively
Ġobs erv
leg iate
ĠEduc ational
ÃŃ s
omed ay
Ġclim bed
Ġcondem n
Ġpix els
Ġartif acts
H ub
O pt
W ar
p ound
Ġa fore
if ornia
ter ing
ĠD ump
Ġch asing
ff le
ick y
ĠIt em
Ġpe el
Ġsm arter
Ġfin ale
Ġdirect ing
Ġ12 8
Ġcountry side
ĠSy mphony
Re f
ĠMark ets
Ġswe eping
Ġgen res
Ġrecogn ise
Ġcontrib utor
Ġclos es
Ġfight ers
Ġarch ae
Ġdemonstr ations
Ġexhib itions
Ġimpl ant
Ġdecor ations
Add ed
Sp ace
AB LE
Ġterrit ories
ĠBa iley
Ġundert aking
ĠEth ics
Ġdash board
Ġbout ique
pher d
ĠLinked In
C am
D an
E vent
M or
W as
l iness
r ina
Ã ¸
on line
ul as
Ġcl iff
ĠK end
ĠSt ir
ĠCh at
Ġsc ra
ph al
Ġmon sters
Ġmight y
St ay
14 0
Ġdeb ates
Ġemb ry
Ġviol ated
ĠReg ular
Ġprot otype
Ġkick ing
Ġpray ing
ĠUnder standing
ĠLu cy
uls ion
Ġpit ched
ĠRequ est
Ġinher it
Ġcounterpart s
Dig ital
ĠHispan ic
Ġreim burse
S to
t ops
ou lt
ad ers
ĠM ull
ĠL ily
ĠO UR
od er
Ġro asted
ĠRe venue
In side
ĠDe gree
ĠCl aim
Ġlight ning
ĠOr thodox
ĠMar x
St ation
ĠAm sterdam
Ch ief
Al ong
Ġpropos ition
Ġmis leading
het ics
ĠSpecial ist
Ġrenew al
Ġlapt ops
Art icle
Ġorient ed
ĠAnaly tics
ĠGriff in
ĠPent agon
Ġdescend ants
Ġcer amic
P op
Ġb ark
Ġe go
Ġn ause
Ġg erm
ĠS ally
im ental
ĠM aur
ĠW ag
ĠD inner
est ly
ĠR I
ĠL ucky
ĠO live
Ġab used
Ġcomp ression
ĠTh ad
ib li
ĠY u
ĠIt ems
Ġtra ction
Ġnow adays
ĠGu ild
Ġdeb it
Ġexc urs
Ġhy pe
ĠAct ivity
ĠHar vey
Ġbi om
Ġprem ature
gen cies
Ġenh ances
Ġmist aken
Ar ch
ĠProject s
Ġmir rors
des ign
ĠCON T
Ġmathemat ical
ĠMort gage
ĠAmb assador
Ġwrest ling
Person al
Ġdece ased
b ands
c ertain
e ur
Ġp H
om ers
ĠT IME
ĠS DA
am iliar
ĠP orter
Ġcon cludes
ĠD ual
ĠF ruit
ĠF ortune
ĠG O
Ġad missions
ĠU T
ĠCh ang
arm ed
ĠLe gend
ruct ed
enn ium
ĠDes igned
ĠGl enn
ĠST EM
Ġdecor ating
ĠProv ide
Ġfulf illing
ĠLo ans
Ġattrib ute
ĠCase y
Ġmole cules
ĠNich olas
Ġvib e
Rich ard
Y S
t or
on er
it ives
is ite
Ġn erves
ot ics
il ia
ĠM alt
Ġor che
ĠD awn
ant i
ort ment
Ġcl utch
Ġwho ever
ĠCom edy
Ġshow ers
ex e
Ġcost umes
Ġbas k
Ġant ique
ĠDis covery
Ġsens ible
str ate
Ġcapt ures
Ġrelig ions
Ġir res
ĠWork ers
Ġban ana
Ġstret ched
bour g
Ġhur ts
Ġnurs ery
Ġsufficient ly
ĠFun eral
Ġmob il
Ġacceler ate
Ġye ast
Ġreven ge
Ġcryptocur rency
U A
u ci
u rolog
re lla
Ġl uc
ĠW ang
ĠO H
Ġco ating
ang ular
ĠRe cently
att ed
Ġauthor ization
Ġcred ible
Ġcontrib utors
ĠSw ift
ĠDem on
Ġthreat en
hy d
Ġcalc ulations
Ġtow els
ĠCharl eston
Am azon
Ġpin ch
ĠAssist ance
Ġremem bers
âĤ¬ âĦ¢
ĠUC LA
ĠAlp ha
Ġdeliber ately
Ġkilomet ers
ĠSter ling
: -
C ost
u f
Ġp umps
ĠC MS
Ġst oring
ĠM err
ĠB ent
ĠH amm
ĠF ill
ĠR ut
ĠR oth
pe lled
Ġal beit
Ġle aks
ĠK N
Ġrem inis
oss ip
ĠSe b
Ġbelie vers
Ġmult itude
Ġbrand ed
ĠPark ing
Ġcollect ors
Ġri pped
Ġsn ake
Ġcompl aining
ĠAR T
Ġreward ed
Ġinstruct ors
ĠEll en
ĠHur ricane
Ġembra ced
N R
l ining
o pper
Ä ±
Ġt il
Ġc ottage
Ġf ost
Ġb ou
ĠT es
ur st
ur ous
il let
ĠF u
th ird
Ġle fto
Ġhas ht
Ġsp ont
Ġrep roduction
Ġref uses
aj a
Ġterm in
ĠCar roll
Ġlow ered
vent h
Ġinstall ations
Ġannoun cing
Ġemer gence
ĠNet works
Ġeye b
ĠPal mer
ĠPC s
asp berry
ĠSil icon
Ad v
ĠJo el
ĠPay ment
ATION S
Ġtrib al
ĠSqu ad
Pub Med
Ġpron ounced
H on
J oe
r one
Â ½
Ġc iting
Ġp s
Ġl ush
ĠB omb
ĠD oll
Ġsh ru
Ġch im
Ġun le
Ġpe ek
Ġadd ict
ĠRe yn
ĠAl bum
Ġconf ess
Ġcr ashed
ĠAll ow
sh op
roll ers
Ġunique ly
Ġblock chain
Ġrespond s
Ġreb ell
Ġsexual ity
cont in
Ġtun es
Ġroutine ly
ĠCru ise
ĠHawai ian
Ġweakness es
Ġaver aged
Ġpor ch
Ġfemin ine
ĠGuid elines
3 50
g rown
Ġd ye
Ġl ob
ro ots
ĠT E
ĠT all
ĠA unt
ĠB end
Ġv est
ie ves
so cial
Ġcl erk
oc ese
Ġper t
Ġpre cip
Ġind oors
Ġfin es
Ġmin us
Ġsur render
Ġpol ish
read ing
Ġcur b
ĠSh arp
Ġwrit ings
Ġsw all
Ġgovernment al
Ġlog ging
Ġassoci ates
Ġexam ines
Ġge ographic
ĠSum mary
Ġdecor ation
Ġhel m
ĠHun ting
Ġscan ning
Ġtang ible
Ġepid emic
ĠNurs ing
ĠArn old
E duc
b as
b ane
c ill
o an
Ġc ivic
Ġm uff
ĠS R
ĠS ki
ĠB oss
ĠB UT
Ġha ul
ĠR M
ĠL ights
ĠG ates
ĠHe avy
ph alt
rit es
ĠLe ather
Ġmet allic
Ġinf amous
19 99
Ġpop s
You ng
ĠTr ading
ĠMe gan
Ġcra cked
Ġprofessional ism
Ġhous ed
Ġrent ing
ugg age
Ġconfig ure
Ġhur d
ĠList en
Ġthread s
ĠFlore nce
E arly
c urrent
s aving
Ã £
Ġs way
Ġm um
ĠC arn
ĠC rew
ol ve
ĠD ale
ĠG E
Ġnot ifications
Ġsh rimp
Ġall ocation
Ġdis semin
ĠRe cent
Ġinv asive
Ġgr ammar
ĠAr med
Ġperform er
ccess ful
ĠFl a
Ġste aling
Ġcard board
Ġrev is
ĠAdd ed
ĠDirect ory
Ġpal ace
Ġtransform ing
ĠElect ronics
Ġdisp utes
Qu ick
Ġroot ed
Ġphilosoph ical
ĠKar l
ĠProper ties
vas ive
Ġinflamm atory
Ġsli pped
Ġstere o
pub lished
ĠEffect s
Ġpresum ably
Ġmembr ane
Jes us
ĠGlas gow
c ultural
f at
in as
Ġf ax
Ġh ay
ĠA U
ĠC IA
ĠB att
ĠW ii
ĠN y
ine z
Ġqu ilt
Ġind ia
ĠRe id
pr ints
Ġdet er
ĠSh ar
Ġbuild ers
ĠMan oel
ball s
ĠDav ies
ĠPat ient
board ing
Ġsen ator
Ġgrand parents
ĠEv il
Ġtim eless
Ġsecure ly
arrant y
Ġdisp ens
Ġdraft ed
Ġconvenient ly
Ġforecast s
Ġcompat ibility
Ġuncom mon
ĠPen insula
Ġupload ed
ĠNic ole
Ġcig arettes
ĠNort heast
ĠBloom berg
ĠConserv ative
ĠBenn ett
Ġfrag ile
F P
J apan
m ag
o at
Ù Ħ
Ġw itch
ĠA ven
ĠC ategory
ĠM ead
ĠF ee
ab olic
Ġall oy
ac ific
Ġman kind
ĠSt rip
ĠV a
Ġmem oir
ple asant
Ġstory telling
Ġsuper hero
Ġmess y
ĠGe or
ĠReg ardless
Ġlif ts
Ġregist ry
ĠAM D
Ġkn it
cript ive
Ġcop ied
Ġaccommod ations
ĠCir c
UL L
ĠPhot osh
Ġillness es
Ġlad der
Gl obal
ĠIndepend ence
ĠArchitect ure
ĠBocc oni
C at
Y esterday
Ġs ulf
Ġon set
ĠC ob
ĠC amb
ol ics
ĠP it
ĠD rag
op oly
ĠG U
os ion
ard i
ub a
ĠV lad
Ġbl adder
io xide
Ġbo iler
ĠUS C
Ġaccess ory
ien ced
OR Y
Ġcompet itor
Ġmor ality
16 0
Ġinstall ment
Ġdest ructive
With in
Ġconsist ed
Ġshoot er
Ġver dict
Pl ace
ĠClick Funnels
Ġhur ry
Ġresol utions
Ġtor que
Ġcancell ation
Sen ior
Ġperipher al
ĠCinem a
Ġcaut ious
E mail
P ark
S ummer
d ist
w right
Ġw ives
en os
Ġl an
Ġn oun
Ġn ucle
ĠS ullivan
ĠA verage
ĠM ans
Ġcl ause
Ġfe ared
ven ant
Ġar rog
Ġro ast
Ġsc are
Ġback wards
Ġend ure
Ġ10 2
Ġsl aves
Ġtechn ician
ĠOb ject
ĠMem phis
Ġdemonstr ating
Ġpal ette
ĠMil k
Ġbound ary
Ġbreast s
she et
Ġtact ical
Wind ows
D ist
G roup
Ġ _
Ġl ace
ĠC ind
Ġst ole
ĠM RI
ĠB I
ĠR ud
Ġch oos
Ġcan cers
iv able
Ġun law
Ġind ie
li ant
Ġadv ancing
Ġfound ers
ĠFr ances
ĠEx po
ĠZ ach
ĠZ oom
ĠFl ag
ĠPe pper
Ġextra ction
yl ene
AM P
Ġden ying
ĠDesign s
rad itional
Ġeffic acy
Ġdomin ate
ĠLog an
AY S
ĠWH O
Ġscar ce
Ġscal p
h all
Ġa we
Ġb unk
Ġn as
ĠM akes
ĠB rent
ĠB ert
Ġpro active
Ġpro jection
ĠU b
Ġqu il
Ġcomm itting
ĠCom plex
Ġcre ations
ĠEx cept
Ġbeh ave
Ġprom o
Ġmar ble
Ġland mark
Ġorganiz ers
De f
Ġstick y
Ġign oring
ĠForm ula
ĠCard inals
Sc ott
ĠOper ating
ĠTour ism
Ge orge
Ġanth rop
Ġincon ven
G C
R NA
p oke
on o
on ial
Ġc ensus
Ġf oll
ar u
Ġst ems
ĠH ip
Ġse ized
ab etic
ĠE sp
Ġcont amination
Ġsp lend
Ġsl ope
ah an
Wh atever
Ġdist ances
Ġopp ose
Ġterm ination
AT ER
ĠNe ck
ĠDes ert
ĠCanad ians
ĠIndust ries
htt ps
requ ently
Ġunem ployed
rend um
ĠLyn ch
Ġfulfill ment
Ġsquee ze
Ġber ries
Ġmos qu
Ġhed ge
Ġinadequ ate
G ame
S K
s pring
w s
w ire
Ġhe ights
Ġde mentia
ĠR an
um ers
Ġdo ck
Ġapp arel
Ġdis gu
xt on
Ġimp art
Ġsign atures
Ġexp ans
Ġrep aired
Ġint ro
Ġhead aches
ik o
Ġca ffe
ĠTr inity
Ġes presso
Ġfore front
AN G
ĠQu inn
Ġremember ing
Ġjud ged
Pro ject
Ġbroad band
Ġexerc ising
Ġacadem ics
Â® ,
Ġsty ling
ĠMel issa
ĠBre tt
ht aking
Ġdiam onds
ĠNorm an
Ġreluct ant
Ġbalcon y
ĠMuham mad
h arm
â ĺ
Ġf ictional
Ġl ion
ro ads
ĠT C
ĠS ie
Ġst ab
ĠW el
ĠN avig
ress es
ress ive
Ġbl oss
Th ird
Ġ9 78
cu le
aterial s
Ġdevelopment al
ĠSy nd
Ġpict ured
ĠQu ant
ĠAnt ar
ĠAlex and
Ġbul b
ĠSand ers
Ġforth coming
ĠMo z
Ġproceed ing
ĠEconom y
Ġadvis ors
requ ency
Ġevolution ary
Ġmerch ant
Ġvoc abulary
ĠYor kshire
T ex
W ood
d ad
Ð »
Ġh ast
Ġn aming
ĠB elt
res istant
ĠG and
Ġsh aping
Ġle gends
Ġco ated
ple ted
arn ish
ĠSp ark
ĠSp ons
Ġ[ ...]
Ġmil estone
Ġspecific ation
uff s
Ġbegin ners
ĠX L
IC T
ĠSw an
Ġdefe nded
Ġvot er
Ġshoot s
Ġannounce ments
Ġemphas ize
Ġtrig gers
Ġtwe ets
ĠMid west
Ġstir ring
Ġhunt ers
arth y
ĠPalestin ians
Ġgran ite
ĠAnsw er
Ġdestro ying
names e
upunct ure
ĠStephan ie
E asy
F M
W R
b iz
c ision
n els
r ance
Ġw anna
Ġd ug
Ġh i
Ġl anes
ĠS CH
ĠA ber
ĠC ord
ĠP urchase
if ty
ĠH uff
ri um
us ions
Ġwas ting
ĠG am
ĠN ormal
Ġle nd
ĠJ P
Ġfe ast
amp oo
Ġfl ock
Ġfl ush
get table
az er
iqu id
min ster
Ġrepl ies
Ġimm ort
Ġrout ines
Ġfell owship
Ġge ared
ĠRem ote
ĠAnn iversary
ĠDesign er
Te xt
Ġdial og
ĠAud i
ĠExt ract
Ġexplos ive
ĠPortug uese
ĠZimb abwe
B orn
M ail
R om
f ill
f ile
p ract
re ra
Ġb ore
Ġl oos
st ones
ĠS ame
ĠC op
ĠM ile
ĠM ets
ĠP ER
Ġcon gest
ĠR SS
ab lish
Ġv oy
Ġr all
ud o
00 00
Ġad here
ĠWe nd
ĠRe ference
Ġcar amel
Ġsk ull
Ġdi ets
Ġdev ote
ern el
de gree
Ġ17 0
Ġboard ing
Ġhuge ly
ĠMor occ
Ġsupply ing
ĠAP Is
ĠView s
Ġabsor ption
ĠLyn n
Ġincom plete
ĠFrame work
Ġcyl inder
Ġsandwic hes
c ology
f inal
l ower
n l
n uts
y r
an ity
Ġd ots
ro let
Ġwe ed
ĠB ach
ĠB ub
if eration
Ġ1 12
ĠR andy
Ġex quisite
ĠN ar
Ġk in
ĠK ap
als a
Ġpr ince
Ġstart ups
ĠUn cle
ĠAn cient
Ġass ortment
Ġpur se
Ġref ine
tt i
Ġpass words
ĠSc out
Ġsuccess es
Ġfore closure
app le
ĠCont emporary
Ġengine ered
ĠEl ite
Ġbud d
Ġrent ed
Ġexclus ion
ĠAD HD
Ed itor
ĠTri ple
Ġpra ised
Ġexception ally
icular ly
Ġameric an
L ow
M ass
c uts
re x
or p
le ft
Ġl aps
Ġn arc
ĠT ah
id i
il ot
ĠP ull
ĠD ash
th reat
th irds
ĠE yes
and o
Ġpl edge
Ġad vers
Ġper taining
Ġun rest
ens on
ric ia
ĠRe ality
Ġgood bye
Ġwhere in
Ġche es
It em
orn ings
Ġmarket ers
Ġel ast
Ġca fe
St r
ĠPr inceton
Ġinj ust
Ġdecl ining
Pro s
ENT S
ĠForm at
Ġhyper t
Ġgentle man
bro ok
Ġlear nt
isfact ory
O wn
R un
c ards
p it
â Ĺ
Ġthe aters
Ġo l
Ġc ows
ĠI g
ĠS V
Ġha irst
ĠH ait
ĠD ic
ĠF ellow
ĠF ergus
ĠR ank
ist ries
Ġex agger
ĠL ip
ĠN V
Ġall ocated
Ġus ername
Ġtr an
Ġrec urring
Ġam ino
Ġtw ins
Ġbl amed
com b
Ġprof ic
Ġopen ings
ott a
ĠMar tha
Ġline back
ĠFl ower
ĠMed al
Ġpar cel
Ġcra cks
Ġ24 0
Ġprep ares
Ġcolor ing
Ġneg lected
Ġstra ps
ĠWar riors
unt u
Ġaw ake
Ġble w
Ġble nded
ĠCr us
Ġmicro phone
Ġpredict able
Ġstret ches
Ind ia
Ġcrypt o
Ġpreval ent
ĠHend erson
ĠPhilosoph y
A ud
E V
Ġto ken
Ġm ol
Ġch uck
ind uced
Ġdis ruption
Ġeven ings
ĠAr ctic
ĠLe eds
Ġ15 00
Ġtyp ing
ĠDo ing
Ġsuper vis
Ġbar g
Ġlog os
Ġnote book
ĠSuper ior
Ġir regular
Add itionally
Ġju venile
Res p
Ġphotograph ic
Ġtrend y
Ġconver ting
opp y
ĠEnt reprene
obb ies
Ġhypot hesis
Ġtodd ler
ĠBou levard
Den ver
Ġinfin ite
Ġsuscept ible
Ġinsu fficient
" ).
b read
c reat
l ene
t ube
at isf
is ch
id as
Ġst ains
ĠB order
ĠW OR
ĠW aters
ĠF ixed
ĠL unch
ĠN est
ci o
ĠK on
ĠCh ip
we re
Ġmin s
Ġ10 4
Ġstate wide
âĢ¦ ..
ĠGu itar
Ġtrack ed
Ġred irect
ĠTra cy
Ġcomment ing
ĠIndian apolis
ĠPress ure
Ġdiagn ose
ĠJul ia
Ġec ological
Ġscript s
Ġtail or
Ġcooper ative
Ġelev ator
inst all
Ġimmun ity
Ġbot hered
Ġdistract ed
Ġdigest ive
connect ed
ĠWee kend
enez uel
C oll
r ar
Î ±
Ġ \
Ġa while
Ġc ove
or o
ed er
al ities
ic ating
le ys
om al
ĠI CT
ĠS ara
ith ium
us c
ĠL I
ĠN aval
iv ating
fe eding
ĠK i
ĠV ine
ish ops
ĠHe ath
Th omas
com pl
Ġbo iling
Ġopt imum
Ġ18 00
Ġsing ular
ĠSc an
ĠCal endar
aste red
ĠIN C
Ġcapital ism
Ġscen ic
ĠBur ke
ĠJeff rey
Ġsad ness
Ġspr int
ĠBas ically
Ġbomb ing
Ġconstit utes
Ġaccum ulated
Orig inal
ĠCars on
e lection
Ġw it
it ures
Ġb iblical
Ġp neum
Ġand roid
Ġd ictionary
Ġd aunting
Ġl i
ĠS ense
ra c
est ones
ĠE lder
ies el
ĠO ke
Ġpl aque
ob ia
ov ic
Ġco h
Ġ19 00
Ġ4 50
Ġcome back
Ġfr amed
ĠTe ams
ope z
umb ent
Ġgen ome
put er
put ed
OS E
Ġdead lines
ĠSch ne
ĠWind ow
Ġorigin ated
ĠRel ief
Ġcraft ing
Ġpun ish
Ġped al
Ġsurf ing
Ġcock tails
UP D
Ġborrow ed
Ġbuff er
ĠVen ice
Ġnit rogen
bet ween
Ġdesp air
Mat thew
Ġendors ed
B Y
L ess
L ater
S er
S ervice
u y
z one
Ġc ad
as se
Ġth riving
Ġl itter
ĠM ul
ĠP ush
ĠP rag
Ġab usive
ear th
cc o
Ġcl an
Ġun aware
Ġun pleasant
Ġspe lling
Ġco ils
Ġtrans plant
Ġinter im
oint ed
enn el
Ġmor ph
Ġenc ryption
Ġdetail ing
ani els
ĠMet ropolitan
ĠAny thing
ĠAv iation
Ġimpl ants
Ġban ner
Te am
Ġnegoti ating
Ġamend ments
) -
D M
g t
m ant
Ġp enny
an ed
ĠT icket
ut ton
Ġr ash
Ġwork flow
ical s
ĠHe ather
oss ibly
Ġac re
br ush
AN K
Ġkey word
Ġenc rypt
Ġfig uring
Ġsle pt
ha ul
Ġple asing
AP P
ĠBank ing
Ġlock down
Con st
Ġtim er
ĠVe get
Ġoptim ism
ĠMass age
Ġamb ition
Ġcritic ized
ĠEp isode
ĠMembers hip
ĠMov ies
Start ing
ĠNaz i
ĠIsa ac
Ġrhet oric
Ġmatur ity
P rote
T oo
m un
Ġw aking
Ġp ains
ar us
Ġth irst
ir teen
ĠW ays
ĠW ool
ul us
ĠH AVE
ĠR EC
ĠL T
ĠL il
ĠL ibr
ort ic
Ġcan on
Ġme g
Ġcl ues
Ġres ide
ĠY emen
reat ment
av i
Ġrem oves
ĠSe ller
Ġpres idency
Ġtest ament
Ġdr ums
Ġmom s
Ġsuper visor
IS E
Ġdefin ite
Ġcat ches
Ġprot agon
ĠFind ing
Ġsimpl est
Ġheav ier
Ġexplan ations
Ġque ue
ĠBang l
ĠExam ples
Ob ama
Ġresil ience
ĠUA E
prote ct
C ook
L ocated
S ty
c ert
v iol
on ent
or por
Ġd ice
ĠC row
ver ter
ill ery
Ġcon ced
ĠN am
Ġk ay
ag le
ĠTh an
oc ado
Ġinc urred
Ġimp ly
Ġsm oked
ple tion
Ġiss uing
ĠCon duct
ĠUS E
Ġemploy ing
Ġaccount ed
AN C
EN CE
Ġstat utory
gu ards
ĠPresident ial
Ġobs erving
ĠArt ists
Ġcelebr ations
sp ace
Ġoccur rence
Ġvill ain
Ġuns ure
Ġhur ting
ĠExt ension
Ġnic otine
ĠOp ening
ĠImm un
dem and
ĠQueens land
Ġignor ance
ĠDod gers
ĠRoche ster
ĠPhotosh op
B ob
M er
T ickets
c akes
m ember
Ġh ollow
om ics
ĠS UP
ĠC ensus
ol ving
Ġwith stand
ĠB ik
ĠH ollow
ri ad
ĠL amb
ĠL ocated
ĠK os
Ġspe eches
Ġinc idence
ĠShe ll
Ġdi arr
ĠNo ah
ĠFl u
lling ton
Ġrecogn izing
Ġdest iny
amb oo
Ġdefe nder
Ġmer ger
Ġburn s
Ġhun ter
Ġemphas ized
Ġconfig ur
Ġinspect ors
prof ile
ĠAthlet ic
ĠEdd ie
F un
G rand
K en
j ab
k u
o j
it ab
ĠS ah
ĠA ur
im an
ĠM atter
Ġan ime
ĠW are
ĠW ade
us ers
ĠL is
ĠE b
per m
Ġup stairs
pl er
ĠK iss
Ġun ified
Ġ19 45
Ġown ing
ĠSe ek
Ġbr ides
Ġ10 80
ave nder
ustom ed
Ġrep roductive
Ġcr ashes
Ġel imination
ĠCon cer
aut ions
ĠFl ow
wh y
ĠPat rol
ĠCD C
Ġunc overed
Te chn
Ġliqu or
Ġchat ting
Ġantib iotics
Ġgard ening
ĠIo T
ĠRodrig uez
inflamm atory
M uch
M aster
g rowing
y ster
Ġt bsp
Ġf ats
Ġm aid
Ġre per
se ys
ol in
ĠB ake
Ġne on
ĠL D
Ġr ays
ĠG reens
ĠO B
ĠJ ill
ag ging
Ġman eu
ĠHe ight
Ġfl ames
Ġcons cience
rit ical
Ġrel ent
Ġdet ention
Ġsk ies
Ġreal ization
Ġspecial ize
Ġbas il
Ġbegin ner
play ing
Ġstri pped
ĠAct ivities
Ġri pe
Ġstick ers
Ġnotice able
ĠBel le
Ġcivil ization
ĠIll ustr
ĠGen esis
sm all
Ġnom inee
ĠViet namese
Ġresid ency
ĠDor othy
ĠPast or
hol m
ĠPow der
Ġcommod ity
Ġprovin cial
Ġfrank ly
Lat est
ĠTorn ado
E ast
F E
F ar
d in
r ide
t ax
v ie
ar ate
Ġh alt
ĠT rou
ĠA ware
ĠC od
ĠF unction
ĠR iley
Ġ2 30
Ġsu ed
ĠG w
ĠG or
our ing
our neys
âĢĿ ?
Ġpart nered
ty ard
Ġdisc s
Ġreal ities
Ġturn over
Ġfore head
Ġris en
Ġself ish
Ġtext ures
Ġsort ed
ĠRom ance
Ġfurn ished
Ġneighbor ing
ĠDec or
ĠTim othy
ĠRE AD
Ġrestrict ion
Ġrail road
ĠField s
ĠPhys ics
Ġrou ter
Ġrede em
Ġgest ure
Ġneighbour hood
ĠBever ly
udden ly
. âĢĶ
D iscover
W ritten
g red
t alk
Ġf usion
Ġm p
st ring
ĠT ucker
am pton
Ġthat s
ĠN ex
um at
Ġch alk
ous se
Ġqu iz
Ġbr ighter
Ġcr ush
19 17
Ġclass ics
Ġdem ons
ĠPe ak
IC S
edd y
ĠPat tern
ĠNews letter
Ġter race
ĠCongress ional
Ġwarrant ies
ĠSky pe
ĠSteven s
Ġfool ish
Ġdipl omatic
Ġtempt ed
ĠRail way
Ġinval id
Ġcarb ohy
NOT E
Ġcollaps ed
Ġunfor gettable
ĠImper ial
% |
A g
D aily
E r
H C
R a
S pring
g one
h ored
Ġw olf
Ġre charge
Ġan onym
ul ators
ĠH V
ĠF ans
Ġ2 10
ĠE ight
ag ged
Ġthere after
Ġar ises
ĠRe hab
Th us
Ġmem o
Ġcur se
Ġcor ros
ump ing
ĠGe nder
reg ist
Ġcand les
.... ..
Ġprin cess
Ġdeliver ies
Ġlik ing
ros is
ĠSub ject
Ġsympt om
Ġ196 1
coh olic
Ġveget ation
ĠLead ers
Ġbear ings
Sm art
Pr int
ĠCab inet
ĠAdvis or
ĠHell o
dr ates
Ġentrepreneur ial
Ġfut ures
Ġfilmm aker
ĠBuddh ism
A ge
F ast
G I
O A
g ages
j ah
o fficial
r ates
Ġa ired
he e
Ġs napped
Ġw ed
Ġp enn
ic ates
ent ry
Ġbe es
Ġbe ard
ĠC er
Ġst akes
ĠM ouse
ĠR BI
ĠL au
ĠL ect
em b
te chn
ci er
Ġdis reg
Ġthem ed
Ġover looking
Ġro ses
Ġafter math
Ġdisc oura
the se
val ue
Ġannoun ces
Ġpan or
Ġbroad ly
Ġrepe ating
ĠPet erson
Ġdep icted
Ġ196 6
ĠElect rical
Ġrein force
Ġcerem onies
Ġbatt ling
ĠRequ ired
Ġscrew s
Ġtouchdown s
Ġgreet ed
Ġcit rus
Ġdia pers
Ġpreval ence
Ġretrie ve
ĠScholars hip
Ġscrut iny
D oc
N ER
\ \
Ġt urt
Ġp unk
Ġp udd
Ġd ioxide
Ġl um
st ru
ce ans
ol an
ĠM b
Ġor th
ĠH ua
Ġse ated
ĠN SW
Ġso othing
ĠU PS
ĠU ganda
ĠCh ad
Ġinter faces
Ġsuccess or
ĠMar riage
Ġredu ctions
Ġmot ors
ĠCal gary
ĠTw in
ĠAb d
Ġfire works
Ġple aded
Ġhistor ian
Is rael
ĠBet ty
Ġdish washer
ĠLeg ion
Ġlawsu its
imm une
ĠCOM P
Ġster oid
Ġmetab olic
Ġinher ited
isp here
Ġprocure ment
Ġfurnish ings
D aniel
W rite
l ab
v able
Ġt ier
he rence
Ġp ony
Ġth ru
ĠT ube
et ra
ĠC ave
ĠM VP
ĠP ok
ĠB rief
Ġcon ceived
op athy
ag us
ru ff
ĠK oh
Ġunder going
Ġinv oice
Ġpres erving
Ġhand held
Ġexp ired
oot er
Ġmult ic
cell ent
Ġsubject ed
AM A
Ġlower ing
Ġcorrect ed
Ġult rasound
dom inal
Ġgar ment
Ġentertain ed
Ġspl ash
Ġoptim ized
ĠMcC arthy
Ġdiscount ed
Ġamb ig
fol k
Ġintention ally
Ġconce aled
NY SE
Ġneglig ence
Ġlandl ord
ĠFerr ari
ĠFinn ish
Ġstub born
Ġrehe ars
Ã£ o
S ex
s un
Ġs igh
Ġc ache
Ġf aint
Ġh ug
ĠA mer
ĠM R
ĠB od
ĠW ish
Ġch oir
Ġ3 20
itt ings
Ġtw isted
Ġwell s
Ġplay ful
Ġimp aired
Ġpres chool
Ġ7 20
Ġob ed
ĠShe et
Ġbro ch
ĠCon n
ĠOr ders
Ġcertain ty
for cing
ĠPr ide
sw orth
ĠEn cyclopedia
ĠTV s
ING TON
Ġjud ging
ĠSer ge
Ġthr ill
Ġvalid ity
Ġneck lace
Off ice
Ġende avor
Ġcleans ing
Ġunp redict
Ġintric ate
Ġbask ets
D i
H ard
c all
c ourt
n an
n ational
v ideo
Ġ iv
at omy
Ġo wed
it at
Ġm l
om p
Ġl uggage
Ġre jection
ĠI RA
ĠM ET
ĠF old
ĠR ig
ĠL ORD
ĠG oth
ĠN ike
te am
Ġper ceive
ass ium
Ġun con
Ġsp here
Ġsupp orter
ĠPro test
ĠPro blem
ĠAn gl
Ġcar rots
ĠSh i
ĠSh adow
Ġprom in
Ġpack aged
ĠMin utes
Ġfix es
Ġkn itting
Ġcontinu ity
Ġmulti pl
Ġamb assador
Ġvalid ation
Ġfold ed
ĠCat hedral
ĠTer rit
Ġtrave lled
Ġmanip ulation
Ġcompassion ate
Ġwand ering
ju ven
ĠFell owship
Ġsuspic ion
F I
F ile
T aking
U CT
d ata
p ric
Ġt art
Ġt ide
he ll
Ġw ander
Ġe cc
ĠC opy
ad ian
Ġst aple
ol ation
ra ined
Ġat op
us k
ĠN ine
Ġsh ining
per ature
Ġtheir s
ĠIn vent
ert on
Ġpres ently
Ġrep ository
Ġposs essions
ĠAll ah
ĠChrist ine
Ġvers es
ĠBr itt
Ġclean up
Ġdeb ts
year s
Ġswe ll
Ġexpress ly
fl ies
Ġattract ing
Ġexhib ited
ĠIns pect
ĠLight ing
ĠWalk ing
lyn n
ĠBroad cast
Ġcomprom ised
Ġweigh s
Ġweigh ing
ĠChem istry
Ġsne ak
Ġcondem ned
Ġtweet ed
Ġrender ing
Ġdat as
ĠJama ica
ĠChev rolet
O per
T ax
c ock
m ot
v or
ou st
st ated
ĠI gn
ĠM ist
ĠP HP
ĠH ER
ĠD odge
est eem
Ġpl um
Ġmy riad
ĠTh ous
ass is
ĠV enezuel
Ġco arse
ĠNew castle
Ġcur tain
ĠSh awn
Ġed itions
Ġorgan isms
Ġelect oral
Ġkey note
Ġviol ate
Ġprin cip
Ġbreat htaking
Ġsuff ers
Ġgall ons
ĠReport ing
Ġhur ricane
Ġpil ots
Ġcoc oa
Ġlin en
Ġpreced ing
Ġseam lessly
Ġaer ial
ĠMethod s
Ġpione er
ĠTrad itional
Ġbully ing
avil ion
Ġchoos es
E ver
S ystem
S omething
W C
b ate
b ags
i ating
l asses
w ives
et ically
ĠF iles
ĠF CC
ĠF ischer
us ually
ab lo
Ġr ugs
Ġle aked
Ġout lines
ĠU l
og ene
ĠCh anges
Ġinte nds
Ġend uring
Ġend angered
Ġ10 7
Ġtest ified
ON D
Ġbar be
Ġcollect s
ĠAct iv
Ġcelebr ates
Ġir rig
ĠRec ruit
Ġgovern ed
Ġarm or
ĠIP v
ĠLouis ville
ĠLab s
ĠAdv ance
Ġintent ional
Ġspokes woman
ĠIde al
ĠBul gar
Ġadvertise ment
Ġarom a
Ġpharmac ist
Cent ral
ĠKle in
focus ed
Ġcaffe ine
B ur
N one
S n
b ons
w riters
in arian
Ġf ade
Ġf ills
an ie
ar is
st en
Ġg ifted
ĠT ut
ĠP ill
un ky
em p
ast ian
Ġcomp ares
ind ex
ĠTh read
ĠK or
vel ength
ov ich
Ġtra ces
Ġbu ys
Ġcol oured
Ġday light
Ġmon key
Ġcur tains
Ġpost ure
Ġsw ap
ane y
ĠSu ff
Ġlater al
Ġident ities
Ġblack s
ĠIm ple
Ġwonder fully
Ġple a
ĠOut side
udd y
Ġutil ization
Ġthr iller
ĠEngine ers
ĠProv ider
Ġcounsel or
ĠCreat or
Bu ild
ĠCub s
Ġrefe rendum
ĠMess age
uten ant
Ġtoss ed
Ġsymp athy
Ġspo il
ĠDim ensions
Ġprede cessor
Ġvegg ies
k al
ic able
Ġl amps
ĠP ART
Ġwh isk
ess or
ĠF ix
ĠL etters
ĠN uclear
os i
Ġun healthy
ĠV AT
Ġbl u
Ġno is
Ġafter ward
ĠCom ics
Ġret ros
ale z
Ġcur s
Ġgr illed
Ġpat ents
Ġhead phones
app er
IC AL
Ġground ed
ĠCor ner
Ġrespect ful
OT H
ĠMon ica
Ġslow ed
ĠGroup s
Ġreflect ive
Se ction
Ġlegisl ature
spe cial
ĠMat hemat
umin ium
EE E
199 8
Ġeleg ance
Ġobst acle
ĠOwn er
Ġrab ies
onge vity
ĠEVER Y
Ġskept ical
c ents
f acing
o il
s ix
Ġt ant
Ġw oven
ĠT as
ĠS ene
ĠP or
ĠD ollar
ri o
op sy
Ġab ol
red itation
ac ost
Ġcomp osite
Ġpe ppers
av ier
ob ee
Ġdisc ern
Ġrep s
Ġprocess ors
ĠEx ercise
Ġnews letters
ĠTw enty
ole cular
na ire
Ġbur d
ĠIN FORM
Ġattract s
craft ed
Ġprison er
Us er
Ġdepth s
ĠAndrew s
Ġirre levant
Ġvel ocity
Mem bers
Ġalph a
ĠLegisl ature
ĠRichards on
Ġspat ial
Ġcomprehe nd
C ast
M o
V ict
m anship
v id
Ġd rones
ent e
ay an
ĠP E
Ġwh istle
ĠH urt
ĠN as
ĠN SA
ĠE UR
ĠO dd
Ġcomp liant
ib ration
Ġ3 000
Ġover he
cent ric
att a
Ġmen us
ĠChe ese
Ġhost ile
ĠHigh land
Ġri bs
Ġmix er
Ġdraw er
Ġrock ing
ĠEar l
ĠIT S
Ġcompar isons
Ġsurvey ed
ĠTre nds
Ġremark ably
Ġtast ed
Ġatmosp heric
ĠContin ental
ĠCreat ing
och ond
Ġmerch ants
Ġadequ ately
Ġtherap ists
Ġfib ers
mod ern
best os
enz ie
Ġalph abet
ĠJoh ann
ĠFif th
ĠNep al
Ġunch anged
Ġinspir ational
F inding
L and
S us
b ish
e als
k ok
m ax
Ġc yn
Ġc ops
Ġto ast
ĠS ue
il ings
Ġpro jections
ĠW als
ĠD ial
ĠR ol
ĠR EL
ĠL ives
Ġj umps
are a
pl aced
cl amation
ĠK ettle
Ġres igned
Ġres ervoir
ff ield
ile e
ĠCh ap
Ġpe cul
ote chnology
ĠMar ion
Ġeconom ical
Ġemail ed
che z
ĠHar ley
Ġsqu ares
ĠInter active
Ġchem otherapy
ĠAnge la
ĠTy pically
ĠOver view
Ġrain fall
Ġarchitect s
Ġalle v
Ġcop ing
ĠDev ils
Ġbless ings
ĠAff ordable
ĠOl ivia
Ġconfront ed
Ġstack ed
vit ational
Ġpedest rian
accept able
ĠRw anda
Ġmiser able
ĠBrus sels
V e
W D
b ai
i ang
s ight
Ġw aiver
al in
Ġst ellar
ĠM oy
Ġit iner
ĠB oulder
ĠF est
ĠR ide
ĠL AN
ĠG ore
Ġch in
ĠCh ain
ĠCh rys
ĠRe vel
Ġdec ay
ĠAd s
Ġpat rons
ĠCol our
Ġpar a
Ġprob ation
ĠEd en
Ġsubject ive
ING S
Ġble nds
Ġbright ness
Ġ196 3
Ġtransl ates
ĠBet a
Te le
Ġdecre asing
Ġpossess ed
ĠProcess ing
Lear ning
fund ed
OUN D
Ġaston ishing
% ).
C ase
g ae
s er
Ġa unt
Ġp ushes
ĠA mber
ĠC ities
ch at
Ġst alk
Ġas ylum
ĠH il
ĠD uty
ĠF IN
Ġsu ites
op ening
ĠN iss
Ġle agues
te e
Ġpl ots
ĠIn spe
ia z
Ġqu ir
ĠV ic
ĠSh ane
ĠSp in
Ġterm inals
let in
Re cent
ĠDep ot
Ġobs ession
Gu ard
Ġextract ed
Reg ist
Ġbact erial
Ġindu ced
ĠNob ody
Ġrevel ation
ĠVolunte er
ĠRequire ments
Ġfart her
Ġafore mentioned
c iliation
l ocal
Ġc ate
Ġl ord
ĠC ros
ĠB ug
ĠW iki
Ġcan ada
so ver
Ġen semble
ne a
Ġpe aks
own ers
Ġco ats
Ġcol ony
Ġwhere by
erm ined
Ġcar p
10 8
Ġconf ined
Ġpain ter
Ġtreat y
ĠNe al
Ġsound ing
ĠComp uting
ĠChe ster
chie f
IC O
Ġswe ater
ĠChar acter
Ġintegr ating
IL ITY
col ored
Ġwel comes
ĠPlay Station
ĠRock ies
Ġhomes chool
Ġship ments
Ġcontext s
ĠHy per
Ġpil gr
ĠColl abor
Ġaccomplish ment
Ġru ins
Ġparam eter
Ob viously
4 50
F REE
L ab
L arge
N P
g us
n ick
Ġthe ology
at us
es an
Ġto mb
as ian
Ġe ve
Ġu b
ĠP orn
ĠP apers
ĠH M
ĠH ang
ĠH ands
ĠF uel
ĠR ise
ĠR ams
th y
Ġr anch
out ed
ĠK B
av ar
Ġbl ows
ĠSe at
Ġche ating
Ġdet ox
ĠSh ir
Ġhard wood
Ġinf ants
19 90
Ġspecial izing
Ġair plane
ograph s
ĠMc N
ĠEd it
Ġsimilar ities
Ġemer gencies
Ġbra cket
Ġtrain ers
ĠRec ogn
Ġunf amiliar
cont ent
Ġdecre ases
ĠPass word
ĠSpring field
ĠEss ential
Met al
Ġrecru ited
Ġrecept or
ĠFab ric
Ġeuro s
Ġrevers ed
ĠLem on
ĠPeters burg
ĠAlf red
H uman
r ative
t ub
Ġs omeday
Ġl ust
Ġn ylon
ĠS AP
ĠS MS
Ġfor fe
ĠM aker
ĠH off
qu arter
Ġr ugged
Ġmy st
ip ur
cl osures
ĠK irst
ĠY ard
Ġtw ent
Ġprodu ctions
Ġend urance
Ġsim mer
Ġear rings
ĠAt tend
ĠBr is
ĠWhe never
ĠLu is
ĠExt reme
ĠTit ans
ĠJac obs
ĠCond ition
Ġexceed ed
ais y
Ġnutri ent
Ġparad ise
ĠRain bow
VI EW
List en
Ġgad gets
ĠOpportun ity
Ġfeas ible
oult ry
ĠReyn olds
ĠFergus on
O ffic
S ix
l oe
Ġo bey
Ġb olt
Ġp ens
al ore
Ġd welling
Ġbe ads
ĠT error
ĠS ach
ĠA br
im ir
Ġst ark
Ġpro c
ri pp
Ġex cel
ĠL anka
ĠG ig
Ġpl un
Ġcl ash
oc ative
Ġdis pro
Ġret ains
Ġcle arer
ĠPl astic
Ġcond o
Ġes p
Ġrespect s
Ġstri pes
Ġter ribly
ĠGrand e
Ġdecor ate
Ġyouth ful
Ġdraft ing
Ġelev ation
inte gr
ĠMun ich
Ã¨ re
Ġdeleg ation
Ġdeleg ates
Ġembarrass ing
==== ====
ĠSpecific ally
Ġmitig ate
S em
d ar
j ob
t i
Ġt ense
Ġc erv
al am
Ġl ent
Ġg ases
id get
Ġst a
ĠB O
ĠW on
ĠR ental
ĠE ther
ĠO EM
ci ble
Ġcomp ress
Ġwork load
Ġback ward
Ġpol ite
ĠAmeric as
Ġide als
Ġve in
min ent
Ġeconom ically
ĠSy l
ĠGe off
AD E
Ġiniti ate
ĠRec reation
Ġfashion able
ĠTre asure
Ġsymb olic
199 7
Ġauthent ication
Ġsubsid ies
Ġspark ed
ĠGP U
Ġpel vic
Ġportray ed
ĠAnsw ers
ĠTon ight
ĠGard ner
2 25
b irth
h it
Ġc rest
Ġh ath
Ġh alls
ĠC ul
ĠM aps
ĠP om
ĠB S
ĠB ing
ĠF IR
ĠR ates
ĠL OT
ort on
ĠN early
ack ing
Ġad renal
Ġcomp ilation
ĠTh ing
oc ating
Ġun used
Ġem ission
ĠSh ah
uc ing
Ġpartic le
10 2
Ġprote ctions
Ġcheck list
ON S
Ġsuper natural
ili ate
lu ence
ĠCor nell
Ġbox ing
Ġfast ing
Ġdest ined
ĠAir ways
Ġdry er
ĠFound er
Ġsouth west
Ġthr illing
ĠDi abetes
Ġelimin ates
Ġsoci etal
Ġknock ing
ĠBarn es
Ġconcentr ations
Ġprosecut or
ĠPrest on
Ġanten na
I ll
k ill
l r
m onds
Ġw iring
ĠC af
Ġwe aker
ĠP ly
ĠB ened
ĠD ES
Ġ2 25
qu ired
art e
Ġj ungle
lic ted
iss ue
Ġreg ain
Ġev angel
Ġdown ward
ax is
orn s
stand ard
uck ing
uck land
Ġcult urally
ĠWorld wide
Al ways
Ġcourt room
Ġobs cure
Ġlif es
Ġqual ification
mark ets
Ġadvert ised
Ġmap le
ĠKn ights
Rep ublic
ĠLat est
ĠMir ror
Ġpreced ed
Ġax is
ĠRh ode
Ġaver aging
Through out
ĠNort on
Ġawa iting
ĠDian e
E ss
h ran
p aced
at ra
Ġd y
st ed
Ġg i
ĠS IP
ch annel
ĠM ond
ĠD h
ĠThe me
ĠK as
Ġdis able
Ġover lap
Ġsc ans
Ġacc ustomed
row th
Ġrel iance
Ġgr im
ars ity
Ġmet ic
ĠAd rian
Ġpass ages
Ġbelie ver
Ġkind ergarten
Ġunderstand able
Ġintern ally
err als
Ġinvestig ator
ĠSl ow
ĠMart inez
Ġlegisl ators
Ġconsequ ently
Ġoblig ed
Ġconver ter
rid ges
Ġblind s
Ġhel pless
Ġpig s
Ġantib ody
Ġpour ing
Ġchef s
ĠWy oming
ĠLux ury
Ġnons ense
ĠINFORM ATION
C ould
F lor
L ine
R s
S ar
W ords
a pping
c ross
l en
m pos
m oon
s quare
Ã ´
Ġ ).
Ġf erry
Ġd ick
Ġre iter
ĠT ill
ĠS ounds
Ġpro se
Ġcom fy
Ġr ats
Ġab d
ĠJ ur
ans om
ĠK ard
ign on
ign ant
Ġfre ight
Al tern
su le
ĠMor rison
Ġvill a
Ġflav ours
ĠCD s
Ġbelong ed
ĠOffic ers
Up on
Ind eed
Ġtrib es
ih ad
Ġspark ling
Ġmyth s
Cons ider
Ġfest ive
Ġampl ifier
ĠAltern atively
ĠOw en
ĠHut u
ĠCris is
C ut
F act
F ox
G irl
H ost
J P
d id
l ifting
m und
in qu
Ġb un
Ġb ait
ĠS ed
ver ts
ĠM ent
Ġcon e
ri ans
ĠF Y
ĠF ew
te enth
oy le
ces ter
Ġpo lling
com mercial
ĠSe ed
Ġsur plus
Ġret aining
the med
Ġgl owing
Ġref using
Ġcap sule
Ġlearn s
uff le
Ġweb inar
Ġmicro sc
met ics
Ġflood ed
Ġid i
Ġ; )
Ġphenomen al
Ġgrocer ies
Ġfert ility
Ġparad igm
Ġrust ic
ĠHop kins
Ġbrace let
Ġinaug ural
ĠBoe ing
Ġnort heast
cler osis
T ags
l anguage
Ļ ¥
Ġt ensions
in vest
Ġw ag
ing les
Ġl ur
Ġst al
Ġst umbled
ĠM ig
ĠH ilton
un ciation
ant ing
per ing
Ġout right
ĠY ORK
Ġher s
Ġrec omb
Ġra id
cy cles
Ġcar bs
Ġ10 6
Ġsl am
Ġmet adata
ĠPl ate
ĠCon vers
orth y
AT T
ateg ories
osp here
af i
Ġtext ured
nes ium
ĠAb ility
ĠTrans it
Ġadvert isers
Ġguess ing
Ad am
Ġ196 2
Ġoccup y
Or der
Ġmal icious
Ġpurs ued
Sub ject
ĠOrig in
ĠSav ings
Ġdivor ced
anth a
ĠLeon ard
Ġapolog ize
Ġinfring ement
ĠEval uation
Ġresear ched
Ġunlaw ful
itab ine
B rown
N or
k ar
l ate
r ice
Ġf ocal
Ġf ixture
Ġm ul
Ġn ov
ĠT ub
ĠS ample
ĠS erve
il ight
ĠM AR
ĠL ars
ĠL opez
Ġen v
Ġind ict
com a
Ġatt ent
hes ia
Ġplace bo
ger ald
Ġconf irms
ĠAll an
Ġel bow
Ġgive away
sh ould
soci ated
Ġpain ts
ĠApp lied
Ġsuper market
Re lease
Ġgra cious
ĠSec ure
Ġprint ers
ground s
Ġfair ness
Ġslow ing
ĠLa unch
Ġstick er
Ġlock er
Ġthr one
law s
ĠEr n
pack ed
Ġdil igence
ĠLi u
pur pose
ĠGib son
Ġmaj ors
Ġtoug her
Ġimpair ment
J ob
Â §
Ġt am
en o
en es
Ġl ing
ĠA post
Ġst all
ir ical
ĠM AC
Ġout field
ind ust
Ġsp ike
ĠCh arter
Ġacc ents
Ġam use
gr ass
Ġimp osing
ĠFor bes
Ġrest oring
me g
gin a
ĠRes cue
Ġfav ored
Ġprob able
Ġmot to
Ġrepresent ations
Ġfire fighters
Ġcoll ision
Ġsil icon
ĠConst ant
Ġlandsc aping
ĠNor wegian
Ġmel ting
ĠPenn y
Ġfuck ed
ĠRen ew
Ġspell s
Ġembra cing
Ġrestra int
Ġcontamin ated
Ġfundament ally
oca ust
Ġcongreg ation
ĠCelt ic
Quest ions
ĠStain less
ĠDump ster
Ġnause a
) !
3 20
M ic
R ay
b ishop
Ġ ion
or r
Ġe tern
Ġg odd
ĠS B
am y
il ogy
ĠP our
ĠB ark
ĠW inn
us able
ain es
Ġnot orious
ĠU FC
Ġsa u
ire ment
ĠSt rength
com pet
Ġmod ular
Ġdesign ation
Ġsl opes
ĠLe h
be h
10 4
co at
Ġsal v
Ġeduc ating
ĠAm en
ĠÂ «
Ġblack jack
Ġparent al
ĠCommun ist
ĠMod els
Ġjoint ly
Ġamb ient
Americ ans
ht m
Ġmile age
ĠVen us
Ġshr ink
Ġrescu ed
% ||
B LE
N ob
c ould
d aughter
g os
l ists
er vers
Ġin h
id is
ĠH ockey
ri ott
Ġde af
Ġex ceeds
Ġr ude
ĠO ption
ĠJ ude
Ġk not
Ġup right
act ly
Ġres in
ord e
Ġdet ained
Ġdisc overs
Ġgener osity
Ġrece ivers
Ġdr astically
Ġdra gged
ĠMay o
Ġfre ak
IC ES
ĠGr ill
ĠDr ink
ĠBu yer
Ġinsp ires
Ġbur nt
Sh op
ns ic
agn etic
ĠUp dates
Ġund e
hy dro
Ġvolunte ering
Ġspons orship
ĠFil ip
ĠSaf ari
Will iam
omed ical
Ġdrain age
Ġembarrass ed
iche ver
Ġreprodu ce
ĠJen kins
Ġindirect ly
ĠAdministr ator
ĠLl oyd
Ġcance led
Ġunbeliev able
ĠBangl adesh
a ude
c aster
f air
Ġc hess
or ian
Ġd inos
ĠT ort
ĠA Z
Ġwe ighed
ĠB less
ĠW oo
Ġcon ventions
Ġcom mer
ĠR ena
th ose
res pect
ĠG az
Ġnot ch
fe ren
orm an
ĠV on
Ġpe as
av ia
ors che
ĠRe ce
ĠRe peat
Ġins ists
Ġ10 3
ĠFor ward
âĢĶ âĢĶ
Ġequ ip
Ġpast ry
ĠTr in
Ġmind ful
Ġmult if
ĠNe g
ĠGo als
Ġmiss ile
aur us
ĠAb ove
EC H
ĠProf ession
Ġmulti player
Ġsolid arity
Ġbul lets
Ġmur de
Ġminor ities
ĠExper ts
Ġlaugh s
ĠEqu ity
Ġtag ged
Ġpremium s
Ġprepar ations
ĠLeg acy
ĠPalest ine
ĠGreg ory
Ġexplo itation
Cal ifornia
ĠLes lie
Ġcous ins
Ġsour ced
ĠIdent ity
Ġexpend itures
Ġhyd ra
Ġresign ation
Ġsubur ban
ĠCertain ly
ĠVeh icle
ĠCurt is
J C
b ies
c ir
d est
y en
Ġ ^
Ġw ow
it ating
is ional
st arter
ĠS atur
ĠC ause
Ġhe ater
ĠP u
ĠB ie
Ġas semble
est o
ĠG C
ĠN ixon
fe ed
ry n
oc ol
ap a
Ġag gra
ov ie
ĠWh ats
Ġmin ors
Ġav id
Ġchar ger
Ġgl or
Ġob jection
ĠIs n
ĠFl oyd
atic an
Ġste als
Ġz oo
Ġdeep est
OU GH
ĠHar old
su per
Ġsett ling
Ġfirm ware
Ġer ad
Ġimpress ions
Ġjudge ment
Ġtro phy
Ġment ality
Ġanticip ation
ĠFact or
Ġtoile ts
ĠImm igration
Ġindu ce
Ġsculpt ures
Ġportra its
Custom er
Ġdub bed
Further more
Ġcareg ivers
H ol
T re
W W
Ġ ë
Ġo w
Ġf ox
al ong
Ġu l
ĠW ave
Ġor n
ĠF ib
qu artered
op ened
ĠO mar
Ġcomp ost
ĠV intage
ĠRe cip
Ġhome page
Ġop io
Ġinter rog
ĠBe e
ĠQ B
ĠMar ina
Ġ11 1
Ġ11 5
Ġbal ances
hel m
ĠMon ster
hold ing
Ġrout ing
ĠAut omatic
Ġsen ators
Read y
Ġassum es
ĠJoe y
Ġfold ing
Qu estion
ĠProv ince
Ġmel od
Ġpit ches
Ġunw illing
Ġru ined
ĠAdvent ures
Ġinhib itors
Ġrefuge e
Ġrecept ors
Ġfilmm akers
ĠVi enna
Ġsaus age
Ġtran qu
2 20
L ou
L ED
M ur
W ild
f ruit
g raph
Ġm ornings
ĠS olution
ĠA zer
ĠC red
ĠC auc
ad ia
Ġst ip
ĠM UST
ĠW riters
ĠG ur
ĠG ym
ĠN L
Ġch ina
ĠO g
own er
Ġav ail
Ġtrans ferring
Ġplan ner
Ġhum orous
ec d
Ġbeh old
ĠChrist ie
Ġsens ing
ett i
ĠAir craft
ari us
ĠLike wise
Ġrain bow
Ġupgr ading
ĠDi pl
Ġrein forced
ĠCook ies
ĠBry ant
Ġcomplement ary
ĠBurn s
tw itter
ĠVar ious
ĠParticip ants
ĠFreder ick
B U
C apt
G P
e er
h at
Ã ł
Ġf ren
ĠT M
ĠC rist
Ġst roll
ĠP engu
Ġpro claim
Ġex acer
Ġad apter
ber ger
ĠK ub
Ġsp ider
Ġac rylic
Ġcar ved
ĠBe an
Ġair ports
ĠApp eals
ograph ics
ĠX ML
ĠInst ruct
Ġwind ing
Ch apter
Ġperiod ically
IT ION
ĠJan et
ĠCor inth
Ġmention ing
Ġge ographical
Ġund erest
ĠAnn ie
Ġmechan ic
Ġdetect ive
Ġemp athy
Ġuns afe
Res ults
Im agine
Ġspr ink
bal ance
ĠDisc ussion
Ã¼ r
ĠAsk ed
urg ical
ĠML S
ey ed
open h
ĠStra ight
ĠDur ham
ĠRoberts on
Ġshowc ases
Ġfel ony
fashion ed
ĠSchne ider
" :
G ar
N BC
P ad
c ool
d ream
Ġ Ø
in ars
es ame
Ġh over
Ġl ongevity
ĠS ew
ĠP ie
Ġwh ip
Ġpro gn
ĠW ritten
Ġor phan
ĠH ospit
ĠF en
ĠL ac
Ġwor ms
Ġme ga
Ġar ter
Ġdown side
ĠSe lection
ener gy
ĠAn ch
Ġmed als
Ġmet ric
Ġref urb
Ġrest s
Ġwr inkles
ĠPl aces
augh ty
Ġconne ctor
Ġspecific s
af ety
Ch ange
IC H
Ġneg atively
Ġcomfort ing
Ġcontract ed
ĠSer iously
bl ood
Ġfrequ encies
Ġspread s
Com merce
ĠEv idence
ores cent
Ġmort gages
Ġpair ing
Ġcalc ulator
App ro
ĠAS S
Ġregister ing
ĠCath olics
Ġtab s
ĠAccount ing
ĠBru ins
Ġdispos able
ĠGM T
ĠMah ar
ĠHold ings
Ġouts ourcing
Ġrab bit
ĠAp oll
prof its
Ġcompos itions
ĠPharm acy
Ġritual s
Dep artment
ĠPod cast
Ġbod ily
P acific
it ant
Ġl ump
Ġg ems
ĠA way
ĠA ges
ĠM ining
ĠW ald
Ġse greg
ĠG os
Ġout ing
Ġres orts
ick r
Ġun im
Ġun available
vel t
Ġjust ification
ov ak
Ġbl iss
ise x
20 21
uc son
Ġpat ented
19 95
ĠSp read
ĠComm ander
Ġdev otion
osp ice
par alle
ĠEn sure
18 3
16 8
ĠMin imum
Ġur ging
Ġsqu ash
Ġacqu aint
Ġble nder
Ġmer its
ĠPort al
Ġprec autions
ĠLou ise
cont ract
Ġvisual s
Ġthr ust
Ġremark ed
Ġstim ulating
Ġgro ove
ĠDev ice
ĠRoman ia
Ġcopyright ed
ĠUlt imately
ĠConsult ant
Ġbes poke
occ up
Ġproport ions
Prof essor
Ġturb ines
mid t
ĠFitz gerald
Ġinjust ice
Ġpecul iar
" ),
B rowse
J ournal
i ya
l b
s ale
it an
Ġb iking
Ġb idding
Ġl inger
ĠS ans
ĠC hes
ĠG iving
Ġj ourneys
Ġcl utter
ru ed
ff iti
Ġfl or
Ġ7 50
ple ase
Ġcur ated
Ġcur rencies
ĠLe go
Ġallow ance
Ġide ally
Ġinf erior
Ġtre asures
Ġver te
ech obee
EM ENT
Ġeth ic
ĠVis itors
Ġec ology
ĠDev il
ĠWal mart
ĠDVD s
Ġacceler ation
ĠHold er
Ġacquis itions
Ġfundra iser
def ined
Ġstraw berries
Ġhack ers
ĠSad ly
Ġinterrupt ed
ĠAdministr ative
ĠFem ale
Ġresil ient
Ġdupl icate
Ġsacrific es
Ġenact ed
Ġpredomin antly
! âĢĻ
D iv
F inal
l iv
Ġs erm
Ġb umps
as ily
Ġe ats
ra z
ra wn
ĠW S
ĠR ip
ĠN umbers
Ġch orus
ĠO re
Ġme ats
ĠK urt
ĠSt uff
oll en
Ġsy ll
ĠDe e
Ġinter change
ĠBl ind
Ġbre eds
Ġeng ra
Ġevent ual
Ġlim b
Ġce ilings
Ġbed ding
ĠWill is
ĠCor on
ĠAct s
ĠWest minster
Ġsqu ir
Pro gram
Ġcommercial s
Ġkitchen s
ĠSee ing
ĠÃ ł
Ġmotiv ate
Ġgather ings
ĠPan ama
Ġrot ating
ĠMen u
Ã¡ n
ĠFarm s
ĠEr in
Bu ilding
Ġadvent urous
Ġinnoc ence
Ġmit igation
Ġbub bles
ĠAware ness
H as
f ed
n as
s ong
á ¸
es c
Ġp c
le arning
Ġl ig
Ġn avy
id ation
ĠA uckland
se at
Ġst ained
ĠM au
ra vel
ĠP VC
ill as
ĠD j
ĠD SL
Ġne urolog
Ġle aning
Ġdo d
ĠSt ress
ren ched
ric a
Ġ19 56
Ġserv icing
Ġsupp ress
Ġpr ud
Ġmod em
ĠAl cohol
man uel
Ġgl itter
Ġmet a
ĠPl atinum
by ter
ĠCont est
Ġmiss iles
Ġwar fare
ĠBu zz
Ġoffe nders
ĠAre as
Ġer osion
Ġacadem y
Ġsecret ly
ĠTop ics
ĠStr at
ĠBer g
ĠFil ms
Ġlit eral
Ġalt itude
Dis claimer
Ġtoxic ity
Ġdess erts
Ġtempor al
Ġexem ption
Ġsubur bs
1 12
T T
b en
n ai
u ph
ä ¸
ĠS eth
ĠM W
ĠW ow
ĠH ole
ĠH annah
ĠG D
ĠN PR
Ġch ampagne
Ġso ak
int ers
ĠCom ic
li que
Ġbr idal
Ġform ulated
Ġspec s
eng ine
ids on
Ġbas in
ĠCar p
Ġfriends hips
Ġwa velength
ĠInst ant
na pping
Ġsett lements
IL E
Ġcat alogue
ĠPost al
ĠPre vious
Com plete
ĠJo an
ĠJackson ville
Ġmini ature
Ġbroadcast ing
ĠJenn y
ĠNation als
Ġrenov ated
Ġpuzz les
WH AT
Ġconfidential ity
Ġdeliber ate
Ġoun ce
Ġexped ition
Ġfright ening
ĠClar ke
Term s
Expl ore
Ġsher iff
depend ent
M ap
S ports
T ur
f lu
Ã º
Ġp ian
ĠT ak
Ġu m
Ġst itch
Ġst amps
ra red
ĠB read
ĠB uc
ĠD y
ant on
Ġr idge
ĠG iant
Ġal ot
Ġcomp artment
Ġapp liance
lect ic
Ġtrans ist
Ġsign aling
ĠAr row
ĠCl are
Ġ-- -
osp ace
Ġmot ions
Ġweb cam
Ġut most
Ġstandard ized
Ġlab s
ĠSim pson
ĠSuper man
ĠCarol ine
Ġbrows ers
ĠInvest igation
ĠBre nd
Ġmal aria
Ġproceed ed
Ġsick ness
Ġillustr ates
ĠFarm ers
ĠKn ox
Ġwra pping
Ġdecent ral
ĠEnt ry
Ġprivile ged
Ġtoler ate
ĠRub y
ĠDri ving
ĠConc ert
ĠLux em
Ġrelie ved
Ġjer sey
Exper ience
Ġcryst als
ĠColomb ia
âĺ ħ
" ?
B re
C ert
R am
g ling
h p
i ably
l inks
r unning
he et
Ġb ak
Ġh ij
ĠS ons
ĠC ivic
ĠP ocket
ĠB rowse
ĠN um
Ġch assis
Ġk idding
og o
ĠIn k
ĠK od
Ġper me
Ġun m
port ion
Ġcomm issions
ock ing
20 9
Ġchar coal
Ġfun nel
Ġref usal
Ġint ellect
Ġpay day
Ġsuccess ion
Ġentire ty
ĠGr ass
Ġcontract ing
ĠHigh ly
ĠEl se
Ġbur ger
Ġtrust worthy
ĠAc id
Ġsweet ness
ĠSur face
Ġpsych iat
ĠBur g
Ġsequ encing
Des igned
ĠJud y
Ġschol arly
ĠDev ices
Ġconver ts
Ġgrab bing
ĠBa gh
Ġcoc aine
Ġauthentic ity
ĠMap le
Ġexch anged
roduct ory
ĠSund ays
Ġfundament als
Ġmiscon duct
Ġlineback er
mpos ium
< /
B rien
E AR
G ot
` `
l ance
t aking
v on
Å ¡
Ð º
Ġt apes
Ġo x
ar an
Ġre ef
Ġn in
Ġbe e
ad vert
ĠP atch
ĠH ear
ĠF av
ĠL ounge
art ments
ĠE co
Ġad hesive
Ġcomp uls
ind i
ru ce
Ġpo pping
Ġ19 57
ason ic
cept ive
ĠAd vant
Ġfr aming
ĠShe ffield
ok u
ĠZ immer
ĠCon sequently
Ġterm inate
Ġcompet ed
ĠX ia
ĠMe yer
ĠGu ests
Ġneg ot
Ġones elf
DA Q
ĠBel ieve
ĠSpr int
Ġju ices
ĠKeep ing
Ġphotograp hed
ĠCre ation
Ġpul monary
Sim ply
ĠPhill ies
asm ine
ĠEmploy ee
ĠCompl iance
ĠBald win
Ġhypert ension
C ele
F K
L im
M a
V ir
f ar
t em
he ter
Ġs ixty
Ġb our
Ġre juven
ow itz
ĠL af
ĠG entle
ĠN atal
ĠO mn
od us
Ġk ernel
Ġper ks
ord ered
Ġ19 48
iss ors
ĠUn ique
Ġexp osing
ĠBl vd
pos ure
ĠPr ison
Ġcompet ence
Ġvol atile
lt ers
Ġassist ants
ĠPer u
Ġgen ocide
Ġemb ell
ny der
Ġur gency
amb ia
Ġhear ings
ĠCommun ities
More over
Ġap ost
ograp hers
Ġveter inarian
Ġpoly mer
ĠMic key
Ġcompr ise
Ġsynt hes
ĠDrug s
Ġmigr ants
Ġintim acy
ĠPant hers
supp ort
ĠAltern ative
ĠPier re
Ġcatast rophic
Ġpestic ides
Ġaccus ations
Ġconfigur ations
A GE
H all
h ots
k t
v ar
| [
Ġc emetery
Ġf ry
Ġp se
Ġin ception
ĠC ody
ĠC aps
ĠM ED
ĠW arranty
ĠR oc
ĠR ole
ab l
Ġr inse
and el
Ġcont empt
cl ose
ne eded
Ġun real
Ġun authorized
ian i
Ġpo pped
Ġsy mm
Ġinc ap
ell er
Ġins urer
Ġmin es
Ġlist ener
Ġtri angle
ĠQ U
ley ball
ĠPr ay
ĠNe eds
ĠEn forcement
ĠDo ctors
Ġvol can
umb les
US D
ĠBo at
ĠPar ade
Ġrob bery
Ġfurn ace
Ġhar bor
ĠDet ect
Le vel
ĠFire fox
ĠHam as
ĠKnow ing
ĠHand book
ĠCra zy
ĠResp ond
Ġacceler ated
Ġgate way
Ġattach ments
Ġterr ifying
ĠCry pt
ĠMethod ist
Ġkilomet res
Ġilleg ally
C B
C omb
H O
L os
c ake
d ou
d ia
k an
k ens
Ä «
Ġa ven
Ġw iped
is i
en ment
al er
Ġto pp
Ġm ould
Ġm ates
ic us
Ġe ch
ĠT ales
Ġon board
ĠP osition
ĠB row
Ġcon qu
Ġse ct
Ġex ert
Ġab rupt
Ġim minent
ick ers
Ġpo ised
Ġ19 58
ph ot
Ġhigh s
ĠSo ccer
Ġgener ators
tt a
Ġbro th
Ġeconom ists
Ġquestion able
Ġstri ker
bor hood
ĠEl vis
Ġmix es
Ġ* *
bl ue
ĠRom ans
Ġtruth s
mat ched
Ġton nes
osh i
Ġshut down
Add ress
ĠDi agn
ĠHaw ks
EX T
ĠOrig inally
Ġshell s
ĠAgric ultural
ĠGil bert
Ġprol iferation
Ġvou cher
Face book
gred ients
H G
N ick
P rom
h n
p ict
r ill
Â ±
it ous
Ġin mates
Ġl iner
st ad
ĠB iblical
Ġor chestra
ĠR um
ĠG OOD
ĠE y
Ġall ergy
oc o
ub ric
ĠV ert
ĠV atican
form s
Ġrem ovable
Ġins urers
Ġsl ated
Ġref in
Ġdist raction
ĠCar rie
Ġmult imedia
Ġgrad ual
Ġvac ant
Ġdistrib utor
gen ic
ĠDist ribution
ĠSupp lement
Ġflu or
Ġcircumst ance
Ġdefend ants
ĠFund s
Ġprofit ability
des igned
Ġflour ish
Ġtact ic
Ġnomin ations
ĠLad ies
ĠRap ids
Ġenerg ies
Phot os
Ġdile mma
Ġunpredict able
F resh
F rench
N ice
he res
ar cer
Ġd ancer
Ġg n
ĠC SS
ĠM ia
ĠB IG
Ġan ecd
Ġse als
ĠR ico
ĠR aid
ĠL ud
ci pro
Ġj ugg
âĢĿ :
Ġgo at
ĠSt amp
Ġun anim
Ġrec ap
ĠNew port
Ġhand ing
Ġpost al
âĢ¦ )
ider y
ĠSc ale
St ore
AT CH
ĠFl owers
Ġeconom ist
play ed
Ġ: -)
Ġred emption
Ġextra v
Ġskin ny
ĠRed uce
ĠLa un
ĠTom orrow
Ġquant itative
Ġoutput s
Ġcooper ate
ĠKenn eth
EF A
ĠPur ple
Ġacknowled ges
GH z
Ġmanip ulate
first name
ĠÎ ¼
ĠIntegr ated
ĠIncre ase
Ġerect ile
Ġremod eling
Ġhier archy
Ġvom iting
threat ening
S ky
c od
d rive
m any
m etic
t v
ï ¿
Ġt enth
Ġw ig
Ġp acing
ĠB og
ĠH av
Ġat ro
ĠR ac
ĠR hod
th anks
ĠL ines
Ġpl at
ĠK re
Ġqu o
urn ed
Ġreg ression
ĠCom fort
We ight
Ġteam ed
Ġbook ings
Ġpur ity
Ġcor rections
Ġval uation
sh ots
Ġmean ings
Ġant agon
ĠCont rib
Ch icago
ĠTra iler
medi ately
ĠDr ama
Ġx xx
OU LD
ĠDem ocracy
Ġcopy ing
ipp ers
Ġcab bage
ĠDev on
Ġguard ian
Ġdump ed
Ġjack pot
Ġguitar ist
Pre p
ĠDisc uss
Ġaccum ulation
Ġdisrupt ive
ĠCow boys
Ġchampions hips
Ġcapac ities
Ġtheat rical
ĠGonz alez
Ġdiarr hea
ĠRecruit ment
Ġcommer cially
/ -
E p
M il
S ha
m and
p ieces
t ight
Ù ħ
Ù Ĭ
Ġt ucked
is o
an z
Ġg le
ĠC el
ĠC ove
pp ery
ĠF rag
un al
un less
ĠL LP
Ġv ow
ĠG ET
ĠE ug
od or
ci ple
Ġj ars
Ġk ings
âĢĿ ;
Ġman ic
ib a
ĠY outube
Ġper ceptions
ĠCh art
we ed
Ġimp rint
ĠAd ults
ik er
me aning
Ġspec imens
Ġlive lihood
IS C
Ġ13 5
Ġweb page
ĠTw ins
Ġfire arms
Ġtele communications
Ġdoll s
Ġbrain storm
Ġmaster piece
Ġpray ed
Ġkid neys
Ġdiscover ies
Ġamb itions
Ġdomin ance
Im pro
ĠHD MI
Ġiron y
Ġhall way
ĠFriend ly
Ġinteract ing
Ġtum ors
Ġcul p
Ġfemin ist
Ġvolunt arily
Ġstro kes
Ġsmok ers
PubMed Google
ĠHait i
ĠOke echobee
B oy
Ġo wing
Ġo mn
Ġm uc
Ġl amin
Ġy ell
ut able
ĠS ister
ĠC ult
ĠP ist
ĠP irates
ill es
ĠH olly
Ġde com
ist ine
ĠG N
ĠO M
ie u
Ġall ot
ook s
ans on
ĠK ane
Ġres ent
ex per
Ġpass ions
ok a
ĠRes olution
AT ES
ĠFl ip
load ed
Ġvers atility
Ġz inc
IT ED
ĠSpe aking
Ġsat isfactory
Ġcross es
ĠLaw s
Ġaccident al
ĠSand ra
Ġfold ers
Ġcompens ate
Ġcolumn ist
ĠLat ino
ĠBang kok
ECT ION
Prof essional
Ġsymp athetic
Ġflaw ed
Public ation
ĠBott om
Ġbenefic iaries
Ġshar ply
Ġpiv otal
Ġincons istent
Ġadul thood
Tex as
ĠPrag ue
B rian
J ew
J ones
K L
L ength
T en
r ational
nd ra
Ġb iodiversity
Ġp uck
Ġm isc
Ġin duct
Ġd azz
ic iary
Ġl oops
Ġg ourmet
ĠS hen
ĠC OP
ĠP OW
Ġpro xy
Ġha w
Ġor nam
ĠR ural
ĠE A
Ġab dominal
ĠJ ump
ack er
ĠK Y
Ġper se
Ġam using
bs ite
get own
ĠCom es
Ġins ur
Ġsub mar
ĠSh ot
Ġrep ent
be e
Ġfull est
ĠMar l
enn ials
Ġside walk
sw ick
IT S
ĠAb use
face book
iling ual
Ġessential s
Ġmicro s
Ġadop ting
Ġboo ster
Ġadapt ive
LA Y
Ġemp owered
Ġcommission er
Ġrecy cle
Ġfasc inated
ĠRoll ing
Ġhomeown er
ĠMitche l
produ ction
Ġintr ins
Ġprosecut ors
Ġasp iring
ĠNiger ian
UPD ATE
ĠWals h
L iving
P ER
W il
W AR
p us
at ivity
it ars
is en
Ġb a
Ġb ids
ed o
st aff
ĠT rent
ĠT ours
ot le
ow l
ĠA AA
ĠA OP
ig a
ĠM ann
ĠM add
ĠP owers
ĠB irds
ĠW arm
ĠF ut
op ia
ĠG it
ĠG ust
Ġyour selves
ĠE ffective
out ing
ĠV ern
Ġsc outs
Ġ19 55
com mit
Ġvis ions
Ġcent r
att ers
me al
sh aw
de en
Ġz ipper
cri ber
17 0
ĠTra vis
RE CT
ĠAb bey
Ġur inary
ĠMus ical
ĠPre par
ĠSpr ay
ĠPR OD
state ment
Ġmur ders
ĠUnder stand
ĠHam pton
Ġment ors
Ġbelong ings
Ġmut ations
Ġscan ner
Ġcolon ies
Comm on
Ġperm itting
Ġethnic ity
ĠBeh ind
Pri vate
ĠCrit ical
may be
ĠOccup y
ĠColon el
Ġperf ume
ĠLGBT Q
ĠAlb any
ĠConne ction
Ġhorr ific
ĠMaz da
ĠParad ise
W ay
b earing
p arent
s ets
v ial
Ġf ist
Ġf aux
Ġp ent
Ġm ater
Ġl odge
ĠM ae
ĠP RE
ĠB il
ĠW I
Ġor ch
ĠD one
ĠD AY
ĠG ru
ĠN ate
per ty
Ġ20 30
Ġdis like
Ġun acceptable
Ġtra umatic
rent ial
Ġbel ts
20 2
Ġinter disciplinary
ĠSh annon
ger ies
Ġsal ads
Ġpar an
ĠCont ents
ĠChe st
Ġrepl ica
Al most
gu ided
99 9
Ex cellent
ĠProgram ming
Un less
ĠGet ty
leg raph
Com pany
do ing
ĠTim ber
Ġmel an
ĠBas in
Tr ump
ĠAccess ories
ĠLind say
ĠPack ers
Ġpod ium
izz ard
Ġdefect ive
Hist ory
prising ly
Ġpave ment
ĠFail ure
Educ ation
ĠRena issance
! .
C redit
O Y
p ages
w ave
z or
Ġc itation
Ġf ittings
an mar
Ġl av
ĠT weet
ĠS Y
ĠC ats
ig ible
Ġas bestos
if ax
ĠW C
ĠW P
ul ance
ĠH BO
Ġ( .
ĠL enn
Ġv icious
ĠG ather
Ġup wards
og l
Ġen large
ub le
Ġ3 30
Ġdid nt
Ġsub way
Ġdifferent ial
Ġsk ating
Ġpost season
Ġcustom izable
Ġty r
ĠPl ain
pos al
Ġfac et
sh aring
Ġste er
AC C
ĠAb original
Ġnorm s
bor ah
Ġ40 1
Ġbur ial
Ġbur gl
ĠChar ge
verse ly
sp oken
Ġdream ed
oly n
ĠEar lier
Ġeval uations
Ġing en
Ġhom osexual
Ġlabor atories
Ġmort al
ĠStand ing
ĠKnow n
ĠMatt ers
comm ended
ĠFair fax
ĠMic he
Ġcoordin ating
ĠEp ic
Ġaggress ion
ĠSS L
rat om
ĠGene alog
Ġscar f
Ġjurisd ictions
ĠAh med
rec ord
Ġvib ration
Ġdia per
Ġaqu arium
ĠCole man
Ġaspir ations
ĠVik ings
Ġpled ged
ropract ic
Ġallev iate
ĠChrys ler
c as
ou x
Ġf riction
Ġp uff
st ill
et z
ĠW inner
ĠH TC
ĠR PG
Ġv ain
art on
ĠE ating
Ġsh ampoo
pl ain
ĠK och
Ġqu arant
Ġdis mant
Ġun a
Ġun beat
Ġadd icted
Ġche at
ĠSh oes
Ġteam mate
Ġmet ro
ĠAd mission
Ġiss uer
oot s
ĠMan ning
Ġdeal ership
ĠSte ps
ĠPr adesh
Ġclean ers
Ġbad ge
ĠPart ies
Ġselect ive
ĠInc orpor
Ġbal let
ĠPat ricia
EC D
Ġcondition er
Ġorganiz er
ĠWell ness
Ġprem ie
Ġnorth west
Ġpredict ive
ĠGar age
Ġrot ate
Ġpump ing
ĠLog o
ÃŃ t
ĠAdv ice
ĠRay mond
Ġaggress ively
Ġneighb ours
ĠWW E
ĠPy thon
Ġcub ic
ĠPil ot
ĠAndre a
Ġarbit ration
Ġresemb les
agg ering
Ġelectron ically
H T
g ies
h ope
i ott
m ighty
ã Ĥ
in tern
Ġs orrow
st atic
ĠA ce
ĠC OR
ĠC AP
ig nt
ĠW IN
ĠH PC
ĠH ernandez
ĠL akers
Ġsh ark
Ġdo c
ine a
ĠIn clude
Ġoff ence
Ġspe ar
Ġinc umbent
Ġatt ic
Ġbusiness man
Ġexp ands
Ġty ing
Ġcor ps
Ġrese mble
Ġenc aps
Ġcra cking
Ġ50 1
ĠDon na
Ġrev ital
Ġge ography
Ġconsult ancy
ĠJew elry
Ġutil izes
Ġap ology
Ġliber als
ĠHol ocaust
Ġdiscl aim
Ġconstruct ive
Ġflood s
Ġpossess es
Ġprivile ges
Ġmad ness
Ġuniform s
ĠPo etry
ĠRegist ered
Ġroy alty
Ġrebu ilding
Ġreceipt s
Ġirrit ation
Char les
Ġspan ning
ĠTob y
Ġneat ly
ĠFro st
keep ers
mem bers
Cong ratulations
Ġshred ded
ĠEnh ance
Ġumb rella
Ġreminis cent
ĠPly mouth
Ġabd omen
openh agen
A sh
P ict
R yan
h in
n ih
Ñ ĸ
er red
Ġh ates
Ġl umin
Ġn oodles
ĠT ennis
et c
Ġyou tube
ĠS ays
ĠS AT
ĠS add
ĠC ot
ra cuse
ĠB is
ĠD X
ĠD EL
ĠD ancing
pe ls
ĠL un
ĠL OL
ĠG in
ĠN ina
Ġnew com
Ġshe lters
aw k
Ġdec isive
Ġbr ushes
ins ki
oh an
Ġcost ing
Ġve ctor
fer red
And rew
Ġprint able
Ġwall paper
Ġlack ed
Ġhour ly
ĠCoun ter
ĠSur f
ĠDevelop er
Ġharm less
ĠPublic ations
ĠReal ty
ĠScot ia
Ġwise ly
sex ual
Ġcompe lled
ĠNob le
ĠEmb assy
Ġpadd le
ĠIsa iah
Ġdos age
A ri
F X
I AN
L ord
b t
e on
f ig
f aced
h on
Ġth inner
ĠI ke
ĠC ran
ĠM old
ĠP f
ĠP ig
if les
ĠW ed
Ġcon quer
ĠH od
ĠH undred
ĠH ugh
ĠD ear
ĠR ene
Ġsu ms
and in
Ġal coholic
ĠO ral
ĠO THER
ag in
iz a
ĠY ang
Ġ10 8
Ġdet ached
Ġadv ising
arn ation
Ġstand point
ĠPl ug
pro gram
ĠBro s
IT T
ID EO
Ġdepend ence
ĠFin ish
Ġtrust ing
Ġrock y
ĠPre viously
Ġmer ge
ĠAss ad
EM A
Ġbow ls
ĠDet erm
Ġbrief ing
fin als
Ġsan ction
pret ation
Ġwra ps
Ġswing ing
ĠAz ure
ĠNob el
Ġcree py
Ġepid em
ĠStrateg ies
ĠIndividual s
Ġappra isal
pric ed
ĠBened ict
ĠSatur days
G O
H Q
U V
b ia
f il
i antly
m ans
s ided
u u
Ġs outheast
Ġb ob
Ġp as
Ġd ances
st akes
ĠC edar
Ġst ared
ĠM oss
ĠP ole
Ġas phalt
ate l
ĠD ock
Ġde hyd
Ġne ural
Ġex clude
ĠL EG
op al
ĠG IS
ĠG rab
od ium
ĠJ ays
cc oli
ĠK umar
ĠY a
oc ard
ink y
ric es
Ġdon ating
Ġext r
uc ci
Ġpop ulated
Ġhist ories
let al
rop olis
Ġtem p
Ġmot if
Ġcra b
ĠPres byter
ĠDis order
Ġgen etics
Ġrev ival
Be yond
uk a
ĠSl ot
Ġâ ĪĴ
Ġlock ing
Ġsem if
ĠPass ion
wart z
Ġtrave llers
ĠIM F
Ġresid ual
ASH INGTON
ĠClay ton
Ġresur rection
Ġprovin ces
Ġenzy me
ĠDesk top
Ġfeather s
ĠBasket ball
E qu
L ES
j et
r anked
w ild
Ġ ....
Ġ àª
Ġa isle
Ġthe or
Ġs ushi
Ġto pping
ĠA ires
[...]
