h e
a n
t he
e d
an d
t o
i n
r e
w a
o u
i t
h a
e r
wa s
e n
o m
o n
a r
in g
i s
T he
i d
i l
s a
l e
a y
i m
l o
a l
s t
o r
he r
t h
H e
i r
S he
b e
n e
ha t
v er
e .
u t
c k
s .
sa id
y .
l d
The y
a t
a m
s he
s e
i g
n o
k e
p p
c e
p l
it h
s o
h is
w ith
r i
v e
k ed
a d
o f
L il
d ay
u n
y ou
al l
ver y
u p
e l
t hat
a s
h o
t ed
w e
l i
g o
d o
om e
ha d
m y
pl ay
Lil y
f or
the y
m om
n d
r o
b o
c h
' s
ou ld
en d
it t
en t
l y
e t
t im
ha pp
w an
itt le
ou nd
said ,
l ittle
tim e
the r
the re
o k
ou t
s m
I t
a re
h t
r a
e s
b ig
day ,
ri end
f riend
no t
b ut
a ck
sa w
th ing
T im
O ne
u l
O n
' t
v ed
On ce
! "
s ome
u g
t er
a ke
ed .
we re
a g
ir l
up on
h im
c ar
g irl
wan ted
f ul
r y
sm il
on e
s p
e c
i c
happ y
e x
u r
c ould
il l
id e
he n
g e
c o
the m
s h
time ,
w ent
m o
he l
wa y
in d
n am
T om
d id
the ir
r om
c an
. "
f e
u m
ne w
hel p
B en
? "
ha ve
f el
he d
a b
B ut
ig ht
s ,
n 't
a in
â €
o d
b ack
m e
nam ed
w n
as ked
f un
f o
r an
ar k
ou g
st ar
l a
it .
lo o
lo ved
m an
ar ound
to o
loo ked
ar d
fel t
li ke
i ck
lo w
Y ou
s to
b ir
u re
Tim my
am e
g r
se e
w or
w ould
smil ed
bir d
ge ther
f a
bo y
ho w
on g
p o
p r
t re
d d
M om
no w
m ake
o ther
to gether
to y
star ted
l l
w hat
c a
some thing
sa y
m ad
ex c
c ame
ou d
s ide
wan t
g et
ing .
exc it
p ark
o p
" I
t .
, "
f rom
lo ok
mad e
sa d
the n
p ut
ag ain
" W
go t
m u
i f
wa l
pp ed
p e
f ound
s car
S u
w hen
oug ht
w ho
e p
h ug
q u
all y
i e
d ec
r u
a ch
n a
said .
go od
er .
b b
play ing
t s
mo re
ou s
s s
i ce
a c
a ve
e very
dec id
k ing
j o
friend s
decid ed
c are
ed ,
J o
th an
b u
do g
do wn
li ked
w o
d er
S o
S am
fe el
way s
u se
c lo
f ind
on ,
s ha
you r
d ad
n y
a x
t ake
o ld
b y
ar a
al ways
he re
ri ed
th ought
w h
ou r
sp ec
happ y.
ro om
ab out
M ax
Lil y.
u st
S ara
to ok
ly ,
ar n
on 't
dd en
did n't
W hen
la ug
p re
" T
H er
J ack
excit ed
i al
fo re
m a
le .
A n
e ar
spec ial
friend s.
k new
le arn
k now
b r
c at
o l
o w
ne ver
an y
f ter
g ed
w ill
s un
a way
mom my
an t
v en
is h
u s
el l
it e
r d
h ome
c re
es ,
r ed
An na
b l
E very
s how
c ome
is t
in to
mu ch
u c
Su dden
l f
s or
s k
d re
id e.
again .
i ve
at e
L et
b all
s w
to ld
care ful
wa y.
thing s
r un
th is
â€ œ
g ave
h and
t a
g re
o ver
could n't
l ong
pr oud
ex p
c l
he ard
on .
c om
p a
an g
H is
her .
in k
him .
t e
p ick
b ro
F rom
wa ter
Sudden ly,
i a
t ter
j ust
tre e
op en
ou se
sm all
bo x
um p
wa t
is e
play ed
c le
f low
t ried
out side
p er
e at
oug h
ra bb
The n
un t
l ad
B o
ca use
' m
c all
be cause
b er
i z
t t
re ad
hug ged
c he
il y
exp lo
Jo h
Joh n
of f
Let 's
be a
v ing
A nd
them .
sh in
m y.
p t
a way.
ne ed
se lf
e ach
v ent
t ry
" Y
park .
together .
r y.
ab le
en .
u ck
laug hed
d y
than ked
unt il
be ar
day .
bea ut
man y
im al
M ia
an imal
f i
be st
f ly
il e
flow er
W e
fa st
lo ve
s ide.
e ven
k ind
s ur
be tter
scar ed
am a
b ra
g ard
y ,
p u
i ful
beaut iful
learn ed
lo ts
ur n
it s
w here
d on't
L uc
s ho
li ved
A s
fun .
r ong
le w
f in
n t
ig h
t wo
c hed
an k
It 's
a pp
om e.
â€ ™
" O
j ump
bo th
h ur
call ed
t ru
C an
ra in
st ill
Bo b
gr ound
too .
d e
le t
h ome.
l y.
v e.
re e
c on
f am
toy s
l ed
Mom my
un der
e s.
l oud
clo s
wa it
l ist
f t
c u
n ice
ing ,
a .
e y
on e.
A fter
st ay
Lily 's
say s.
i on
ha rd
wal ked
in side
sur pr
f lew
sor ry
"Y es,
ke ep
g ive
t ing
jo y
mom .
t urn
explo re
" You
s u
a ce
re pl
N o
p .
h ank
c e.
h ouse
le a
do ll
k .
b ad
ke pt
is hed
sh ould
u e
or n
r m
Luc y
bo ok
feel ing
p ic
w in
it ,
pe op
sad .
"W hat
ad vent
b ed
ro w
do or
ar t
il d
be fore
or t
im p
ic ed
no dd
st .
w on
pre tt
me m
sha re
st e
go ing
ar m
re al
smil ed.
r ight
J an
D ad
you ,
" Let's
t ure
repl i
pick ed
v o
it 's
room .
list en
d ra
cle an
wal king
y ear
open ed
not iced
sp o
tre e.
f ish
m um
advent ure
ro ck
s l
we et
d el
mem ber
gre at
ha s
as s
happ en
qu ick
g an
wh ile
ne x
is ed
p h
d is
look ing
lo ck
" No
L o
peop le
p ain
li e
e ver
ous e.
bra ve
"T hat
n ight
co lo
ama z
tru ck
cl im
a k
" He
nex t
en joy
re member
So ,
pic ture
" D
ug ht
he ad
say s,
colo r
sto pped
"T hank
won der
a fter
be ing
big ,
d if
as k
so on
shin y
ic e.
wat ch
an c
f f
ne ar
hur t
lo t
t al
then ,
th ree
up .
s qu
t in
Jan e
fo od
scar ed.
cu ri
b le
st rong
thing s.
Lo ok
be came
al so
"I 'm
Su e
imp ort
h ouse.
po t
ay be
in e
ha ir
s ure
be en
wat ched
r ough
le ss
m on
I 'm
um my
quick ly
more .
wal k
show ed
ground .
a is
you .
th ink
il ly
s ound
Sara h
" M
m ag
c ho
br ight
wa rd
o wn
l low
good by
b it
ok ay
T hat
f ir
prett y
c ou
asked .
fe re
et .
fam ily
t ell
fo llow
f ro
st ick
dif fere
h igh
sto re
i ous
laug h
er ,
p are
us ed
bo w
to r
bl ue
bo at
me an
st and
Tim my.
iz ed
gard en
b re
"No ,
on d
f l
n ing
k it
pl ace
b al
wa rm
ow ,
" It's
end .
re st
st er
ou s.
k e.
help .
le ep
wor ld
toy s.
be gan
pl an
rabb it
r ing
every one
" S
is e.
p ul
tim e.
import ant
cre am
but ter
ac hed
gr y.
i p
g rabb
animal s
â€™ s
ol ly
sa fe
le ave
I n
l ight
ch .
back .
D ais
he ar
as h
d in
sk y.
lea se
le s
" Can
c t
" Look
home ,
grabb ed
th rough
a ir
play .
ry ,
ally ,
f lo
ou ted
and ma
wor k
e m
re ally
ho pped
se t
fa v
in side.
"W e
nodd ed
friend .
help ed
Every one
ent .
co ok
repli ed,
sh outed
s and
jump ed
b lock
! â€
s n
fel l
d ro
gard en.
ha ving
fi re
g lad
t ir
Lil a
s ing
f ill
excit ed.
dra w
ide a.
kit c
kitc hen
she d
mag ic
other .
differe nt
Jo e
on ly
ag e
m is
' re
at i
S pot
vo ice
Then ,
re ached
bro ther
t ri
b or
year s
co l
w el
b un
" .
m ar
wa ved
to p
no ise
E m
h ind
c ut
ec t
in .
sw ing
fi x
out side.
p ond
m ed
k id
him self
goodby e
s weet
a th
e. "
b ug
pr in
be hind
The re
wo od
read y
sto ry
wh y
J im
water .
co ld
c ra
M olly
fir st
do .
Dais y
t r
lad y
es s
Timmy 's
T o
nam e
do w
com ing
D o
real ized
u ch
t ra
wor ked
asked ,
p ie
d ark
fav or
fro g
u ed
"D on't
sk y
F in
so ft
"He l
st ran
u ff
p et
re l
y el
any more.
del ic
S ally
p rom
c ry
sw im
A t
clos er
car .
favor ite
yel low
p ro
friend ,
ir t
ma king
ag re
Tom .
se en
W hat
mo ther
m ouse
ful l
con tin
better .
sa f
do es
Tom my
ig n
cat ch
g ame
d uck
can 't
look s
m in
m or
ar ri
enjoy ed
J en
sa t
gre en
h un
J ill
p ed
w ind
s e.
an gry.
p art
remember ed
wonder ful
b ag
er ed
any thing
ca st
s low
ey es
clim b
d ri
pre t
let 's
w rong
dre am
y ard
to uch
we ar
c la
clo se
pie ce
her self
s. "
se es
run ning
f arm
fin ished
" H
around .
than k
turn ed
s leep
you ."
box .
d one
an other
i ke
t all
h y
p le
co ol
h ill
bu ild
down .
bu y
pret end
g u
fill ed
ke t
' ll
arri ved
fa ce
st re
contin ued
per f
il y.
he ld
pare n
ch il
h id
er s
bird .
z y
dre n
o o
mom ,
an ce
fa ir
smil e
paren ts
sto p
win dow
w ished
chil dren
Lily ,
dog .
ho ld
mo st
c ri
g ent
wor d
bun ny
hand s
b ab
qu e
v is
T his
get ting
ie ld
as ure
Ben .
s now
flo or
ball .
surpr ise
happ ily
sor ry.
time s
out .
"Hel lo
"That 's
th .
k en
g er
g l
m at
f ar
b ar
m orn
dre ss
r ay
en ough
ke y
girl .
ab le.
m et
ta st
M ar
ck et
s y
fun ny
po in
sm ell
Ben ny
flower s
no ise.
sl ide
din n
fo x
t ight
m ou
need ed
y ummy
a v
careful ly
follow ed
"Look ,
fore st
br ought
Fin ally,
le ft
a ther
curi ous
ang ry
fe w
m ight
some one
at e.
d anc
for got
c ry.
"W ow,
G r
w er
s ong
N ow
do ing
ra ce
co ver
c ake
mu s
c ha
friend s,
spo t
ro ss
ir rel
de ep
g am
ro ll
c and
happen ed.
f ight
be ach
m i
fa ce.
sa il
under stand
cre at
ta il
bird s
bal lo
squ irrel
dad .
s it
li on
" It
app ear
lo st
smil e.
k no
cl oud
t rain
f r
l and
A my
C ome
jo in
every thing
saf e.
it ."
pl ain
B illy
fin ally
try ing
i es
f ur
say s
man .
w he
s pl
while ,
p ink
mo ve
pp y
like s
sorry ,
perf ect
away ,
butter fly
s s.
s is
p lease
wh ite
p ack
jo b
mor al
sp ark
M ama
e le
se ar
ward s
f ru
vis it
an ge
"T his
was .
stay ed
? â€
ful .
amaz ing
d ang
tal k
itt en
A ll
park ,
k ay
g row
be lie
fore st.
Jim my
su dden
friend ly
mus ic
d r
J ust
G o
to y.
bo y.
prin ce
wor ry,
was n't
Tim .
prom ised
n g
wa ll
to wards
delic ious
Mom ,
f all
mom ent
pain t
ck ed
clo the
bab y
f ield
P et
gr andma
clim bed
li ving
bo ard
make s
bre ak
listen ed
g g
Mommy ,
â€™ t
around ,
z z
al .
ste pped
w his
d irt
t w
t able
an sw
sha red
p ar
e ,
o se
before .
b ath
B e
p en
ic y
r ide
as s.
m ind
c orn
ne igh
mu st
S ome
g on
pp ing
pl ac
"O h
want s
kid s
ho le
"M aybe
n y.
bro ken
surpr ised
pa per
mi x
he av
hug .
Max .
ver .
ide a
fly ing
adventure .
"H i
it !
li ce
up ,
at er
it ?"
tir ed
scar ed,
M um
tre asure
mis s
ou p
s c
o t
s wa
ho t
head .
dang er
p ur
gr ate
j u
fam ily.
l on
se cre
swa m
g i
to n
stran ge
hand s.
ele ph
bl ack
pul led
n ice.
vent u
it !"
magic al
c tor
door .
b ran
"Hello ,
m .
bl an
h ide
uff y
w r
animal s.
belie ve
sis ter
al th
ex plain
j e
M aybe
at t
re ach
there .
special .
ac ross
"W hy
su ch
lon el
slow ly
ted dy
help ing
w ing
t able.
T weet
ri es
b ed.
g if
Dad dy
cast le
a f
p ass
be e
him ,
tre at
h one
pul l
i ch
" But
wait ed
ag e.
Em ma
M r
st uck
m one
ow l
gr ass.
happy ,
ro wn
qu i
st r
kitchen .
ar .
Tom ,
with out
sl ide.
every where
together ,
b ike
much .
there ,
g e.
i re
fast .
i ent
h ig
you ng
Gr andma
z e
ha r
excited !
wor k.
smiled ,
"O kay
hand .
sad ,
F l
ballo on
d es
do ctor
th ough
dad dy
uck y
car s
yard .
br ing
th re
mon ster
or ange
big ger
" Mommy,
sto od
sto ne
sn ack
to wn
at ion
" Mom,
s ign
te ac
explore .
see med
farm er
c our
with .
food .
i e.
c up
cho ol
gr ass
agre ed
night ,
ig g
vo ice.
s chool
bear .
go .
per s
ou n
l un
say ,
app le
In side
color ful
said :
block s
some times
at ed
her ,
s cream
grate ful
clos ed
m ess
g ra
b as
t win
Ben ,
cla pped
hun g
amaz ed
re lie
car d
ac c
floor .
nodd ed.
c hair
com for
ch ild
Mar y
ul l
bro wn
wa ve
j our
l ve
scar y
h or
pu ppy
"S ure
r ound
ho ped
al ong
me ?"
id ent
iz z
col our
pp er
star t
you !"
ste ad
c am
less on
thre w
p ra
ey es.
pu shed
c ried
bb y
wrong .
P lease
k is
sa me
c ray
s illy
ca ught
mo ved
okay ,
dro ve
tin y
gent le
laughed .
bad .
na ught
m e.
tre es
bra ve.
pond .
d ance
pre ss
bow l
w ell
li ve
dro pped
m es
po l
Sam .
ro t
So on,
long er
relie ved
an t.
wo ke
ho p
w ish
I 'll
car ry
picture s
el se
i on.
v al
careful .
too ,
leave s
curi ous.
pu sh
to uc
ta king
ie s.
y ell
cour se
eleph ant
ad d
po wer
dra gon
gam e.
sun ny
bo t
y. "
again ,
mom my.
think s
rain bow
secre t
plac e.
p il
be long
would n't
"Okay ,
b oun
f re
bro ke
que st
"D o
pre s
happy !
co in
world .
d ist
v ill
acc ident
sha r
m ir
Mom .
s er
bu sh
"You 're
no thing
sho ok
R o
w ise
hard .
himself .
bo tt
s ie
a se
tr ou
we t
touc hed
T hank
M ummy
ma il
a p
fun !
an ce.
cri ed.
color s
c al
e k
" Go
my ster
flower s.
con f
ph one
b en
The ir
che er
long .
p ati
" A
explo ring
eat ing
w on't
Jen ny
s ang
le g
st u
d y.
b y.
pa st
sun .
nt ain
itt ing
th row
run s
" The
e as
dinn er.
itt y
for get
c ir
d a
swim m
s, "
d i
To gether
neigh bor
Sam my
but ton
Em ily
Jack .
b le.
le s.
tir ed.
l ing
cray on
"O K
s ick
book s
cover ed
t en
g one
sudden ly
creat ure
heav y
whis t
bu cket
wood s.
t un
pu dd
in te
dr ink
inte rest
jour ne
ne ck
W ith
no d
no is
house ,
teac her
wa r
done ,
he s
right .
t u
ge st
feel s
s co
g one.
flow er.
n ic
fair y
e e
hold ing
al one.
poin ted
um ber
sun shin
lo g
d ry
e ag
Luc y.
re s
morn ing,
w and
da ught
o om
wa g
li f
b ite
herself .
â€œ I
air .
ce le
k ne
im ag
mon key
l ar
p ig
le tter
Fl uffy
p e.
k ite
less on.
pra ct
un g
ask s.
N ow,
ep end
appear ed
hel lo
blan ket
b ought
gr and
l ake
c has
cra w
en ce
list en.
alth y
"Sure ,
good .
watch ing
happen ed
wel come
L ater
p s
ke t.
doll .
eat .
at .
clothe s
ca ke.
that 's
proud .
pe ace
in e.
bir th
n â€™t
on to
jo y.
sk i
butter f
or gan
b and
qui et
hug e
sa ck
ra id
s li
accident ally
cou n
s itting
y es
af raid
T ed
shouted ,
cou nt
sp id
sho p
toy s,
m ach
B u
other s
"What 's
in stead
bu bb
wonder ed
fr on
col le
hur t.
t ear
so on.
en er
ati on.
wh ich
min ut
in ed
"O f
"Y es
il t
repli ed
i ble
own er
okay .
roll ed
cele br
s uc
suc ce
che ered
tast ed
was h
you ?"
w ra
po ol
sh r
it ch
"Hi ,
them ,
R e
e ventu
explain ed
pro ble
Anna .
s ug
hug s
f ree
me et
b ru
morn ing
and y
sp in
p an
ru bb
cook ies
o .
fast er
be l
t ur
come s
hill .
tail .
g ather
fron t
" Come
de st
gra b
f ing
fo ld
strong .
el ly
truck .
answ er
spot ted
pic nic
sound .
sp ent
v it
un i
ce an
old .
mes s.
ug g
bas ket
e gg
na p
cat .
iz e
ho le.
piece s
room ,
arrived ,
o cean
ar y
who le
prince ss
spl ash
l ay
W h
sear ched
a il
re c
k ick
pati ent
tal ked
store .
naught y
kind .
J ake
John ny
fin ish
danc ed
sand w
as leep
sho es
sm oo
ro ar
block s.
E l
sear ch
ran k
smell ed
Sudden ly
he art
m e."
sm art
now .
c ed
first ,
out ,
hig her
turn s
se s
beach .
" Lily,
sto rm
bu s
ou s,
surpr is
love ly
L ittle
pur ple
w ild
P a
ac t
play ing.
mo ve.
A lice
i an
p es
lar ge
n ut
tree ,
Tim 's
re mind
mone y
shouted .
take s
d et
wal k.
ri ver
ck et.
fun !"
i ve.
wear ing
lonel y
po t.
th in
pare nt
back ,
bo dy
to wer
p at
n umber
st air
dri ver
That 's
en s
laugh .
after .
l ate.
wor ri
that ,
ple as
ne t
fe ather
swimm ing
"Go od
word s
she ll
s oup
em bar
embar r
help ,
g igg
f it
al one
o in
down ,
o ven
re spec
b lew
dinn er
st ep
fun ,
excit ing
co w
te ach
for ward
app oin
h it
pl ant
s cre
m il
whe never
dis appoin
bu sy
z oom
pro t
po cket
n er
ted .
bott le
d en
co zy
car rot
con t
"OK ,
fish .
cast le.
no .
book .
Wh ile
wing s
look .
that ?"
to day
mat ter
night .
L e
E ven
sp e
o c
"M y
sp icy
ho pe
er min
smil es
m ine
pu zz
embarr ass
window .
se t.
z i
cir cle
near by
det ermin
bre ath
rain .
pres ent
playing ,
shin ing
cand y
im press
prett y.
ha m
eventu ally
mou th
together ."
j ar
car ried
jo ke
pa th
g ar
g y
sh ip
agre ed.
Pet er
b urn
end ,
hun gry.
er s.
hor se
hung ry
Tom 's
smil es.
cle ver
em pt
spo on
s ne
kis s
r at
up set
l ucky
f .
p izz
K itty
Together ,
finished ,
sp read
us u
p ill
C h
h ang
whe el
anything .
M itten
tree s.
la st
f anc
s we
eag er
me ad
f ig
me !"
cry ing.
m er
wor ried
sound s
le x
something .
Mia .
or m
ca ve
Mr .
quest ion
doll s
mom 's
dre ss.
cry ing
ad e
cou ra
a st
pers on
gre w
dog ,
ve get
excit ed,
wor ry
gr oup
be ll
co p
hair .
stand ing
myster ious
pretend ed
Every where
Let â€™s
h our
st ir
tast y
wood s
build ing
give s
L is
ro ad
u e.
o b
ter .
ir d
sing ing
fur ry
daught er
la ke.
er t
p ile
i er
bird ,
goodby e.
s our
ne st
che s
love s
ex am
cut e
gif t
cold .
Bob .
st um
' d
sa ur
outside ,
T V
dri ve
lo om
respec t
tal king
hid den
sp it
b low
inside ,
j ung
mo tor
thing .
lo t.
other s.
W hy
st ra
interest ing
Su sie
k itten
sh i
m ent
b read
b .
laugh ing
adventure s
id ge
il e.
" B
dirt y
p er.
veget able
ta ste
p ec
An n
she lf
light .
t ro
danger ous.
ve l
ner v
w ide
mou ntain
je wel
no ,
ro bot
you 're
fir st.
f il
lad der
le mon
p our
i ous.
mu d
pp ed.
ig hed
t id
or d
su pp
b an
bl ed
fl ut
me ,
in vit
o saur
any more
peop le.
smoo th
Pet e
ju ice
m ic
mic ro
wait ing
te st
boat .
cle ar
see k
g as
m el
fo ot
om an
din osaur
be come
wr ite
plan e
jo g
go ,
tru st
se a.
worri ed.
fanc y
p ri
to mor
tomor row
w oman
any one
surpr ise.
ch ick
spid er
id d
sa ve
shar p
h um
part y
vill age
back yard.
so ck
dec or
pa per.
for give
ul t
could .
stre t
chas ed
self ish
ball ,
um my.
v ie
kno wn
day s
power ful
to w
fire .
po p
the se
sha pe
new .
that .
to p.
fa ther
tight .
b ark
share .
sp ray
n ed
"W here
clos er,
you ,"
se a
ch an
did .
y es.
en ce.
" Please
ski pped
fl ag
Mom my.
twin s.
dre w
pa w
bar ked
color s.
s il
an ut
ho pping
kno cked
off .
el se.
bru sh
mead ow
lun ch
garden ,
Jan e.
mum my
ign or
dark .
rock .
u ce
danger ous
leave s.
beautiful .
g low
enough ,
F red
draw ing
snow man
know ing
j am
gr ay
at er,
gam es
co at
your self
sh out
st ri
mou th.
cho col
rock et
hear s
sn ake
s wan
hat .
help ful
all .
ill y.
repli ed.
So on
sto ries
prom ise
neck la
u s.
excit em
te e
welcome ,
al most
wo re
m idd
st ring
us ed.
jump ing
re st.
ight .
c ur
ho spit
li fe
part y.
hid ing
fru it
ban an
sho re
Sam ,
d epend
S pot.
pa ir
ad mir
under stood
J u
g ener
s !
Some times
Tim ,
clo wn
Lis a
Bo bby
peace ful
m aybe
E ventu
bran ch
sw ing.
course ,
go es
che e
t y
too l
"He y,
ak e.
ri es.
Su e.
miss ed
un usu
sh y
But ,
shin y.
le ad
il li
se tt
doing ?"
spl a
to wel
succe ss
bush .
z e.
D on't
to .
na p.
p ir
field .
tell s
land ed
sl id
li ft
sand .
bre a
Gr and
com e.
us ing
arm s
fig ure
exp ens
sunshin e.
g a
sha pes
z oo
M ark
wag ged
in ,
mat ch
ta ken
pack ed
wall .
st uff
prot ect
bag .
ay .
che st
book s.
spo il
t ank
sh irt
es ca
che w
gather ed
po or
determin ed
gi ant
old ,
clos er.
smil ing.
je al
whis per
th ick
t ag
star s
fe ed
po lice
ir t.
plan .
Max ,
time s,
forest ,
le ,
man ag
rabb it.
fro wn
r ad
over .
tw irl
in c
me asure
ter ri
ne l
high .
pe anut
Tweet y
sha ring
c her
um .
y ummy.
ir st
cloud s
?" .
sail ed
fast er.
car ,
â€œ Y
i ally
f t.
ta ught
cal m
sa ved
for m
Ted dy
pil low
Sara .
twin s
g ust
we t.
pe e
stran ge.
y !
E nd
re f
back yard
end ing
er a
che ck
tun nel
wr it
rock s
nois es
Mitten s
dad ,
music .
comfor table
poin ting
es pec
espec ially
neigh b
neighb our
p in
scream ed
s ca
swing s
l id
real ised
he althy
warm .
r id
lun ch.
no se
k en.
bal ance
i ke.
ne ss
well .
ra g
m ark
y es,
know .
picture s.
t ick
midd le
g un
ballo on.
r or
piece s.
l it
H ow
G ive
cream .
of ten
"S top
she s
mean .
go ld
mar ch
se lve
fore ver.
anc ient
so ar
bro ken.
differe n
know ,
duck s
way ,
sha ke
inc red
colle ct
friend ly.
ber ry
clothe s.
proble m
in a
ang el
pizz a
stre et
too ."
went ,
re turn
surpris ed.
colour ful
ly ing
as king
u d
careful ,
thank ful
walking ,
gent ly
cra ck
ha rm
el la
Ben 's
ri ver.
can not
ug ly
ber ries
o bed
s !"
br illi
"W ow
wanted .
so ld
Mr s.
spla shed
v ase
adventure s.
pl ate
M y
â€œ That
w ip
every one.
sleep .
walked ,
danc ing
fru str
do l
pick ing
car s.
f ence
ca ve.
G e
Ge or
er as
d ish
Timmy ,
lif e.
g race
fix ed
v i
fe ar
h i
tri p
bird s.
at ing
ac ce
corn er
dad dy.
y arn
t i
kid s.
st ru
call ing
we ek
fl ash
Grand pa
f ic
h orn
k in
d rank
on â€™t
cat er
cater pill
k n
birth day
Sarah .
was ,
pass ed
ul ar
am p
te a
pain ting
go at
med ic
ca ct
re la
rela x
pol ite
f ake
see m
mir ror
surprise ,
mom ent.
manag ed
i fe
enjoy ing
ed ge
re turned
â€œ What
up set.
lonel y.
c rown
t ig
c ab
ro pe
dif fic
school .
at er.
la w
f la
"Oh ,
exc la
excla im
s ighed
advent ur
del igh
song .
ever .
job .
"W ho
val u
animal s,
Max 's
at el
sa fel
D an
amaz ed.
gr ump
friend ."
se at
all y.
put s
mar ble
b ull
depend able
gi ving
v ide
ask s
it ,"
creat ive
prin t
rec ord
pen ny
des ign
chee se
grandma .
d one.
ar t.
squ are
app les
stick .
com pet
ca se
spark ly
craw led
everywhere .
sug gest
c it
cook ie
b at
cra b
toy ,
ra ce.
rubb ed
flower s,
cho ose
â€œ Letâ€™s
at ure
appear ed.
pain ted
pe bb
tri ck
c ross
en ve
enve lo
S now
D ucky
re li
sick .
f ly.
gigg led
get s
Eventu ally,
we ird
bo ss
fe et
sa ge
a bo
journe y
b itt
Le o
de ad
sp ill
mach ine
m ist
R ex
Bo bo
dol ph
bot to
again ."
word s.
eas y
ll y.
mommy ,
wra pped
ind e
l uck
dis covered
squ ee
A l
thing s,
noise s.
r are
li es
b ul
ben ch
walk s
c y
wor m
compet it
might y
cook ies.
p al
tro ph
cou ch
ang ar
angar oo
que en
d ance.
gu ilt
ur ed
stra w
to ug
d er.
c r
brilli ant
â€œ It
explo r
lo ve.
s care
in es
too !"
need s
sto p.
S andy
po log
loud .
j ack
picture .
fun ."
or ry,
lo ad
k night
k angaroo
pudd le
box ,
al ready
ad v
happ ily.
w is
al low
End .
can .
kiss ed
dis cover
pu pp
g rown
clean ed
board .
fo ol
a polog
disappoin ted
clean .
Geor ge
er o
li on.
pe ar
pr ay
went .
c age
mix ed
m ay
ru shed
cl um
z ip
near by.
You 're
kind s
b ike.
ic .
re g
B ella
" Tom,
ben ch.
tre es,
cool .
me ant
fl uffy
" Now
sne e
fre sh
mil k
fav our
sound ed
"W ell
scar y.
snow .
pee ked
sto pped.
se ed
M ike
remind ed
He l
we ak
so l
chick en
incred ible
lo y
S m
To by
Mar ia
po cket.
n ing.
"A re
I f
keep er
caterpill ar
toug h
laugh ing.
mo ving
ph one.
butterf ly.
fool ish
dirt y.
les s.
saw .
invit ed
wo lf
bal d
c ro
ro de
answ er.
te am
il .
job ,
empt y
not .
sp un
gl ue
b a
farm .
cand y.
lea f
place s
ch ir
Anna ,
girl 's
be .
lea ving
dre s
smil ing
le an
Dad .
here ?"
fight .
li ck
do ve
bor row
op h
is sor
Lily !
doll s.
f ence.
sa lad
no se.
th ose
G race
grace ful
pleas ed
ex tra
parent s.
uni que
belong ed
too ?"
dream ing
or ig
orig in
Lo la
M o
gener ous
stick s
d ig
res cu
su it
ru de
S oph
stre am
pool .
sc issor
co co
N e
o at
B l
Tweet ie
f u
sh one
ar row
favour ite
neckla ce
wor king
wa ke
unusu al
again !
dist ance.
Dais y.
se en.
d ull
sail or
e ld
S ally.
Sm ith
o tter
fre e.
d ry.
wrong ,
conf used.
valu able
po w
we althy
bran ch.
se ll
Pa pa
J am
wh ile.
ch ange
um b
dec ide
so ap
fight ing
tri es
op ard
grand pa
B un
" Be
m ouse.
stran ger
show ing
B et
cheer ful
la zy
off ered
or t.
add ed
set ,
or der
tr ump
P e
one ,
Jo ey
mo der
le opard
sa y.
ce ll
big .
t ,
mar ket
too !
de er
game s.
land .
p ay
wor ry.
W he
pract ice
D ave
w ire
sli pped
hone st
nice ,
blan ket.
l ine
sp ir
b ump
dr um
fun ny.
moder n
c er
"S orry,
crayon s
F lo
A lex
"M e
s na
cla p
mone y.
Jill .
clo th
delic ate
!" .
on ce
sho p.
be et
z ed
ash .
ke y.
tur key
so lve
mo le
l er
not e
mad .
lif ted
- up
terri ble
water ,
g ho
sto ry.
slide ,
"Hel p
i pe
f right
here .
g er.
ob j
pir ate
tur t
girl ,
door ,
bu ilt
fore ver
qui et.
ur ing
ch im
eld er
pick s
sandw ich
cha se
sm elly
long ,
" Re
instead .
fright en
curi ous,
stu dy
stum bled
pers ist
ocean .
hear t.
mis er
Whe never
ru b
so on,
yell ed
ri ch
sor ts
stre et.
y o
t ent
ser ve
sp ag
spag he
spaghe tt
spaghett i
chocol ate
loy al
banan a
trou ble
ou p.
o y
diffic ult
ey es,
now ,
bed room
en g
as e.
l li
obed ient
ac e.
ho od
found .
bun ny.
stu bb
work ,
children .
p as
Jack 's
w ro
wro te
ok e.
O K
grump y
tell ing
li cked
heav y.
colle c
T on
frog .
s i
lo se
hi pp
fi er
R ed
a k.
go !"
small er
cl ass
her o
ec t.
wip ed
mother .
Inside ,
cho se
deligh ted
know s
at ed.
thin king
ra ven
pain t.
ugg led
f ou
fou ntain
- old
hard ,
sha dow
mu se
jeal ous
right ,
for k
boun ce
W here
swing s.
ra ced
them selve
w ha
small ,
thought ,
war ned
store ,
hand ed
stubb orn
li z
liz ard
t ry.
now ."
te le
n orm
stair s
th ie
cl ay
town .
wa gon
happen ing.
p up
tear s
ro of
P olly
dra g
B rown
chim ne
elder ly
cab in
do ?"
wave s
embarrass ed
"He re
as ham
d onâ€™t
she s.
lo lli
re inde
origin al
trou ble.
face s.
he al
this ?"
sh ut
tid y
open .
cu dd
ra c
fam ous
brother ,
v an
reg ular
arm .
sleep y
un known
star s.
la un
Ne mo
was hed
rest a
resta ur
hone y
po st
wind .
please !"
A my.
st er.
p ump
b loom
does n't
proble m.
imag in
bug s
explo red
plac ed
m en
import ant.
abo ve
re nd
Anna 's
shi p.
sn if
" Ben,
bird ie
pe pper
R ose
dolph in
con d
dis gust
bl ue.
mis take
re ce
please ?"
he alth
no sy
sk y,
admir ed
journe y.
b ed,
bird 's
is .
nam e.
â€™ m
"H ow
kit e.
sk ip
help s
suggest ed
up id
en coura
car ro
sur rend
S t
y a
B ab
iz zy
gu ard
fier ce
puzz le
understand .
You r
sister .
crayon s.
app le.
bat ter
hospit al
t ire
che s.
road .
be t
t ie
dis appeared
treasure .
sp ace
read y.
vi ol
ar ian
Ben ny.
dream ed
okay ?"
friend 's
shape s.
C l
S te
sun flower
learn ing
ag ree
g n
N ex
gi ven
C har
himself ,
ne ss.
lo st.
ever !
again st
ie st
And y
day !
boy ,
John .
qu ite
it e.
in tell
intell ig
W ould
treat .
- year
sunshin e
des k
s had
en orm
p et.
ion s
st upid
ti ed
del i
st at
ta pe
j elly
song s.
carry ing
po ta
scre w
so ,
town ,
be g
pen c
mu sh
har sh
plan ts
success ful
ve st
nerv ous
bright ly
mum .
p ort
big gest
tight ly.
now !"
ro y
per form
go ing.
animal .
bas ket.
join ed
eras er
tig er
M andy
en v
gho st
j ug
g um
ice -
se par
asham ed.
imag ined
ge m
u s."
bug s.
n ature
differen t.
re m
kick ed
or din
no !"
cre ate
Every thing
ri ck
n ur
dest roy
enorm ous
boy s
m ama
br idge
them ."
jung le.
f our
bel t
z y.
ru in
friends. "
pop corn
past el
a tor
kne e.
bug .
oc top
had .
re co
th irst
swe e
swee the
search ing
fa c
could nâ€™t
do ,
name ?"
cheer ed.
" Let
rem ain
on es
ind epend
fr idge
ing red
ingred ient
tra ct
play ground
li br
brother .
f rag
ho ok
oven .
b ake
tra ck
cact us
s oup.
dog s
a unt
K im
e st
uff y.
octop us
ho op
reco gn
up er
coun ted
thought ful
mo dest
b ent
R ac
Rac hel
Jo e.
moment ,
imp ro
over ,
adventur ous
own .
c ture
comfor table.
chan ged
p ing
whist le
K ate
dad 's
small .
ma p
e e,
laughed ,
bitt er
so fa
jack et
sho es.
bo o
tra vel
M il
spill ed
gu ess
b one
show s
C ar
l ly
Bu dd
pudd le.
birth day.
gif t.
happ en.
ho se
ec a
lad y.
gar age.
re pair
te m
g or
Ch lo
com pass
be am
play ground.
best .
play ful
it â€™s
hello .
it self
clos e.
ch u
tw ig
wand er
hone y.
expens ive
Bab y
organ ize
asleep .
r ed.
envelo pe
train .
c one
Mia ,
Sara ,
pen gu
S un
roll ing
se cond
happy. "
vie w
gar age
ru ined
twirl ed
tight ly
bit e.
place s.
Pa ul
nodd ed,
what 's
c le.
Jack ,
se s.
chu bby
" They
tow er.
r ise
Tom my.
l im
Sam 's
ya wn
cha rm
hug g
p ho
rock s.
mo vie
car s,
Lily ,"
Lily ?"
coco a
kno ck
ink .
re pe
Bl ue
Re my
together !"
botto m
brave ,
reli able
idea !
did ,
wa it.
me as
law y
bubb le
wing s.
quick ly.
m ent.
learn t
f lex
clum sy
sweet .
end ed
ref used
â€œY es,
sudden ly,
in ce
mem or
pas sp
re ve
reve al
ver ,
U n
fast ,
s word
excitem ent.
tee th
bear ,
after no
imp ati
cloud s.
conf used
tir ed,
at tract
di am
diam ond
-year -old
me al
m as
spark led
hor se.
mo on
com b
H o
en th
snif f
lock ed
is :
i ther
scissor s
fu el
shore .
some times,
spe ed
bab y.
leg .
To day,
er i
A re
ad mi
ill .
bu shes.
gl as
B ear
an x
kn ife
home. "
man ,
find ing
t run
pat ter
John 's
b ase
care .
organ ized
minut es,
pa th.
d ais
sc rat
secre t.
pe ek
duck .
com plain
- a
Snow y
enth us
bowl .
as ha
boun c
pat ch
to ma
go ose
run .
agre ed,
sm o
eca use
v end
admi re
al ert
k itty
chas ing
reinde er
s um
sudden ,
m ild
snack .
pa le
com m
arm s.
careful ly.
trump et
c ran
pil ot
s iz
na il
star ed
ro bo
cou ch.
d ess
doctor .
cu sh
to day.
fil m
s cat
sug ar
cam e.
doll ,
mine !"
fair .
ju ice.
bo l
sh ield
g ie
to il
be ep
prince ss.
pour ed
sp end
spo ke
vend or
El la
bu cket.
away !"
hour s
ha lf
delic ious.
persist ent
tri ed,
any where
â€œ You
s ight
star ting
better ,
we ver,
patter n
d ive
relieved .
boy 's
norm al
er c
stret ched
spo t.
uck ed
repl ace
ter ed
impress ed
sp r
medic ine
a vo
bag s
hig her.
hipp o
z zy
pretty !"
t ummy
gor ill
S ad
jo lly
oy ster
snow man.
vegetable s
smo ke
cha in
s uper
push ing
v ing.
mar ched
al s
snack s
boss y
fe et.
Be fore
hair y
fil th
man 's
ri ce
ser ious
gl ass
sa u
es e.
qu ar
sm art.
Sara 's
be es
zi pper
W ill
wha le
ear s
f an
couldn't .
tru e.
se e.
car pet
had n't
stone s
sil ver
listen ing
"Well ,
grow ing
compass ion
sp ell
id ge.
disappoin ted.
turt le
ordin ary
cry st
d ar
t ain
celebr ate
play ,
meadow .
h ive
â€œIt â€™s
l ater,
clo ck
you !
ha ve.
any one.
shelf .
ch ang
app rec
apprec i
com ple
po em
h in
min e.
use ful
fac to
star ts
fall s
mist ake.
fl our
sy m
Ste ve
cri cket
tri ang
craw l
l ater
idea ,
re ward
other ,
" There
hum an
hur ry
food ,
l ate
shin e
vill age.
pract iced
excitem ent
"Y ay
cur tain
sn uggled
pretend ing
we ather
dist ant
pol ish
cl u
dream .
some where
sandw ic
cam era
stair s.
tee th.
Cl ara
ho ck
sun ,
po pul
cat ,
sleep y.
wel come.
d ug
esca pe
dog 's
mud .
s illy.
in ess
ste al
allow ed
fur ther
del ight.
ear th
â€ “
chair .
s cold
bird s,
ion s.
le ash
Jam es
wall s
exclaim ed.
now ?"
ex erc
song s
mu f
muf fin
ar y.
lea ve.
better ."
sweet ie.
big ail
charm ing
ig gl
deli ver
che ap
pho to
boun ced
um bre
"Yes !
J er
micro sco
nod s
ever !"
nois y
M e
L un
, â€
"Please ,
stret ch
ho t.
z or
left ,
kis s.
He re
spo on.
we en
shop keeper
big ger.
P o
met al
ey e
off ,
ne st.
strong er
ward s,
pupp y.
g loom
away. "
ce ler
organ iz
me chan
wra p
g love
S p
mean s
see k.
afraid .
k ing.
cand le
coin s
jung le
treat s
a ff
te as
fur .
A bigail
po ss
ho lid
eleph ant.
ze bra
umbre l
umbrel la
ve ter
veter in
veterin arian
co stum
whist le.
che ese.
band -a
band-a id
g ain
nod s.
cri es.
decor ate
grown -up
ve h
veh ic
Ro sie
sym bol
pota to
Jen na
kne e
c age.
' .
Once ,
mon ster.
ra zor
mess y
ice- cream
B illy.
is n't
exp eri
â€œThat â€™s
care less
now here
for th
d irt.
r ide.
pain ter
fing er
har bor
f at
number s
lean ed
b rick
thie f
visit ed
Soph ie
w itch
robo t.
not ice
squirrel .
harm less
ju icy
r hin
rhin oc
rhinoc ero
Jo sh
exam ine
s ed
flash light
i er.
troph y
for gave
sw ing,
gg ing
b in
cont ent
dish was
M ag
l ater.
hum ble
d izz
v ol
leg s
bar ber
bal anc
beaut y
har der
find .
Mo lly.
ug ged
d e.
pre pare
sing ing.
ach ie
ig loo
s end
coura ge
corn er.
pebb le
sa l
T ru
proud ly
she ep
no !
ne ed.
sho o
cook ing
bath .
carro ts
morn ing.
sto ries.
kitchen ,
so ft.
gr in
ro ar.
tu tor
" Give
" Tim,
toma to
g en
pengu in
o live
need le
co b
we b
mush room
rainbow .
co in.
embarrass ed.
mom s
scre en
bet ween
Char lie
tre m
walk ing.
in ked
ad or
did nâ€™t
saf e."
Lucy 's
he 'd
beet le
intellig ent
acce pt
F rank
re sp
b arn
s on
st ack
sk ill
wait ed.
button s
ir on
motor cy
rid ing
g iggl
bor ing
everything .
spin ning
obj ect
Lil ly
fru its
bro ke.
fru it.
st ic
asha med
cha m
put ting
dri ving
color .
s ent
av ail
vide o
C ind
mil k.
should n't
clean ing
rad i
sum mer
stre ng
pres ent.
or ang
say ing
miser able
cont ent.
bath room.
bath room
hand le
hel met
spl it
um ,
beautiful ,
r ug
tr ash
su b
ati on,
drink .
question s.
er a.
quar rel
enthus ia
co ll
off ice
hun ter
ce real
Bu zz
J ess
mag a
maga z
" F
To day
we ep
looked ,
L ul
Lul u
pump kin
you 'll
a head
mad e.
bl inked
p ted
answer ed,
dist ur
ped al
gas ped
hill ,
me ow
Chlo e
h ,
top ,
o ak
here !"
tri p.
Bob 's
ha ll
scar f
delicious !
p or
roar ed
viol in
ax e
sho ck
r ed,
plan e.
be e.
Mommy !
kind ness
s la
nod .
bus y.
p un
treat s.
Ton y
su ff
mix er
good ,
th read
Budd y
popul ar
"I f
B y
flut e
tw ist
n ing,
perf ect.
c row
back pack
ground ,
special ,
ne t.
away !
pond ,
bl ing
amaz em
forward ,
bor ed.
ad e.
she 'd
t ion
expens ive.
swim .
time. "
attract ive
ignor ant
nur se
' ve
hat ,
hur ts
whisper ed
spir it
count ing
op ed
f urn
furn it
furnit ure
Lil a.
p ian
ce il
day s,
enthusia stic
hold s
l amp
a pr
dis play
drag on.
gorill a
ball s
up !
sco o
micro phone
strong ,
"O w
com ing.
nerv ous.
L ater,
fa uce
this .
Ann ie
adv ice
here ."
sto ve
me !
flex ible
b ree
le ft.
tru e
Molly 's
is land
or al
f as
fas c
fasc in
â€œ Look
light s
safel y
"I s
m and
â€™ re
s le
ent er
v ine
TV .
nice. "
ad o
atel y,
show .
ca p
tal k.
j et
gif ted
ear ly
hop ing
un pack
Mia 's
dis appear
sk in
M illy
y ach
band age
brea the
doll s,
grate ful.
sca le
truck s
g ro
excit ing.
Ju li
sis ted
F ro
sun glas
pig e
cro co
croco d
cher ry
de af
spe ak
f ant
health y.
school ,
app ro
del ight
b ur
naught y.
ug gl
live ly
mountain .
before ,
far .
fr ame
mus cle
sur round
hospit al.
minut es
kno b
s ing.
frustr ated.
smile ,
box es
stuff ed
there ?"
H en
mechan ic
it ch.
on ion
sweet ie
read ing
p and
d om
fox .
safe ,
surrend er
spoil ed
bubb les
tri pped
an ts
nap kin
bor ing.
explor ing.
her b
ast ic
repe at
e ither
com put
bounc ing
lolli pop
c co
cco li
C at
jour n
hock ey
pp er.
sh irt.
celebr ated
thank s
l end
amaz ing.
run ning.
grow .
press ed
frighten ed
step s
excited ly
mind .
ro se
old er
"Wow !"
picnic .
be an
know ,"
for tun
i ble.
Dad ,
ri bb
poin t
re ver
s ight.
Dan ny
li p
pa id
scar f.
ro be
ingredient s
li ke.
he li
heli cop
back !"
tor n
how .
att ent
read y,
"B ecause
bu zz
li es.
"S ee,
snack s.
M a
bor ed
pack age
towel .
along .
ber ries.
guilt y
fo g
e k.
cre ati
other 's
nut s
shar k
mat tre
d ough
rescu e
stop s
pu shes
g es
dro ps
k not
tomorrow .
build ing.
bro ccoli
in king
yell ed,
env ious
penc il
disgust ing
Fl uffy.
ear .
z ag
sweethe art
a w
fix ed.
hair cut
str uggl
k itt
ne s
strong er.
r is
h ut
W ho
dro p
acce pted
" ,
worked .
bran ches
circle s
Hel lo
g ate
un it
"Wow !
can e
co o
part y,
frustr ated
me ,"
before !
ear li
Fred dy
pur se
wood s,
att ach
er t.
we ap
splash ing
tu b
loud ly.
card board
competit ive
cit y
cra zy
face s
tow ers
or nam
zoo .
Tommy ,
stick er
perf um
W his
la wn
bb ie
re comm
ele v
elev ator
sp ring
play ed,
plant s.
ig zag
lawy er
Cind y
Nex t
do ing.
sh ort
â€œ O
no body
sha king
stir red
In stead
ru de.
swing ing
che cked
cryst al
mach ine.
climb ing
"He y
ke le
kele ton
e f
Hen ry
att ic.
Emma .
E x
belong s
i on,
head ed
flo ating
sold ier
a ked
to ast
j ail
op le
ran g
squ ash
throw ing
feather s
interest ing.
sli pper
d izzy
ud ed
ca pt
separ ate
sne ak
enough .
cup board
po ked
gy m
prot ec
Jer ry
S ee
tear s.
pan ts
go lf
bra ce
li c
Sue ,
restaur ant
M ad
an na
sha m
sham po
p ine
wear .
sa ving
empt y.
dizz y.
po pped
face ,
B ill
ador able
wel com
look ,
fl ame
coun try
che st.
T h
sa uce
"W ould
answ ered
f ive
par ade
voice ,
eng ine
M ay
d ust
free z
in cre
happ iness
blow ing
cave ,
lad der.
res ist
t ucked
wand ered
Fin ally
squ e
be y
any way.
time s.
could ,
th umb
imag ine
j ar.
vol can
mirror .
independ ent
cran e
are .
ch ur
ar g
decor ation
other s,
open s
st ad
stad i
pull s
Z o
dinn er,
o x
brace let
sw ung
tick et
stru cture
mis sing
val le
Mag gie
bo ot
fish ,
soft ,
full .
ham mer
we igh
wor th
avail able
something ,
again ?"
mag net
dream s
dis appeared.
from .
for .
com p
. â€
app la
atel y
m ask
there !
mum ,
ne at
fear ful
shell s
med i
l am
g ate.
dis cu
discu ss
st y
in vest
invest ig
impro ve
h ide.
cut e.
f ought
re quest
foot ball
cam p
T in
apple s.
help ful.
val ue
tool s
cla pping
ru sh
u li
spark ling
find s
win .
ra ise
laun dry
ornam ent
Ho wever,
book s,
sor t
pr u
close t.
gro cer
" Timmy,
understand ?"
truck s.
ar ry
ge ar
car t
Ch ir
triang le
po le
flo at
tw is
fall .
stuck .
c ry,
pre par
fla pped
he s.
F irst
m it
sack .
â€™ ll
bed room.
