{
    "!": 0,
    "!\"": 1,
    "!\".": 2,
    "!â€": 3,
    "\"": 4,
    "\",": 5,
    "\".": 6,
    "\"A": 7,
    "\"Are": 8,
    "\"B": 9,
    "\"Be": 10,
    "\"Because": 11,
    "\"Ben,": 12,
    "\"But": 13,
    "\"Can": 14,
    "\"Come": 15,
    "\"D": 16,
    "\"Do": 17,
    "\"Don't": 18,
    "\"F": 19,
    "\"Give": 20,
    "\"Go": 21,
    "\"Good": 22,
    "\"H": 23,
    "\"He": 24,
    "\"Hel": 25,
    "\"Hello": 26,
    "\"Hello,": 27,
    "\"Help": 28,
    "\"Here": 29,
    "\"Hey": 30,
    "\"Hey,": 31,
    "\"Hi": 32,
    "\"Hi,": 33,
    "\"How": 34,
    "\"I": 35,
    "\"I'm": 36,
    "\"If": 37,
    "\"Is": 38,
    "\"It": 39,
    "\"It's": 40,
    "\"Let": 41,
    "\"Let's": 42,
    "\"Lily,": 43,
    "\"Look": 44,
    "\"Look,": 45,
    "\"M": 46,
    "\"Maybe": 47,
    "\"Me": 48,
    "\"Mom,": 49,
    "\"Mommy,": 50,
    "\"My": 51,
    "\"No": 52,
    "\"No,": 53,
    "\"Now": 54,
    "\"O": 55,
    "\"OK": 56,
    "\"OK,": 57,
    "\"Of": 58,
    "\"Oh": 59,
    "\"Oh,": 60,
    "\"Okay": 61,
    "\"Okay,": 62,
    "\"Ow": 63,
    "\"Please": 64,
    "\"Please,": 65,
    "\"Re": 66,
    "\"S": 67,
    "\"See,": 68,
    "\"Sorry,": 69,
    "\"Stop": 70,
    "\"Sure": 71,
    "\"Sure,": 72,
    "\"T": 73,
    "\"Thank": 74,
    "\"That": 75,
    "\"That's": 76,
    "\"The": 77,
    "\"There": 78,
    "\"They": 79,
    "\"This": 80,
    "\"Tim,": 81,
    "\"Timmy,": 82,
    "\"Tom,": 83,
    "\"W": 84,
    "\"We": 85,
    "\"Well": 86,
    "\"Well,": 87,
    "\"What": 88,
    "\"What's": 89,
    "\"Where": 90,
    "\"Who": 91,
    "\"Why": 92,
    "\"Would": 93,
    "\"Wow": 94,
    "\"Wow!": 95,
    "\"Wow!\"": 96,
    "\"Wow,": 97,
    "\"Y": 98,
    "\"Yay": 99,
    "\"Yes": 100,
    "\"Yes!": 101,
    "\"Yes,": 102,
    "\"You": 103,
    "\"You're": 104,
    "$": 105,
    "&": 106,
    "'": 107,
    "'.": 108,
    "'d": 109,
    "'ll": 110,
    "'m": 111,
    "'re": 112,
    "'s": 113,
    "'t": 114,
    "'ve": 115,
    "*": 116,
    ",": 117,
    ",\"": 118,
    ",â€": 119,
    "-": 120,
    "-a": 121,
    "-old": 122,
    "-up": 123,
    "-year": 124,
    "-year-old": 125,
    ".": 126,
    ".\"": 127,
    ".â€": 128,
    "0": 129,
    "1": 130,
    "2": 131,
    "3": 132,
    "4": 133,
    "5": 134,
    "6": 135,
    "7": 136,
    "8": 137,
    "9": 138,
    ":": 139,
    ";": 140,
    "<BOS>": 141,
    "<EOS>": 142,
    "<PAD>": 143,
    "<UNK>": 144,
    "?": 145,
    "?\"": 146,
    "?\".": 147,
    "?â€": 148,
    "A": 149,
    "Abigail": 150,
    "After": 151,
    "Al": 152,
    "Alex": 153,
    "Alice": 154,
    "All": 155,
    "Amy": 156,
    "Amy.": 157,
    "An": 158,
    "And": 159,
    "Andy": 160,
    "Ann": 161,
    "Anna": 162,
    "Anna's": 163,
    "Anna,": 164,
    "Anna.": 165,
    "Annie": 166,
    "Are": 167,
    "As": 168,
    "At": 169,
    "B": 170,
    "Bab": 171,
    "Baby": 172,
    "Be": 173,
    "Bear": 174,
    "Before": 175,
    "Bella": 176,
    "Ben": 177,
    "Ben's": 178,
    "Ben,": 179,
    "Ben.": 180,
    "Benny": 181,
    "Benny.": 182,
    "Bet": 183,
    "Bill": 184,
    "Billy": 185,
    "Billy.": 186,
    "Bl": 187,
    "Blue": 188,
    "Bo": 189,
    "Bob": 190,
    "Bob's": 191,
    "Bob.": 192,
    "Bobby": 193,
    "Bobo": 194,
    "Brown": 195,
    "Bu": 196,
    "Budd": 197,
    "Buddy": 198,
    "Bun": 199,
    "But": 200,
    "But,": 201,
    "Buzz": 202,
    "By": 203,
    "C": 204,
    "Can": 205,
    "Car": 206,
    "Cat": 207,
    "Ch": 208,
    "Char": 209,
    "Charlie": 210,
    "Chir": 211,
    "Chlo": 212,
    "Chloe": 213,
    "Cind": 214,
    "Cindy": 215,
    "Cl": 216,
    "Clara": 217,
    "Come": 218,
    "D": 219,
    "Dad": 220,
    "Dad,": 221,
    "Dad.": 222,
    "Daddy": 223,
    "Dais": 224,
    "Daisy": 225,
    "Daisy.": 226,
    "Dan": 227,
    "Danny": 228,
    "Dave": 229,
    "Do": 230,
    "Don't": 231,
    "Ducky": 232,
    "E": 233,
    "El": 234,
    "Ella": 235,
    "Em": 236,
    "Emily": 237,
    "Emma": 238,
    "Emma.": 239,
    "End": 240,
    "End.": 241,
    "Even": 242,
    "Eventu": 243,
    "Eventually,": 244,
    "Every": 245,
    "Everyone": 246,
    "Everything": 247,
    "Everywhere": 248,
    "Ex": 249,
    "F": 250,
    "Fin": 251,
    "Finally": 252,
    "Finally,": 253,
    "First": 254,
    "Fl": 255,
    "Flo": 256,
    "Fluffy": 257,
    "Fluffy.": 258,
    "Frank": 259,
    "Fred": 260,
    "Freddy": 261,
    "Fro": 262,
    "From": 263,
    "G": 264,
    "Ge": 265,
    "Geor": 266,
    "George": 267,
    "Give": 268,
    "Go": 269,
    "Gr": 270,
    "Grace": 271,
    "Grand": 272,
    "Grandma": 273,
    "Grandpa": 274,
    "H": 275,
    "He": 276,
    "Hel": 277,
    "Hello": 278,
    "Hen": 279,
    "Henry": 280,
    "Her": 281,
    "Here": 282,
    "His": 283,
    "Ho": 284,
    "How": 285,
    "However,": 286,
    "I": 287,
    "I'll": 288,
    "I'm": 289,
    "If": 290,
    "In": 291,
    "Inside": 292,
    "Inside,": 293,
    "Instead": 294,
    "It": 295,
    "It's": 296,
    "J": 297,
    "Jack": 298,
    "Jack's": 299,
    "Jack,": 300,
    "Jack.": 301,
    "Jake": 302,
    "Jam": 303,
    "James": 304,
    "Jan": 305,
    "Jane": 306,
    "Jane.": 307,
    "Jen": 308,
    "Jenna": 309,
    "Jenny": 310,
    "Jer": 311,
    "Jerry": 312,
    "Jess": 313,
    "Jill": 314,
    "Jill.": 315,
    "Jim": 316,
    "Jimmy": 317,
    "Jo": 318,
    "Joe": 319,
    "Joe.": 320,
    "Joey": 321,
    "Joh": 322,
    "John": 323,
    "John's": 324,
    "John.": 325,
    "Johnny": 326,
    "Josh": 327,
    "Ju": 328,
    "Juli": 329,
    "Just": 330,
    "K": 331,
    "Kate": 332,
    "Kim": 333,
    "Kitty": 334,
    "L": 335,
    "Later": 336,
    "Later,": 337,
    "Le": 338,
    "Leo": 339,
    "Let": 340,
    "Let's": 341,
    "Letâ€™s": 342,
    "Lil": 343,
    "Lila": 344,
    "Lila.": 345,
    "Lilly": 346,
    "Lily": 347,
    "Lily!": 348,
    "Lily's": 349,
    "Lily,": 350,
    "Lily,\"": 351,
    "Lily.": 352,
    "Lily?\"": 353,
    "Lis": 354,
    "Lisa": 355,
    "Little": 356,
    "Lo": 357,
    "Lola": 358,
    "Look": 359,
    "Luc": 360,
    "Lucy": 361,
    "Lucy's": 362,
    "Lucy.": 363,
    "Lul": 364,
    "Lulu": 365,
    "Lun": 366,
    "M": 367,
    "Ma": 368,
    "Mad": 369,
    "Mag": 370,
    "Maggie": 371,
    "Mama": 372,
    "Mandy": 373,
    "Mar": 374,
    "Maria": 375,
    "Mark": 376,
    "Mary": 377,
    "Max": 378,
    "Max's": 379,
    "Max,": 380,
    "Max.": 381,
    "May": 382,
    "Maybe": 383,
    "Me": 384,
    "Mia": 385,
    "Mia's": 386,
    "Mia,": 387,
    "Mia.": 388,
    "Mike": 389,
    "Mil": 390,
    "Milly": 391,
    "Mitten": 392,
    "Mittens": 393,
    "Mo": 394,
    "Molly": 395,
    "Molly's": 396,
    "Molly.": 397,
    "Mom": 398,
    "Mom,": 399,
    "Mom.": 400,
    "Mommy": 401,
    "Mommy!": 402,
    "Mommy,": 403,
    "Mommy.": 404,
    "Mr": 405,
    "Mr.": 406,
    "Mrs.": 407,
    "Mum": 408,
    "Mummy": 409,
    "My": 410,
    "N": 411,
    "Ne": 412,
    "Nemo": 413,
    "Nex": 414,
    "Next": 415,
    "No": 416,
    "Now": 417,
    "Now,": 418,
    "O": 419,
    "OK": 420,
    "On": 421,
    "Once": 422,
    "Once,": 423,
    "One": 424,
    "P": 425,
    "Pa": 426,
    "Papa": 427,
    "Paul": 428,
    "Pe": 429,
    "Pet": 430,
    "Pete": 431,
    "Peter": 432,
    "Please": 433,
    "Po": 434,
    "Polly": 435,
    "Q": 436,
    "R": 437,
    "Rac": 438,
    "Rachel": 439,
    "Re": 440,
    "Red": 441,
    "Remy": 442,
    "Rex": 443,
    "Ro": 444,
    "Rose": 445,
    "Rosie": 446,
    "S": 447,
    "Sad": 448,
    "Sally": 449,
    "Sally.": 450,
    "Sam": 451,
    "Sam's": 452,
    "Sam,": 453,
    "Sam.": 454,
    "Sammy": 455,
    "Sandy": 456,
    "Sara": 457,
    "Sara's": 458,
    "Sara,": 459,
    "Sara.": 460,
    "Sarah": 461,
    "Sarah.": 462,
    "See": 463,
    "She": 464,
    "Sm": 465,
    "Smith": 466,
    "Snow": 467,
    "Snowy": 468,
    "So": 469,
    "So,": 470,
    "Some": 471,
    "Sometimes": 472,
    "Soon": 473,
    "Soon,": 474,
    "Soph": 475,
    "Sophie": 476,
    "Sp": 477,
    "Spot": 478,
    "Spot.": 479,
    "St": 480,
    "Ste": 481,
    "Steve": 482,
    "Su": 483,
    "Sudden": 484,
    "Suddenly": 485,
    "Suddenly,": 486,
    "Sue": 487,
    "Sue,": 488,
    "Sue.": 489,
    "Sun": 490,
    "Susie": 491,
    "T": 492,
    "TV": 493,
    "TV.": 494,
    "Ted": 495,
    "Teddy": 496,
    "Th": 497,
    "Thank": 498,
    "That": 499,
    "That's": 500,
    "The": 501,
    "Their": 502,
    "Then": 503,
    "Then,": 504,
    "There": 505,
    "They": 506,
    "This": 507,
    "Tim": 508,
    "Tim's": 509,
    "Tim,": 510,
    "Tim.": 511,
    "Timmy": 512,
    "Timmy's": 513,
    "Timmy,": 514,
    "Timmy.": 515,
    "Tin": 516,
    "To": 517,
    "Toby": 518,
    "Today": 519,
    "Today,": 520,
    "Together": 521,
    "Together,": 522,
    "Tom": 523,
    "Tom's": 524,
    "Tom,": 525,
    "Tom.": 526,
    "Tommy": 527,
    "Tommy,": 528,
    "Tommy.": 529,
    "Ton": 530,
    "Tony": 531,
    "Tru": 532,
    "Tweet": 533,
    "Tweetie": 534,
    "Tweety": 535,
    "U": 536,
    "Un": 537,
    "V": 538,
    "W": 539,
    "We": 540,
    "Wh": 541,
    "What": 542,
    "Whe": 543,
    "When": 544,
    "Whenever": 545,
    "Where": 546,
    "While": 547,
    "Whis": 548,
    "Who": 549,
    "Why": 550,
    "Will": 551,
    "With": 552,
    "Would": 553,
    "X": 554,
    "Y": 555,
    "You": 556,
    "You're": 557,
    "Your": 558,
    "Z": 559,
    "Zo": 560,
    "a": 561,
    "a.": 562,
    "ab": 563,
    "able": 564,
    "able.": 565,
    "abo": 566,
    "about": 567,
    "above": 568,
    "ac": 569,
    "acc": 570,
    "acce": 571,
    "accept": 572,
    "accepted": 573,
    "accident": 574,
    "accidentally": 575,
    "ace": 576,
    "ace.": 577,
    "ach": 578,
    "ached": 579,
    "achie": 580,
    "ack": 581,
    "across": 582,
    "act": 583,
    "ad": 584,
    "add": 585,
    "added": 586,
    "ade": 587,
    "ade.": 588,
    "admi": 589,
    "admir": 590,
    "admire": 591,
    "admired": 592,
    "ado": 593,
    "ador": 594,
    "adorable": 595,
    "adv": 596,
    "advent": 597,
    "adventur": 598,
    "adventure": 599,
    "adventure.": 600,
    "adventures": 601,
    "adventures.": 602,
    "adventurous": 603,
    "advice": 604,
    "af": 605,
    "aff": 606,
    "afraid": 607,
    "afraid.": 608,
    "after": 609,
    "after.": 610,
    "afterno": 611,
    "ag": 612,
    "again": 613,
    "again!": 614,
    "again,": 615,
    "again.": 616,
    "again.\"": 617,
    "again?\"": 618,
    "against": 619,
    "age": 620,
    "age.": 621,
    "agre": 622,
    "agree": 623,
    "agreed": 624,
    "agreed,": 625,
    "agreed.": 626,
    "ahead": 627,
    "ail": 628,
    "ain": 629,
    "air": 630,
    "air.": 631,
    "ais": 632,
    "ak": 633,
    "ak.": 634,
    "ake": 635,
    "ake.": 636,
    "aked": 637,
    "al": 638,
    "al.": 639,
    "alert": 640,
    "all": 641,
    "all.": 642,
    "allow": 643,
    "allowed": 644,
    "ally": 645,
    "ally,": 646,
    "ally.": 647,
    "almost": 648,
    "alone": 649,
    "alone.": 650,
    "along": 651,
    "along.": 652,
    "already": 653,
    "als": 654,
    "also": 655,
    "alth": 656,
    "althy": 657,
    "always": 658,
    "am": 659,
    "ama": 660,
    "amaz": 661,
    "amazed": 662,
    "amazed.": 663,
    "amazem": 664,
    "amazing": 665,
    "amazing.": 666,
    "ame": 667,
    "amp": 668,
    "an": 669,
    "anc": 670,
    "ance": 671,
    "ance.": 672,
    "ancient": 673,
    "and": 674,
    "andma": 675,
    "andy": 676,
    "ang": 677,
    "angar": 678,
    "angaroo": 679,
    "ange": 680,
    "angel": 681,
    "angry": 682,
    "angry.": 683,
    "animal": 684,
    "animal.": 685,
    "animals": 686,
    "animals,": 687,
    "animals.": 688,
    "ank": 689,
    "anna": 690,
    "another": 691,
    "answ": 692,
    "answer": 693,
    "answer.": 694,
    "answered": 695,
    "answered,": 696,
    "ant": 697,
    "ant.": 698,
    "ants": 699,
    "anut": 700,
    "anx": 701,
    "any": 702,
    "anymore": 703,
    "anymore.": 704,
    "anyone": 705,
    "anyone.": 706,
    "anything": 707,
    "anything.": 708,
    "anyway.": 709,
    "anywhere": 710,
    "ap": 711,
    "apolog": 712,
    "app": 713,
    "appear": 714,
    "appeared": 715,
    "appeared.": 716,
    "appla": 717,
    "apple": 718,
    "apple.": 719,
    "apples": 720,
    "apples.": 721,
    "appoin": 722,
    "apprec": 723,
    "appreci": 724,
    "appro": 725,
    "apr": 726,
    "ar": 727,
    "ar.": 728,
    "ara": 729,
    "ard": 730,
    "are": 731,
    "are.": 732,
    "arg": 733,
    "arian": 734,
    "ark": 735,
    "arm": 736,
    "arm.": 737,
    "arms": 738,
    "arms.": 739,
    "arn": 740,
    "around": 741,
    "around,": 742,
    "around.": 743,
    "arri": 744,
    "arrived": 745,
    "arrived,": 746,
    "arrow": 747,
    "arry": 748,
    "art": 749,
    "art.": 750,
    "ary": 751,
    "ary.": 752,
    "as": 753,
    "ase": 754,
    "ase.": 755,
    "ash": 756,
    "ash.": 757,
    "asha": 758,
    "asham": 759,
    "ashamed": 760,
    "ashamed.": 761,
    "ask": 762,
    "asked": 763,
    "asked,": 764,
    "asked.": 765,
    "asking": 766,
    "asks": 767,
    "asks.": 768,
    "asleep": 769,
    "asleep.": 770,
    "ass": 771,
    "ass.": 772,
    "ast": 773,
    "astic": 774,
    "asure": 775,
    "at": 776,
    "at.": 777,
    "ate": 778,
    "ate.": 779,
    "ated": 780,
    "ated.": 781,
    "atel": 782,
    "ately": 783,
    "ately,": 784,
    "ater": 785,
    "ater,": 786,
    "ater.": 787,
    "ath": 788,
    "ather": 789,
    "ati": 790,
    "ating": 791,
    "ation": 792,
    "ation,": 793,
    "ation.": 794,
    "ator": 795,
    "att": 796,
    "attach": 797,
    "attent": 798,
    "attic.": 799,
    "attract": 800,
    "attractive": 801,
    "ature": 802,
    "aunt": 803,
    "av": 804,
    "avail": 805,
    "available": 806,
    "ave": 807,
    "avo": 808,
    "aw": 809,
    "away": 810,
    "away!": 811,
    "away!\"": 812,
    "away,": 813,
    "away.": 814,
    "away.\"": 815,
    "ax": 816,
    "axe": 817,
    "ay": 818,
    "ay.": 819,
    "aybe": 820,
    "b": 821,
    "b.": 822,
    "ba": 823,
    "bab": 824,
    "baby": 825,
    "baby.": 826,
    "back": 827,
    "back!\"": 828,
    "back,": 829,
    "back.": 830,
    "backpack": 831,
    "backyard": 832,
    "backyard.": 833,
    "bad": 834,
    "bad.": 835,
    "bag": 836,
    "bag.": 837,
    "bags": 838,
    "bake": 839,
    "bal": 840,
    "balanc": 841,
    "balance": 842,
    "bald": 843,
    "ball": 844,
    "ball,": 845,
    "ball.": 846,
    "ballo": 847,
    "balloon": 848,
    "balloon.": 849,
    "balls": 850,
    "ban": 851,
    "banan": 852,
    "banana": 853,
    "band": 854,
    "band-a": 855,
    "band-aid": 856,
    "bandage": 857,
    "bar": 858,
    "barber": 859,
    "bark": 860,
    "barked": 861,
    "barn": 862,
    "bas": 863,
    "base": 864,
    "basket": 865,
    "basket.": 866,
    "bat": 867,
    "bath": 868,
    "bath.": 869,
    "bathroom": 870,
    "bathroom.": 871,
    "batter": 872,
    "bb": 873,
    "bbie": 874,
    "bby": 875,
    "be": 876,
    "be.": 877,
    "bea": 878,
    "beach": 879,
    "beach.": 880,
    "beam": 881,
    "bean": 882,
    "bear": 883,
    "bear,": 884,
    "bear.": 885,
    "beaut": 886,
    "beautiful": 887,
    "beautiful,": 888,
    "beautiful.": 889,
    "beauty": 890,
    "became": 891,
    "because": 892,
    "become": 893,
    "bed": 894,
    "bed,": 895,
    "bed.": 896,
    "bedroom": 897,
    "bedroom.": 898,
    "bee": 899,
    "bee.": 900,
    "been": 901,
    "beep": 902,
    "bees": 903,
    "beet": 904,
    "beetle": 905,
    "before": 906,
    "before!": 907,
    "before,": 908,
    "before.": 909,
    "beg": 910,
    "began": 911,
    "behind": 912,
    "being": 913,
    "bel": 914,
    "belie": 915,
    "believe": 916,
    "bell": 917,
    "belong": 918,
    "belonged": 919,
    "belongs": 920,
    "belt": 921,
    "ben": 922,
    "bench": 923,
    "bench.": 924,
    "bent": 925,
    "ber": 926,
    "berries": 927,
    "berries.": 928,
    "berry": 929,
    "best": 930,
    "best.": 931,
    "bet": 932,
    "better": 933,
    "better,": 934,
    "better.": 935,
    "better.\"": 936,
    "between": 937,
    "bey": 938,
    "big": 939,
    "big,": 940,
    "big.": 941,
    "bigail": 942,
    "bigger": 943,
    "bigger.": 944,
    "biggest": 945,
    "bike": 946,
    "bike.": 947,
    "bin": 948,
    "bir": 949,
    "bird": 950,
    "bird's": 951,
    "bird,": 952,
    "bird.": 953,
    "birdie": 954,
    "birds": 955,
    "birds,": 956,
    "birds.": 957,
    "birth": 958,
    "birthday": 959,
    "birthday.": 960,
    "bit": 961,
    "bite": 962,
    "bite.": 963,
    "bitt": 964,
    "bitter": 965,
    "bl": 966,
    "black": 967,
    "blan": 968,
    "blanket": 969,
    "blanket.": 970,
    "ble": 971,
    "ble.": 972,
    "bled": 973,
    "blew": 974,
    "bling": 975,
    "blinked": 976,
    "block": 977,
    "blocks": 978,
    "blocks.": 979,
    "bloom": 980,
    "blow": 981,
    "blowing": 982,
    "blue": 983,
    "blue.": 984,
    "bo": 985,
    "board": 986,
    "board.": 987,
    "boat": 988,
    "boat.": 989,
    "body": 990,
    "bol": 991,
    "bone": 992,
    "boo": 993,
    "book": 994,
    "book.": 995,
    "books": 996,
    "books,": 997,
    "books.": 998,
    "boot": 999,
    "bor": 1000,
    "bored": 1001,
    "bored.": 1002,
    "boring": 1003,
    "boring.": 1004,
    "borrow": 1005,
    "boss": 1006,
    "bossy": 1007,
    "bot": 1008,
    "both": 1009,
    "bott": 1010,
    "bottle": 1011,
    "botto": 1012,
    "bottom": 1013,
    "bought": 1014,
    "boun": 1015,
    "bounc": 1016,
    "bounce": 1017,
    "bounced": 1018,
    "bouncing": 1019,
    "bow": 1020,
    "bowl": 1021,
    "bowl.": 1022,
    "box": 1023,
    "box,": 1024,
    "box.": 1025,
    "boxes": 1026,
    "boy": 1027,
    "boy's": 1028,
    "boy,": 1029,
    "boy.": 1030,
    "boys": 1031,
    "br": 1032,
    "bra": 1033,
    "brace": 1034,
    "bracelet": 1035,
    "bran": 1036,
    "branch": 1037,
    "branch.": 1038,
    "branches": 1039,
    "brave": 1040,
    "brave,": 1041,
    "brave.": 1042,
    "bre": 1043,
    "brea": 1044,
    "bread": 1045,
    "break": 1046,
    "breath": 1047,
    "breathe": 1048,
    "bree": 1049,
    "brick": 1050,
    "bridge": 1051,
    "bright": 1052,
    "brightly": 1053,
    "brilli": 1054,
    "brilliant": 1055,
    "bring": 1056,
    "bro": 1057,
    "broccoli": 1058,
    "broke": 1059,
    "broke.": 1060,
    "broken": 1061,
    "broken.": 1062,
    "brother": 1063,
    "brother,": 1064,
    "brother.": 1065,
    "brought": 1066,
    "brown": 1067,
    "bru": 1068,
    "brush": 1069,
    "bu": 1070,
    "bubb": 1071,
    "bubble": 1072,
    "bubbles": 1073,
    "bucket": 1074,
    "bucket.": 1075,
    "bug": 1076,
    "bug.": 1077,
    "bugs": 1078,
    "bugs.": 1079,
    "build": 1080,
    "building": 1081,
    "building.": 1082,
    "built": 1083,
    "bul": 1084,
    "bull": 1085,
    "bump": 1086,
    "bun": 1087,
    "bunny": 1088,
    "bunny.": 1089,
    "bur": 1090,
    "burn": 1091,
    "bus": 1092,
    "bush": 1093,
    "bush.": 1094,
    "bushes.": 1095,
    "busy": 1096,
    "busy.": 1097,
    "but": 1098,
    "butter": 1099,
    "butterf": 1100,
    "butterfly": 1101,
    "butterfly.": 1102,
    "button": 1103,
    "buttons": 1104,
    "buy": 1105,
    "buzz": 1106,
    "by": 1107,
    "by.": 1108,
    "c": 1109,
    "ca": 1110,
    "cab": 1111,
    "cabin": 1112,
    "cact": 1113,
    "cactus": 1114,
    "cage": 1115,
    "cage.": 1116,
    "cake": 1117,
    "cake.": 1118,
    "cal": 1119,
    "call": 1120,
    "called": 1121,
    "calling": 1122,
    "calm": 1123,
    "cam": 1124,
    "came": 1125,
    "came.": 1126,
    "camera": 1127,
    "camp": 1128,
    "can": 1129,
    "can't": 1130,
    "can.": 1131,
    "cand": 1132,
    "candle": 1133,
    "candy": 1134,
    "candy.": 1135,
    "cane": 1136,
    "cannot": 1137,
    "cap": 1138,
    "capt": 1139,
    "car": 1140,
    "car,": 1141,
    "car.": 1142,
    "card": 1143,
    "cardboard": 1144,
    "care": 1145,
    "care.": 1146,
    "careful": 1147,
    "careful,": 1148,
    "careful.": 1149,
    "carefully": 1150,
    "carefully.": 1151,
    "careless": 1152,
    "carpet": 1153,
    "carried": 1154,
    "carro": 1155,
    "carrot": 1156,
    "carrots": 1157,
    "carry": 1158,
    "carrying": 1159,
    "cars": 1160,
    "cars,": 1161,
    "cars.": 1162,
    "cart": 1163,
    "case": 1164,
    "cast": 1165,
    "castle": 1166,
    "castle.": 1167,
    "cat": 1168,
    "cat,": 1169,
    "cat.": 1170,
    "catch": 1171,
    "cater": 1172,
    "caterpill": 1173,
    "caterpillar": 1174,
    "caught": 1175,
    "cause": 1176,
    "cave": 1177,
    "cave,": 1178,
    "cave.": 1179,
    "cco": 1180,
    "ccoli": 1181,
    "ce": 1182,
    "ce.": 1183,
    "cean": 1184,
    "ced": 1185,
    "ceil": 1186,
    "cele": 1187,
    "celebr": 1188,
    "celebrate": 1189,
    "celebrated": 1190,
    "celer": 1191,
    "cell": 1192,
    "cer": 1193,
    "cereal": 1194,
    "ch": 1195,
    "ch.": 1196,
    "cha": 1197,
    "chain": 1198,
    "chair": 1199,
    "chair.": 1200,
    "cham": 1201,
    "chan": 1202,
    "chang": 1203,
    "change": 1204,
    "changed": 1205,
    "charm": 1206,
    "charming": 1207,
    "chas": 1208,
    "chase": 1209,
    "chased": 1210,
    "chasing": 1211,
    "che": 1212,
    "cheap": 1213,
    "check": 1214,
    "checked": 1215,
    "ched": 1216,
    "chee": 1217,
    "cheer": 1218,
    "cheered": 1219,
    "cheered.": 1220,
    "cheerful": 1221,
    "cheese": 1222,
    "cheese.": 1223,
    "cher": 1224,
    "cherry": 1225,
    "ches": 1226,
    "ches.": 1227,
    "chest": 1228,
    "chest.": 1229,
    "chew": 1230,
    "chick": 1231,
    "chicken": 1232,
    "chil": 1233,
    "child": 1234,
    "children": 1235,
    "children.": 1236,
    "chim": 1237,
    "chimne": 1238,
    "chir": 1239,
    "cho": 1240,
    "chocol": 1241,
    "chocolate": 1242,
    "chool": 1243,
    "choose": 1244,
    "chose": 1245,
    "chu": 1246,
    "chubby": 1247,
    "chur": 1248,
    "cir": 1249,
    "circle": 1250,
    "circles": 1251,
    "cit": 1252,
    "city": 1253,
    "ck": 1254,
    "cked": 1255,
    "cket": 1256,
    "cket.": 1257,
    "cl": 1258,
    "cla": 1259,
    "clap": 1260,
    "clapped": 1261,
    "clapping": 1262,
    "class": 1263,
    "clay": 1264,
    "cle": 1265,
    "cle.": 1266,
    "clean": 1267,
    "clean.": 1268,
    "cleaned": 1269,
    "cleaning": 1270,
    "clear": 1271,
    "clever": 1272,
    "clim": 1273,
    "climb": 1274,
    "climbed": 1275,
    "climbing": 1276,
    "clo": 1277,
    "clock": 1278,
    "clos": 1279,
    "close": 1280,
    "close.": 1281,
    "closed": 1282,
    "closer": 1283,
    "closer,": 1284,
    "closer.": 1285,
    "closet.": 1286,
    "cloth": 1287,
    "clothe": 1288,
    "clothes": 1289,
    "clothes.": 1290,
    "cloud": 1291,
    "clouds": 1292,
    "clouds.": 1293,
    "clown": 1294,
    "clu": 1295,
    "clum": 1296,
    "clumsy": 1297,
    "co": 1298,
    "coat": 1299,
    "cob": 1300,
    "coco": 1301,
    "cocoa": 1302,
    "coin": 1303,
    "coin.": 1304,
    "coins": 1305,
    "col": 1306,
    "cold": 1307,
    "cold.": 1308,
    "coll": 1309,
    "colle": 1310,
    "collec": 1311,
    "collect": 1312,
    "colo": 1313,
    "color": 1314,
    "color.": 1315,
    "colorful": 1316,
    "colors": 1317,
    "colors.": 1318,
    "colour": 1319,
    "colourful": 1320,
    "com": 1321,
    "comb": 1322,
    "come": 1323,
    "come.": 1324,
    "comes": 1325,
    "comfor": 1326,
    "comfortable": 1327,
    "comfortable.": 1328,
    "coming": 1329,
    "coming.": 1330,
    "comm": 1331,
    "comp": 1332,
    "compass": 1333,
    "compassion": 1334,
    "compet": 1335,
    "competit": 1336,
    "competitive": 1337,
    "complain": 1338,
    "comple": 1339,
    "comput": 1340,
    "con": 1341,
    "cond": 1342,
    "cone": 1343,
    "conf": 1344,
    "confused": 1345,
    "confused.": 1346,
    "cont": 1347,
    "content": 1348,
    "content.": 1349,
    "contin": 1350,
    "continued": 1351,
    "coo": 1352,
    "cook": 1353,
    "cookie": 1354,
    "cookies": 1355,
    "cookies.": 1356,
    "cooking": 1357,
    "cool": 1358,
    "cool.": 1359,
    "cop": 1360,
    "corn": 1361,
    "corner": 1362,
    "corner.": 1363,
    "costum": 1364,
    "cou": 1365,
    "couch": 1366,
    "couch.": 1367,
    "could": 1368,
    "could,": 1369,
    "could.": 1370,
    "couldn't": 1371,
    "couldn't.": 1372,
    "couldnâ€™t": 1373,
    "coun": 1374,
    "count": 1375,
    "counted": 1376,
    "counting": 1377,
    "country": 1378,
    "cour": 1379,
    "coura": 1380,
    "courage": 1381,
    "course": 1382,
    "course,": 1383,
    "cover": 1384,
    "covered": 1385,
    "cow": 1386,
    "cozy": 1387,
    "cr": 1388,
    "cra": 1389,
    "crab": 1390,
    "crack": 1391,
    "cran": 1392,
    "crane": 1393,
    "craw": 1394,
    "crawl": 1395,
    "crawled": 1396,
    "cray": 1397,
    "crayon": 1398,
    "crayons": 1399,
    "crayons.": 1400,
    "crazy": 1401,
    "cre": 1402,
    "cream": 1403,
    "cream.": 1404,
    "creat": 1405,
    "create": 1406,
    "creati": 1407,
    "creative": 1408,
    "creature": 1409,
    "cri": 1410,
    "cricket": 1411,
    "cried": 1412,
    "cried.": 1413,
    "cries.": 1414,
    "cro": 1415,
    "croco": 1416,
    "crocod": 1417,
    "cross": 1418,
    "crow": 1419,
    "crown": 1420,
    "cry": 1421,
    "cry,": 1422,
    "cry.": 1423,
    "crying": 1424,
    "crying.": 1425,
    "cryst": 1426,
    "crystal": 1427,
    "ct": 1428,
    "ctor": 1429,
    "cture": 1430,
    "cu": 1431,
    "cudd": 1432,
    "cup": 1433,
    "cupboard": 1434,
    "cur": 1435,
    "curi": 1436,
    "curious": 1437,
    "curious,": 1438,
    "curious.": 1439,
    "curtain": 1440,
    "cush": 1441,
    "cut": 1442,
    "cute": 1443,
    "cute.": 1444,
    "cy": 1445,
    "d": 1446,
    "da": 1447,
    "dad": 1448,
    "dad's": 1449,
    "dad,": 1450,
    "dad.": 1451,
    "daddy": 1452,
    "daddy.": 1453,
    "dais": 1454,
    "danc": 1455,
    "dance": 1456,
    "dance.": 1457,
    "danced": 1458,
    "dancing": 1459,
    "dang": 1460,
    "danger": 1461,
    "dangerous": 1462,
    "dangerous.": 1463,
    "dar": 1464,
    "dark": 1465,
    "dark.": 1466,
    "daught": 1467,
    "daughter": 1468,
    "day": 1469,
    "day!": 1470,
    "day,": 1471,
    "day.": 1472,
    "days": 1473,
    "days,": 1474,
    "dd": 1475,
    "dden": 1476,
    "de": 1477,
    "de.": 1478,
    "dead": 1479,
    "deaf": 1480,
    "dec": 1481,
    "decid": 1482,
    "decide": 1483,
    "decided": 1484,
    "decor": 1485,
    "decorate": 1486,
    "decoration": 1487,
    "deep": 1488,
    "deer": 1489,
    "del": 1490,
    "deli": 1491,
    "delic": 1492,
    "delicate": 1493,
    "delicious": 1494,
    "delicious!": 1495,
    "delicious.": 1496,
    "deligh": 1497,
    "delight": 1498,
    "delight.": 1499,
    "delighted": 1500,
    "deliver": 1501,
    "den": 1502,
    "depend": 1503,
    "dependable": 1504,
    "der": 1505,
    "der.": 1506,
    "des": 1507,
    "design": 1508,
    "desk": 1509,
    "dess": 1510,
    "dest": 1511,
    "destroy": 1512,
    "det": 1513,
    "determin": 1514,
    "determined": 1515,
    "di": 1516,
    "diam": 1517,
    "diamond": 1518,
    "did": 1519,
    "did,": 1520,
    "did.": 1521,
    "didn't": 1522,
    "didnâ€™t": 1523,
    "dif": 1524,
    "differe": 1525,
    "differen": 1526,
    "different": 1527,
    "different.": 1528,
    "diffic": 1529,
    "difficult": 1530,
    "dig": 1531,
    "din": 1532,
    "dinn": 1533,
    "dinner": 1534,
    "dinner,": 1535,
    "dinner.": 1536,
    "dinosaur": 1537,
    "dirt": 1538,
    "dirt.": 1539,
    "dirty": 1540,
    "dirty.": 1541,
    "dis": 1542,
    "disappear": 1543,
    "disappeared": 1544,
    "disappeared.": 1545,
    "disappoin": 1546,
    "disappointed": 1547,
    "disappointed.": 1548,
    "discover": 1549,
    "discovered": 1550,
    "discu": 1551,
    "discuss": 1552,
    "disgust": 1553,
    "disgusting": 1554,
    "dish": 1555,
    "dishwas": 1556,
    "display": 1557,
    "dist": 1558,
    "distance.": 1559,
    "distant": 1560,
    "distur": 1561,
    "dive": 1562,
    "dizz": 1563,
    "dizzy": 1564,
    "dizzy.": 1565,
    "do": 1566,
    "do,": 1567,
    "do.": 1568,
    "do?\"": 1569,
    "doctor": 1570,
    "doctor.": 1571,
    "does": 1572,
    "doesn't": 1573,
    "dog": 1574,
    "dog's": 1575,
    "dog,": 1576,
    "dog.": 1577,
    "dogs": 1578,
    "doing": 1579,
    "doing.": 1580,
    "doing?\"": 1581,
    "dol": 1582,
    "doll": 1583,
    "doll,": 1584,
    "doll.": 1585,
    "dolls": 1586,
    "dolls,": 1587,
    "dolls.": 1588,
    "dolph": 1589,
    "dolphin": 1590,
    "dom": 1591,
    "don't": 1592,
    "done": 1593,
    "done,": 1594,
    "done.": 1595,
    "donâ€™t": 1596,
    "door": 1597,
    "door,": 1598,
    "door.": 1599,
    "dough": 1600,
    "dove": 1601,
    "dow": 1602,
    "down": 1603,
    "down,": 1604,
    "down.": 1605,
    "dr": 1606,
    "dra": 1607,
    "drag": 1608,
    "dragon": 1609,
    "dragon.": 1610,
    "drank": 1611,
    "draw": 1612,
    "drawing": 1613,
    "dre": 1614,
    "dream": 1615,
    "dream.": 1616,
    "dreamed": 1617,
    "dreaming": 1618,
    "dreams": 1619,
    "dren": 1620,
    "dres": 1621,
    "dress": 1622,
    "dress.": 1623,
    "drew": 1624,
    "dri": 1625,
    "drink": 1626,
    "drink.": 1627,
    "drive": 1628,
    "driver": 1629,
    "driving": 1630,
    "dro": 1631,
    "drop": 1632,
    "dropped": 1633,
    "drops": 1634,
    "drove": 1635,
    "drum": 1636,
    "dry": 1637,
    "dry.": 1638,
    "duck": 1639,
    "duck.": 1640,
    "ducks": 1641,
    "dug": 1642,
    "dull": 1643,
    "dust": 1644,
    "dy": 1645,
    "dy.": 1646,
    "e": 1647,
    "e,": 1648,
    "e.": 1649,
    "e.\"": 1650,
    "each": 1651,
    "eag": 1652,
    "eager": 1653,
    "ear": 1654,
    "ear.": 1655,
    "earli": 1656,
    "early": 1657,
    "ears": 1658,
    "earth": 1659,
    "eas": 1660,
    "easy": 1661,
    "eat": 1662,
    "eat.": 1663,
    "eating": 1664,
    "ec": 1665,
    "eca": 1666,
    "ecause": 1667,
    "ect": 1668,
    "ect.": 1669,
    "ed": 1670,
    "ed,": 1671,
    "ed.": 1672,
    "edge": 1673,
    "ee": 1674,
    "ee,": 1675,
    "ef": 1676,
    "egg": 1677,
    "either": 1678,
    "ek": 1679,
    "ek.": 1680,
    "el": 1681,
    "eld": 1682,
    "elder": 1683,
    "elderly": 1684,
    "ele": 1685,
    "eleph": 1686,
    "elephant": 1687,
    "elephant.": 1688,
    "elev": 1689,
    "elevator": 1690,
    "ell": 1691,
    "ella": 1692,
    "elly": 1693,
    "else": 1694,
    "else.": 1695,
    "em": 1696,
    "embar": 1697,
    "embarr": 1698,
    "embarrass": 1699,
    "embarrassed": 1700,
    "embarrassed.": 1701,
    "empt": 1702,
    "empty": 1703,
    "empty.": 1704,
    "en": 1705,
    "en.": 1706,
    "ence": 1707,
    "ence.": 1708,
    "encoura": 1709,
    "end": 1710,
    "end,": 1711,
    "end.": 1712,
    "ended": 1713,
    "ending": 1714,
    "ener": 1715,
    "eng": 1716,
    "engine": 1717,
    "enjoy": 1718,
    "enjoyed": 1719,
    "enjoying": 1720,
    "enorm": 1721,
    "enormous": 1722,
    "enough": 1723,
    "enough,": 1724,
    "enough.": 1725,
    "ens": 1726,
    "ent": 1727,
    "ent.": 1728,
    "enter": 1729,
    "enth": 1730,
    "enthus": 1731,
    "enthusia": 1732,
    "enthusiastic": 1733,
    "env": 1734,
    "enve": 1735,
    "envelo": 1736,
    "envelope": 1737,
    "envious": 1738,
    "ep": 1739,
    "epend": 1740,
    "er": 1741,
    "er,": 1742,
    "er.": 1743,
    "era": 1744,
    "era.": 1745,
    "eras": 1746,
    "eraser": 1747,
    "erc": 1748,
    "ered": 1749,
    "eri": 1750,
    "ermin": 1751,
    "ero": 1752,
    "ers": 1753,
    "ers.": 1754,
    "ert": 1755,
    "ert.": 1756,
    "es": 1757,
    "es,": 1758,
    "es.": 1759,
    "esca": 1760,
    "escape": 1761,
    "ese.": 1762,
    "espec": 1763,
    "especially": 1764,
    "ess": 1765,
    "est": 1766,
    "et": 1767,
    "et.": 1768,
    "even": 1769,
    "eventu": 1770,
    "eventually": 1771,
    "ever": 1772,
    "ever!": 1773,
    "ever!\"": 1774,
    "ever.": 1775,
    "every": 1776,
    "everyone": 1777,
    "everyone.": 1778,
    "everything": 1779,
    "everything.": 1780,
    "everywhere": 1781,
    "everywhere.": 1782,
    "ex": 1783,
    "exam": 1784,
    "examine": 1785,
    "exc": 1786,
    "excit": 1787,
    "excited": 1788,
    "excited!": 1789,
    "excited,": 1790,
    "excited.": 1791,
    "excitedly": 1792,
    "excitem": 1793,
    "excitement": 1794,
    "excitement.": 1795,
    "exciting": 1796,
    "exciting.": 1797,
    "excla": 1798,
    "exclaim": 1799,
    "exclaimed.": 1800,
    "exerc": 1801,
    "exp": 1802,
    "expens": 1803,
    "expensive": 1804,
    "expensive.": 1805,
    "experi": 1806,
    "explain": 1807,
    "explained": 1808,
    "explo": 1809,
    "explor": 1810,
    "explore": 1811,
    "explore.": 1812,
    "explored": 1813,
    "exploring": 1814,
    "exploring.": 1815,
    "extra": 1816,
    "ey": 1817,
    "eye": 1818,
    "eyes": 1819,
    "eyes,": 1820,
    "eyes.": 1821,
    "f": 1822,
    "f.": 1823,
    "fa": 1824,
    "fac": 1825,
    "face": 1826,
    "face,": 1827,
    "face.": 1828,
    "faces": 1829,
    "faces.": 1830,
    "facto": 1831,
    "fair": 1832,
    "fair.": 1833,
    "fairy": 1834,
    "fake": 1835,
    "fall": 1836,
    "fall.": 1837,
    "falls": 1838,
    "fam": 1839,
    "family": 1840,
    "family.": 1841,
    "famous": 1842,
    "fan": 1843,
    "fanc": 1844,
    "fancy": 1845,
    "fant": 1846,
    "far": 1847,
    "far.": 1848,
    "farm": 1849,
    "farm.": 1850,
    "farmer": 1851,
    "fas": 1852,
    "fasc": 1853,
    "fascin": 1854,
    "fast": 1855,
    "fast,": 1856,
    "fast.": 1857,
    "faster": 1858,
    "faster.": 1859,
    "fat": 1860,
    "father": 1861,
    "fauce": 1862,
    "fav": 1863,
    "favor": 1864,
    "favorite": 1865,
    "favour": 1866,
    "favourite": 1867,
    "fe": 1868,
    "fear": 1869,
    "fearful": 1870,
    "feather": 1871,
    "feathers": 1872,
    "feed": 1873,
    "feel": 1874,
    "feeling": 1875,
    "feels": 1876,
    "feet": 1877,
    "feet.": 1878,
    "fel": 1879,
    "fell": 1880,
    "felt": 1881,
    "fence": 1882,
    "fence.": 1883,
    "fere": 1884,
    "few": 1885,
    "ff": 1886,
    "fi": 1887,
    "fic": 1888,
    "field": 1889,
    "field.": 1890,
    "fier": 1891,
    "fierce": 1892,
    "fig": 1893,
    "fight": 1894,
    "fight.": 1895,
    "fighting": 1896,
    "figure": 1897,
    "fil": 1898,
    "fill": 1899,
    "filled": 1900,
    "film": 1901,
    "filth": 1902,
    "fin": 1903,
    "finally": 1904,
    "find": 1905,
    "find.": 1906,
    "finding": 1907,
    "finds": 1908,
    "fing": 1909,
    "finger": 1910,
    "finish": 1911,
    "finished": 1912,
    "finished,": 1913,
    "fir": 1914,
    "fire": 1915,
    "fire.": 1916,
    "first": 1917,
    "first,": 1918,
    "first.": 1919,
    "fish": 1920,
    "fish,": 1921,
    "fish.": 1922,
    "fit": 1923,
    "five": 1924,
    "fix": 1925,
    "fixed": 1926,
    "fixed.": 1927,
    "fl": 1928,
    "fla": 1929,
    "flag": 1930,
    "flame": 1931,
    "flapped": 1932,
    "flash": 1933,
    "flashlight": 1934,
    "flew": 1935,
    "flex": 1936,
    "flexible": 1937,
    "flo": 1938,
    "float": 1939,
    "floating": 1940,
    "floor": 1941,
    "floor.": 1942,
    "flour": 1943,
    "flow": 1944,
    "flower": 1945,
    "flower.": 1946,
    "flowers": 1947,
    "flowers,": 1948,
    "flowers.": 1949,
    "fluffy": 1950,
    "flut": 1951,
    "flute": 1952,
    "fly": 1953,
    "fly.": 1954,
    "flying": 1955,
    "fo": 1956,
    "fog": 1957,
    "fold": 1958,
    "follow": 1959,
    "followed": 1960,
    "food": 1961,
    "food,": 1962,
    "food.": 1963,
    "fool": 1964,
    "foolish": 1965,
    "foot": 1966,
    "football": 1967,
    "for": 1968,
    "for.": 1969,
    "fore": 1970,
    "forest": 1971,
    "forest,": 1972,
    "forest.": 1973,
    "forever": 1974,
    "forever.": 1975,
    "forgave": 1976,
    "forget": 1977,
    "forgive": 1978,
    "forgot": 1979,
    "fork": 1980,
    "form": 1981,
    "forth": 1982,
    "fortun": 1983,
    "forward": 1984,
    "forward,": 1985,
    "fou": 1986,
    "fought": 1987,
    "found": 1988,
    "found.": 1989,
    "fountain": 1990,
    "four": 1991,
    "fox": 1992,
    "fox.": 1993,
    "fr": 1994,
    "frag": 1995,
    "frame": 1996,
    "fre": 1997,
    "free": 1998,
    "free.": 1999,
    "freez": 2000,
    "fresh": 2001,
    "fridge": 2002,
    "friend": 2003,
    "friend's": 2004,
    "friend,": 2005,
    "friend.": 2006,
    "friend.\"": 2007,
    "friendly": 2008,
    "friendly.": 2009,
    "friends": 2010,
    "friends,": 2011,
    "friends.": 2012,
    "friends.\"": 2013,
    "fright": 2014,
    "frighten": 2015,
    "frightened": 2016,
    "fro": 2017,
    "frog": 2018,
    "frog.": 2019,
    "from": 2020,
    "from.": 2021,
    "fron": 2022,
    "front": 2023,
    "frown": 2024,
    "fru": 2025,
    "fruit": 2026,
    "fruit.": 2027,
    "fruits": 2028,
    "frustr": 2029,
    "frustrated": 2030,
    "frustrated.": 2031,
    "ft": 2032,
    "ft.": 2033,
    "fter": 2034,
    "fu": 2035,
    "fuel": 2036,
    "ful": 2037,
    "ful.": 2038,
    "full": 2039,
    "full.": 2040,
    "fun": 2041,
    "fun!": 2042,
    "fun!\"": 2043,
    "fun,": 2044,
    "fun.": 2045,
    "fun.\"": 2046,
    "funny": 2047,
    "funny.": 2048,
    "fur": 2049,
    "fur.": 2050,
    "furn": 2051,
    "furnit": 2052,
    "furniture": 2053,
    "furry": 2054,
    "further": 2055,
    "g": 2056,
    "ga": 2057,
    "gain": 2058,
    "gam": 2059,
    "game": 2060,
    "game.": 2061,
    "games": 2062,
    "games.": 2063,
    "gan": 2064,
    "gar": 2065,
    "garage": 2066,
    "garage.": 2067,
    "gard": 2068,
    "garden": 2069,
    "garden,": 2070,
    "garden.": 2071,
    "gas": 2072,
    "gasped": 2073,
    "gate": 2074,
    "gate.": 2075,
    "gather": 2076,
    "gathered": 2077,
    "gave": 2078,
    "ge": 2079,
    "ge.": 2080,
    "gear": 2081,
    "ged": 2082,
    "gem": 2083,
    "gen": 2084,
    "gener": 2085,
    "generous": 2086,
    "gent": 2087,
    "gentle": 2088,
    "gently": 2089,
    "ger": 2090,
    "ger.": 2091,
    "ges": 2092,
    "gest": 2093,
    "get": 2094,
    "gether": 2095,
    "gets": 2096,
    "getting": 2097,
    "gg": 2098,
    "gging": 2099,
    "gho": 2100,
    "ghost": 2101,
    "gi": 2102,
    "giant": 2103,
    "gie": 2104,
    "gif": 2105,
    "gift": 2106,
    "gift.": 2107,
    "gifted": 2108,
    "gigg": 2109,
    "giggl": 2110,
    "giggled": 2111,
    "girl": 2112,
    "girl's": 2113,
    "girl,": 2114,
    "girl.": 2115,
    "give": 2116,
    "given": 2117,
    "gives": 2118,
    "giving": 2119,
    "gl": 2120,
    "glad": 2121,
    "glas": 2122,
    "glass": 2123,
    "gloom": 2124,
    "glove": 2125,
    "glow": 2126,
    "glue": 2127,
    "gn": 2128,
    "go": 2129,
    "go!\"": 2130,
    "go,": 2131,
    "go.": 2132,
    "goat": 2133,
    "goes": 2134,
    "going": 2135,
    "going.": 2136,
    "gold": 2137,
    "golf": 2138,
    "gon": 2139,
    "gone": 2140,
    "gone.": 2141,
    "good": 2142,
    "good,": 2143,
    "good.": 2144,
    "goodby": 2145,
    "goodbye": 2146,
    "goodbye.": 2147,
    "goose": 2148,
    "gor": 2149,
    "gorill": 2150,
    "gorilla": 2151,
    "got": 2152,
    "gr": 2153,
    "gra": 2154,
    "grab": 2155,
    "grabb": 2156,
    "grabbed": 2157,
    "grace": 2158,
    "graceful": 2159,
    "grand": 2160,
    "grandma": 2161,
    "grandma.": 2162,
    "grandpa": 2163,
    "grass": 2164,
    "grass.": 2165,
    "grate": 2166,
    "grateful": 2167,
    "grateful.": 2168,
    "gray": 2169,
    "gre": 2170,
    "great": 2171,
    "green": 2172,
    "grew": 2173,
    "grin": 2174,
    "gro": 2175,
    "grocer": 2176,
    "ground": 2177,
    "ground,": 2178,
    "ground.": 2179,
    "group": 2180,
    "grow": 2181,
    "grow.": 2182,
    "growing": 2183,
    "grown": 2184,
    "grown-up": 2185,
    "grump": 2186,
    "grumpy": 2187,
    "gry.": 2188,
    "gu": 2189,
    "guard": 2190,
    "guess": 2191,
    "guilt": 2192,
    "guilty": 2193,
    "gum": 2194,
    "gun": 2195,
    "gust": 2196,
    "gy": 2197,
    "gym": 2198,
    "h": 2199,
    "h,": 2200,
    "ha": 2201,
    "had": 2202,
    "had.": 2203,
    "hadn't": 2204,
    "hair": 2205,
    "hair.": 2206,
    "haircut": 2207,
    "hairy": 2208,
    "half": 2209,
    "hall": 2210,
    "ham": 2211,
    "hammer": 2212,
    "hand": 2213,
    "hand.": 2214,
    "handed": 2215,
    "handle": 2216,
    "hands": 2217,
    "hands.": 2218,
    "hang": 2219,
    "hank": 2220,
    "happ": 2221,
    "happen": 2222,
    "happen.": 2223,
    "happened": 2224,
    "happened.": 2225,
    "happening.": 2226,
    "happily": 2227,
    "happily.": 2228,
    "happiness": 2229,
    "happy": 2230,
    "happy!": 2231,
    "happy,": 2232,
    "happy.": 2233,
    "happy.\"": 2234,
    "har": 2235,
    "harbor": 2236,
    "hard": 2237,
    "hard,": 2238,
    "hard.": 2239,
    "harder": 2240,
    "harm": 2241,
    "harmless": 2242,
    "harsh": 2243,
    "has": 2244,
    "hat": 2245,
    "hat,": 2246,
    "hat.": 2247,
    "have": 2248,
    "have.": 2249,
    "having": 2250,
    "he": 2251,
    "he'd": 2252,
    "head": 2253,
    "head.": 2254,
    "headed": 2255,
    "heal": 2256,
    "health": 2257,
    "healthy": 2258,
    "healthy.": 2259,
    "hear": 2260,
    "heard": 2261,
    "hears": 2262,
    "heart": 2263,
    "heart.": 2264,
    "heav": 2265,
    "heavy": 2266,
    "heavy.": 2267,
    "hed": 2268,
    "hel": 2269,
    "held": 2270,
    "heli": 2271,
    "helicop": 2272,
    "hello": 2273,
    "hello.": 2274,
    "helmet": 2275,
    "help": 2276,
    "help,": 2277,
    "help.": 2278,
    "helped": 2279,
    "helpful": 2280,
    "helpful.": 2281,
    "helping": 2282,
    "helps": 2283,
    "hen": 2284,
    "her": 2285,
    "her,": 2286,
    "her.": 2287,
    "herb": 2288,
    "here": 2289,
    "here!\"": 2290,
    "here.": 2291,
    "here.\"": 2292,
    "here?\"": 2293,
    "hero": 2294,
    "herself": 2295,
    "herself.": 2296,
    "hes": 2297,
    "hes.": 2298,
    "hi": 2299,
    "hid": 2300,
    "hidden": 2301,
    "hide": 2302,
    "hide.": 2303,
    "hiding": 2304,
    "hig": 2305,
    "high": 2306,
    "high.": 2307,
    "higher": 2308,
    "higher.": 2309,
    "hill": 2310,
    "hill,": 2311,
    "hill.": 2312,
    "him": 2313,
    "him,": 2314,
    "him.": 2315,
    "himself": 2316,
    "himself,": 2317,
    "himself.": 2318,
    "hin": 2319,
    "hind": 2320,
    "hipp": 2321,
    "hippo": 2322,
    "his": 2323,
    "hit": 2324,
    "hive": 2325,
    "ho": 2326,
    "hock": 2327,
    "hockey": 2328,
    "hold": 2329,
    "holding": 2330,
    "holds": 2331,
    "hole": 2332,
    "hole.": 2333,
    "holid": 2334,
    "home": 2335,
    "home,": 2336,
    "home.": 2337,
    "home.\"": 2338,
    "hone": 2339,
    "honest": 2340,
    "honey": 2341,
    "honey.": 2342,
    "hood": 2343,
    "hook": 2344,
    "hoop": 2345,
    "hop": 2346,
    "hope": 2347,
    "hoped": 2348,
    "hoping": 2349,
    "hopped": 2350,
    "hopping": 2351,
    "hor": 2352,
    "horn": 2353,
    "horse": 2354,
    "horse.": 2355,
    "hose": 2356,
    "hospit": 2357,
    "hospital": 2358,
    "hospital.": 2359,
    "hot": 2360,
    "hot.": 2361,
    "hour": 2362,
    "hours": 2363,
    "house": 2364,
    "house,": 2365,
    "house.": 2366,
    "how": 2367,
    "how.": 2368,
    "ht": 2369,
    "hug": 2370,
    "hug.": 2371,
    "huge": 2372,
    "hugg": 2373,
    "hugged": 2374,
    "hugs": 2375,
    "hum": 2376,
    "human": 2377,
    "humble": 2378,
    "hun": 2379,
    "hung": 2380,
    "hungry": 2381,
    "hungry.": 2382,
    "hunter": 2383,
    "hur": 2384,
    "hurry": 2385,
    "hurt": 2386,
    "hurt.": 2387,
    "hurts": 2388,
    "hut": 2389,
    "hy": 2390,
    "i": 2391,
    "ia": 2392,
    "ial": 2393,
    "ially": 2394,
    "ian": 2395,
    "ible": 2396,
    "ible.": 2397,
    "ic": 2398,
    "ic.": 2399,
    "ice": 2400,
    "ice-": 2401,
    "ice-cream": 2402,
    "ice.": 2403,
    "iced": 2404,
    "ich": 2405,
    "ick": 2406,
    "icy": 2407,
    "id": 2408,
    "idd": 2409,
    "ide": 2410,
    "ide.": 2411,
    "idea": 2412,
    "idea!": 2413,
    "idea,": 2414,
    "idea.": 2415,
    "ident": 2416,
    "idge": 2417,
    "idge.": 2418,
    "ie": 2419,
    "ie.": 2420,
    "ield": 2421,
    "ient": 2422,
    "ier": 2423,
    "ier.": 2424,
    "ies": 2425,
    "ies.": 2426,
    "iest": 2427,
    "if": 2428,
    "ife": 2429,
    "iful": 2430,
    "ig": 2431,
    "igg": 2432,
    "iggl": 2433,
    "igh": 2434,
    "ighed": 2435,
    "ight": 2436,
    "ight.": 2437,
    "igloo": 2438,
    "ign": 2439,
    "ignor": 2440,
    "ignorant": 2441,
    "igzag": 2442,
    "ike": 2443,
    "ike.": 2444,
    "il": 2445,
    "il.": 2446,
    "ild": 2447,
    "ile": 2448,
    "ile.": 2449,
    "ill": 2450,
    "ill.": 2451,
    "illi": 2452,
    "illy": 2453,
    "illy.": 2454,
    "ilt": 2455,
    "ily": 2456,
    "ily.": 2457,
    "im": 2458,
    "imag": 2459,
    "imagin": 2460,
    "imagine": 2461,
    "imagined": 2462,
    "imal": 2463,
    "imp": 2464,
    "impati": 2465,
    "import": 2466,
    "important": 2467,
    "important.": 2468,
    "impress": 2469,
    "impressed": 2470,
    "impro": 2471,
    "improve": 2472,
    "in": 2473,
    "in,": 2474,
    "in.": 2475,
    "ina": 2476,
    "inc": 2477,
    "ince": 2478,
    "incre": 2479,
    "incred": 2480,
    "incredible": 2481,
    "ind": 2482,
    "inde": 2483,
    "independ": 2484,
    "independent": 2485,
    "ine": 2486,
    "ine.": 2487,
    "ined": 2488,
    "ines": 2489,
    "iness": 2490,
    "ing": 2491,
    "ing,": 2492,
    "ing.": 2493,
    "ingred": 2494,
    "ingredient": 2495,
    "ingredients": 2496,
    "ink": 2497,
    "ink.": 2498,
    "inked": 2499,
    "inking": 2500,
    "inside": 2501,
    "inside,": 2502,
    "inside.": 2503,
    "instead": 2504,
    "instead.": 2505,
    "inte": 2506,
    "intell": 2507,
    "intellig": 2508,
    "intelligent": 2509,
    "interest": 2510,
    "interesting": 2511,
    "interesting.": 2512,
    "into": 2513,
    "invest": 2514,
    "investig": 2515,
    "invit": 2516,
    "invited": 2517,
    "ion": 2518,
    "ion,": 2519,
    "ion.": 2520,
    "ions": 2521,
    "ions.": 2522,
    "ious": 2523,
    "ious.": 2524,
    "ip": 2525,
    "ipe": 2526,
    "ir": 2527,
    "ird": 2528,
    "ire": 2529,
    "irl": 2530,
    "iron": 2531,
    "irrel": 2532,
    "irst": 2533,
    "irt": 2534,
    "irt.": 2535,
    "is": 2536,
    "is.": 2537,
    "is:": 2538,
    "ise": 2539,
    "ise.": 2540,
    "ised": 2541,
    "ish": 2542,
    "ished": 2543,
    "island": 2544,
    "isn't": 2545,
    "issor": 2546,
    "ist": 2547,
    "it": 2548,
    "it!": 2549,
    "it!\"": 2550,
    "it's": 2551,
    "it,": 2552,
    "it,\"": 2553,
    "it.": 2554,
    "it.\"": 2555,
    "it?\"": 2556,
    "itch": 2557,
    "itch.": 2558,
    "ite": 2559,
    "ite.": 2560,
    "ith": 2561,
    "ither": 2562,
    "its": 2563,
    "itself": 2564,
    "itt": 2565,
    "itten": 2566,
    "itting": 2567,
    "ittle": 2568,
    "itty": 2569,
    "itâ€™s": 2570,
    "ive": 2571,
    "ive.": 2572,
    "iz": 2573,
    "ize": 2574,
    "ized": 2575,
    "izz": 2576,
    "izzy": 2577,
    "j": 2578,
    "jack": 2579,
    "jacket": 2580,
    "jail": 2581,
    "jam": 2582,
    "jar": 2583,
    "jar.": 2584,
    "je": 2585,
    "jeal": 2586,
    "jealous": 2587,
    "jelly": 2588,
    "jet": 2589,
    "jewel": 2590,
    "jo": 2591,
    "job": 2592,
    "job,": 2593,
    "job.": 2594,
    "jog": 2595,
    "join": 2596,
    "joined": 2597,
    "joke": 2598,
    "jolly": 2599,
    "jour": 2600,
    "journ": 2601,
    "journe": 2602,
    "journey": 2603,
    "journey.": 2604,
    "joy": 2605,
    "joy.": 2606,
    "ju": 2607,
    "jug": 2608,
    "juice": 2609,
    "juice.": 2610,
    "juicy": 2611,
    "jump": 2612,
    "jumped": 2613,
    "jumping": 2614,
    "jung": 2615,
    "jungle": 2616,
    "jungle.": 2617,
    "just": 2618,
    "k": 2619,
    "k.": 2620,
    "kangaroo": 2621,
    "kay": 2622,
    "ke": 2623,
    "ke.": 2624,
    "ked": 2625,
    "keep": 2626,
    "keeper": 2627,
    "kele": 2628,
    "keleton": 2629,
    "ken": 2630,
    "ken.": 2631,
    "kept": 2632,
    "ket": 2633,
    "ket.": 2634,
    "key": 2635,
    "key.": 2636,
    "kick": 2637,
    "kicked": 2638,
    "kid": 2639,
    "kids": 2640,
    "kids.": 2641,
    "kin": 2642,
    "kind": 2643,
    "kind.": 2644,
    "kindness": 2645,
    "kinds": 2646,
    "king": 2647,
    "king.": 2648,
    "kis": 2649,
    "kiss": 2650,
    "kiss.": 2651,
    "kissed": 2652,
    "kit": 2653,
    "kitc": 2654,
    "kitchen": 2655,
    "kitchen,": 2656,
    "kitchen.": 2657,
    "kite": 2658,
    "kite.": 2659,
    "kitt": 2660,
    "kitten": 2661,
    "kitty": 2662,
    "kn": 2663,
    "kne": 2664,
    "knee": 2665,
    "knee.": 2666,
    "knew": 2667,
    "knife": 2668,
    "knight": 2669,
    "kno": 2670,
    "knob": 2671,
    "knock": 2672,
    "knocked": 2673,
    "knot": 2674,
    "know": 2675,
    "know,": 2676,
    "know,\"": 2677,
    "know.": 2678,
    "knowing": 2679,
    "known": 2680,
    "knows": 2681,
    "l": 2682,
    "la": 2683,
    "lad": 2684,
    "ladder": 2685,
    "ladder.": 2686,
    "lady": 2687,
    "lady.": 2688,
    "lake": 2689,
    "lake.": 2690,
    "lam": 2691,
    "lamp": 2692,
    "land": 2693,
    "land.": 2694,
    "landed": 2695,
    "lar": 2696,
    "large": 2697,
    "last": 2698,
    "late": 2699,
    "late.": 2700,
    "later": 2701,
    "later,": 2702,
    "later.": 2703,
    "laug": 2704,
    "laugh": 2705,
    "laugh.": 2706,
    "laughed": 2707,
    "laughed,": 2708,
    "laughed.": 2709,
    "laughing": 2710,
    "laughing.": 2711,
    "laun": 2712,
    "laundry": 2713,
    "law": 2714,
    "lawn": 2715,
    "lawy": 2716,
    "lawyer": 2717,
    "lay": 2718,
    "lazy": 2719,
    "ld": 2720,
    "le": 2721,
    "le,": 2722,
    "le.": 2723,
    "lea": 2724,
    "lead": 2725,
    "leaf": 2726,
    "lean": 2727,
    "leaned": 2728,
    "learn": 2729,
    "learned": 2730,
    "learning": 2731,
    "learnt": 2732,
    "lease": 2733,
    "leash": 2734,
    "leave": 2735,
    "leave.": 2736,
    "leaves": 2737,
    "leaves.": 2738,
    "leaving": 2739,
    "led": 2740,
    "leep": 2741,
    "left": 2742,
    "left,": 2743,
    "left.": 2744,
    "leg": 2745,
    "leg.": 2746,
    "legs": 2747,
    "lemon": 2748,
    "lend": 2749,
    "leopard": 2750,
    "ler": 2751,
    "les": 2752,
    "les.": 2753,
    "less": 2754,
    "less.": 2755,
    "lesson": 2756,
    "lesson.": 2757,
    "let": 2758,
    "let's": 2759,
    "letter": 2760,
    "lew": 2761,
    "lex": 2762,
    "lf": 2763,
    "li": 2764,
    "libr": 2765,
    "lic": 2766,
    "lice": 2767,
    "lick": 2768,
    "licked": 2769,
    "lid": 2770,
    "lie": 2771,
    "lies": 2772,
    "lies.": 2773,
    "lif": 2774,
    "life": 2775,
    "life.": 2776,
    "lift": 2777,
    "lifted": 2778,
    "light": 2779,
    "light.": 2780,
    "lights": 2781,
    "like": 2782,
    "like.": 2783,
    "liked": 2784,
    "likes": 2785,
    "lim": 2786,
    "line": 2787,
    "ling": 2788,
    "lion": 2789,
    "lion.": 2790,
    "lip": 2791,
    "list": 2792,
    "listen": 2793,
    "listen.": 2794,
    "listened": 2795,
    "listening": 2796,
    "lit": 2797,
    "little": 2798,
    "live": 2799,
    "lived": 2800,
    "lively": 2801,
    "living": 2802,
    "liz": 2803,
    "lizard": 2804,
    "ll": 2805,
    "lli": 2806,
    "llow": 2807,
    "lly": 2808,
    "lly.": 2809,
    "lo": 2810,
    "load": 2811,
    "lock": 2812,
    "locked": 2813,
    "log": 2814,
    "lolli": 2815,
    "lollipop": 2816,
    "lon": 2817,
    "lonel": 2818,
    "lonely": 2819,
    "lonely.": 2820,
    "long": 2821,
    "long,": 2822,
    "long.": 2823,
    "longer": 2824,
    "loo": 2825,
    "look": 2826,
    "look,": 2827,
    "look.": 2828,
    "looked": 2829,
    "looked,": 2830,
    "looking": 2831,
    "looks": 2832,
    "loom": 2833,
    "lose": 2834,
    "lost": 2835,
    "lost.": 2836,
    "lot": 2837,
    "lot.": 2838,
    "lots": 2839,
    "loud": 2840,
    "loud.": 2841,
    "loudly.": 2842,
    "love": 2843,
    "love.": 2844,
    "loved": 2845,
    "lovely": 2846,
    "loves": 2847,
    "low": 2848,
    "loy": 2849,
    "loyal": 2850,
    "luck": 2851,
    "lucky": 2852,
    "lun": 2853,
    "lunch": 2854,
    "lunch.": 2855,
    "lve": 2856,
    "ly": 2857,
    "ly,": 2858,
    "ly.": 2859,
    "lying": 2860,
    "m": 2861,
    "m.": 2862,
    "ma": 2863,
    "mach": 2864,
    "machine": 2865,
    "machine.": 2866,
    "mad": 2867,
    "mad.": 2868,
    "made": 2869,
    "made.": 2870,
    "mag": 2871,
    "maga": 2872,
    "magaz": 2873,
    "magic": 2874,
    "magical": 2875,
    "magnet": 2876,
    "mail": 2877,
    "make": 2878,
    "makes": 2879,
    "making": 2880,
    "mama": 2881,
    "man": 2882,
    "man's": 2883,
    "man,": 2884,
    "man.": 2885,
    "manag": 2886,
    "managed": 2887,
    "mand": 2888,
    "many": 2889,
    "map": 2890,
    "mar": 2891,
    "marble": 2892,
    "march": 2893,
    "marched": 2894,
    "mark": 2895,
    "market": 2896,
    "mas": 2897,
    "mask": 2898,
    "mat": 2899,
    "match": 2900,
    "matter": 2901,
    "mattre": 2902,
    "may": 2903,
    "maybe": 2904,
    "me": 2905,
    "me!": 2906,
    "me!\"": 2907,
    "me,": 2908,
    "me,\"": 2909,
    "me.": 2910,
    "me.\"": 2911,
    "me?\"": 2912,
    "mead": 2913,
    "meadow": 2914,
    "meadow.": 2915,
    "meal": 2916,
    "mean": 2917,
    "mean.": 2918,
    "means": 2919,
    "meant": 2920,
    "meas": 2921,
    "measure": 2922,
    "mechan": 2923,
    "mechanic": 2924,
    "med": 2925,
    "medi": 2926,
    "medic": 2927,
    "medicine": 2928,
    "meet": 2929,
    "mel": 2930,
    "mem": 2931,
    "member": 2932,
    "memor": 2933,
    "men": 2934,
    "ment": 2935,
    "ment.": 2936,
    "meow": 2937,
    "mer": 2938,
    "mes": 2939,
    "mess": 2940,
    "mess.": 2941,
    "messy": 2942,
    "met": 2943,
    "metal": 2944,
    "mi": 2945,
    "mic": 2946,
    "micro": 2947,
    "microphone": 2948,
    "microsco": 2949,
    "midd": 2950,
    "middle": 2951,
    "might": 2952,
    "mighty": 2953,
    "mil": 2954,
    "mild": 2955,
    "milk": 2956,
    "milk.": 2957,
    "min": 2958,
    "mind": 2959,
    "mind.": 2960,
    "mine": 2961,
    "mine!\"": 2962,
    "mine.": 2963,
    "minut": 2964,
    "minutes": 2965,
    "minutes,": 2966,
    "mir": 2967,
    "mirror": 2968,
    "mirror.": 2969,
    "mis": 2970,
    "miser": 2971,
    "miserable": 2972,
    "miss": 2973,
    "missed": 2974,
    "missing": 2975,
    "mist": 2976,
    "mistake": 2977,
    "mistake.": 2978,
    "mit": 2979,
    "mix": 2980,
    "mixed": 2981,
    "mixer": 2982,
    "mo": 2983,
    "moder": 2984,
    "modern": 2985,
    "modest": 2986,
    "mole": 2987,
    "mom": 2988,
    "mom's": 2989,
    "mom,": 2990,
    "mom.": 2991,
    "moment": 2992,
    "moment,": 2993,
    "moment.": 2994,
    "mommy": 2995,
    "mommy,": 2996,
    "mommy.": 2997,
    "moms": 2998,
    "mon": 2999,
    "mone": 3000,
    "money": 3001,
    "money.": 3002,
    "monkey": 3003,
    "monster": 3004,
    "monster.": 3005,
    "moon": 3006,
    "mor": 3007,
    "moral": 3008,
    "more": 3009,
    "more.": 3010,
    "morn": 3011,
    "morning": 3012,
    "morning,": 3013,
    "morning.": 3014,
    "most": 3015,
    "mother": 3016,
    "mother.": 3017,
    "motor": 3018,
    "motorcy": 3019,
    "mou": 3020,
    "mountain": 3021,
    "mountain.": 3022,
    "mouse": 3023,
    "mouse.": 3024,
    "mouth": 3025,
    "mouth.": 3026,
    "move": 3027,
    "move.": 3028,
    "moved": 3029,
    "movie": 3030,
    "moving": 3031,
    "mu": 3032,
    "much": 3033,
    "much.": 3034,
    "mud": 3035,
    "mud.": 3036,
    "muf": 3037,
    "muffin": 3038,
    "mum": 3039,
    "mum,": 3040,
    "mum.": 3041,
    "mummy": 3042,
    "mus": 3043,
    "muscle": 3044,
    "muse": 3045,
    "mush": 3046,
    "mushroom": 3047,
    "music": 3048,
    "music.": 3049,
    "must": 3050,
    "my": 3051,
    "my.": 3052,
    "myster": 3053,
    "mysterious": 3054,
    "n": 3055,
    "n't": 3056,
    "na": 3057,
    "nail": 3058,
    "nam": 3059,
    "name": 3060,
    "name.": 3061,
    "name?\"": 3062,
    "named": 3063,
    "nap": 3064,
    "nap.": 3065,
    "napkin": 3066,
    "nature": 3067,
    "naught": 3068,
    "naughty": 3069,
    "naughty.": 3070,
    "nd": 3071,
    "ne": 3072,
    "near": 3073,
    "nearby": 3074,
    "nearby.": 3075,
    "neat": 3076,
    "neck": 3077,
    "neckla": 3078,
    "necklace": 3079,
    "ned": 3080,
    "need": 3081,
    "need.": 3082,
    "needed": 3083,
    "needle": 3084,
    "needs": 3085,
    "neigh": 3086,
    "neighb": 3087,
    "neighbor": 3088,
    "neighbour": 3089,
    "nel": 3090,
    "ner": 3091,
    "nerv": 3092,
    "nervous": 3093,
    "nervous.": 3094,
    "nes": 3095,
    "ness": 3096,
    "ness.": 3097,
    "nest": 3098,
    "nest.": 3099,
    "net": 3100,
    "net.": 3101,
    "never": 3102,
    "new": 3103,
    "new.": 3104,
    "nex": 3105,
    "next": 3106,
    "ng": 3107,
    "nic": 3108,
    "nice": 3109,
    "nice,": 3110,
    "nice.": 3111,
    "nice.\"": 3112,
    "night": 3113,
    "night,": 3114,
    "night.": 3115,
    "ning": 3116,
    "ning,": 3117,
    "ning.": 3118,
    "no": 3119,
    "no!": 3120,
    "no!\"": 3121,
    "no,": 3122,
    "no.": 3123,
    "nobody": 3124,
    "nod": 3125,
    "nod.": 3126,
    "nodd": 3127,
    "nodded": 3128,
    "nodded,": 3129,
    "nodded.": 3130,
    "nods": 3131,
    "nods.": 3132,
    "nois": 3133,
    "noise": 3134,
    "noise.": 3135,
    "noises": 3136,
    "noises.": 3137,
    "noisy": 3138,
    "norm": 3139,
    "normal": 3140,
    "nose": 3141,
    "nose.": 3142,
    "nosy": 3143,
    "not": 3144,
    "not.": 3145,
    "note": 3146,
    "nothing": 3147,
    "notice": 3148,
    "noticed": 3149,
    "now": 3150,
    "now!\"": 3151,
    "now,": 3152,
    "now.": 3153,
    "now.\"": 3154,
    "now?\"": 3155,
    "nowhere": 3156,
    "nt": 3157,
    "ntain": 3158,
    "number": 3159,
    "numbers": 3160,
    "nur": 3161,
    "nurse": 3162,
    "nut": 3163,
    "nuts": 3164,
    "ny": 3165,
    "ny.": 3166,
    "nâ€™t": 3167,
    "o": 3168,
    "o.": 3169,
    "oak": 3170,
    "oat": 3171,
    "ob": 3172,
    "obed": 3173,
    "obedient": 3174,
    "obj": 3175,
    "object": 3176,
    "oc": 3177,
    "ocean": 3178,
    "ocean.": 3179,
    "octop": 3180,
    "octopus": 3181,
    "od": 3182,
    "of": 3183,
    "off": 3184,
    "off,": 3185,
    "off.": 3186,
    "offered": 3187,
    "office": 3188,
    "often": 3189,
    "oin": 3190,
    "ok": 3191,
    "okay": 3192,
    "okay,": 3193,
    "okay.": 3194,
    "okay?\"": 3195,
    "oke.": 3196,
    "ol": 3197,
    "old": 3198,
    "old,": 3199,
    "old.": 3200,
    "older": 3201,
    "olive": 3202,
    "olly": 3203,
    "om": 3204,
    "oman": 3205,
    "ome": 3206,
    "ome.": 3207,
    "on": 3208,
    "on't": 3209,
    "on,": 3210,
    "on.": 3211,
    "once": 3212,
    "ond": 3213,
    "one": 3214,
    "one,": 3215,
    "one.": 3216,
    "ones": 3217,
    "ong": 3218,
    "onion": 3219,
    "only": 3220,
    "onto": 3221,
    "onâ€™t": 3222,
    "oo": 3223,
    "oom": 3224,
    "op": 3225,
    "opard": 3226,
    "oped": 3227,
    "open": 3228,
    "open.": 3229,
    "opened": 3230,
    "opens": 3231,
    "oph": 3232,
    "ople": 3233,
    "or": 3234,
    "oral": 3235,
    "orang": 3236,
    "orange": 3237,
    "ord": 3238,
    "order": 3239,
    "ordin": 3240,
    "ordinary": 3241,
    "organ": 3242,
    "organiz": 3243,
    "organize": 3244,
    "organized": 3245,
    "orig": 3246,
    "origin": 3247,
    "original": 3248,
    "orm": 3249,
    "orn": 3250,
    "ornam": 3251,
    "ornament": 3252,
    "orry,": 3253,
    "ort": 3254,
    "ort.": 3255,
    "osaur": 3256,
    "ose": 3257,
    "ot": 3258,
    "other": 3259,
    "other's": 3260,
    "other,": 3261,
    "other.": 3262,
    "others": 3263,
    "others,": 3264,
    "others.": 3265,
    "otter": 3266,
    "ou": 3267,
    "oud": 3268,
    "oug": 3269,
    "ough": 3270,
    "ought": 3271,
    "ould": 3272,
    "oun": 3273,
    "ound": 3274,
    "oup": 3275,
    "oup.": 3276,
    "our": 3277,
    "ous": 3278,
    "ous,": 3279,
    "ous.": 3280,
    "ouse": 3281,
    "ouse.": 3282,
    "out": 3283,
    "out,": 3284,
    "out.": 3285,
    "outed": 3286,
    "outside": 3287,
    "outside,": 3288,
    "outside.": 3289,
    "oven": 3290,
    "oven.": 3291,
    "over": 3292,
    "over,": 3293,
    "over.": 3294,
    "ow": 3295,
    "ow,": 3296,
    "owl": 3297,
    "own": 3298,
    "own.": 3299,
    "owner": 3300,
    "ox": 3301,
    "oy": 3302,
    "oyster": 3303,
    "p": 3304,
    "p.": 3305,
    "pa": 3306,
    "pack": 3307,
    "package": 3308,
    "packed": 3309,
    "paid": 3310,
    "pain": 3311,
    "paint": 3312,
    "paint.": 3313,
    "painted": 3314,
    "painter": 3315,
    "painting": 3316,
    "pair": 3317,
    "pal": 3318,
    "pale": 3319,
    "pan": 3320,
    "pand": 3321,
    "pants": 3322,
    "paper": 3323,
    "paper.": 3324,
    "par": 3325,
    "parade": 3326,
    "pare": 3327,
    "paren": 3328,
    "parent": 3329,
    "parents": 3330,
    "parents.": 3331,
    "park": 3332,
    "park,": 3333,
    "park.": 3334,
    "part": 3335,
    "party": 3336,
    "party,": 3337,
    "party.": 3338,
    "pas": 3339,
    "pass": 3340,
    "passed": 3341,
    "passp": 3342,
    "past": 3343,
    "pastel": 3344,
    "pat": 3345,
    "patch": 3346,
    "path": 3347,
    "path.": 3348,
    "pati": 3349,
    "patient": 3350,
    "patter": 3351,
    "pattern": 3352,
    "paw": 3353,
    "pay": 3354,
    "pe": 3355,
    "pe.": 3356,
    "peace": 3357,
    "peaceful": 3358,
    "peanut": 3359,
    "pear": 3360,
    "pebb": 3361,
    "pebble": 3362,
    "pec": 3363,
    "ped": 3364,
    "pedal": 3365,
    "pee": 3366,
    "peek": 3367,
    "peeked": 3368,
    "pen": 3369,
    "penc": 3370,
    "pencil": 3371,
    "pengu": 3372,
    "penguin": 3373,
    "penny": 3374,
    "peop": 3375,
    "people": 3376,
    "people.": 3377,
    "pepper": 3378,
    "per": 3379,
    "per.": 3380,
    "perf": 3381,
    "perfect": 3382,
    "perfect.": 3383,
    "perform": 3384,
    "perfum": 3385,
    "pers": 3386,
    "persist": 3387,
    "persistent": 3388,
    "person": 3389,
    "pes": 3390,
    "pet": 3391,
    "pet.": 3392,
    "ph": 3393,
    "pho": 3394,
    "phone": 3395,
    "phone.": 3396,
    "photo": 3397,
    "pian": 3398,
    "pic": 3399,
    "pick": 3400,
    "picked": 3401,
    "picking": 3402,
    "picks": 3403,
    "picnic": 3404,
    "picnic.": 3405,
    "picture": 3406,
    "picture.": 3407,
    "pictures": 3408,
    "pictures.": 3409,
    "pie": 3410,
    "piece": 3411,
    "pieces": 3412,
    "pieces.": 3413,
    "pig": 3414,
    "pige": 3415,
    "pil": 3416,
    "pile": 3417,
    "pill": 3418,
    "pillow": 3419,
    "pilot": 3420,
    "pin": 3421,
    "pine": 3422,
    "ping": 3423,
    "pink": 3424,
    "pir": 3425,
    "pirate": 3426,
    "pizz": 3427,
    "pizza": 3428,
    "pl": 3429,
    "plac": 3430,
    "place": 3431,
    "place.": 3432,
    "placed": 3433,
    "places": 3434,
    "places.": 3435,
    "plain": 3436,
    "plan": 3437,
    "plan.": 3438,
    "plane": 3439,
    "plane.": 3440,
    "plant": 3441,
    "plants": 3442,
    "plants.": 3443,
    "plate": 3444,
    "play": 3445,
    "play,": 3446,
    "play.": 3447,
    "played": 3448,
    "played,": 3449,
    "playful": 3450,
    "playground": 3451,
    "playground.": 3452,
    "playing": 3453,
    "playing,": 3454,
    "playing.": 3455,
    "ple": 3456,
    "pleas": 3457,
    "please": 3458,
    "please!\"": 3459,
    "please?\"": 3460,
    "pleased": 3461,
    "po": 3462,
    "pocket": 3463,
    "pocket.": 3464,
    "poem": 3465,
    "poin": 3466,
    "point": 3467,
    "pointed": 3468,
    "pointing": 3469,
    "poked": 3470,
    "pol": 3471,
    "pole": 3472,
    "police": 3473,
    "polish": 3474,
    "polite": 3475,
    "polog": 3476,
    "pond": 3477,
    "pond,": 3478,
    "pond.": 3479,
    "pool": 3480,
    "pool.": 3481,
    "poor": 3482,
    "pop": 3483,
    "popcorn": 3484,
    "popped": 3485,
    "popul": 3486,
    "popular": 3487,
    "por": 3488,
    "port": 3489,
    "poss": 3490,
    "post": 3491,
    "pot": 3492,
    "pot.": 3493,
    "pota": 3494,
    "potato": 3495,
    "pour": 3496,
    "poured": 3497,
    "pow": 3498,
    "power": 3499,
    "powerful": 3500,
    "pp": 3501,
    "pped": 3502,
    "pped.": 3503,
    "pper": 3504,
    "pper.": 3505,
    "pping": 3506,
    "ppy": 3507,
    "pr": 3508,
    "pra": 3509,
    "pract": 3510,
    "practice": 3511,
    "practiced": 3512,
    "pray": 3513,
    "pre": 3514,
    "prepar": 3515,
    "prepare": 3516,
    "pres": 3517,
    "present": 3518,
    "present.": 3519,
    "press": 3520,
    "pressed": 3521,
    "pret": 3522,
    "pretend": 3523,
    "pretended": 3524,
    "pretending": 3525,
    "prett": 3526,
    "pretty": 3527,
    "pretty!\"": 3528,
    "pretty.": 3529,
    "pri": 3530,
    "prin": 3531,
    "prince": 3532,
    "princess": 3533,
    "princess.": 3534,
    "print": 3535,
    "pro": 3536,
    "proble": 3537,
    "problem": 3538,
    "problem.": 3539,
    "prom": 3540,
    "promise": 3541,
    "promised": 3542,
    "prot": 3543,
    "protec": 3544,
    "protect": 3545,
    "proud": 3546,
    "proud.": 3547,
    "proudly": 3548,
    "pru": 3549,
    "ps": 3550,
    "pt": 3551,
    "pted": 3552,
    "pu": 3553,
    "pudd": 3554,
    "puddle": 3555,
    "puddle.": 3556,
    "pul": 3557,
    "pull": 3558,
    "pulled": 3559,
    "pulls": 3560,
    "pump": 3561,
    "pumpkin": 3562,
    "pun": 3563,
    "pup": 3564,
    "pupp": 3565,
    "puppy": 3566,
    "puppy.": 3567,
    "pur": 3568,
    "purple": 3569,
    "purse": 3570,
    "push": 3571,
    "pushed": 3572,
    "pushes": 3573,
    "pushing": 3574,
    "put": 3575,
    "puts": 3576,
    "putting": 3577,
    "puzz": 3578,
    "puzzle": 3579,
    "q": 3580,
    "qu": 3581,
    "quar": 3582,
    "quarrel": 3583,
    "que": 3584,
    "queen": 3585,
    "quest": 3586,
    "question": 3587,
    "questions.": 3588,
    "qui": 3589,
    "quick": 3590,
    "quickly": 3591,
    "quickly.": 3592,
    "quiet": 3593,
    "quiet.": 3594,
    "quite": 3595,
    "r": 3596,
    "ra": 3597,
    "rabb": 3598,
    "rabbit": 3599,
    "rabbit.": 3600,
    "rac": 3601,
    "race": 3602,
    "race.": 3603,
    "raced": 3604,
    "rad": 3605,
    "radi": 3606,
    "rag": 3607,
    "raid": 3608,
    "rain": 3609,
    "rain.": 3610,
    "rainbow": 3611,
    "rainbow.": 3612,
    "raise": 3613,
    "ran": 3614,
    "rang": 3615,
    "rank": 3616,
    "rare": 3617,
    "rat": 3618,
    "raven": 3619,
    "ray": 3620,
    "razor": 3621,
    "rd": 3622,
    "re": 3623,
    "reach": 3624,
    "reached": 3625,
    "read": 3626,
    "reading": 3627,
    "ready": 3628,
    "ready,": 3629,
    "ready.": 3630,
    "real": 3631,
    "realised": 3632,
    "realized": 3633,
    "really": 3634,
    "rec": 3635,
    "rece": 3636,
    "reco": 3637,
    "recogn": 3638,
    "recomm": 3639,
    "record": 3640,
    "red": 3641,
    "red,": 3642,
    "red.": 3643,
    "ree": 3644,
    "ref": 3645,
    "refused": 3646,
    "reg": 3647,
    "regular": 3648,
    "reinde": 3649,
    "reindeer": 3650,
    "rel": 3651,
    "rela": 3652,
    "relax": 3653,
    "reli": 3654,
    "reliable": 3655,
    "relie": 3656,
    "relieved": 3657,
    "relieved.": 3658,
    "rem": 3659,
    "remain": 3660,
    "remember": 3661,
    "remembered": 3662,
    "remind": 3663,
    "reminded": 3664,
    "rend": 3665,
    "repair": 3666,
    "repe": 3667,
    "repeat": 3668,
    "repl": 3669,
    "replace": 3670,
    "repli": 3671,
    "replied": 3672,
    "replied,": 3673,
    "replied.": 3674,
    "request": 3675,
    "res": 3676,
    "rescu": 3677,
    "rescue": 3678,
    "resist": 3679,
    "resp": 3680,
    "respec": 3681,
    "respect": 3682,
    "rest": 3683,
    "rest.": 3684,
    "resta": 3685,
    "restaur": 3686,
    "restaurant": 3687,
    "return": 3688,
    "returned": 3689,
    "reve": 3690,
    "reveal": 3691,
    "rever": 3692,
    "reward": 3693,
    "rhin": 3694,
    "rhinoc": 3695,
    "rhinocero": 3696,
    "ri": 3697,
    "ribb": 3698,
    "rice": 3699,
    "rich": 3700,
    "rick": 3701,
    "rid": 3702,
    "ride": 3703,
    "ride.": 3704,
    "riding": 3705,
    "ried": 3706,
    "riend": 3707,
    "ries": 3708,
    "ries.": 3709,
    "right": 3710,
    "right,": 3711,
    "right.": 3712,
    "ring": 3713,
    "ris": 3714,
    "rise": 3715,
    "river": 3716,
    "river.": 3717,
    "rm": 3718,
    "ro": 3719,
    "road": 3720,
    "road.": 3721,
    "roar": 3722,
    "roar.": 3723,
    "roared": 3724,
    "robe": 3725,
    "robo": 3726,
    "robot": 3727,
    "robot.": 3728,
    "rock": 3729,
    "rock.": 3730,
    "rocket": 3731,
    "rocks": 3732,
    "rocks.": 3733,
    "rode": 3734,
    "roll": 3735,
    "rolled": 3736,
    "rolling": 3737,
    "rom": 3738,
    "rong": 3739,
    "roof": 3740,
    "room": 3741,
    "room,": 3742,
    "room.": 3743,
    "rope": 3744,
    "ror": 3745,
    "rose": 3746,
    "ross": 3747,
    "rot": 3748,
    "rough": 3749,
    "round": 3750,
    "row": 3751,
    "rown": 3752,
    "roy": 3753,
    "ru": 3754,
    "rub": 3755,
    "rubb": 3756,
    "rubbed": 3757,
    "rude": 3758,
    "rude.": 3759,
    "rug": 3760,
    "ruin": 3761,
    "ruined": 3762,
    "run": 3763,
    "run.": 3764,
    "running": 3765,
    "running.": 3766,
    "runs": 3767,
    "rush": 3768,
    "rushed": 3769,
    "ry": 3770,
    "ry,": 3771,
    "ry.": 3772,
    "s": 3773,
    "s!": 3774,
    "s!\"": 3775,
    "s,": 3776,
    "s,\"": 3777,
    "s.": 3778,
    "s.\"": 3779,
    "sa": 3780,
    "sack": 3781,
    "sack.": 3782,
    "sad": 3783,
    "sad,": 3784,
    "sad.": 3785,
    "saf": 3786,
    "safe": 3787,
    "safe,": 3788,
    "safe.": 3789,
    "safe.\"": 3790,
    "safel": 3791,
    "safely": 3792,
    "sage": 3793,
    "said": 3794,
    "said,": 3795,
    "said.": 3796,
    "said:": 3797,
    "sail": 3798,
    "sailed": 3799,
    "sailor": 3800,
    "sal": 3801,
    "salad": 3802,
    "same": 3803,
    "sand": 3804,
    "sand.": 3805,
    "sandw": 3806,
    "sandwic": 3807,
    "sandwich": 3808,
    "sang": 3809,
    "sat": 3810,
    "sau": 3811,
    "sauce": 3812,
    "saur": 3813,
    "save": 3814,
    "saved": 3815,
    "saving": 3816,
    "saw": 3817,
    "saw.": 3818,
    "say": 3819,
    "say,": 3820,
    "say.": 3821,
    "saying": 3822,
    "says": 3823,
    "says,": 3824,
    "says.": 3825,
    "sc": 3826,
    "sca": 3827,
    "scale": 3828,
    "scar": 3829,
    "scare": 3830,
    "scared": 3831,
    "scared,": 3832,
    "scared.": 3833,
    "scarf": 3834,
    "scarf.": 3835,
    "scary": 3836,
    "scary.": 3837,
    "scat": 3838,
    "school": 3839,
    "school,": 3840,
    "school.": 3841,
    "scissor": 3842,
    "scissors": 3843,
    "sco": 3844,
    "scold": 3845,
    "scoo": 3846,
    "scrat": 3847,
    "scre": 3848,
    "scream": 3849,
    "screamed": 3850,
    "screen": 3851,
    "screw": 3852,
    "se": 3853,
    "se.": 3854,
    "sea": 3855,
    "sea.": 3856,
    "sear": 3857,
    "search": 3858,
    "searched": 3859,
    "searching": 3860,
    "seat": 3861,
    "second": 3862,
    "secre": 3863,
    "secret": 3864,
    "secret.": 3865,
    "sed": 3866,
    "see": 3867,
    "see.": 3868,
    "seed": 3869,
    "seek": 3870,
    "seek.": 3871,
    "seem": 3872,
    "seemed": 3873,
    "seen": 3874,
    "seen.": 3875,
    "sees": 3876,
    "self": 3877,
    "selfish": 3878,
    "sell": 3879,
    "selve": 3880,
    "send": 3881,
    "sent": 3882,
    "separ": 3883,
    "separate": 3884,
    "ser": 3885,
    "serious": 3886,
    "serve": 3887,
    "ses": 3888,
    "ses.": 3889,
    "set": 3890,
    "set,": 3891,
    "set.": 3892,
    "sett": 3893,
    "sh": 3894,
    "sha": 3895,
    "shad": 3896,
    "shadow": 3897,
    "shake": 3898,
    "shaking": 3899,
    "sham": 3900,
    "shampo": 3901,
    "shape": 3902,
    "shapes": 3903,
    "shapes.": 3904,
    "shar": 3905,
    "share": 3906,
    "share.": 3907,
    "shared": 3908,
    "sharing": 3909,
    "shark": 3910,
    "sharp": 3911,
    "she": 3912,
    "she'd": 3913,
    "shed": 3914,
    "sheep": 3915,
    "shelf": 3916,
    "shelf.": 3917,
    "shell": 3918,
    "shells": 3919,
    "shes": 3920,
    "shes.": 3921,
    "shi": 3922,
    "shield": 3923,
    "shin": 3924,
    "shine": 3925,
    "shining": 3926,
    "shiny": 3927,
    "shiny.": 3928,
    "ship": 3929,
    "ship.": 3930,
    "shirt": 3931,
    "shirt.": 3932,
    "sho": 3933,
    "shock": 3934,
    "shoes": 3935,
    "shoes.": 3936,
    "shone": 3937,
    "shoo": 3938,
    "shook": 3939,
    "shop": 3940,
    "shop.": 3941,
    "shopkeeper": 3942,
    "shore": 3943,
    "shore.": 3944,
    "short": 3945,
    "should": 3946,
    "shouldn't": 3947,
    "shout": 3948,
    "shouted": 3949,
    "shouted,": 3950,
    "shouted.": 3951,
    "show": 3952,
    "show.": 3953,
    "showed": 3954,
    "showing": 3955,
    "shows": 3956,
    "shr": 3957,
    "shut": 3958,
    "shy": 3959,
    "si": 3960,
    "sick": 3961,
    "sick.": 3962,
    "side": 3963,
    "side.": 3964,
    "sie": 3965,
    "sighed": 3966,
    "sight": 3967,
    "sight.": 3968,
    "sign": 3969,
    "sil": 3970,
    "silly": 3971,
    "silly.": 3972,
    "silver": 3973,
    "sing": 3974,
    "sing.": 3975,
    "singing": 3976,
    "singing.": 3977,
    "sis": 3978,
    "sisted": 3979,
    "sister": 3980,
    "sister.": 3981,
    "sit": 3982,
    "sitting": 3983,
    "siz": 3984,
    "sk": 3985,
    "ski": 3986,
    "skill": 3987,
    "skin": 3988,
    "skip": 3989,
    "skipped": 3990,
    "sky": 3991,
    "sky,": 3992,
    "sky.": 3993,
    "sl": 3994,
    "sla": 3995,
    "sle": 3996,
    "sleep": 3997,
    "sleep.": 3998,
    "sleepy": 3999,
    "sleepy.": 4000,
    "sli": 4001,
    "slid": 4002,
    "slide": 4003,
    "slide,": 4004,
    "slide.": 4005,
    "slipped": 4006,
    "slipper": 4007,
    "slow": 4008,
    "slowly": 4009,
    "sm": 4010,
    "small": 4011,
    "small,": 4012,
    "small.": 4013,
    "smaller": 4014,
    "smart": 4015,
    "smart.": 4016,
    "smell": 4017,
    "smelled": 4018,
    "smelly": 4019,
    "smil": 4020,
    "smile": 4021,
    "smile,": 4022,
    "smile.": 4023,
    "smiled": 4024,
    "smiled,": 4025,
    "smiled.": 4026,
    "smiles": 4027,
    "smiles.": 4028,
    "smiling": 4029,
    "smiling.": 4030,
    "smo": 4031,
    "smoke": 4032,
    "smoo": 4033,
    "smooth": 4034,
    "sn": 4035,
    "sna": 4036,
    "snack": 4037,
    "snack.": 4038,
    "snacks": 4039,
    "snacks.": 4040,
    "snake": 4041,
    "sne": 4042,
    "sneak": 4043,
    "snee": 4044,
    "snif": 4045,
    "sniff": 4046,
    "snow": 4047,
    "snow.": 4048,
    "snowman": 4049,
    "snowman.": 4050,
    "snuggled": 4051,
    "so": 4052,
    "so,": 4053,
    "soap": 4054,
    "soar": 4055,
    "sock": 4056,
    "sofa": 4057,
    "soft": 4058,
    "soft,": 4059,
    "soft.": 4060,
    "sol": 4061,
    "sold": 4062,
    "soldier": 4063,
    "solve": 4064,
    "some": 4065,
    "someone": 4066,
    "something": 4067,
    "something,": 4068,
    "something.": 4069,
    "sometimes": 4070,
    "sometimes,": 4071,
    "somewhere": 4072,
    "son": 4073,
    "song": 4074,
    "song.": 4075,
    "songs": 4076,
    "songs.": 4077,
    "soon": 4078,
    "soon,": 4079,
    "soon.": 4080,
    "sor": 4081,
    "sorry": 4082,
    "sorry,": 4083,
    "sorry.": 4084,
    "sort": 4085,
    "sorts": 4086,
    "sound": 4087,
    "sound.": 4088,
    "sounded": 4089,
    "sounds": 4090,
    "soup": 4091,
    "soup.": 4092,
    "sour": 4093,
    "sp": 4094,
    "space": 4095,
    "spag": 4096,
    "spaghe": 4097,
    "spaghett": 4098,
    "spaghetti": 4099,
    "spark": 4100,
    "sparkled": 4101,
    "sparkling": 4102,
    "sparkly": 4103,
    "spe": 4104,
    "speak": 4105,
    "spec": 4106,
    "special": 4107,
    "special,": 4108,
    "special.": 4109,
    "speed": 4110,
    "spell": 4111,
    "spend": 4112,
    "spent": 4113,
    "spicy": 4114,
    "spid": 4115,
    "spider": 4116,
    "spill": 4117,
    "spilled": 4118,
    "spin": 4119,
    "spinning": 4120,
    "spir": 4121,
    "spirit": 4122,
    "spit": 4123,
    "spl": 4124,
    "spla": 4125,
    "splash": 4126,
    "splashed": 4127,
    "splashing": 4128,
    "split": 4129,
    "spo": 4130,
    "spoil": 4131,
    "spoiled": 4132,
    "spoke": 4133,
    "spoon": 4134,
    "spoon.": 4135,
    "spot": 4136,
    "spot.": 4137,
    "spotted": 4138,
    "spr": 4139,
    "spray": 4140,
    "spread": 4141,
    "spring": 4142,
    "spun": 4143,
    "squ": 4144,
    "square": 4145,
    "squash": 4146,
    "sque": 4147,
    "squee": 4148,
    "squirrel": 4149,
    "squirrel.": 4150,
    "ss": 4151,
    "ss.": 4152,
    "st": 4153,
    "st.": 4154,
    "stack": 4155,
    "stad": 4156,
    "stadi": 4157,
    "stair": 4158,
    "stairs": 4159,
    "stairs.": 4160,
    "stand": 4161,
    "standing": 4162,
    "star": 4163,
    "stared": 4164,
    "stars": 4165,
    "stars.": 4166,
    "start": 4167,
    "started": 4168,
    "starting": 4169,
    "starts": 4170,
    "stat": 4171,
    "stay": 4172,
    "stayed": 4173,
    "ste": 4174,
    "stead": 4175,
    "steal": 4176,
    "step": 4177,
    "stepped": 4178,
    "steps": 4179,
    "ster": 4180,
    "ster.": 4181,
    "stic": 4182,
    "stick": 4183,
    "stick.": 4184,
    "sticker": 4185,
    "sticks": 4186,
    "still": 4187,
    "stir": 4188,
    "stirred": 4189,
    "sto": 4190,
    "stone": 4191,
    "stones": 4192,
    "stood": 4193,
    "stop": 4194,
    "stop.": 4195,
    "stopped": 4196,
    "stopped.": 4197,
    "stops": 4198,
    "store": 4199,
    "store,": 4200,
    "store.": 4201,
    "stories": 4202,
    "stories.": 4203,
    "storm": 4204,
    "story": 4205,
    "story.": 4206,
    "stove": 4207,
    "str": 4208,
    "stra": 4209,
    "stran": 4210,
    "strange": 4211,
    "strange.": 4212,
    "stranger": 4213,
    "straw": 4214,
    "stre": 4215,
    "stream": 4216,
    "street": 4217,
    "street.": 4218,
    "streng": 4219,
    "stret": 4220,
    "stretch": 4221,
    "stretched": 4222,
    "stri": 4223,
    "string": 4224,
    "strong": 4225,
    "strong,": 4226,
    "strong.": 4227,
    "stronger": 4228,
    "stronger.": 4229,
    "stru": 4230,
    "structure": 4231,
    "struggl": 4232,
    "stu": 4233,
    "stubb": 4234,
    "stubborn": 4235,
    "stuck": 4236,
    "stuck.": 4237,
    "study": 4238,
    "stuff": 4239,
    "stuffed": 4240,
    "stum": 4241,
    "stumbled": 4242,
    "stupid": 4243,
    "sty": 4244,
    "su": 4245,
    "sub": 4246,
    "suc": 4247,
    "succe": 4248,
    "success": 4249,
    "successful": 4250,
    "such": 4251,
    "sudden": 4252,
    "sudden,": 4253,
    "suddenly": 4254,
    "suddenly,": 4255,
    "suff": 4256,
    "sug": 4257,
    "sugar": 4258,
    "suggest": 4259,
    "suggested": 4260,
    "suit": 4261,
    "sum": 4262,
    "summer": 4263,
    "sun": 4264,
    "sun,": 4265,
    "sun.": 4266,
    "sunflower": 4267,
    "sunglas": 4268,
    "sunny": 4269,
    "sunshin": 4270,
    "sunshine": 4271,
    "sunshine.": 4272,
    "super": 4273,
    "supp": 4274,
    "sur": 4275,
    "sure": 4276,
    "surpr": 4277,
    "surpris": 4278,
    "surprise": 4279,
    "surprise,": 4280,
    "surprise.": 4281,
    "surprised": 4282,
    "surprised.": 4283,
    "surrend": 4284,
    "surrender": 4285,
    "surround": 4286,
    "sw": 4287,
    "swa": 4288,
    "swam": 4289,
    "swan": 4290,
    "swe": 4291,
    "swee": 4292,
    "sweet": 4293,
    "sweet.": 4294,
    "sweethe": 4295,
    "sweetheart": 4296,
    "sweetie": 4297,
    "sweetie.": 4298,
    "swim": 4299,
    "swim.": 4300,
    "swimm": 4301,
    "swimming": 4302,
    "swing": 4303,
    "swing,": 4304,
    "swing.": 4305,
    "swinging": 4306,
    "swings": 4307,
    "swings.": 4308,
    "sword": 4309,
    "swung": 4310,
    "sy": 4311,
    "sym": 4312,
    "symbol": 4313,
    "t": 4314,
    "t,": 4315,
    "t.": 4316,
    "ta": 4317,
    "table": 4318,
    "table.": 4319,
    "tag": 4320,
    "tail": 4321,
    "tail.": 4322,
    "tain": 4323,
    "take": 4324,
    "taken": 4325,
    "takes": 4326,
    "taking": 4327,
    "tal": 4328,
    "talk": 4329,
    "talk.": 4330,
    "talked": 4331,
    "talking": 4332,
    "tall": 4333,
    "tank": 4334,
    "tape": 4335,
    "tast": 4336,
    "taste": 4337,
    "tasted": 4338,
    "tasty": 4339,
    "taught": 4340,
    "te": 4341,
    "tea": 4342,
    "teac": 4343,
    "teach": 4344,
    "teacher": 4345,
    "team": 4346,
    "tear": 4347,
    "tears": 4348,
    "tears.": 4349,
    "teas": 4350,
    "ted": 4351,
    "ted.": 4352,
    "teddy": 4353,
    "tee": 4354,
    "teeth": 4355,
    "teeth.": 4356,
    "tele": 4357,
    "tell": 4358,
    "telling": 4359,
    "tells": 4360,
    "tem": 4361,
    "ten": 4362,
    "tent": 4363,
    "ter": 4364,
    "ter.": 4365,
    "tered": 4366,
    "terri": 4367,
    "terrible": 4368,
    "test": 4369,
    "th": 4370,
    "th.": 4371,
    "than": 4372,
    "thank": 4373,
    "thanked": 4374,
    "thankful": 4375,
    "thanks": 4376,
    "that": 4377,
    "that's": 4378,
    "that,": 4379,
    "that.": 4380,
    "that?\"": 4381,
    "the": 4382,
    "their": 4383,
    "them": 4384,
    "them,": 4385,
    "them.": 4386,
    "them.\"": 4387,
    "themselve": 4388,
    "then": 4389,
    "then,": 4390,
    "ther": 4391,
    "there": 4392,
    "there!": 4393,
    "there,": 4394,
    "there.": 4395,
    "there?\"": 4396,
    "these": 4397,
    "they": 4398,
    "thick": 4399,
    "thie": 4400,
    "thief": 4401,
    "thin": 4402,
    "thing": 4403,
    "thing.": 4404,
    "things": 4405,
    "things,": 4406,
    "things.": 4407,
    "think": 4408,
    "thinking": 4409,
    "thinks": 4410,
    "thirst": 4411,
    "this": 4412,
    "this.": 4413,
    "this?\"": 4414,
    "those": 4415,
    "though": 4416,
    "thought": 4417,
    "thought,": 4418,
    "thoughtful": 4419,
    "thre": 4420,
    "thread": 4421,
    "three": 4422,
    "threw": 4423,
    "through": 4424,
    "throw": 4425,
    "throwing": 4426,
    "thumb": 4427,
    "ti": 4428,
    "tick": 4429,
    "ticket": 4430,
    "tid": 4431,
    "tidy": 4432,
    "tie": 4433,
    "tied": 4434,
    "tig": 4435,
    "tiger": 4436,
    "tight": 4437,
    "tight.": 4438,
    "tightly": 4439,
    "tightly.": 4440,
    "tim": 4441,
    "time": 4442,
    "time,": 4443,
    "time.": 4444,
    "time.\"": 4445,
    "times": 4446,
    "times,": 4447,
    "times.": 4448,
    "tin": 4449,
    "ting": 4450,
    "tiny": 4451,
    "tion": 4452,
    "tir": 4453,
    "tire": 4454,
    "tired": 4455,
    "tired,": 4456,
    "tired.": 4457,
    "to": 4458,
    "to.": 4459,
    "toast": 4460,
    "today": 4461,
    "today.": 4462,
    "together": 4463,
    "together!\"": 4464,
    "together,": 4465,
    "together.": 4466,
    "together.\"": 4467,
    "toil": 4468,
    "told": 4469,
    "toma": 4470,
    "tomato": 4471,
    "tomor": 4472,
    "tomorrow": 4473,
    "tomorrow.": 4474,
    "ton": 4475,
    "too": 4476,
    "too!": 4477,
    "too!\"": 4478,
    "too,": 4479,
    "too.": 4480,
    "too.\"": 4481,
    "too?\"": 4482,
    "took": 4483,
    "tool": 4484,
    "tools": 4485,
    "top": 4486,
    "top,": 4487,
    "top.": 4488,
    "tor": 4489,
    "torn": 4490,
    "touc": 4491,
    "touch": 4492,
    "touched": 4493,
    "toug": 4494,
    "tough": 4495,
    "tow": 4496,
    "towards": 4497,
    "towel": 4498,
    "towel.": 4499,
    "tower": 4500,
    "tower.": 4501,
    "towers": 4502,
    "town": 4503,
    "town,": 4504,
    "town.": 4505,
    "toy": 4506,
    "toy,": 4507,
    "toy.": 4508,
    "toys": 4509,
    "toys,": 4510,
    "toys.": 4511,
    "tr": 4512,
    "tra": 4513,
    "track": 4514,
    "tract": 4515,
    "train": 4516,
    "train.": 4517,
    "trash": 4518,
    "travel": 4519,
    "tre": 4520,
    "treasure": 4521,
    "treasure.": 4522,
    "treat": 4523,
    "treat.": 4524,
    "treats": 4525,
    "treats.": 4526,
    "tree": 4527,
    "tree,": 4528,
    "tree.": 4529,
    "trees": 4530,
    "trees,": 4531,
    "trees.": 4532,
    "trem": 4533,
    "tri": 4534,
    "triang": 4535,
    "triangle": 4536,
    "trick": 4537,
    "tried": 4538,
    "tried,": 4539,
    "tries": 4540,
    "trip": 4541,
    "trip.": 4542,
    "tripped": 4543,
    "tro": 4544,
    "troph": 4545,
    "trophy": 4546,
    "trou": 4547,
    "trouble": 4548,
    "trouble.": 4549,
    "tru": 4550,
    "truck": 4551,
    "truck.": 4552,
    "trucks": 4553,
    "trucks.": 4554,
    "true": 4555,
    "true.": 4556,
    "trump": 4557,
    "trumpet": 4558,
    "trun": 4559,
    "trust": 4560,
    "try": 4561,
    "try.": 4562,
    "trying": 4563,
    "ts": 4564,
    "tt": 4565,
    "tter": 4566,
    "tu": 4567,
    "tub": 4568,
    "tucked": 4569,
    "tummy": 4570,
    "tun": 4571,
    "tunnel": 4572,
    "tur": 4573,
    "ture": 4574,
    "turkey": 4575,
    "turn": 4576,
    "turned": 4577,
    "turns": 4578,
    "turt": 4579,
    "turtle": 4580,
    "tutor": 4581,
    "tw": 4582,
    "twig": 4583,
    "twin": 4584,
    "twins": 4585,
    "twins.": 4586,
    "twirl": 4587,
    "twirled": 4588,
    "twis": 4589,
    "twist": 4590,
    "two": 4591,
    "ty": 4592,
    "u": 4593,
    "uc": 4594,
    "uce": 4595,
    "uch": 4596,
    "uck": 4597,
    "ucked": 4598,
    "ucky": 4599,
    "ud": 4600,
    "uded": 4601,
    "ue": 4602,
    "ue.": 4603,
    "ued": 4604,
    "uff": 4605,
    "uffy": 4606,
    "uffy.": 4607,
    "ug": 4608,
    "ugg": 4609,
    "ugged": 4610,
    "uggl": 4611,
    "uggled": 4612,
    "ught": 4613,
    "ugly": 4614,
    "ul": 4615,
    "ular": 4616,
    "uli": 4617,
    "ull": 4618,
    "ult": 4619,
    "um": 4620,
    "um,": 4621,
    "um.": 4622,
    "umb": 4623,
    "umber": 4624,
    "umbre": 4625,
    "umbrel": 4626,
    "umbrella": 4627,
    "ummy": 4628,
    "ummy.": 4629,
    "ump": 4630,
    "un": 4631,
    "under": 4632,
    "understand": 4633,
    "understand.": 4634,
    "understand?\"": 4635,
    "understood": 4636,
    "ung": 4637,
    "uni": 4638,
    "unique": 4639,
    "unit": 4640,
    "unknown": 4641,
    "unpack": 4642,
    "unt": 4643,
    "until": 4644,
    "unusu": 4645,
    "unusual": 4646,
    "up": 4647,
    "up!": 4648,
    "up,": 4649,
    "up.": 4650,
    "uper": 4651,
    "upid": 4652,
    "upon": 4653,
    "upset": 4654,
    "upset.": 4655,
    "ur": 4656,
    "ure": 4657,
    "ured": 4658,
    "uring": 4659,
    "urn": 4660,
    "us": 4661,
    "us.": 4662,
    "us.\"": 4663,
    "use": 4664,
    "used": 4665,
    "used.": 4666,
    "useful": 4667,
    "using": 4668,
    "ust": 4669,
    "usu": 4670,
    "ut": 4671,
    "v": 4672,
    "val": 4673,
    "valle": 4674,
    "valu": 4675,
    "valuable": 4676,
    "value": 4677,
    "van": 4678,
    "vase": 4679,
    "ve": 4680,
    "ve.": 4681,
    "ved": 4682,
    "veget": 4683,
    "vegetable": 4684,
    "vegetables": 4685,
    "veh": 4686,
    "vehic": 4687,
    "vel": 4688,
    "ven": 4689,
    "vend": 4690,
    "vendor": 4691,
    "vent": 4692,
    "ventu": 4693,
    "ver": 4694,
    "ver,": 4695,
    "ver.": 4696,
    "very": 4697,
    "vest": 4698,
    "veter": 4699,
    "veterin": 4700,
    "veterinarian": 4701,
    "vi": 4702,
    "vide": 4703,
    "video": 4704,
    "vie": 4705,
    "view": 4706,
    "vill": 4707,
    "village": 4708,
    "village.": 4709,
    "vine": 4710,
    "ving": 4711,
    "ving.": 4712,
    "viol": 4713,
    "violin": 4714,
    "vis": 4715,
    "visit": 4716,
    "visited": 4717,
    "vit": 4718,
    "vo": 4719,
    "voice": 4720,
    "voice,": 4721,
    "voice.": 4722,
    "vol": 4723,
    "volcan": 4724,
    "w": 4725,
    "wa": 4726,
    "wag": 4727,
    "wagged": 4728,
    "wagon": 4729,
    "wait": 4730,
    "wait.": 4731,
    "waited": 4732,
    "waited.": 4733,
    "waiting": 4734,
    "wake": 4735,
    "wal": 4736,
    "walk": 4737,
    "walk.": 4738,
    "walked": 4739,
    "walked,": 4740,
    "walking": 4741,
    "walking,": 4742,
    "walking.": 4743,
    "walks": 4744,
    "wall": 4745,
    "wall.": 4746,
    "walls": 4747,
    "wan": 4748,
    "wand": 4749,
    "wander": 4750,
    "wandered": 4751,
    "want": 4752,
    "wanted": 4753,
    "wanted.": 4754,
    "wants": 4755,
    "war": 4756,
    "ward": 4757,
    "wards": 4758,
    "wards,": 4759,
    "warm": 4760,
    "warm.": 4761,
    "warned": 4762,
    "was": 4763,
    "was,": 4764,
    "was.": 4765,
    "wash": 4766,
    "washed": 4767,
    "wasn't": 4768,
    "wat": 4769,
    "watch": 4770,
    "watched": 4771,
    "watching": 4772,
    "water": 4773,
    "water,": 4774,
    "water.": 4775,
    "wave": 4776,
    "waved": 4777,
    "waves": 4778,
    "way": 4779,
    "way,": 4780,
    "way.": 4781,
    "ways": 4782,
    "we": 4783,
    "weak": 4784,
    "wealthy": 4785,
    "weap": 4786,
    "wear": 4787,
    "wear.": 4788,
    "wearing": 4789,
    "weather": 4790,
    "web": 4791,
    "week": 4792,
    "ween": 4793,
    "weep": 4794,
    "weet": 4795,
    "weigh": 4796,
    "weird": 4797,
    "wel": 4798,
    "welcom": 4799,
    "welcome": 4800,
    "welcome,": 4801,
    "welcome.": 4802,
    "well": 4803,
    "well.": 4804,
    "went": 4805,
    "went,": 4806,
    "went.": 4807,
    "wer": 4808,
    "were": 4809,
    "wet": 4810,
    "wet.": 4811,
    "wever,": 4812,
    "wh": 4813,
    "wha": 4814,
    "whale": 4815,
    "what": 4816,
    "what's": 4817,
    "whe": 4818,
    "wheel": 4819,
    "when": 4820,
    "whenever": 4821,
    "where": 4822,
    "which": 4823,
    "while": 4824,
    "while,": 4825,
    "while.": 4826,
    "whis": 4827,
    "whisper": 4828,
    "whispered": 4829,
    "whist": 4830,
    "whistle": 4831,
    "whistle.": 4832,
    "white": 4833,
    "who": 4834,
    "whole": 4835,
    "why": 4836,
    "wide": 4837,
    "wild": 4838,
    "will": 4839,
    "win": 4840,
    "win.": 4841,
    "wind": 4842,
    "wind.": 4843,
    "window": 4844,
    "window.": 4845,
    "wing": 4846,
    "wings": 4847,
    "wings.": 4848,
    "wip": 4849,
    "wiped": 4850,
    "wire": 4851,
    "wis": 4852,
    "wise": 4853,
    "wish": 4854,
    "wished": 4855,
    "witch": 4856,
    "with": 4857,
    "with.": 4858,
    "without": 4859,
    "wn": 4860,
    "wo": 4861,
    "woke": 4862,
    "wolf": 4863,
    "woman": 4864,
    "won": 4865,
    "won't": 4866,
    "wonder": 4867,
    "wondered": 4868,
    "wonderful": 4869,
    "wood": 4870,
    "woods": 4871,
    "woods,": 4872,
    "woods.": 4873,
    "wor": 4874,
    "word": 4875,
    "words": 4876,
    "words.": 4877,
    "wore": 4878,
    "work": 4879,
    "work,": 4880,
    "work.": 4881,
    "worked": 4882,
    "worked.": 4883,
    "working": 4884,
    "world": 4885,
    "world.": 4886,
    "worm": 4887,
    "worri": 4888,
    "worried": 4889,
    "worried.": 4890,
    "worry": 4891,
    "worry,": 4892,
    "worry.": 4893,
    "worth": 4894,
    "would": 4895,
    "wouldn't": 4896,
    "wr": 4897,
    "wra": 4898,
    "wrap": 4899,
    "wrapped": 4900,
    "writ": 4901,
    "write": 4902,
    "wro": 4903,
    "wrong": 4904,
    "wrong,": 4905,
    "wrong.": 4906,
    "wrote": 4907,
    "x": 4908,
    "y": 4909,
    "y!": 4910,
    "y,": 4911,
    "y.": 4912,
    "y.\"": 4913,
    "ya": 4914,
    "yach": 4915,
    "yard": 4916,
    "yard.": 4917,
    "yarn": 4918,
    "yawn": 4919,
    "year": 4920,
    "years": 4921,
    "yel": 4922,
    "yell": 4923,
    "yelled": 4924,
    "yelled,": 4925,
    "yellow": 4926,
    "yes": 4927,
    "yes,": 4928,
    "yes.": 4929,
    "yo": 4930,
    "you": 4931,
    "you!": 4932,
    "you!\"": 4933,
    "you'll": 4934,
    "you're": 4935,
    "you,": 4936,
    "you,\"": 4937,
    "you.": 4938,
    "you.\"": 4939,
    "you?\"": 4940,
    "young": 4941,
    "your": 4942,
    "yourself": 4943,
    "yummy": 4944,
    "yummy.": 4945,
    "z": 4946,
    "zag": 4947,
    "ze": 4948,
    "ze.": 4949,
    "zebra": 4950,
    "zed": 4951,
    "zi": 4952,
    "zip": 4953,
    "zipper": 4954,
    "zoo": 4955,
    "zoo.": 4956,
    "zoom": 4957,
    "zor": 4958,
    "zy": 4959,
    "zy.": 4960,
    "zz": 4961,
    "zzy": 4962,
    "¡": 4963,
    "¦": 4964,
    "©": 4965,
    "«": 4966,
    "±": 4967,
    "³": 4968,
    "»": 4969,
    "Â": 4970,
    "Ã": 4971,
    "â": 4972,
    "â€": 4973,
    "â€œ": 4974,
    "â€œI": 4975,
    "â€œIt": 4976,
    "â€œItâ€™s": 4977,
    "â€œLetâ€™s": 4978,
    "â€œLook": 4979,
    "â€œO": 4980,
    "â€œThat": 4981,
    "â€œThatâ€™s": 4982,
    "â€œWhat": 4983,
    "â€œY": 4984,
    "â€œYes,": 4985,
    "â€œYou": 4986,
    "â€“": 4987,
    "â€™": 4988,
    "â€™ll": 4989,
    "â€™m": 4990,
    "â€™re": 4991,
    "â€™s": 4992,
    "â€™t": 4993,
    "œ": 4994,
    "˜": 4995,
    "“": 4996,
    "”": 4997,
    "€": 4998,
    "™": 4999
}