{
  "!": 0,
  "\"": 1,
  "#": 2,
  "$": 3,
  "%": 4,
  "&": 5,
  "'": 6,
  "(": 7,
  ")": 8,
  "*": 9,
  "+": 10,
  ",": 11,
  "-": 12,
  ".": 13,
  "/": 14,
  "0": 15,
  "1": 16,
  "2": 17,
  "3": 18,
  "4": 19,
  "5": 20,
  "6": 21,
  "7": 22,
  "8": 23,
  "9": 24,
  ":": 25,
  ";": 26,
  "<": 27,
  "<|endoftext|>": 28,
  "=": 29,
  ">": 30,
  "?": 31,
  "@": 32,
  "A": 33,
  "B": 34,
  "C": 35,
  "D": 36,
  "E": 37,
  "F": 38,
  "G": 39,
  "H": 40,
  "I": 41,
  "J": 42,
  "K": 43,
  "L": 44,
  "M": 45,
  "N": 46,
  "O": 47,
  "P": 48,
  "Q": 49,
  "R": 50,
  "S": 51,
  "T": 52,
  "U": 53,
  "V": 54,
  "W": 55,
  "X": 56,
  "Y": 57,
  "Z": 58,
  "[": 59,
  "\\": 60,
  "]": 61,
  "^": 62,
  "_": 63,
  "`": 64,
  "a": 65,
  "b": 66,
  "c": 67,
  "d": 68,
  "e": 69,
  "f": 70,
  "g": 71,
  "h": 72,
  "i": 73,
  "j": 74,
  "k": 75,
  "l": 76,
  "m": 77,
  "n": 78,
  "o": 79,
  "p": 80,
  "q": 81,
  "r": 82,
  "s": 83,
  "t": 84,
  "u": 85,
  "v": 86,
  "w": 87,
  "x": 88,
  "y": 89,
  "z": 90,
  "{": 91,
  "|": 92,
  "}": 93,
  "~": 94,
  "¡": 95,
  "¢": 96,
  "£": 97,
  "¤": 98,
  "¥": 99,
  "¦": 100,
  "§": 101,
  "¨": 102,
  "©": 103,
  "ª": 104,
  "«": 105,
  "¬": 106,
  "®": 107,
  "¯": 108,
  "°": 109,
  "±": 110,
  "²": 111,
  "³": 112,
  "´": 113,
  "µ": 114,
  "¶": 115,
  "·": 116,
  "¸": 117,
  "¹": 118,
  "º": 119,
  "»": 120,
  "¼": 121,
  "½": 122,
  "¾": 123,
  "¿": 124,
  "À": 125,
  "Á": 126,
  "Â": 127,
  "Ã": 128,
  "Ä": 129,
  "Å": 130,
  "Æ": 131,
  "Ç": 132,
  "È": 133,
  "É": 134,
  "Ê": 135,
  "Ë": 136,
  "Ì": 137,
  "Í": 138,
  "Î": 139,
  "Ï": 140,
  "Ð": 141,
  "Ñ": 142,
  "Ò": 143,
  "Ó": 144,
  "Ô": 145,
  "Õ": 146,
  "Ö": 147,
  "×": 148,
  "Ø": 149,
  "Ù": 150,
  "Ú": 151,
  "Û": 152,
  "Ü": 153,
  "Ý": 154,
  "Þ": 155,
  "ß": 156,
  "à": 157,
  "á": 158,
  "â": 159,
  "ã": 160,
  "ä": 161,
  "å": 162,
  "æ": 163,
  "ç": 164,
  "è": 165,
  "é": 166,
  "ê": 167,
  "ë": 168,
  "ì": 169,
  "í": 170,
  "î": 171,
  "ï": 172,
  "ð": 173,
  "ñ": 174,
  "ò": 175,
  "ó": 176,
  "ô": 177,
  "õ": 178,
  "ö": 179,
  "÷": 180,
  "ø": 181,
  "ù": 182,
  "ú": 183,
  "û": 184,
  "ü": 185,
  "ý": 186,
  "þ": 187,
  "ÿ": 188,
  "Ā": 189,
  "ā": 190,
  "Ă": 191,
  "ă": 192,
  "Ą": 193,
  "ą": 194,
  "Ć": 195,
  "ć": 196,
  "Ĉ": 197,
  "ĉ": 198,
  "Ċ": 199,
  "ċ": 200,
  "Č": 201,
  "č": 202,
  "Ď": 203,
  "ď": 204,
  "Đ": 205,
  "đ": 206,
  "Ē": 207,
  "ē": 208,
  "Ĕ": 209,
  "ĕ": 210,
  "Ė": 211,
  "ė": 212,
  "Ę": 213,
  "ę": 214,
  "Ě": 215,
  "ě": 216,
  "Ĝ": 217,
  "ĝ": 218,
  "Ğ": 219,
  "ğ": 220,
  "Ġ": 221,
  "ġ": 222,
  "Ģ": 223,
  "ģ": 224,
  "Ĥ": 225,
  "ĥ": 226,
  "Ħ": 227,
  "ħ": 228,
  "Ĩ": 229,
  "ĩ": 230,
  "Ī": 231,
  "ī": 232,
  "Ĭ": 233,
  "ĭ": 234,
  "Į": 235,
  "į": 236,
  "İ": 237,
  "ı": 238,
  "Ĳ": 239,
  "ĳ": 240,
  "Ĵ": 241,
  "ĵ": 242,
  "Ķ": 243,
  "ķ": 244,
  "ĸ": 245,
  "Ĺ": 246,
  "ĺ": 247,
  "Ļ": 248,
  "ļ": 249,
  "Ľ": 250,
  "ľ": 251,
  "Ŀ": 252,
  "ŀ": 253,
  "Ł": 254,
  "ł": 255,
  "Ń": 256,
  "Ġt": 257,
  "Ġa": 258,
  "he": 259,
  "in": 260,
  "re": 261,
  "on": 262,
  "Ġthe": 263,
  "er": 264,
  "Ġs": 265,
  "Ġw": 266,
  "at": 267,
  "Ġo": 268,
  "nd": 269,
  "Ġc": 270,
  "it": 271,
  "or": 272,
  "es": 273,
  "is": 274,
  "ou": 275,
  "en": 276,
  "Ġf": 277,
  "Ġb": 278,
  "ing": 279,
  "Ġp": 280,
  "ed": 281,
  "an": 282,
  "al": 283,
  "Ġto": 284,
  "Ġm": 285,
  "ar": 286,
  "Ġand": 287,
  "Ġof": 288,
  "Ġin": 289,
  "Ġd": 290,
  "ic": 291,
  "Ġh": 292,
  "le": 293,
  "as": 294,
  "om": 295,
  "Ġth": 296,
  "ion": 297,
  "ll": 298,
  "âĢ": 299,
  "Ġl": 300,
  "ent": 301,
  "ve": 302,
  "st": 303,
  "Ġe": 304,
  "Ġre": 305,
  "ro": 306,
  "Ġn": 307,
  "Ġy": 308,
  "Ġg": 309,
  "ĠI": 310,
  "ly": 311,
  "ct": 312,
  "Ġbe": 313,
  "ĠT": 314,
  "et": 315,
  "ut": 316,
  "ot": 317,
  "Ġis": 318,
  "ĠS": 319,
  "id": 320,
  "ay": 321,
  "Ġyou": 322,
  "Ġfor": 323,
  "Ġon": 324,
  "ow": 325,
  "ur": 326,
  "ĠA": 327,
  "ĠC": 328,
  "im": 329,
  "se": 330,
  "ad": 331,
  "ig": 332,
  "ce": 333,
  "am": 334,
  "ver": 335,
  "Ġthat": 336,
  "Ġu": 337,
  "ch": 338,
  "il": 339,
  "ith": 340,
  "Ġst": 341,
  "ation": 342,
  "ol": 343,
  "Ġwith": 344,
  "ir": 345,
  "Ġhe": 346,
  "âĢĻ": 347,
  "Ġit": 348,
  "ĠM": 349,
  "ra": 350,
  "Ġwe": 351,
  "ĠP": 352,
  "ĠB": 353,
  "Ġan": 354,
  "ers": 355,
  "ill": 356,
  "Ġwh": 357,
  "Ġas": 358,
  "if": 359,
  "Ġpro": 360,
  "ke": 361,
  "Ġha": 362,
  "Ġare": 363,
  "ter": 364,
  "ĠW": 365,
  "oo": 366,
  "ge": 367,
  "ld": 368,
  "Ġcon": 369,
  "ate": 370,
  "Ġor": 371,
  "her": 372,
  "ck": 373,
  "pp": 374,
  "ĠH": 375,
  "Ġat": 376,
  "ul": 377,
  "ĠD": 378,
  "ess": 379,
  "Ġcom": 380,
  "Ġse": 381,
  "ore": 382,
  "ment": 383,
  "ĠF": 384,
  "est": 385,
  "ĠR": 386,
  "Ġ1": 387,
  "Ġ(": 388,
  "Ġde": 389,
  "Ġ2": 390,
  "ĠThe": 391,
  "Ġfr": 392,
  "igh": 393,
  "us": 394,
  "Ġwas": 395,
  "th": 396,
  "ab": 397,
  "Ġne": 398,
  "ist": 399,
  "un": 400,
  "pe": 401,
  "ive": 402,
  "Ġr": 403,
  "Ġex": 404,
  "ure": 405,
  "Ġv": 406,
  "ity": 407,
  "ant": 408,
  "qu": 409,
  "ĠL": 410,
  "ie": 411,
  "Ġhave": 412,
  "ĠN": 413,
  "ĠâĢ": 414,
  "um": 415,
  "ies": 416,
  "ĠG": 417,
  "em": 418,
  "art": 419,
  "ĠE": 420,
  "ust": 421,
  "op": 422,
  "Ġthis": 423,
  "ort": 424,
  "Ġnot": 425,
  "ain": 426,
  "Ġsh": 427,
  "Ġfrom": 428,
  "nt": 429,
  "Ġyour": 430,
  "os": 431,
  "and": 432,
  "Ġby": 433,
  "ight": 434,
  "Ġcan": 435,
  "iv": 436,
  "el": 437,
  "Ġal": 438,
  "all": 439,
  "Ġch": 440,
  "Ġsu": 441,
  "ome": 442,
  "Ġle": 443,
  "ard": 444,
  "out": 445,
  "res": 446,
  "ould": 447,
  "Ġwill": 448,
  "Ġab": 449,
  "ĠO": 450,
  "Ġdo": 451,
  "our": 452,
  "ally": 453,
  "00": 454,
  "ud": 455,
  "ost": 456,
  "te": 457,
  "'s": 458,
  "Ġpl": 459,
  "gh": 460,
  "Ġwor": 461,
  "Ġall": 462,
  "red": 463,
  "ast": 464,
  "od": 465,
  "ear": 466,
  "rou": 467,
  "The": 468,
  "ĠJ": 469,
  "ip": 470,
  "Ġj": 471,
  "ide": 472,
  "ine": 473,
  "ak": 474,
  "ag": 475,
  "ice": 476,
  "Ġme": 477,
  "Ġk": 478,
  "ib": 479,
  "fe": 480,
  "Ġhas": 481,
  "Ġbut": 482,
  "oc": 483,
  "per": 484,
  "âĢĿ": 485,
  "Ġwhe": 486,
  "ial": 487,
  "ack": 488,
  "Ġus": 489,
  "ac": 490,
  "Ġcomp": 491,
  "ction": 492,
  "Ġtr": 493,
  "age": 494,
  "ther": 495,
  "Ġup": 496,
  "one": 497,
  "Ġout": 498,
  "ook": 499,
  "Ġad": 500,
  "pt": 501,
  "ich": 502,
  "ĠU": 503,
  "Ġthey": 504,
  "ake": 505,
  "are": 506,
  "Ġmy": 507,
  "Ġmore": 508,
  "ind": 509,
  "ated": 510,
  "og": 511,
  "ime": 512,
  "very": 513,
  "Ġhis": 514,
  "Ġso": 515,
  "ood": 516,
  "cc": 517,
  "ong": 518,
  "Ġen": 519,
  "Ġsa": 520,
  "Ġtheir": 521,
  "Ġte": 522,
  "ite": 523,
  "ans": 524,
  "able": 525,
  "iz": 526,
  "Ġcl": 527,
  "ame": 528,
  "Ġone": 529,
  "ous": 530,
  "ike": 531,
  "Ġabout": 532,
  "du": 533,
  "ĠTh": 534,
  "orm": 535,
  "pl": 536,
  "Ġwho": 537,
  "Ġcont": 538,
  "ĠâĢľ": 539,
  "Ġman": 540,
  "Ġgo": 541,
  "ĠIn": 542,
  "Ġour": 543,
  "Ġ20": 544,
  "Ġinc": 545,
  "so": 546,
  "..": 547,
  "Ġim": 548,
  "ions": 549,
  "ue": 550,
  "Ġfe": 551,
  "ance": 552,
  "ry": 553,
  "ber": 554,
  "ĠY": 555,
  "to": 556,
  "ap": 557,
  "ne": 558,
  "ase": 559,
  "ff": 560,
  "Ġper": 561,
  "ays": 562,
  "Ġwhich": 563,
  "ick": 564,
  "ire": 565,
  "Ġwork": 566,
  "ĠK": 567,
  "act": 568,
  "Ġapp": 569,
  "ia": 570,
  "ree": 571,
  "ail": 572,
  "ace": 573,
  "Ġoff": 574,
  "Ġother": 575,
  "ĠSt": 576,
  "ign": 577,
  "Ġ-": 578,
  "au": 579,
  "Ġpr": 580,
  "Ġyear": 581,
  "ass": 582,
  "Ġtime": 583,
  "ile": 584,
  "ven": 585,
  "ep": 586,
  "ary": 587,
  "Ġres": 588,
  "reat": 589,
  "ations": 590,
  "Ġany": 591,
  "ub": 592,
  "ach": 593,
  "ult": 594,
  "Ġlike": 595,
  "Ġsome": 596,
  "ical": 597,
  "ord": 598,
  "Ġget": 599,
  "ark": 600,
  "Ġqu": 601,
  "Ġdis": 602,
  "Ġ\"": 603,
  "now": 604,
  "ove": 605,
  "Ġnew": 606,
  "ĠV": 607,
  "Ġalso": 608,
  "Ġhad": 609,
  "Ġbeen": 610,
  "Ġthem": 611,
  "form": 612,
  "ount": 613,
  "Ġ3": 614,
  "ĠIt": 615,
  "Ġun": 616,
  "Ġher": 617,
  "erv": 618,
  "ings": 619,
  "Ġwere": 620,
  "Ġsp": 621,
  "Ġpart": 622,
  "Ġwould": 623,
  "Ġag": 624,
  "ence": 625,
  "Ġif": 626,
  "ress": 627,
  "Ġthere": 628,
  "av": 629,
  "Ġrec": 630,
  "ĠCh": 631,
  "ose": 632,
  "ru": 633,
  "Ġwhen": 634,
  "vel": 635,
  "Ġover": 636,
  "ond": 637,
  "ough": 638,
  "Ġpe": 639,
  "Ġthan": 640,
  "ition": 641,
  "ink": 642,
  "Ġ201": 643,
  "Ġwhat": 644,
  "Ġar": 645,
  "ents": 646,
  "ens": 647,
  "ors": 648,
  "Ġsc": 649,
  "ound": 650,
  "Ġjust": 651,
  "Ġsaid": 652,
  "Ġbec": 653,
  "Ġspe": 654,
  "ob": 655,
  "ĠWe": 656,
  "Ġknow": 657,
  "irst": 658,
  "wn": 659,
  "Ġpre": 660,
  "Ġro": 661,
  "mer": 662,
  "ish": 663,
  "Ġinto": 664,
  "int": 665,
  "Ġam": 666,
  "Ġacc": 667,
  "own": 668,
  "port": 669,
  "nder": 670,
  "ild": 671,
  "ren": 672,
  "ople": 673,
  "lic": 674,
  "Ġneed": 675,
  "fter": 676,
  "ov": 677,
  "oy": 678,
  "ĠHe": 679,
  "ory": 680,
  "Ġhow": 681,
  "rough": 682,
  "Ġmay": 683,
  "ĠâĢĵ": 684,
  "'t": 685,
  "Ġtw": 686,
  "ade": 687,
  "vers": 688,
  "Ġbl": 689,
  "itt": 690,
  "old": 691,
  "ian": 692,
  "Ġshe": 693,
  "Ġco": 694,
  "amp": 695,
  "ater": 696,
  "Ġits": 697,
  "Ġno": 698,
  "lud": 699,
  "ang": 700,
  "Ġpeople": 701,
  "hed": 702,
  "Ġdes": 703,
  "ning": 704,
  "Ġfirst": 705,
  "ft": 706,
  "ons": 707,
  "ause": 708,
  "les": 709,
  "we": 710,
  "ates": 711,
  "ual": 712,
  "anc": 713,
  "Ġonly": 714,
  "Ġ4": 715,
  "Ġcomm": 716,
  "Ġtra": 717,
  "ied": 718,
  "ious": 719,
  "lp": 720,
  "ull": 721,
  "Ġmake": 722,
  "gr": 723,
  "ĠRe": 724,
  "Ġadd": 725,
  "Ġ5": 726,
  "rent": 727,
  "Ġlook": 728,
  "day": 729,
  "Ġprov": 730,
  "Ġwant": 731,
  "Ġhelp": 732,
  "Ġmost": 733,
  "Ġback": 734,
  "round": 735,
  "Ġprodu": 736,
  "Ġinclud": 737,
  "Ġuse": 738,
  "Ġpo": 739,
  "ments": 740,
  "Ġem": 741,
  "Ġfl": 742,
  "Ġind": 743,
  "Ġthrough": 744,
  "ĠThis": 745,
  "Ġbet": 746,
  "cts": 747,
  "ew": 748,
  "Ġsee": 749,
  "ict": 750,
  "aw": 751,
  "Ġtwo": 752,
  "ily": 753,
  "hing": 754,
  "iew": 755,
  "Ġevery": 756,
  "iss": 757,
  "Ġwell": 758,
  "ise": 759,
  "tern": 760,
  "Th": 761,
  "ating": 762,
  ").": 763,
  "ks": 764,
  "Ġplay": 765,
  "Ġafter": 766,
  "Ġhim": 767,
  "Ġ19": 768,
  "||": 769,
  "Ġph": 770,
  "oll": 771,
  "xt": 772,
  "Ġthese": 773,
  "Ġunder": 774,
  "Ġcons": 775,
  "ph": 776,
  "Ġbu": 777,
  "fore": 778,
  "hen": 779,
  "Ġcould": 780,
  "ities": 781,
  "ert": 782,
  "urn": 783,
  "je": 784,
  "Ġvery": 785,
  "Ġact": 786,
  "Ġserv": 787,
  "ife": 788,
  "row": 789,
  "Ġdif": 790,
  "sel": 791,
  "Ġnow": 792,
  "ific": 793,
  "uch": 794,
  "ont": 795,
  "pport": 796,
  "erson": 797,
  "ices": 798,
  "Ġeven": 799,
  "ting": 800,
  "ock": 801,
  "Ġrel": 802,
  "Ġyears": 803,
  "Ġinv": 804,
  "lect": 805,
  "ange": 806,
  "iness": 807,
  "Ġmany": 808,
  "Ġke": 809,
  "enc": 810,
  "Ġev": 811,
  "Ġgood": 812,
  "Ġthen": 813,
  "Ġra": 814,
  "Ġway": 815,
  "als": 816,
  "ss": 817,
  "Ġsm": 818,
  "Ġdid": 819,
  "Ġshould": 820,
  "Ġrem": 821,
  "Ġreg": 822,
  "ible": 823,
  "Ġcol": 824,
  "ĠYou": 825,
  "erm": 826,
  "Ġwhere": 827,
  "Ġsy": 828,
  "Ġdon": 829,
  "cess": 830,
  "Ġ$": 831,
  "com": 832,
  "ased": 833,
  ".âĢĿ": 834,
  "Ġbecause": 835,
  "oss": 836,
  "aking": 837,
  "ful": 838,
  "oth": 839,
  "Ġright": 840,
  "ures": 841,
  "ility": 842,
  "ational": 843,
  "Ġfin": 844,
  "ri": 845,
  "Ġ200": 846,
  "ĠUn": 847,
  "Ġdec": 848,
  "ath": 849,
  "nds": 850,
  "rit": 851,
  "ĠSe": 852,
  "Ġimp": 853,
  "bs": 854,
  "any": 855,
  "ward": 856,
  "Ġstud": 857,
  "Ġass": 858,
  "olog": 859,
  "Ġthink": 860,
  "Ġdown": 861,
  "Ġsec": 862,
  "ics": 863,
  "Ġgreat": 864,
  "ool": 865,
  "ffe": 866,
  "Ġsuch": 867,
  "Ġatt": 868,
  "Ġown": 869,
  "Ġstart": 870,
  "Ġbus": 871,
  "ts": 872,
  "ty": 873,
  "get": 874,
  "ĠWh": 875,
  "ax": 876,
  "ular": 877,
  "uring": 878,
  "ident": 879,
  "ork": 880,
  "ys": 881,
  "Ġmuch": 882,
  "ower": 883,
  "Ġtoo": 884,
  "Ġinte": 885,
  "Ġ6": 886,
  "hip": 887,
  "formation": 888,
  "its": 889,
  "ĠCom": 890,
  "rest": 891,
  "Ġac": 892,
  "Ġgu": 893,
  "up": 894,
  "ience": 895,
  "In": 896,
  "omet": 897,
  "hes": 898,
  "Ġagain": 899,
  "pect": 900,
  "Ġent": 901,
  "âĢľ": 902,
  "Ġwee": 903,
  "Ġhere": 904,
  "ited": 905,
  "io": 906,
  "alth": 907,
  "Ġsim": 908,
  "Ġlong": 909,
  "air": 910,
  "),": 911,
  "other": 912,
  "Ġhigh": 913,
  "Ġ&": 914,
  "Ġexper": 915,
  "ell": 916,
  "Ġbeing": 917,
  "Ġday": 918,
  "Ġset": 919,
  "ble": 920,
  "ĠAnd": 921,
  "ative": 922,
  "Ġread": 923,
  "Ġbel": 924,
  "Ġcall": 925,
  "ason": 926,
  "ĠPro": 927,
  "velop": 928,
  "alk": 929,
  "ix": 930,
  "...": 931,
  "Ġtake": 932,
  "Ġbefore": 933,
  "ner": 934,
  "Ġpres": 935,
  "Ġspec": 936,
  "Ġdoes": 937,
  "ract": 938,
  "Ġdiffe": 939,
  "arch": 940,
  "Ġrequ": 941,
  "line": 942,
  "Ġshow": 943,
  "Ġthose": 944,
  "20": 945,
  "ĠNew": 946,
  "Ġbr": 947,
  "ng": 948,
  "ener": 949,
  "Ġmon": 950,
  "Ġfind": 951,
  "stem": 952,
  "ank": 953,
  "ĠDe": 954,
  "Ġmade": 955,
  "ually": 956,
  "Ġinst": 957,
  "Ġhome": 958,
  "gan": 959,
  "Ġlast": 960,
  "gram": 961,
  "Ġbest": 962,
  "Ġperson": 963,
  "ollow": 964,
  "ĠIf": 965,
  "Ġins": 966,
  "Ġcar": 967,
  "ced": 968,
  "way": 969,
  "Ġdisc": 970,
  "Ġloc": 971,
  "ues": 972,
  "ient": 973,
  "Ġstr": 974,
  "Ġ7": 975,
  "Ġend": 976,
  "ĠAn": 977,
  "pr": 978,
  "Ġbusiness": 979,
  "Ġsur": 980,
  "und": 981,
  "me": 982,
  "Ġche": 983,
  "rib": 984,
  "Ġmin": 985,
  "Ġinformation": 986,
  "Ġ10": 987,
  "li": 988,
  "Ġmod": 989,
  "Ġav": 990,
  "Ġused": 991,
  "chool": 992,
  "ject": 993,
  "Ġmed": 994,
  "Ġreally": 995,
  "Ġlead": 996,
  "We": 997,
  "ublic": 998,
  "Ġear": 999,
  "Ġmark": 1000,
  "ces": 1001,
  "Ġfam": 1002,
  "atch": 1003,
  "Ġworld": 1004,
  "ĠBut": 1005,
  "Ġwhile": 1006,
  "Ġgoing": 1007,
  "led": 1008,
  ",âĢĿ": 1009,
  "ata": 1010,
  "Ġinter": 1011,
  "Ġ8": 1012,
  "Ġlife": 1013,
  "ave": 1014,
  "ouse": 1015,
  "ives": 1016,
  "Ġtrans": 1017,
  "Ġsomet": 1018,
  "iet": 1019,
  "az": 1020,
  "Ġmem": 1021,
  "Ġdevelop": 1022,
  "Ġsub": 1023,
  "Ġret": 1024,
  "cept": 1025,
  "ince": 1026,
  ".\"": 1027,
  "self": 1028,
  "Ġeach": 1029,
  "imes": 1030,
  "Ġgr": 1031,
  "Ġdet": 1032,
  "Ġform": 1033,
  "ness": 1034,
  "ize": 1035,
  "Ġaround": 1036,
  "Ġop": 1037,
  "ale": 1038,
  "Ġcomple": 1039,
  "Ġbook": 1040,
  "view": 1041,
  "Ġteam": 1042,
  "Ġcre": 1043,
  "chn": 1044,
  "read": 1045,
  "Ġser": 1046,
  "ather": 1047,
  "This": 1048,
  "Ġnum": 1049,
  "Ġcur": 1050,
  "Ġthough": 1051,
  "lease": 1052,
  "arm": 1053,
  "ĠAr": 1054,
  "ash": 1055,
  "ins": 1056,
  "Ġsay": 1057,
  "iving": 1058,
  "Ġvis": 1059,
  "Ġdr": 1060,
  "Ġrun": 1061,
  "land": 1062,
  "ĠSh": 1063,
  "Ġsystem": 1064,
  "ric": 1065,
  "Ġstill": 1066,
  "gg": 1067,
  "It": 1068,
  "irect": 1069,
  "ple": 1070,
  "der": 1071,
  "ctions": 1072,
  "ex": 1073,
  "akes": 1074,
  "Ġsupport": 1075,
  "Ġart": 1076,
  "Ġfollow": 1077,
  "ĠFr": 1078,
  "ines": 1079,
  "Ġpol": 1080,
  "ivers": 1081,
  "Ġ9": 1082,
  "ustom": 1083,
  "Ġcount": 1084,
  "Ġprogram": 1085,
  "Ġdesign": 1086,
  "Ġsign": 1087,
  "Ġdifferent": 1088,
  "ever": 1089,
  "Ġcare": 1090,
  "Ġprovid": 1091,
  "ional": 1092,
  "Ġpost": 1093,
  "Ġcour": 1094,
  "ages": 1095,
  "roup": 1096,
  "Ġsame": 1097,
  "Ġsl": 1098,
  "ah": 1099,
  "Ġplace": 1100,
  "Ġreal": 1101,
  "ior": 1102,
  "ene": 1103,
  "ittle": 1104,
  "Ġhapp": 1105,
  "Ġcommun": 1106,
  "ĠAl": 1107,
  "Ġadv": 1108,
  "Ġboth": 1109,
  "Wh": 1110,
  "Ġed": 1111,
  "000": 1112,
  "ween": 1113,
  "man": 1114,
  "Ġpoint": 1115,
  "ute": 1116,
  "Ġfeel": 1117,
  "Ġlot": 1118,
  "Ġlist": 1119,
  "Ġpur": 1120,
  "ĠThey": 1121,
  "Ġthree": 1122,
  "ets": 1123,
  "Ġstate": 1124,
  "ĠFor": 1125,
  "Ġexp": 1126,
  "Ġaut": 1127,
  "ton": 1128,
  "Ġsk": 1129,
  "ĠCl": 1130,
  "meric": 1131,
  "Ġchar": 1132,
  "ired": 1133,
  "Ġlove": 1134,
  "ways": 1135,
  "ving": 1136,
  "Ġeas": 1137,
  "Ġfree": 1138,
  "ĠAd": 1139,
  "ody": 1140,
  "oun": 1141,
  "ature": 1142,
  "Ġbo": 1143,
  "Ġreport": 1144,
  "ĠAs": 1145,
  "ars": 1146,
  "ec": 1147,
  "Ġfound": 1148,
  "less": 1149,
  "Ġbetween": 1150,
  "ield": 1151,
  "Ġfew": 1152,
  "Ġprocess": 1153,
  "Ġhealth": 1154,
  "the": 1155,
  "Ġinterest": 1156,
  "Ġprof": 1157,
  "ished": 1158,
  "Ġhand": 1159,
  "thing": 1160,
  "ten": 1161,
  "ized": 1162,
  "ital": 1163,
  "Ġchild": 1164,
  "Ġfull": 1165,
  "Ġcor": 1166,
  "Ġgl": 1167,
  "Ġcle": 1168,
  "ering": 1169,
  "Ġfun": 1170,
  "Ġmonth": 1171,
  "Ġdata": 1172,
  "ffect": 1173,
  "Ġdef": 1174,
  "ĠLe": 1175,
  "Ġlittle": 1176,
  "ying": 1177,
  "ames": 1178,
  "oh": 1179,
  "Ġmet": 1180,
  "Ġref": 1181,
  "Ġthings": 1182,
  "Ġcome": 1183,
  "Ġrep": 1184,
  "Ġgener": 1185,
  "uck": 1186,
  "19": 1187,
  "ved": 1188,
  "Ġext": 1189,
  "Ġusing": 1190,
  "Ġgot": 1191,
  "Ġcent": 1192,
  "Ġcustom": 1193,
  "cl": 1194,
  "Ġsomething": 1195,
  "Ġplan": 1196,
  "Ġduring": 1197,
  "ailable": 1198,
  ",\"": 1199,
  "Ġtop": 1200,
  "Ġgame": 1201,
  "ĠBl": 1202,
  "ution": 1203,
  "Ġnext": 1204,
  "Ġrest": 1205,
  "Ġkeep": 1206,
  "ially": 1207,
  "Ġtechn": 1208,
  "Ġimport": 1209,
  "ants": 1210,
  "vern": 1211,
  "Ġmust": 1212,
  "be": 1213,
  "ug": 1214,
  "Ġcompany": 1215,
  "cent": 1216,
  "ĠAmeric": 1217,
  "Ġweek": 1218,
  "Ġiss": 1219,
  "ically": 1220,
  "ross": 1221,
  "ĠThere": 1222,
  "Ġlar": 1223,
  "bers": 1224,
  "Ġopen": 1225,
  "ier": 1226,
  "att": 1227,
  "ality": 1228,
  "Ġallow": 1229,
  "ology": 1230,
  "ern": 1231,
  "ves": 1232,
  "Ġstand": 1233,
  "Ġob": 1234,
  "Ġwithout": 1235,
  "Ġposs": 1236,
  "Ġsmall": 1237,
  "Ġbig": 1238,
  "Ġlaw": 1239,
  "Ġanother": 1240,
  "10": 1241,
  "Ġhead": 1242,
  "Ġappro": 1243,
  "con": 1244,
  "ĠSo": 1245,
  "arn": 1246,
  "Ġconf": 1247,
  "ense": 1248,
  "uc": 1249,
  "Ġalways": 1250,
  "ware": 1251,
  "Ġput": 1252,
  "Ġmight": 1253,
  "Ġcontin": 1254,
  "oot": 1255,
  "Ġpay": 1256,
  "ared": 1257,
  "Ġincluding": 1258,
  "oad": 1259,
  "ined": 1260,
  "Ġdist": 1261,
  "Ġfact": 1262,
  "ists": 1263,
  "ample": 1264,
  "Ġfil": 1265,
  "rol": 1266,
  "atur": 1267,
  "Ġpartic": 1268,
  "Ġfrie": 1269,
  "Ġgroup": 1270,
  "Ġpat": 1271,
  "Ġel": 1272,
  "Ġbetter": 1273,
  "Ġresp": 1274,
  "ĠBe": 1275,
  "Ġpass": 1276,
  "aj": 1277,
  "Ġvar": 1278,
  "Ġavailable": 1279,
  "Ġhard": 1280,
  "Ġnever": 1281,
  "reen": 1282,
  "Ġsecond": 1283,
  "tt": 1284,
  "Ġresult": 1285,
  "ms": 1286,
  "ention": 1287,
  "Ġmarket": 1288,
  "Ġca": 1289,
  "Ġopt": 1290,
  "ĠHow": 1291,
  "Ġold": 1292,
  "Ġty": 1293,
  "Ġmov": 1294,
  "orn": 1295,
  "Ġask": 1296,
  "Ġsoc": 1297,
  "Ġschool": 1298,
  "illion": 1299,
  "Ġwr": 1300,
  "Ġrece": 1301,
  "Ġlevel": 1302,
  "oney": 1303,
  "If": 1304,
  "Ġdays": 1305,
  "Ġval": 1306,
  "Ġint": 1307,
  "Ġincre": 1308,
  "Ġcr": 1309,
  "Ġperform": 1310,
  "Ġquest": 1311,
  "rence": 1312,
  "âĢ¦": 1313,
  "ĠShe": 1314,
  "ling": 1315,
  "ploy": 1316,
  "Ġbro": 1317,
  "ĠInd": 1318,
  "els": 1319,
  "ining": 1320,
  "Ġnumber": 1321,
  "ccess": 1322,
  "Ġagainst": 1323,
  "Ġpublic": 1324,
  "Ġsince": 1325,
  "Ġservice": 1326,
  "Ġsure": 1327,
  "ger": 1328,
  "ertain": 1329,
  "iqu": 1330,
  "Ġcost": 1331,
  "Ġfamily": 1332,
  "Ġsol": 1333,
  "Ġmain": 1334,
  "Ġgive": 1335,
  "Ġbuild": 1336,
  "Ġdirect": 1337,
  "ĠAll": 1338,
  "ately": 1339,
  "Ġbra": 1340,
  "ĠSc": 1341,
  "ĠPl": 1342,
  "ral": 1343,
  "iversity": 1344,
  "ok": 1345,
  "Ġable": 1346,
  "Ġmus": 1347,
  "Ġinvest": 1348,
  "gy": 1349,
  "ted": 1350,
  "ĠEx": 1351,
  "ĠâĢĺ": 1352,
  "Ġwom": 1353,
  "50": 1354,
  "Ġpower": 1355,
  "Ġproble": 1356,
  "Ġorgan": 1357,
  "rist": 1358,
  "ered": 1359,
  "work": 1360,
  "Ġhum": 1361,
  "ours": 1362,
  "Ġide": 1363,
  "ĠâĢĶ": 1364,
  "ope": 1365,
  "ases": 1366,
  "Ġfour": 1367,
  "here": 1368,
  "Ġ18": 1369,
  "stand": 1370,
  "Ġsays": 1371,
  "Ġonline": 1372,
  "pping": 1373,
  "uss": 1374,
  "ĠThat": 1375,
  "Ġseem": 1376,
  "Ġ'": 1377,
  "Ġimportant": 1378,
  "ĠCol": 1379,
  "ĠTr": 1380,
  "ision": 1381,
  "Ġprovide": 1382,
  "Ġ12": 1383,
  "ik": 1384,
  "ĠCon": 1385,
  "Ġexperience": 1386,
  "Ġi": 1387,
  "Ġlet": 1388,
  "Ġwin": 1389,
  "âĢĶ": 1390,
  "ats": 1391,
  "inal": 1392,
  "Ġbelie": 1393,
  "ird": 1394,
  "Ġterm": 1395,
  "Ġcurrent": 1396,
  "cu": 1397,
  "ĠQ": 1398,
  "He": 1399,
  "Ġclass": 1400,
  "ĠOn": 1401,
  "Ġgra": 1402,
  "Ġexpl": 1403,
  "ably": 1404,
  "Ġwater": 1405,
  "Ġaccess": 1406,
  "ruct": 1407,
  "ism": 1408,
  "ĠTe": 1409,
  "You": 1410,
  "Ġbre": 1411,
  "Ġjob": 1412,
  "ffic": 1413,
  "Ġunt": 1414,
  "gin": 1415,
  "Ġrecord": 1416,
  "Ġarea": 1417,
  "Ġpresent": 1418,
  "ards": 1419,
  "pped": 1420,
  "Ġwithin": 1421,
  "Ġbeh": 1422,
  "Ġless": 1423,
  "Ġlight": 1424,
  "ients": 1425,
  "ER": 1426,
  "ived": 1427,
  "Ġoper": 1428,
  "Ġ0": 1429,
  "Ġve": 1430,
  "osed": 1431,
  "Ġproper": 1432,
  "ote": 1433,
  "pend": 1434,
  "Ġinf": 1435,
  "Ġtoday": 1436,
  "Ġsit": 1437,
  "ency": 1438,
  "Ġrese": 1439,
  "Ġseason": 1440,
  "med": 1441,
  "Ġest": 1442,
  "por": 1443,
  "ently": 1444,
  "ember": 1445,
  "Ġmeet": 1446,
  "Ġpos": 1447,
  "Ġtalk": 1448,
  "Ġorder": 1449,
  "Ġgrow": 1450,
  "ump": 1451,
  "Ġcap": 1452,
  "Ġ15": 1453,
  "Ġaway": 1454,
  "Ġnight": 1455,
  "16": 1456,
  "Ġleg": 1457,
  "ret": 1458,
  "ĠUS": 1459,
  "ĠPh": 1460,
  "Ġfac": 1461,
  "Ġtest": 1462,
  "Ġmaking": 1463,
  "ration": 1464,
  "ury": 1465,
  "ator": 1466,
  "Ġsal": 1467,
  "pec": 1468,
  "Ġdev": 1469,
  "ww": 1470,
  "Ġturn": 1471,
  "'re": 1472,
  "Ġgovern": 1473,
  "Ġphot": 1474,
  "of": 1475,
  "Ġproduct": 1476,
  "eng": 1477,
  "by": 1478,
  "Ġann": 1479,
  "Ġeng": 1480,
  "ĠRes": 1481,
  "hor": 1482,
  "Ġworking": 1483,
  "ron": 1484,
  "ider": 1485,
  "ium": 1486,
  "ann": 1487,
  "aring": 1488,
  "outh": 1489,
  "Ġapplic": 1490,
  "oint": 1491,
  "Ġfood": 1492,
  "rop": 1493,
  "Ġthing": 1494,
  "ivid": 1495,
  "Ġchang": 1496,
  "aut": 1497,
  "ission": 1498,
  "ains": 1499,
  "Ġsing": 1500,
  "Ġvide": 1501,
  "iety": 1502,
  "Ġuntil": 1503,
  "Ġmoney": 1504,
  "mon": 1505,
  "ĠZ": 1506,
  "Ġwebs": 1507,
  "Ġview": 1508,
  "iven": 1509,
  "'m": 1510,
  "bo": 1511,
  "âĢ¢": 1512,
  "30": 1513,
  "Ġequ": 1514,
  "ĠNo": 1515,
  "Ġspecial": 1516,
  "Ġsite": 1517,
  "ley": 1518,
  "Ġroom": 1519,
  "tend": 1520,
  "Ġaddition": 1521,
  "Ġpract": 1522,
  "sh": 1523,
  "Ġservices": 1524,
  "oci": 1525,
  "ery": 1526,
  "duct": 1527,
  "Ġbas": 1528,
  "Ġair": 1529,
  "ories": 1530,
  "ised": 1531,
  "Ġprom": 1532,
  "Ġprofess": 1533,
  ".,": 1534,
  "orth": 1535,
  "ĠSp": 1536,
  "ott": 1537,
  "Ġcolle": 1538,
  "Ġsupp": 1539,
  "IN": 1540,
  "Ġleft": 1541,
  "Ġtax": 1542,
  "over": 1543,
  "ified": 1544,
  "ĠIs": 1545,
  "Ġchange": 1546,
  "ĠEng": 1547,
  "ajor": 1548,
  "Ġpop": 1549,
  "Ġlooking": 1550,
  "Ġwhy": 1551,
  "Ġprote": 1552,
  "iting": 1553,
  "Ġlocal": 1554,
  "ina": 1555,
  "Ġhist": 1556,
  "aster": 1557,
  "As": 1558,
  "ead": 1559,
  "ording": 1560,
  "Ġevent": 1561,
  "Ġcheck": 1562,
  "icle": 1563,
  "iron": 1564,
  "Ġpast": 1565,
  "ream": 1566,
  "Ġeffect": 1567,
  "ination": 1568,
  "Ġproducts": 1569,
  "lish": 1570,
  "ĠFl": 1571,
  "ged": 1572,
  "part": 1573,
  "Ġhaving": 1574,
  "Ġconc": 1575,
  "Ġsuccess": 1576,
  "Ġcontrol": 1577,
  "atter": 1578,
  "agement": 1579,
  "Ġprev": 1580,
  "ĠCent": 1581,
  "ability": 1582,
  "ĠOr": 1583,
  "ising": 1584,
  "St": 1585,
  "joy": 1586,
  "Ġmen": 1587,
  "arr": 1588,
  "augh": 1589,
  "ials": 1590,
  "Ġcourse": 1591,
  "Ġkind": 1592,
  "Ġside": 1593,
  "Ġname": 1594,
  "veral": 1595,
  "Ġcomplete": 1596,
  "ĠAt": 1597,
  "11": 1598,
  "ured": 1599,
  "Ġdra": 1600,
  "Ġenough": 1601,
  "Ġwrit": 1602,
  "Ġcase": 1603,
  "Ġdidn": 1604,
  "let": 1605,
  "Ġoffer": 1606,
  "ĠPr": 1607,
  "ohn": 1608,
  "ids": 1609,
  "Ġmove": 1610,
  "Ġtimes": 1611,
  "Ġword": 1612,
  "alf": 1613,
  "ney": 1614,
  "itions": 1615,
  "Ġcou": 1616,
  "Ġemploy": 1617,
  "Ġstudents": 1618,
  "Ġsw": 1619,
  "ĠUniversity": 1620,
  "une": 1621,
  "ĠWhen": 1622,
  "Ġever": 1623,
  "Ġinclude": 1624,
  "aim": 1625,
  "arent": 1626,
  "Ġtell": 1627,
  "Ġoften": 1628,
  "Ġindust": 1629,
  "Ġreturn": 1630,
  "fect": 1631,
  "ĠMan": 1632,
  "ills": 1633,
  "ee": 1634,
  "ready": 1635,
  "Ġ30": 1636,
  "Ġes": 1637,
  "oice": 1638,
  "ĠChrist": 1639,
  "Ġmeans": 1640,
  "ON": 1641,
  "Ġchildren": 1642,
  "Ġdone": 1643,
  "Ġnear": 1644,
  "Ġaccount": 1645,
  "AN": 1646,
  "Ġcommunity": 1647,
  "son": 1648,
  "Ġtoget": 1649,
  "Ġtogether": 1650,
  "Ġlarge": 1651,
  "Ġhouse": 1652,
  "'ve": 1653,
  "ĠTo": 1654,
  "Ġconne": 1655,
  "enn": 1656,
  "ows": 1657,
  "For": 1658,
  "ither": 1659,
  "ĠBr": 1660,
  "Ġconst": 1661,
  "Ġoffic": 1662,
  "inc": 1663,
  "rap": 1664,
  "Ġcond": 1665,
  "Ġpa": 1666,
  "Ġnews": 1667,
  "Ġbit": 1668,
  "ĠMay": 1669,
  "Ġalong": 1670,
  "ush": 1671,
  "Ġpain": 1672,
  "isc": 1673,
  "Ġexpect": 1674,
  "min": 1675,
  "raph": 1676,
  "12": 1677,
  "uff": 1678,
  "ocus": 1679,
  "Ġactiv": 1680,
  "ĠComm": 1681,
  "ots": 1682,
  "Ġseveral": 1683,
  "Ġbene": 1684,
  "ization": 1685,
  "itive": 1686,
  "Ġgetting": 1687,
  "Ġdi": 1688,
  "Ġfollowing": 1689,
  "Ġalready": 1690,
  "ĠWhat": 1691,
  "urs": 1692,
  "Ġline": 1693,
  "ored": 1694,
  "Ġbecome": 1695,
  "Ġunderstand": 1696,
  "Ġleast": 1697,
  "Ġbased": 1698,
  "book": 1699,
  "Ġpress": 1700,
  "Ġocc": 1701,
  "Ġreview": 1702,
  "What": 1703,
  "Ġdetail": 1704,
  "Ġmajor": 1705,
  "Ġfav": 1706,
  "ĠWith": 1707,
  "err": 1708,
  "Ġ.": 1709,
  "Ġintern": 1710,
  "Ġ[": 1711,
  "side": 1712,
  "Ġbody": 1713,
  "ane": 1714,
  "Ġmembers": 1715,
  "Ġlearn": 1716,
  "Ġtreat": 1717,
  "Ġmillion": 1718,
  "Ġimpro": 1719,
  "Ġcertain": 1720,
  "Ġshort": 1721,
  "ĠApp": 1722,
  "atures": 1723,
  "Ġlim": 1724,
  "rip": 1725,
  "Ġlive": 1726,
  "Ġele": 1727,
  "Ġ11": 1728,
  "conom": 1729,
  "Ġenjoy": 1730,
  "Ġcalled": 1731,
  "mber": 1732,
  "Ġpercent": 1733,
  "aps": 1734,
  "ands": 1735,
  "irl": 1736,
  "Ġwon": 1737,
  "And": 1738,
  "Ġlow": 1739,
  "Ġelect": 1740,
  "Ġdoing": 1741,
  "utes": 1742,
  "Ġmean": 1743,
  "Ġhold": 1744,
  "pportun": 1745,
  "Ġwebsite": 1746,
  "Ġey": 1747,
  "Ġmakes": 1748,
  "ode": 1749,
  "crib": 1750,
  "Ġeasy": 1751,
  "Ġla": 1752,
  "ances": 1753,
  "not": 1754,
  "ĠMy": 1755,
  "Ġproject": 1756,
  "ĠMar": 1757,
  "ips": 1758,
  "Ġdoesn": 1759,
  "Ġcountry": 1760,
  "Ġfar": 1761,
  "An": 1762,
  "Ġ2012": 1763,
  "AT": 1764,
  "Ġsocial": 1765,
  "fort": 1766,
  "yle": 1767,
  "pos": 1768,
  "for": 1769,
  "ividual": 1770,
  "Ġmater": 1771,
  "eral": 1772,
  "ĠState": 1773,
  "Ġresearch": 1774,
  "most": 1775,
  "There": 1776,
  "ians": 1777,
  "viron": 1778,
  "Ġcamp": 1779,
  "Ġhappen": 1780,
  "Ġcreat": 1781,
  "Ġactually": 1782,
  "Ġhours": 1783,
  "Ġ199": 1784,
  "Ġstory": 1785,
  "Ġpossible": 1786,
  "ched": 1787,
  "Ġdeal": 1788,
  "aff": 1789,
  "Ġnon": 1790,
  "Ġfore": 1791,
  "RE": 1792,
  "Ġwent": 1793,
  "ĠCo": 1794,
  "Ġbenef": 1795,
  "Ġvideo": 1796,
  "ĠJohn": 1797,
  "Ġcomes": 1798,
  "Ġquality": 1799,
  "Ġmom": 1800,
  "Ġcreate": 1801,
  "idd": 1802,
  "Ġpot": 1803,
  "Ġsoft": 1804,
  "Ġvisit": 1805,
  "tain": 1806,
  "Ġtry": 1807,
  "uro": 1808,
  "Ġneeds": 1809,
  "Ġkey": 1810,
  "Ġmind": 1811,
  "Ġstep": 1812,
  "ief": 1813,
  "Ġmusic": 1814,
  "Ġpersonal": 1815,
  "Ġtook": 1816,
  "ĠCar": 1817,
  "Ġ--": 1818,
  "Ġtrad": 1819,
  "Ġgovernment": 1820,
  "mend": 1821,
  "Ġcir": 1822,
  "Ġemail": 1823,
  "ique": 1824,
  "Ġcame": 1825,
  "fer": 1826,
  "Ġ16": 1827,
  "Ġcut": 1828,
  "Ġyoung": 1829,
  "aken": 1830,
  "Ġopportun": 1831,
  "lished": 1832,
  "app": 1833,
  "Ġexample": 1834,
  "Ġfocus": 1835,
  "Ġtre": 1836,
  "ference": 1837,
  "Ġhuman": 1838,
  "Ġitem": 1839,
  "Ġothers": 1840,
  "Ġquick": 1841,
  "Ġonce": 1842,
  "ries": 1843,
  "ential": 1844,
  "Ġcity": 1845,
  "Ġredu": 1846,
  "Ġmult": 1847,
  "wards": 1848,
  "ĠSu": 1849,
  "ners": 1850,
  "Ġearly": 1851,
  "ĠÂ": 1852,
  "Ġindividual": 1853,
  "ĠCan": 1854,
  "Ġfive": 1855,
  "ones": 1856,
  "Ġeduc": 1857,
  "Ġcontact": 1858,
  "Ġbelow": 1859,
  "Ġarr": 1860,
  "verage": 1861,
  "Ġlink": 1862,
  "Ġtem": 1863,
  "Ġyet": 1864,
  "'ll": 1865,
  "oor": 1866,
  "uation": 1867,
  "eb": 1868,
  "wh": 1869,
  "!!": 1870,
  "ift": 1871,
  "Ġfield": 1872,
  "atic": 1873,
  "ienc": 1874,
  "uly": 1875,
  "unch": 1876,
  "ĠRep": 1877,
  "ST": 1878,
  "Ġ|": 1879,
  "Ġpurch": 1880,
  "Ġpage": 1881,
  "ĠBro": 1882,
  "ĠMed": 1883,
  "Ġhot": 1884,
  "Ġthought": 1885,
  "Ġorig": 1886,
  "Ġtold": 1887,
  "Ġcharact": 1888,
  "Ġinvol": 1889,
  "Ġhig": 1890,
  "ully": 1891,
  "Ġnet": 1892,
  "ides": 1893,
  "ify": 1894,
  "isk": 1895,
  "vironment": 1896,
  "Ġstarted": 1897,
  "Ġreason": 1898,
  "Ġident": 1899,
  "room": 1900,
  "Ġdevelopment": 1901,
  "Ġlater": 1902,
  "uter": 1903,
  "ape": 1904,
  "How": 1905,
  "Ġvers": 1906,
  "When": 1907,
  "urther": 1908,
  "Ġmanag": 1909,
  "Ġparticular": 1910,
  "Ġspace": 1911,
  "ĠAss": 1912,
  "Ġclose": 1913,
  "ster": 1914,
  "Ġtyp": 1915,
  "br": 1916,
  "Ġfriends": 1917,
  "Ġclear": 1918,
  "Ġwind": 1919,
  "ourn": 1920,
  "But": 1921,
  "Ġ:": 1922,
  "itor": 1923,
  "play": 1924,
  "Ġheart": 1925,
  "ches": 1926,
  "Ġmil": 1927,
  "ges": 1928,
  "Ġspecific": 1929,
  "Ġcompet": 1930,
  "ĠAm": 1931,
  "load": 1932,
  "Ġbeaut": 1933,
  "Ġwa": 1934,
  "uture": 1935,
  "ateg": 1936,
  "AR": 1937,
  "Ġrequire": 1938,
  "orts": 1939,
  "ler": 1940,
  "roll": 1941,
  "oose": 1942,
  "Ġprice": 1943,
  "Ġanything": 1944,
  "Ġphys": 1945,
  "Ġwomen": 1946,
  "illed": 1947,
  "Ġprob": 1948,
  "Ġsound": 1949,
  "Ġauthor": 1950,
  "Ġ14": 1951,
  "Ġmonths": 1952,
  "ĠThese": 1953,
  "Ġacross": 1954,
  "ĠUnited": 1955,
  "ĠChe": 1956,
  "Ġappear": 1957,
  "ober": 1958,
  "Ġbring": 1959,
  "Ġpick": 1960,
  "ĠGod": 1961,
  "af": 1962,
  "ograph": 1963,
  "iver": 1964,
  "ĠYork": 1965,
  "ulation": 1966,
  "ctor": 1967,
  "Ġchall": 1968,
  "Ġproblem": 1969,
  "Ġcontent": 1970,
  "Ġce": 1971,
  "Ġtot": 1972,
  "lf": 1973,
  "ensive": 1974,
  "back": 1975,
  "rom": 1976,
  "Ġhalf": 1977,
  "Ġ2013": 1978,
  "Ġwalk": 1979,
  "Ġperfect": 1980,
  "rict": 1981,
  "sw": 1982,
  "ĠDo": 1983,
  "Ġstrong": 1984,
  "Ġcomb": 1985,
  "anies": 1986,
  "ĠNot": 1987,
  "pro": 1988,
  "Ġ100": 1989,
  "Ġknown": 1990,
  "Ġsomeone": 1991,
  "Ġred": 1992,
  "Ġstore": 1993,
  "Ġseen": 1994,
  "icy": 1995,
  "ĠAmerican": 1996,
  "Ġshare": 1997,
  "Ġwhether": 1998,
  "ĠCont": 1999,
  "Ġpie": 2000,
  "ĠEn": 2001,
  "Ġpack": 2002,
  "Ġmeas": 2003,
  "ource": 2004,
  "Ġpriv": 2005,
  "Ġblog": 2006,
  "iday": 2007,
  "ĠSte": 2008,
  "Ġpar": 2009,
  "Ġstay": 2010,
  "iod": 2011,
  "new": 2012,
  "ript": 2013,
  "Ġhope": 2014,
  "Ġclaim": 2015,
  "ilities": 2016,
  "Ġfre": 2017,
  "15": 2018,
  "jects": 2019,
  "ĠIntern": 2020,
  "raft": 2021,
  "rew": 2022,
  "Ġgames": 2023,
  "orld": 2024,
  "Ġanal": 2025,
  "Ġeconom": 2026,
  "So": 2027,
  "Ġabove": 2028,
  "ĠOne": 2029,
  "Ġbuy": 2030,
  "Ġ17": 2031,
  "Ġfront": 2032,
  "ĠHowever": 2033,
  "Ġvol": 2034,
  "ison": 2035,
  "ai": 2036,
  "hers": 2037,
  "Ġdem": 2038,
  "gle": 2039,
  "Ġbegin": 2040,
  "go": 2041,
  "ibility": 2042,
  "ister": 2043,
  "Ġindustry": 2044,
  "Ġens": 2045,
  "ilar": 2046,
  "par": 2047,
  "Ġeither": 2048,
  "ued": 2049,
  "Ġdeli": 2050,
  "nding": 2051,
  "Ġareas": 2052,
  "Ġplac": 2053,
  "osp": 2054,
  "Ġrecom": 2055,
  "ĠCal": 2056,
  "Ġport": 2057,
  "acy": 2058,
  "urch": 2059,
  "oon": 2060,
  "Ġdiscuss": 2061,
  "Ġsum": 2062,
  "irm": 2063,
  "Ġmar": 2064,
  "Ġamount": 2065,
  "ights": 2066,
  "Ġfuture": 2067,
  "On": 2068,
  "use": 2069,
  "pecially": 2070,
  "reet": 2071,
  "cle": 2072,
  "Ġrele": 2073,
  "Ġage": 2074,
  "utions": 2075,
  "Ġamong": 2076,
  "Ġet": 2077,
  "Ġant": 2078,
  "Ġbelieve": 2079,
  "ival": 2080,
  "ĠNe": 2081,
  "time": 2082,
  "Ġface": 2083,
  "icro": 2084,
  "Ġsix": 2085,
  "Ġcult": 2086,
  "fic": 2087,
  "Ġplease": 2088,
  "Ġsuper": 2089,
  "Ġrespons": 2090,
  "Ġaud": 2091,
  "Ġexc": 2092,
  "asing": 2093,
  "ĠX": 2094,
  "Ġhistory": 2095,
  "ĠMin": 2096,
  "Ġeverything": 2097,
  "Ġ25": 2098,
  "ĠMe": 2099,
  "Ġdog": 2100,
  "Ġenc": 2101,
  "ites": 2102,
  "Ġgiven": 2103,
  "ĠInst": 2104,
  "urity": 2105,
  "ille": 2106,
  "Ġfavor": 2107,
  "though": 2108,
  "Ġquestion": 2109,
  "ilt": 2110,
  "--": 2111,
  "ĠCount": 2112,
  "Ġ13": 2113,
  "ĠMc": 2114,
  "Ġwhole": 2115,
  "âĢĵ": 2116,
  "atural": 2117,
  "Ch": 2118,
  "ball": 2119,
  "Ġsingle": 2120,
  "Ġago": 2121,
  "Ġ/": 2122,
  "yl": 2123,
  "Ġ24": 2124,
  "Ġmor": 2125,
  "Ġfall": 2126,
  "Ġtaken": 2127,
  "ĠCity": 2128,
  "Ġbreak": 2129,
  "Ġabs": 2130,
  "ĠPart": 2131,
  "ply": 2132,
  "fully": 2133,
  "ging": 2134,
  "EN": 2135,
  "co": 2136,
  ".)": 2137,
  "ĠPres": 2138,
  "Ġdue": 2139,
  "Ġaff": 2140,
  "ps": 2141,
  "Ġrange": 2142,
  "Ġjo": 2143,
  "cing": 2144,
  "Ġwatch": 2145,
  "ĠServ": 2146,
  "ural": 2147,
  "Ġalmost": 2148,
  "Ġthird": 2149,
  "ĠEuro": 2150,
  "Ġperiod": 2151,
  "Ġworks": 2152,
  "iously": 2153,
  "Ġissues": 2154,
  "lement": 2155,
  "ests": 2156,
  "ĠYour": 2157,
  "ams": 2158,
  "Ġcompanies": 2159,
  "Ġcred": 2160,
  "Ġ50": 2161,
  "oid": 2162,
  "Ġpret": 2163,
  "Ġess": 2164,
  "Ġpub": 2165,
  "Ġaccording": 2166,
  "dd": 2167,
  "13": 2168,
  "abor": 2169,
  "ume": 2170,
  "Ġoffice": 2171,
  "ources": 2172,
  "selves": 2173,
  "Ġrecommend": 2174,
  "Ġbad": 2175,
  "Ġrepres": 2176,
  "ĠBo": 2177,
  "ators": 2178,
  "Ġfeatures": 2179,
  "Ġsimple": 2180,
  "de": 2181,
  "Ġmess": 2182,
  "mb": 2183,
  "ĠNational": 2184,
  "To": 2185,
  "vent": 2186,
  "18": 2187,
  "ained": 2188,
  "head": 2189,
  "Ġenvironment": 2190,
  "Ġstudy": 2191,
  "Ġrequired": 2192,
  "ama": 2193,
  "200": 2194,
  "yr": 2195,
  "ication": 2196,
  "Ġmodel": 2197,
  "14": 2198,
  "OR": 2199,
  "hod": 2200,
  "che": 2201,
  "Ġsent": 2202,
  "ED": 2203,
  "ogn": 2204,
  "Ġz": 2205,
  "lling": 2206,
  "25": 2207,
  "vert": 2208,
  "Ġcommon": 2209,
  "year": 2210,
  "Ġtrying": 2211,
  "ID": 2212,
  "Ġtaking": 2213,
  "ĠComp": 2214,
  "ification": 2215,
  "Ġtechnology": 2216,
  "itted": 2217,
  "rug": 2218,
  "Ġmiss": 2219,
  "Ġwanted": 2220,
  "Ġ#": 2221,
  "Ġminutes": 2222,
  "Ġpretty": 2223,
  "Ġrelations": 2224,
  "Ġfriend": 2225,
  "Ġmot": 2226,
  "Ġrepl": 2227,
  "ety": 2228,
  "Ġaddress": 2229,
  "ĠAb": 2230,
  "Ġlay": 2231,
  "Ġidea": 2232,
  "rodu": 2233,
  "cell": 2234,
  "Ġmanagement": 2235,
  "obile": 2236,
  "Ġattack": 2237,
  "Ġdel": 2238,
  "Ġgirl": 2239,
  "Ġlikely": 2240,
  "Ġfurther": 2241,
  "Ġmedia": 2242,
  "Ġcustomers": 2243,
  "Ġfund": 2244,
  "Ġbehind": 2245,
  "Ġperformance": 2246,
  "Ġseries": 2247,
  "ĠSec": 2248,
  "Ġener": 2249,
  "Ġquestions": 2250,
  "ES": 2251,
  "anks": 2252,
  "Ġpolit": 2253,
  "Ġblood": 2254,
  "oved": 2255,
  "where": 2256,
  "Ġasked": 2257,
  "ĠDr": 2258,
  "Ġtrack": 2259,
  "Ġrad": 2260,
  "AL": 2261,
  "cer": 2262,
  "ires": 2263,
  "Ġentire": 2264,
  "Ġpoints": 2265,
  "ental": 2266,
  "Ġeff": 2267,
  "ively": 2268,
  "Ġeveryone": 2269,
  "ledge": 2270,
  "cted": 2271,
  "yn": 2272,
  "ĠInc": 2273,
  "Ġstop": 2274,
  "my": 2275,
  "cy": 2276,
  "itch": 2277,
  "Ġrate": 2278,
  "Ġbar": 2279,
  "gress": 2280,
  "Ġconsider": 2281,
  "idence": 2282,
  "//": 2283,
  "Ġlo": 2284,
  "Ġprobably": 2285,
  "Ġconduct": 2286,
  "used": 2287,
  "Ġespecially": 2288,
  "Ġfinanc": 2289,
  "Ġbuilding": 2290,
  "urance": 2291,
  "Ġswe": 2292,
  "ided": 2293,
  "://": 2294,
  "Ġelse": 2295,
  "apt": 2296,
  "ĠGu": 2297,
  "Ġneeded": 2298,
  "Ġresults": 2299,
  "Ġclean": 2300,
  "ĠOur": 2301,
  "Ġinstall": 2302,
  "ĠWill": 2303,
  "22": 2304,
  "Ġsearch": 2305,
  "Ġcoming": 2306,
  "Ġwond": 2307,
  "itting": 2308,
  "Ġvalue": 2309,
  "Ġtool": 2310,
  "Ġ...": 2311,
  "Ġfail": 2312,
  "iol": 2313,
  "Ġhowever": 2314,
  "Ġstat": 2315,
  "ficult": 2316,
  "Ġsugg": 2317,
  "Ġhost": 2318,
  "Ġfilm": 2319,
  "ino": 2320,
  "Ġself": 2321,
  "Ġdeterm": 2322,
  "Ġcontinue": 2323,
  "Ġselect": 2324,
  "Re": 2325,
  "Ġball": 2326,
  "Ġsens": 2327,
  "Ġprovided": 2328,
  "Ġcomputer": 2329,
  "Ġhon": 2330,
  "ĠTH": 2331,
  "ĠJan": 2332,
  "ony": 2333,
  "agn": 2334,
  "ĠKe": 2335,
  "Ġcrit": 2336,
  "iate": 2337,
  "Ġdocu": 2338,
  "ĠNorth": 2339,
  "umb": 2340,
  "Ġupd": 2341,
  "Ġfinal": 2342,
  "IC": 2343,
  "ĠAust": 2344,
  "ĠIm": 2345,
  "IT": 2346,
  "Ġdou": 2347,
  "pril": 2348,
  "cript": 2349,
  "chie": 2350,
  "Ġnothing": 2351,
  "Ġoffers": 2352,
  "Ġadded": 2353,
  "ĠCor": 2354,
  "Ġstaff": 2355,
  "Ġweb": 2356,
  "aur": 2357,
  "Ġquite": 2358,
  "empt": 2359,
  "Ġdifficult": 2360,
  "Ġexist": 2361,
  "ĠTw": 2362,
  "ĠPar": 2363,
  "Ġtou": 2364,
  "itten": 2365,
  "ees": 2366,
  "iple": 2367,
  "iful": 2368,
  "Ġprofessional": 2369,
  "Ġisn": 2370,
  "Ġsize": 2371,
  "elt": 2372,
  "org": 2373,
  "Ġ2011": 2374,
  "eds": 2375,
  "uf": 2376,
  "Ġrisk": 2377,
  "Ġanim": 2378,
  "Ġplayers": 2379,
  "Ġliving": 2380,
  "Ġmatter": 2381,
  "Ġinj": 2382,
  "Ġste": 2383,
  "Ġprovides": 2384,
  "irt": 2385,
  "resh": 2386,
  "Ġevents": 2387,
  "ĠSchool": 2388,
  "Ġopp": 2389,
  "Ġnecess": 2390,
  "uge": 2391,
  "gest": 2392,
  "Ġincludes": 2393,
  "Ġcard": 2394,
  "eter": 2395,
  "ĠGo": 2396,
  "Ġextra": 2397,
  "Ġdeath": 2398,
  "Ġsimilar": 2399,
  "17": 2400,
  "Ġupon": 2401,
  "ĠPer": 2402,
  "imate": 2403,
  "Ġtype": 2404,
  "IS": 2405,
  "ĠGr": 2406,
  "Ġblack": 2407,
  "Ġposition": 2408,
  "Ġvarious": 2409,
  "Ġcop": 2410,
  "ĠStates": 2411,
  "Ġtit": 2412,
  "mit": 2413,
  "Ġcannot": 2414,
  "ĠEurope": 2415,
  "Ġaccept": 2416,
  "Ġdam": 2417,
  "ung": 2418,
  "ĠPe": 2419,
  "Ġsqu": 2420,
  "pper": 2421,
  "Ġcharacter": 2422,
  "Ġinit": 2423,
  "60": 2424,
  "ĠDep": 2425,
  "Ġpark": 2426,
  "Ġtraining": 2427,
  "Ġwriting": 2428,
  "Ġrelationship": 2429,
  "Ġtext": 2430,
  "Ġhigher": 2431,
  "era": 2432,
  "Ġassist": 2433,
  "ructure": 2434,
  "Ġwar": 2435,
  "Ġinn": 2436,
  "Ġmedical": 2437,
  "ole": 2438,
  "Ġproperty": 2439,
  "ague": 2440,
  "ĠJune": 2441,
  "ĠGl": 2442,
  "Ġdig": 2443,
  "Ġissue": 2444,
  "Ġsimply": 2445,
  "ulated": 2446,
  "Ġsoon": 2447,
  "ules": 2448,
  "Ġterms": 2449,
  "Ġparticip": 2450,
  "Ġrather": 2451,
  "Ġfit": 2452,
  "ĠCenter": 2453,
  "Ġengine": 2454,
  "Ġrunning": 2455,
  "Ġchanges": 2456,
  "ables": 2457,
  "angu": 2458,
  "Ġdeb": 2459,
  "aily": 2460,
  "oe": 2461,
  "Ġansw": 2462,
  "Ġparty": 2463,
  "omes": 2464,
  "obal": 2465,
  "ological": 2466,
  "ĠEd": 2467,
  "action": 2468,
  "Ġsaw": 2469,
  "Ġusually": 2470,
  "Ġexperienc": 2471,
  "Ġweeks": 2472,
  "Ġwords": 2473,
  "ĠQu": 2474,
  "Ġconsum": 2475,
  "ĠHis": 2476,
  "Ġsex": 2477,
  "Ġtravel": 2478,
  "cial": 2479,
  "Ġsignific": 2480,
  "ĠWorld": 2481,
  "ĠPark": 2482,
  "Ġrecent": 2483,
  "hib": 2484,
  "Ġstra": 2485,
  "Ġtable": 2486,
  "Ġland": 2487,
  "Ġmethod": 2488,
  "ĠAfter": 2489,
  "ĠMark": 2490,
  "Ġforward": 2491,
  "Ġnice": 2492,
  "Ġcook": 2493,
  "ĠSm": 2494,
  "Ġphone": 2495,
  "Ġtrue": 2496,
  "ibr": 2497,
  "ĠTra": 2498,
  "80": 2499,
  "Ġpict": 2500,
  "Ġgeneral": 2501,
  "Ġimprove": 2502,
  "ned": 2503,
  "Ġdefin": 2504,
  "Ġapplication": 2505,
  "Ġagree": 2506,
  "Ġcell": 2507,
  "Ġsoftware": 2508,
  "ĠOct": 2509,
  "reg": 2510,
  "Ġshows": 2511,
  "Ġdate": 2512,
  "lex": 2513,
  "nes": 2514,
  "Ġenergy": 2515,
  "Ġfoot": 2516,
  "Ġground": 2517,
  "ades": 2518,
  "Ġmember": 2519,
  "Ġseems": 2520,
  "sc": 2521,
  "reme": 2522,
  "ĠJust": 2523,
  "Ġlog": 2524,
  "Ġvict": 2525,
  "Ġannoun": 2526,
  "ĠDes": 2527,
  "Ġnetwork": 2528,
  "Ġways": 2529,
  "Ġproblems": 2530,
  "Ġincrease": 2531,
  "Ġcover": 2532,
  "Ġdescrib": 2533,
  "Al": 2534,
  "Ġarticle": 2535,
  "aging": 2536,
  "Ġfire": 2537,
  "raig": 2538,
  "Ġ2010": 2539,
  "Ġfeature": 2540,
  "ĠMarch": 2541,
  "Ġsong": 2542,
  "irit": 2543,
  "arget": 2544,
  "ask": 2545,
  "Ġunique": 2546,
  "itional": 2547,
  "Ġsales": 2548,
  "overed": 2549,
  "AC": 2550,
  "Ġinde": 2551,
  "Ġhit": 2552,
  "Ġdom": 2553,
  "Ġleaders": 2554,
  "rect": 2555,
  "earch": 2556,
  "Ġtotal": 2557,
  "uary": 2558,
  "ĠAmerica": 2559,
  "sy": 2560,
  "come": 2561,
  "Ġprint": 2562,
  "eth": 2563,
  "Ġkids": 2564,
  "istration": 2565,
  "Ġrecently": 2566,
  "ĠMore": 2567,
  "Ġparent": 2568,
  "ruction": 2569,
  "Ġachie": 2570,
  "40": 2571,
  "ĠUs": 2572,
  "ĠCounty": 2573,
  "fl": 2574,
  "Ġoil": 2575,
  "Ġheld": 2576,
  "Ġdesigned": 2577,
  "ĠHouse": 2578,
  "Ġconcern": 2579,
  "ĠGe": 2580,
  "ises": 2581,
  "Ġroad": 2582,
  "anced": 2583,
  "ĠApril": 2584,
  "ada": 2585,
  "OU": 2586,
  "ederal": 2587,
  "Ġassoci": 2588,
  "Ġfast": 2589,
  "Ġthroughout": 2590,
  "Ġrecogn": 2591,
  "ĠSouth": 2592,
  "ufact": 2593,
  "ĠFace": 2594,
  "Ġetc": 2595,
  "Ġsle": 2596,
  "Ġlonger": 2597,
  "Ġpopular": 2598,
  "arter": 2599,
  "ĠPre": 2600,
  "Ġplayer": 2601,
  "Ġskin": 2602,
  "Ġoutside": 2603,
  "ĠPresident": 2604,
  "aching": 2605,
  "oogle": 2606,
  "Ph": 2607,
  "ĠSome": 2608,
  "Ġemb": 2609,
  "Ġprep": 2610,
  "ĠAct": 2611,
  "Ġspeak": 2612,
  "Ġnorm": 2613,
  "Ġloss": 2614,
  "ĠPol": 2615,
  "put": 2616,
  "Ġoptions": 2617,
  "Ġregard": 2618,
  "Ġdisplay": 2619,
  "Ġrent": 2620,
  "Ġyourself": 2621,
  "....": 2622,
  "Ġcourt": 2623,
  "Ġround": 2624,
  "Ġversion": 2625,
  "Ġrepresent": 2626,
  "ĠBar": 2627,
  "aturday": 2628,
  "based": 2629,
  "ĠWeb": 2630,
  "ĠReg": 2631,
  "Ġfunction": 2632,
  "Ġblock": 2633,
  "That": 2634,
  "AS": 2635,
  "Ġready": 2636,
  "Ġcouple": 2637,
  "Ġdrug": 2638,
  "Ġple": 2639,
  "Ġaccom": 2640,
  "Ġwhite": 2641,
  "ĠSy": 2642,
  "Ġ40": 2643,
  "ring": 2644,
  "Ġbox": 2645,
  "oring": 2646,
  "Ġleave": 2647,
  "ĠHar": 2648,
  "iff": 2649,
  "Ġaction": 2650,
  "Ġoriginal": 2651,
  "Ġtakes": 2652,
  "Ġbeautiful": 2653,
  "Ġnatural": 2654,
  "aving": 2655,
  "Ġhands": 2656,
  "ĠAf": 2657,
  "Ġwoman": 2658,
  "Ġreceive": 2659,
  "Ġensure": 2660,
  "lection": 2661,
  "atest": 2662,
  "Ġestab": 2663,
  "Ġwide": 2664,
  "Ġsafe": 2665,
  "Ġmatch": 2666,
  "amed": 2667,
  "Ġdetails": 2668,
  "ĠEl": 2669,
  "ĠSer": 2670,
  "Ġsignificant": 2671,
  "Ġfamil": 2672,
  "Ġregular": 2673,
  "Ã©": 2674,
  "oom": 2675,
  "attle": 2676,
  "Ġknowledge": 2677,
  "Ġfig": 2678,
  "Ġimpact": 2679,
  "Ġmoment": 2680,
  "izing": 2681,
  "Ġanyone": 2682,
  "Ġcomfort": 2683,
  "ĠSept": 2684,
  "Ġremain": 2685,
  "ĠWest": 2686,
  "Ġx": 2687,
  "Ġopportunity": 2688,
  "Ġpractice": 2689,
  "Ġstock": 2690,
  "Ġitems": 2691,
  "Ġhappy": 2692,
  "Ġpaper": 2693,
  "Ġdeep": 2694,
  "ĠMr": 2695,
  "Ġprograms": 2696,
  "Ġreceived": 2697,
  "ĠAug": 2698,
  "ament": 2699,
  "Ġbooks": 2700,
  "istic": 2701,
  "ude": 2702,
  "Ġexam": 2703,
  "Ġsaf": 2704,
  "Ġdefe": 2705,
  "astic": 2706,
  "oes": 2707,
  "oul": 2708,
  "My": 2709,
  "fr": 2710,
  "aign": 2711,
  "With": 2712,
  "Ġchoose": 2713,
  "Ġcurrently": 2714,
  "Ġhy": 2715,
  "Ġcause": 2716,
  "Ġ,": 2717,
  "Ġlit": 2718,
  "Ġsecurity": 2719,
  "Ġsense": 2720,
  "haps": 2721,
  "Ġeducation": 2722,
  "Sh": 2723,
  "Ġworth": 2724,
  "ett": 2725,
  "Ġinside": 2726,
  "ĠWar": 2727,
  "ĠAssoci": 2728,
  "Ġwasn": 2729,
  "Ġ=": 2730,
  "Ġcollect": 2731,
  "na": 2732,
  "Ġreading": 2733,
  "ground": 2734,
  "adem": 2735,
  "Ġclick": 2736,
  "Ġindic": 2737,
  "Ġuser": 2738,
  "ĠDav": 2739,
  "Ġapply": 2740,
  "Ġ22": 2741,
  "ĠSoc": 2742,
  "All": 2743,
  "ĠNow": 2744,
  "Ġsuggest": 2745,
  "'d": 2746,
  "ipping": 2747,
  "Ġdest": 2748,
  "ĠBy": 2749,
  "ĠEm": 2750,
  "Ġnational": 2751,
  "Ġhtt": 2752,
  "ĠPat": 2753,
  "ening": 2754,
  "inary": 2755,
  "Ġbase": 2756,
  "urg": 2757,
  "Ġlate": 2758,
  "ops": 2759,
  "bit": 2760,
  "Ġrights": 2761,
  "rel": 2762,
  "ishing": 2763,
  "icles": 2764,
  "Ġsat": 2765,
  "Ġinfl": 2766,
  "Ġmorning": 2767,
  "artment": 2768,
  "Ġvia": 2769,
  "Ġbed": 2770,
  "adu": 2771,
  "ĠBra": 2772,
  "Ġeyes": 2773,
  "Ġrole": 2774,
  "Ġneg": 2775,
  "oura": 2776,
  "Ġcal": 2777,
  "Ġcreated": 2778,
  "imum": 2779,
  "Ġtreatment": 2780,
  "Ġfinancial": 2781,
  "Ġviol": 2782,
  "azing": 2783,
  "Ġquickly": 2784,
  "Ġrespect": 2785,
  "ĠStud": 2786,
  "ĠFacebook": 2787,
  "ffects": 2788,
  "ING": 2789,
  "Ġsystems": 2790,
  "face": 2791,
  "Ġformer": 2792,
  "Ġcam": 2793,
  "Ġcontrib": 2794,
  "Ġlost": 2795,
  "Ġprior": 2796,
  "Ġ21": 2797,
  "key": 2798,
  "Ġadditional": 2799,
  "Ġcareer": 2800,
  "Ġthemselves": 2801,
  "Ġcases": 2802,
  "Ġsett": 2803,
  "Ġfavorite": 2804,
  "ought": 2805,
  "Ġattend": 2806,
  "Ġcool": 2807,
  "Ġmix": 2808,
  "lt": 2809,
  "hood": 2810,
  "Ġwall": 2811,
  "Ġbal": 2812,
  "Ġcolor": 2813,
  "ĠDay": 2814,
  "Ġability": 2815,
  "OT": 2816,
  "iation": 2817,
  "Ġincluded": 2818,
  "Ġmaterial": 2819,
  "Ġgoal": 2820,
  "ese": 2821,
  "Ġinvolved": 2822,
  "unday": 2823,
  "Ġsil": 2824,
  "Ġscreen": 2825,
  "olution": 2826,
  "Ġprivate": 2827,
  "Ġreported": 2828,
  "Ġsus": 2829,
  "Ġcoll": 2830,
  "ĠNews": 2831,
  "cast": 2832,
  "lier": 2833,
  "At": 2834,
  "oph": 2835,
  "Ġpan": 2836,
  "Ġsafety": 2837,
  "Ġappe": 2838,
  "onday": 2839,
  "usiness": 2840,
  "Ġcustomer": 2841,
  "Craig": 2842,
  "Ġlic": 2843,
  "itc": 2844,
  "Ġfight": 2845,
  "Ġplaying": 2846,
  "Ġrequest": 2847,
  "aught": 2848,
  "Ġtal": 2849,
  "Ġexact": 2850,
  "Ġcredit": 2851,
  "atory": 2852,
  "aby": 2853,
  "Our": 2854,
  "ournal": 2855,
  "ĠArt": 2856,
  "Ġchance": 2857,
  "ĠDon": 2858,
  "Ġboard": 2859,
  "Ġlooks": 2860,
  "Ġfair": 2861,
  "Ġlear": 2862,
  "Ġpressure": 2863,
  "nded": 2864,
  "ĠPa": 2865,
  "Ġlevels": 2866,
  "1916": 2867,
  "Ġexcept": 2868,
  "Ġbegan": 2869,
  "off": 2870,
  "ek": 2871,
  "Ġpolicy": 2872,
  "Ġtrail": 2873,
  "like": 2874,
  "ville": 2875,
  "Ġbott": 2876,
  "Ġrelated": 2877,
  "ĠJuly": 2878,
  "edd": 2879,
  "Ġill": 2880,
  "ached": 2881,
  "ĠCalif": 2882,
  "Ġusers": 2883,
  "Ġallows": 2884,
  "erve": 2885,
  "Ġsaying": 2886,
  "Ġaverage": 2887,
  "oke": 2888,
  "ana": 2889,
  "Ġ23": 2890,
  "Ġinteresting": 2891,
  "ĠWhile": 2892,
  "Ġproduction": 2893,
  "Ġstandard": 2894,
  "Ġdrive": 2895,
  ")||": 2896,
  "Ġworked": 2897,
  "Ġgets": 2898,
  "su": 2899,
  "ĠSen": 2900,
  "Ġtele": 2901,
  "illing": 2902,
  "Ġchalleng": 2903,
  "Ġcapt": 2904,
  "Ġtouch": 2905,
  "Ġtarget": 2906,
  "erc": 2907,
  "ashing": 2908,
  "ecut": 2909,
  "Ġlower": 2910,
  "ovember": 2911,
  "ĠGoogle": 2912,
  "iction": 2913,
  "Ġimmed": 2914,
  "Ġstyle": 2915,
  "Ġfa": 2916,
  "Ġvac": 2917,
  "ĠOff": 2918,
  "Com": 2919,
  "Ġpotential": 2920,
  "board": 2921,
  "Ġbecame": 2922,
  "ĠHigh": 2923,
  "Ġwritten": 2924,
  "Ġut": 2925,
  "Ġeval": 2926,
  "Ġdead": 2927,
  "Ġcoun": 2928,
  "Ġclos": 2929,
  "airs": 2930,
  "AM": 2931,
  "Ġfile": 2932,
  "iddle": 2933,
  "uth": 2934,
  "Ġmeeting": 2935,
  "ĠEnglish": 2936,
  "ĠMich": 2937,
  "Ġpurchase": 2938,
  "Ġmyself": 2939,
  "ĠGra": 2940,
  "Ġdecision": 2941,
  "Ġlangu": 2942,
  "Ġteac": 2943,
  "Ġknew": 2944,
  "Ġdevice": 2945,
  "aves": 2946,
  "Ġlatest": 2947,
  "oud": 2948,
  "Cl": 2949,
  "Ġeffective": 2950,
  "gu": 2951,
  "Ġcand": 2952,
  "field": 2953,
  "ĠDepartment": 2954,
  "Ġcra": 2955,
  "Ġobs": 2956,
  "ald": 2957,
  "ĠAir": 2958,
  "Ġgen": 2959,
  "ĠMon": 2960,
  "Ġveh": 2961,
  "ma": 2962,
  "ĠChar": 2963,
  "Ġcosts": 2964,
  "Ġintrodu": 2965,
  "Ġwonder": 2966,
  "Ġmid": 2967,
  "Ġsurpr": 2968,
  "OM": 2969,
  "Ġgroups": 2970,
  "Ġpers": 2971,
  "Ġdeg": 2972,
  "Ġinstead": 2973,
  "unt": 2974,
  "atform": 2975,
  "Ġeasily": 2976,
  "Ġclients": 2977,
  "OS": 2978,
  "Ġchoice": 2979,
  "Ġexpress": 2980,
  "ĠFeb": 2981,
  "Ġhair": 2982,
  "Ġparts": 2983,
  "Ġcontract": 2984,
  "Ġremember": 2985,
  "Ġgoes": 2986,
  "kend": 2987,
  "Ġgrowth": 2988,
  "Ġfu": 2989,
  "24": 2990,
  "Ġge": 2991,
  "Ġaw": 2992,
  "Ġintegr": 2993,
  "Ġmovie": 2994,
  "ession": 2995,
  "Be": 2996,
  "ĠAustral": 2997,
  "uses": 2998,
  "Ġcampaign": 2999,
  "Ġemer": 3000,
  "Ġpatients": 3001,
  "Ġdise": 3002,
  "enge": 3003,
  "ming": 3004,
  "ornia": 3005,
  "ĠSan": 3006,
  "Ġattention": 3007,
  "Ġmanufact": 3008,
  "Ġleading": 3009,
  "Ġrelease": 3010,
  "Ġautom": 3011,
  "asons": 3012,
  "ĠHere": 3013,
  "Ġlegal": 3014,
  "ples": 3015,
  "Ġdraw": 3016,
  "ipment": 3017,
  "Ġstudent": 3018,
  "21": 3019,
  "They": 3020,
  "Ġattempt": 3021,
  "ĠHer": 3022,
  "Ġimm": 3023,
  "Ġord": 3024,
  "Ġinsurance": 3025,
  "ipe": 3026,
  "Ġlives": 3027,
  "Ġhuge": 3028,
  "Ġpull": 3029,
  "Ġskills": 3030,
  "Ġsepar": 3031,
  "Ġmention": 3032,
  "Ġpred": 3033,
  "Ġsubject": 3034,
  "Ġprojects": 3035,
  "Ġitself": 3036,
  "One": 3037,
  "ĠSw": 3038,
  "wood": 3039,
  "ords": 3040,
  "ĠCour": 3041,
  "onse": 3042,
  "Ġlooked": 3043,
  "Ġmach": 3044,
  "ĠSeptember": 3045,
  "ications": 3046,
  "Ġhear": 3047,
  "anger": 3048,
  "Ġ2017": 3049,
  "Ġcenter": 3050,
  "Ġconditions": 3051,
  "Ġstru": 3052,
  "ĠColle": 3053,
  "ĠMus": 3054,
  "clus": 3055,
  "Ġtown": 3056,
  "rown": 3057,
  "Ġdownload": 3058,
  "Ġprim": 3059,
  "idge": 3060,
  "bl": 3061,
  "Ġplant": 3062,
  "rought": 3063,
  "Ġstuff": 3064,
  "Ġbuilt": 3065,
  "Ġlearning": 3066,
  "Ġqual": 3067,
  "99": 3068,
  "Ġprop": 3069,
  "23": 3070,
  "pendent": 3071,
  "Ġsell": 3072,
  "Ġcomment": 3073,
  "Ġactivities": 3074,
  "sp": 3075,
  "ha": 3076,
  "Ġ28": 3077,
  "Ġdecided": 3078,
  "Ġheard": 3079,
  "ham": 3080,
  "Ġwrong": 3081,
  "ĠSunday": 3082,
  "reng": 3083,
  "Ġbrand": 3084,
  "Ġones": 3085,
  "ester": 3086,
  "Ġfeed": 3087,
  "Ġsummer": 3088,
  "Ġinternational": 3089,
  "ĠUp": 3090,
  "Ġnecessary": 3091,
  "?âĢĿ": 3092,
  "Ġpolice": 3093,
  "Ġstarting": 3094,
  "ris": 3095,
  "Ġfresh": 3096,
  "Ġled": 3097,
  "ara": 3098,
  "unk": 3099,
  "ĠNet": 3100,
  "ales": 3101,
  "ĠAugust": 3102,
  "rote": 3103,
  "Ġmother": 3104,
  "ĠIndian": 3105,
  "Ġstates": 3106,
  "ĠJanuary": 3107,
  "ox": 3108,
  "bor": 3109,
  "ĠFriday": 3110,
  "70": 3111,
  "Ġpartners": 3112,
  "Ġgave": 3113,
  "vey": 3114,
  "ecause": 3115,
  "Ġinvestig": 3116,
  "val": 3117,
  "iam": 3118,
  "Ġwrite": 3119,
  "ceed": 3120,
  "Ġjud": 3121,
  "Ġboy": 3122,
  "Ġflow": 3123,
  "Ġmobile": 3124,
  "Ġdiv": 3125,
  "No": 3126,
  "Ġ2016": 3127,
  "add": 3128,
  "Ġsubs": 3129,
  "Ġpresident": 3130,
  "ĠHealth": 3131,
  "ĠVal": 3132,
  "cember": 3133,
  "ysis": 3134,
  "cription": 3135,
  "Ġdocument": 3136,
  "Ġbud": 3137,
  "Ġdoor": 3138,
  "just": 3139,
  "Ġmag": 3140,
  "Ġsave": 3141,
  "Ġoption": 3142,
  "Ġep": 3143,
  "Ġ2008": 3144,
  "ĠTV": 3145,
  "Ġ2015": 3146,
  "Ġvariety": 3147,
  "aste": 3148,
  "ĠOf": 3149,
  "ida": 3150,
  "Ġprotect": 3151,
  "ĠAg": 3152,
  "lim": 3153,
  "Ġbenefits": 3154,
  "Ġcat": 3155,
  "hel": 3156,
  "Ġtour": 3157,
  "Ġ2014": 3158,
  "fficient": 3159,
  "Ġsometimes": 3160,
  "ĠOctober": 3161,
  "Ġinterview": 3162,
  "Ġvot": 3163,
  "Ġavoid": 3164,
  "Ġhimself": 3165,
  "Ġlif": 3166,
  "str": 3167,
  "Ġaffect": 3168,
  "mercial": 3169,
  "Ġnote": 3170,
  "ael": 3171,
  "Ġmass": 3172,
  "ĠAdd": 3173,
  "Ġlimited": 3174,
  "alt": 3175,
  "Ġbehav": 3176,
  "US": 3177,
  "ĠFin": 3178,
  "rows": 3179,
  "ĠCalifornia": 3180,
  "Ġlocation": 3181,
  "hold": 3182,
  "itation": 3183,
  "Ġplatform": 3184,
  "Ġlab": 3185,
  "ĠLa": 3186,
  "Ġ+": 3187,
  "gar": 3188,
  "Ġexpected": 3189,
  "Ġdevices": 3190,
  "atives": 3191,
  "Ġcross": 3192,
  "Ġ60": 3193,
  "Ġshot": 3194,
  "ux": 3195,
  "Ġadmin": 3196,
  "ĠDem": 3197,
  "Ġhighly": 3198,
  "Ġgives": 3199,
  "Ġspent": 3200,
  "idered": 3201,
  "avy": 3202,
  "Ġcommit": 3203,
  "Ġpen": 3204,
  "Ġclub": 3205,
  "iring": 3206,
  "Ġcircu": 3207,
  "Ġcele": 3208,
  "urning": 3209,
  "ĠPlease": 3210,
  "uesday": 3211,
  "Ġshoot": 3212,
  "ĠThen": 3213,
  "Ġthinking": 3214,
  "ĠOb": 3215,
  "Ġnature": 3216,
  "Ġsn": 3217,
  "ĠNovember": 3218,
  "name": 3219,
  "Ġplans": 3220,
  "ĠSaturday": 3221,
  "Ġencoura": 3222,
  "orks": 3223,
  "ios": 3224,
  "Ġarch": 3225,
  "venue": 3226,
  "Ġ2009": 3227,
  "enty": 3228,
  "ĠInt": 3229,
  "ĠWell": 3230,
  "ĠRed": 3231,
  "idents": 3232,
  "light": 3233,
  "iding": 3234,
  "Ġhor": 3235,
  "Ġbank": 3236,
  "king": 3237,
  "Ġdaily": 3238,
  "pose": 3239,
  "Ġtrip": 3240,
  "Ġamazing": 3241,
  "Ġanswer": 3242,
  "Ġfelt": 3243,
  "Ġsend": 3244,
  "mas": 3245,
  "EC": 3246,
  "Ġdri": 3247,
  "aged": 3248,
  "Ġapproach": 3249,
  "Ġsold": 3250,
  "cil": 3251,
  "Ġaware": 3252,
  "olf": 3253,
  "ĠFrom": 3254,
  "body": 3255,
  "Ġplayed": 3256,
  "ĠCommun": 3257,
  "ĠLaw": 3258,
  "Ġglass": 3259,
  "âĢ¢âĢ¢": 3260,
  "Ġshall": 3261,
  "ĠRead": 3262,
  "ened": 3263,
  "ĠPost": 3264,
  "Ġinsp": 3265,
  "Ġcompletely": 3266,
  "Ġdepart": 3267,
  "Ġtalking": 3268,
  "Ġsituation": 3269,
  "ny": 3270,
  "rec": 3271,
  "Ġadvant": 3272,
  "izes": 3273,
  "Ġideas": 3274,
  "ĠCons": 3275,
  "Ġsen": 3276,
  "ounds": 3277,
  "ĠDel": 3278,
  "ension": 3279,
  "ray": 3280,
  "olute": 3281,
  "Ġeffects": 3282,
  "Ġreleased": 3283,
  "Ġweight": 3284,
  "opping": 3285,
  "Ġ26": 3286,
  "ĠDirect": 3287,
  "ĠRepublic": 3288,
  "www": 3289,
  "vest": 3290,
  "Ġfine": 3291,
  "urb": 3292,
  "ibly": 3293,
  "omen": 3294,
  "ruary": 3295,
  "Ġfirm": 3296,
  "Ġrout": 3297,
  "Ġexcell": 3298,
  "Ġslow": 3299,
  "AP": 3300,
  "aries": 3301,
  "Ġpiece": 3302,
  "Ġdirectly": 3303,
  "pite": 3304,
  "Ġcollege": 3305,
  "ND": 3306,
  "ĠBlack": 3307,
  "Ġphotos": 3308,
  "ospital": 3309,
  "Ġsche": 3310,
  "uk": 3311,
  "Ġfeeling": 3312,
  "Ġthous": 3313,
  "Ġhelps": 3314,
  "Ġmaterials": 3315,
  "rupt": 3316,
  "Ġdark": 3317,
  "Ġdifference": 3318,
  "ĠAssociation": 3319,
  "Ġfederal": 3320,
  "Ġhol": 3321,
  "Ġcode": 3322,
  "ĠAc": 3323,
  "ĠPM": 3324,
  "Ġpolitical": 3325,
  "Ġmaintain": 3326,
  "Ġsource": 3327,
  "itely": 3328,
  "Ġfarm": 3329,
  "Ġtried": 3330,
  "Ġpath": 3331,
  "Ġcomplex": 3332,
  "ET": 3333,
  "Ġmarketing": 3334,
  "mark": 3335,
  "isions": 3336,
  "Ġcert": 3337,
  "mission": 3338,
  "ech": 3339,
  "ĠAfric": 3340,
  "Ġconsidered": 3341,
  "Ġproviding": 3342,
  "irth": 3343,
  "Ġeat": 3344,
  "Ġdro": 3345,
  "Ġcountries": 3346,
  "Ġprogress": 3347,
  "Ġimplement": 3348,
  "ky": 3349,
  "ĠEvery": 3350,
  "ĠAcc": 3351,
  "Ġdigital": 3352,
  "isf": 3353,
  "Ġbroad": 3354,
  "ĠBu": 3355,
  "ursday": 3356,
  "Ġlocated": 3357,
  "ivity": 3358,
  "hern": 3359,
  "itter": 3360,
  "Ġwood": 3361,
  "Ġimage": 3362,
  "Ġsun": 3363,
  "Ġ27": 3364,
  "ocr": 3365,
  "Ġinvestment": 3366,
  "ĠMonday": 3367,
  "Ġgiving": 3368,
  "Ġoffe": 3369,
  "Ġnation": 3370,
  "ography": 3371,
  "Ġbrought": 3372,
  "Ġcollection": 3373,
  "Ġextreme": 3374,
  "ĠProf": 3375,
  "Ġmultiple": 3376,
  "Ġenter": 3377,
  "ĠThom": 3378,
  "Ġinnov": 3379,
  "Ġwait": 3380,
  "Ġpublished": 3381,
  "ĠFirst": 3382,
  "Ġreports": 3383,
  "inner": 3384,
  "Ġgold": 3385,
  "Ġphysical": 3386,
  "Ġconsist": 3387,
  "Ġtrust": 3388,
  "ĠJe": 3389,
  "aint": 3390,
  "Ġcy": 3391,
  "Ġgoals": 3392,
  "ĠFlor": 3393,
  "Ġhttp": 3394,
  "ĠBusiness": 3395,
  "Ġeffort": 3396,
  "Ġvoice": 3397,
  "Ġrelig": 3398,
  "Ġequipment": 3399,
  "Ġscore": 3400,
  "Ex": 3401,
  "iced": 3402,
  "ĠWind": 3403,
  "Ġmodern": 3404,
  "Ġapart": 3405,
  "itchen": 3406,
  "Ġtypes": 3407,
  "aly": 3408,
  "ĠEven": 3409,
  "Ġreach": 3410,
  "ule": 3411,
  "ston": 3412,
  "Ġchurch": 3413,
  "Ġmaybe": 3414,
  "ulations": 3415,
  "ĠAre": 3416,
  "ivil": 3417,
  "apan": 3418,
  "Ġneigh": 3419,
  "Ġhour": 3420,
  "aker": 3421,
  "Ġsort": 3422,
  "She": 3423,
  "Ġcirc": 3424,
  "aches": 3425,
  "ĠTHE": 3426,
  "Ġcontain": 3427,
  "Ġwrote": 3428,
  "ĠCollege": 3429,
  "Ġresponse": 3430,
  "Ġspirit": 3431,
  "Ġtitle": 3432,
  "wise": 3433,
  "iles": 3434,
  "Ġpaid": 3435,
  "Ġcapital": 3436,
  "verse": 3437,
  "Ġlack": 3438,
  "ĠDecember": 3439,
  "oms": 3440,
  "more": 3441,
  "ĠâĢ¦": 3442,
  "Ġshown": 3443,
  "rences": 3444,
  "uted": 3445,
  "Ġuses": 3446,
  "rench": 3447,
  "Ġcup": 3448,
  "Ġfans": 3449,
  "By": 3450,
  "Ġdep": 3451,
  "ĠTex": 3452,
  "Ġweekend": 3453,
  "Ġsection": 3454,
  "Ġbillion": 3455,
  "ĠMicro": 3456,
  "mitted": 3457,
  "Ġpositive": 3458,
  "apers": 3459,
  "After": 3460,
  "Ġteams": 3461,
  "iable": 3462,
  "Ġmat": 3463,
  "Ġfinally": 3464,
  "Ġserve": 3465,
  "Ġ29": 3466,
  "tee": 3467,
  "Ġglobal": 3468,
  "Ġreve": 3469,
  "Ġded": 3470,
  "Ġresources": 3471,
  "arden": 3472,
  "Ġstories": 3473,
  "erved": 3474,
  "Ġemployees": 3475,
  "EL": 3476,
  "Ġwarm": 3477,
  "Ġconv": 3478,
  "Ġfix": 3479,
  "ĠGener": 3480,
  "Ġfinished": 3481,
  "EO": 3482,
  "Ġbi": 3483,
  "Ġapplications": 3484,
  "Ġstage": 3485,
  "arily": 3486,
  "Ġspend": 3487,
  "Ġconvers": 3488,
  "TI": 3489,
  "Ġbeg": 3490,
  "ĠAut": 3491,
  "Ġtowards": 3492,
  "ĠBel": 3493,
  "ancy": 3494,
  "asc": 3495,
  "Ġstructure": 3496,
  "imately": 3497,
  "atever": 3498,
  "well": 3499,
  "Ġcorpor": 3500,
  "ength": 3501,
  "Ġcarry": 3502,
  "la": 3503,
  "Ġsleep": 3504,
  "Ġwife": 3505,
  "Ġdrop": 3506,
  "Ġnearly": 3507,
  "Ġcondition": 3508,
  "ashington": 3509,
  "Ġprevent": 3510,
  "Ġoccur": 3511,
  "Ġstatement": 3512,
  "Ġeye": 3513,
  "oming": 3514,
  "Ġwish": 3515,
  "ĠYear": 3516,
  "Ġproced": 3517,
  "Ġ2020": 3518,
  "PA": 3519,
  "urt": 3520,
  "band": 3521,
  "Ġrev": 3522,
  "à¤": 3523,
  "ondon": 3524,
  "Ġdry": 3525,
  "Un": 3526,
  "ĠInternational": 3527,
  "Ġparents": 3528,
  "ĠFree": 3529,
  "Ġgreen": 3530,
  "urer": 3531,
  "Ġbaby": 3532,
  "ĠBrit": 3533,
  "ĠService": 3534,
  "Ġrock": 3535,
  "change": 3536,
  "Ġplaces": 3537,
  "Ġmessage": 3538,
  "ica": 3539,
  "Ġadult": 3540,
  "orge": 3541,
  "Ġdemand": 3542,
  "ym": 3543,
  "down": 3544,
  "ĠDis": 3545,
  "Ġimages": 3546,
  "âĢĿ.": 3547,
  "chan": 3548,
  "Ġson": 3549,
  "Ġexactly": 3550,
  "Ġpattern": 3551,
  "Ġcorrect": 3552,
  "itary": 3553,
  "ĠStreet": 3554,
  "ĠHall": 3555,
  "amb": 3556,
  "Ġdelivery": 3557,
  "ĠIN": 3558,
  "Ġowners": 3559,
  "Ġstreng": 3560,
  "Ġdrink": 3561,
  "Ġheat": 3562,
  "see": 3563,
  "Ġchanged": 3564,
  "ashion": 3565,
  "Ġsites": 3566,
  "ednes": 3567,
  "Ġgone": 3568,
  "Ġachieve": 3569,
  "Ġinterested": 3570,
  "soft": 3571,
  "sec": 3572,
  "Ġrestaur": 3573,
  "itute": 3574,
  "ls": 3575,
  "Ġprec": 3576,
  "Ġfully": 3577,
  "Ġmeasure": 3578,
  "aughter": 3579,
  "ĠDavid": 3580,
  "Ġrates": 3581,
  "mp": 3582,
  "Ġkn": 3583,
  "Ġdire": 3584,
  "Ġbrain": 3585,
  "Ġdoctor": 3586,
  "Ġhop": 3587,
  "Ġprem": 3588,
  "craft": 3589,
  "Ġincome": 3590,
  "oday": 3591,
  "sych": 3592,
  "yond": 3593,
  "iately": 3594,
  "Ġgrowing": 3595,
  "Ġparticularly": 3596,
  "Ġtick": 3597,
  "ager": 3598,
  "Ġcateg": 3599,
  "Ġsuccessful": 3600,
  "Ġ198": 3601,
  "Ġannounced": 3602,
  "ĠSch": 3603,
  "Ġprefer": 3604,
  "Ġobject": 3605,
  "Ġcomments": 3606,
  "undred": 3607,
  "Ġdisease": 3608,
  "Ġspot": 3609,
  "Ġculture": 3610,
  "Ġoverall": 3611,
  "Ġsubst": 3612,
  "ĠInternet": 3613,
  "Ġstraight": 3614,
  "Ġroll": 3615,
  "Ġmoving": 3616,
  "Ġlanguage": 3617,
  "Ġfrequ": 3618,
  "Ġcharge": 3619,
  "itable": 3620,
  "ibrary": 3621,
  "Ġfell": 3622,
  "ĠTuesday": 3623,
  "Ġseven": 3624,
  "ĠWhite": 3625,
  "Ġmill": 3626,
  "unction": 3627,
  "Ġsolution": 3628,
  "pri": 3629,
  "Ġopportunities": 3630,
  "ipp": 3631,
  "ĠÂ£": 3632,
  "AD": 3633,
  "icated": 3634,
  "ĠGerm": 3635,
  "Ġdeveloped": 3636,
  "ĠKing": 3637,
  "ĠRec": 3638,
  "estern": 3639,
  "Ġforce": 3640,
  "arc": 3641,
  "Ġorganiz": 3642,
  "Ġperhaps": 3643,
  "example": 3644,
  "oos": 3645,
  "Ġconcept": 3646,
  "Ġtrain": 3647,
  "Ġincreasing": 3648,
  "orrow": 3649,
  "Ġcertainly": 3650,
  "28": 3651,
  "Ġorganization": 3652,
  "ĠPhil": 3653,
  "Ġquarter": 3654,
  "ĠProgram": 3655,
  "Ġloved": 3656,
  "wide": 3657,
  "Ġdream": 3658,
  "Ġmax": 3659,
  "Ġfra": 3660,
  "Ġspeed": 3661,
  "ĠOut": 3662,
  "Ġdistrib": 3663,
  "Ġrespond": 3664,
  "Ġbeginning": 3665,
  "Ġserious": 3666,
  "Ġpurpose": 3667,
  "Ġaltern": 3668,
  "Ġallowed": 3669,
  "ustr": 3670,
  "duc": 3671,
  "ims": 3672,
  "Ġfear": 3673,
  "Ġfeet": 3674,
  "Ġimpress": 3675,
  "ĠJack": 3676,
  "ednesday": 3677,
  "umn": 3678,
  "Ġfloor": 3679,
  "Ġnormal": 3680,
  "Ġabsolute": 3681,
  "OL": 3682,
  "Ġing": 3683,
  "ocol": 3684,
  "Ġwild": 3685,
  "Se": 3686,
  "ously": 3687,
  "iant": 3688,
  "ĠTechn": 3689,
  "Pro": 3690,
  "Ġwants": 3691,
  "Ġtemper": 3692,
  "Ġbusinesses": 3693,
  "Ġalone": 3694,
  "ĠAv": 3695,
  "ĠCle": 3696,
  "zz": 3697,
  "New": 3698,
  "Ġdepend": 3699,
  "Here": 3700,
  "Ġturned": 3701,
  "rast": 3702,
  "inated": 3703,
  "Ġhistor": 3704,
  "Ġbrok": 3705,
  "ĠWashington": 3706,
  "Ġwww": 3707,
  "Ġreduce": 3708,
  "Ġprices": 3709,
  "IG": 3710,
  "Ġappl": 3711,
  "Ġbill": 3712,
  "arant": 3713,
  "Ġmanager": 3714,
  "pre": 3715,
  "Ġdefinitely": 3716,
  "Ġdress": 3717,
  "Ġstrugg": 3718,
  "Ġslight": 3719,
  "Ġhappened": 3720,
  "Ġinflu": 3721,
  "Ġmount": 3722,
  "Ġactivity": 3723,
  "term": 3724,
  "ĠHome": 3725,
  "):": 3726,
  "27": 3727,
  "Ġmer": 3728,
  "lin": 3729,
  "Ġcash": 3730,
  "Ġprinc": 3731,
  "Ġbasic": 3732,
  "ĠSuper": 3733,
  "Ġearlier": 3734,
  "Ġcompleted": 3735,
  "Ġten": 3736,
  "Ġfather": 3737,
  "90": 3738,
  "reed": 3739,
  "ĠChristmas": 3740,
  "Ġhous": 3741,
  "Ġpages": 3742,
  "bed": 3743,
  "ĠAM": 3744,
  "ĠMost": 3745,
  "Ġcas": 3746,
  "Ġmodels": 3747,
  "lying": 3748,
  "Ġpromot": 3749,
  "Ġhelped": 3750,
  "etic": 3751,
  "asy": 3752,
  "Ġexisting": 3753,
  "ĠAlso": 3754,
  "Ġconsult": 3755,
  "Ġaward": 3756,
  "Ġappropri": 3757,
  "Ġcelebr": 3758,
  "TH": 3759,
  "ze": 3760,
  "Ġsatisf": 3761,
  "Ġeight": 3762,
  "ault": 3763,
  "Ġtrade": 3764,
  "Ġmis": 3765,
  "Ġpet": 3766,
  "Ġimmediately": 3767,
  "Ġ2007": 3768,
  "Ġrequirements": 3769,
  "II": 3770,
  "Ġannual": 3771,
  "ĠBrown": 3772,
  "ĠApple": 3773,
  "ares": 3774,
  "ĠGreen": 3775,
  "Ġtools": 3776,
  "Ġdoub": 3777,
  "Ġimag": 3778,
  "sequ": 3779,
  "Ġgreater": 3780,
  "ags": 3781,
  "PS": 3782,
  "Ġdirector": 3783,
  "ĠSim": 3784,
  "Ġver": 3785,
  "Ġcommercial": 3786,
  "ĠFe": 3787,
  "Ġinform": 3788,
  "iber": 3789,
  "anch": 3790,
  "ĠLondon": 3791,
  "Ġnumbers": 3792,
  "Ġult": 3793,
  "Ġcandid": 3794,
  "ĠFlorida": 3795,
  "aled": 3796,
  "ĠGood": 3797,
  "Ġprot": 3798,
  "Ġrules": 3799,
  "Ġrace": 3800,
  "Ġhaven": 3801,
  "Ġsmart": 3802,
  "ĠChristian": 3803,
  "Ġinstit": 3804,
  "Ġindividuals": 3805,
  "Ġcircuit": 3806,
  "Ġloan": 3807,
  "ulate": 3808,
  "oly": 3809,
  "Ġwel": 3810,
  "Ġterr": 3811,
  "Ġadvert": 3812,
  "Ġoffered": 3813,
  "Ġplanning": 3814,
  "istr": 3815,
  "ayer": 3816,
  "Ġcompared": 3817,
  "Ġload": 3818,
  "aces": 3819,
  "Ġacqu": 3820,
  "azine": 3821,
  "Ġradio": 3822,
  "Ġincreased": 3823,
  "Ġwhose": 3824,
  "unte": 3825,
  "Ġclient": 3826,
  "Ġfamilies": 3827,
  "Ġjobs": 3828,
  "ĠTrans": 3829,
  "Ġfinish": 3830,
  "Ġmoved": 3831,
  "istry": 3832,
  "Ġwouldn": 3833,
  "ĠIS": 3834,
  "Ġmaster": 3835,
  "Ġalthough": 3836,
  "Ġexcellent": 3837,
  "Ġscience": 3838,
  "Ġpowerful": 3839,
  "Ġhundred": 3840,
  "Ġbenefit": 3841,
  "force": 3842,
  "ĠLet": 3843,
  "ĠBig": 3844,
  "ĠGroup": 3845,
  "IL": 3846,
  "ĠUK": 3847,
  "ronic": 3848,
  "pects": 3849,
  "ĠTexas": 3850,
  "ĠEar": 3851,
  "inger": 3852,
  "ado": 3853,
  "order": 3854,
  "ĠChina": 3855,
  "ĠFebruary": 3856,
  "Ġ@": 3857,
  "Ġcreating": 3858,
  "vis": 3859,
  "Ġkitchen": 3860,
  "Ġmiles": 3861,
  "Ġflav": 3862,
  "het": 3863,
  "Ġble": 3864,
  "atively": 3865,
  "hest": 3866,
  "Now": 3867,
  "ĠEv": 3868,
  "iling": 3869,
  "Ġanalysis": 3870,
  "Ġfat": 3871,
  "icine": 3872,
  "bon": 3873,
  "Ġclin": 3874,
  "ady": 3875,
  "Ġprevious": 3876,
  "Ġnamed": 3877,
  "Ġstress": 3878,
  "ĠCourt": 3879,
  "Ġtraditional": 3880,
  "set": 3881,
  "Ġobtain": 3882,
  "ĠAnge": 3883,
  "ĠReview": 3884,
  "Ġcouldn": 3885,
  "Ġshop": 3886,
  "Ġproduce": 3887,
  "ĠOther": 3888,
  "Ġemot": 3889,
  "ampions": 3890,
  "ram": 3891,
  "ĠMet": 3892,
  "75": 3893,
  "ĠâĢ¢": 3894,
  "ĠIndia": 3895,
  "Ġhotel": 3896,
  "Ġmeaning": 3897,
  "Ġchallenge": 3898,
  "ĠGreat": 3899,
  "Ġexerc": 3900,
  "Ġband": 3901,
  "antly": 3902,
  "iger": 3903,
  "Ġ2006": 3904,
  "Ġjump": 3905,
  "Ġcentral": 3906,
  "Ġreasons": 3907,
  "Ġbudget": 3908,
  "house": 3909,
  "Ġfru": 3910,
  "\".": 3911,
  "olic": 3912,
  "apter": 3913,
  "ĠThursday": 3914,
  "Ġsurv": 3915,
  "Ġphoto": 3916,
  "ĠJapan": 3917,
  "ĠTre": 3918,
  "Ġthreat": 3919,
  "ĠCoun": 3920,
  "Ġcit": 3921,
  "Ġaren": 3922,
  "ĠMor": 3923,
  "encies": 3924,
  "Ġwine": 3925,
  "Ġstick": 3926,
  "Ġlines": 3927,
  "Ġdeliver": 3928,
  "Ġexecut": 3929,
  "mm": 3930,
  "ĠStr": 3931,
  "ĠMod": 3932,
  "Ġreplace": 3933,
  "Ġgun": 3934,
  "Ġconnection": 3935,
  "Ġtrou": 3936,
  "ĠCanada": 3937,
  "Ġbur": 3938,
  "ĠPort": 3939,
  "Ġeconomic": 3940,
  "Ġextend": 3941,
  "ait": 3942,
  "Ġdisapp": 3943,
  "Ġinstru": 3944,
  "vant": 3945,
  "Ġassess": 3946,
  "ford": 3947,
  "Ġâ": 3948,
  "ĠAny": 3949,
  "ĠJes": 3950,
  "Ġahead": 3951,
  "Ġhealthy": 3952,
  "ago": 3953,
  "zy": 3954,
  "ustain": 3955,
  "with": 3956,
  "Ġresponsible": 3957,
  "istics": 3958,
  "ĠMichael": 3959,
  "Ġstar": 3960,
  "35": 3961,
  "Ġblue": 3962,
  "ĠEast": 3963,
  "Ġcalls": 3964,
  "Ġpow": 3965,
  "Ġsolutions": 3966,
  "Ġanaly": 3967,
  "Some": 3968,
  "Ġfem": 3969,
  "Ġgain": 3970,
  "Ġpoor": 3971,
  "Ġkept": 3972,
  "Ġund": 3973,
  "Ġ2019": 3974,
  "mat": 3975,
  "dom": 3976,
  "Ġsurround": 3977,
  "osing": 3978,
  "BC": 3979,
  "100": 3980,
  "Ġofficial": 3981,
  "itors": 3982,
  "ipped": 3983,
  "ĠGet": 3984,
  "aling": 3985,
  "Ġconnect": 3986,
  "Ġguys": 3987,
  "Ġstatus": 3988,
  "ĠDesign": 3989,
  "isl": 3990,
  "ĠThomas": 3991,
  "Ġtruck": 3992,
  "Ġgas": 3993,
  "Ġmiddle": 3994,
  "ties": 3995,
  "Ġprofession": 3996,
  "Ġadvantage": 3997,
  "coming": 3998,
  "Ġdemon": 3999,
  "pm": 4000,
  "Ġrank": 4001,
  "ĠCamp": 4002,
  "ĠMarket": 4003,
  "Ġexpert": 4004,
  "Ġfollowed": 4005,
  "Ġreviews": 4006,
  "pen": 4007,
  "ĠBoard": 4008,
  "inate": 4009,
  "26": 4010,
  "iend": 4011,
  "Ġcold": 4012,
  "Ġlots": 4013,
  "ĠOffice": 4014,
  "Please": 4015,
  "ĠAnt": 4016,
  "itude": 4017,
  "ums": 4018,
  "Ġsweet": 4019,
  "45": 4020,
  "While": 4021,
  "ĠMac": 4022,
  "Ġenh": 4023,
  "orage": 4024,
  "Ġlik": 4025,
  "Ġgradu": 4026,
  "Ġesc": 4027,
  "Ġworkers": 4028,
  "ĠServices": 4029,
  "Ġden": 4030,
  "Ġoffering": 4031,
  "Ġframe": 4032,
  "ĠDevelop": 4033,
  "Is": 4034,
  "CH": 4035,
  "Ġserver": 4036,
  "ĠOver": 4037,
  "ffee": 4038,
  "vere": 4039,
  "Ġoccas": 4040,
  "Ġonto": 4041,
  "ico": 4042,
  "Ġposted": 4043,
  "De": 4044,
  "ĠBest": 4045,
  "Ġdamage": 4046,
  "Ar": 4047,
  "Ġguy": 4048,
  "end": 4049,
  "care": 4050,
  "Ġafford": 4051,
  "Ġshipping": 4052,
  "Ġschools": 4053,
  "Ġcore": 4054,
  "ĠPal": 4055,
  "Ġmechan": 4056,
  "Ġsociety": 4057,
  "Ġapprec": 4058,
  "Ġcamera": 4059,
  "Ġmachine": 4060,
  ".|": 4061,
  "ube": 4062,
  "Ġjoin": 4063,
  "Ġunderstanding": 4064,
  "ences": 4065,
  "ategy": 4066,
  "vision": 4067,
  "ĠInter": 4068,
  "using": 4069,
  "ried": 4070,
  "Ġcoach": 4071,
  "ĠEduc": 4072,
  "phone": 4073,
  "Ġ31": 4074,
  "Ġbeyond": 4075,
  "ĠMart": 4076,
  "Ġdegree": 4077,
  "mod": 4078,
  "ota": 4079,
  "LE": 4080,
  "acity": 4081,
  "Ġsale": 4082,
  "Ġlock": 4083,
  "ĠSur": 4084,
  "ĠWork": 4085,
  "ĠPaul": 4086,
  "Ġaccur": 4087,
  "Ġeasier": 4088,
  "áĢ": 4089,
  "From": 4090,
  "iny": 4091,
  "Ġadjust": 4092,
  "Ġincred": 4093,
  "Ġcompl": 4094,
  "Ġliter": 4095,
  "Ġletter": 4096,
  "Ġgenerally": 4097,
  "ervation": 4098,
  "Ġknows": 4099,
  "entially": 4100,
  "ĠEngine": 4101,
  "Ġlaws": 4102,
  "Ġguide": 4103,
  "ĠGold": 4104,
  "Ġtruth": 4105,
  "Ġleader": 4106,
  "Do": 4107,
  "29": 4108,
  "iar": 4109,
  "aming": 4110,
  "ĠBook": 4111,
  "Ġobv": 4112,
  "Ġcancer": 4113,
  "Ġfan": 4114,
  "Ġattract": 4115,
  "Ġseemed": 4116,
  "OV": 4117,
  "ĠMany": 4118,
  "ĠForm": 4119,
  "Ġfab": 4120,
  "Ġopening": 4121,
  "Ġsetting": 4122,
  "Not": 4123,
  "oto": 4124,
  "Ġsteps": 4125,
  "odes": 4126,
  "Ġplaced": 4127,
  "Ġspread": 4128,
  "ĠFrench": 4129,
  "Ġdouble": 4130,
  "Ġinjury": 4131,
  "ĠOF": 4132,
  "Ð¾": 4133,
  "Ġactive": 4134,
  "UR": 4135,
  "Ġbehavior": 4136,
  "inion": 4137,
  "Ġcontinued": 4138,
  "Ġmur": 4139,
  "actions": 4140,
  "Ġelectric": 4141,
  "mpt": 4142,
  "ĠScience": 4143,
  "iment": 4144,
  "Ġbackground": 4145,
  "Ġhappens": 4146,
  "ĠClass": 4147,
  "Ġmeant": 4148,
  "Ġtraffic": 4149,
  "ij": 4150,
  "Ġevidence": 4151,
  "Ġrequires": 4152,
  "akers": 4153,
  "Ġactual": 4154,
  "Ġstrateg": 4155,
  "Ġcry": 4156,
  "Ġbreat": 4157,
  "Phone": 4158,
  "edding": 4159,
  "500": 4160,
  "Ġbirth": 4161,
  "Ġgift": 4162,
  "Ġrefer": 4163,
  "uman": 4164,
  "ĠPress": 4165,
  "Ġassociated": 4166,
  "Ġexpand": 4167,
  "Ġchem": 4168,
  "Ġregion": 4169,
  "dule": 4170,
  "ifying": 4171,
  "Ġresist": 4172,
  "Ġstudies": 4173,
  "Ġpsych": 4174,
  "Ġdetermine": 4175,
  "Ġtoward": 4176,
  "Ġvehicle": 4177,
  "Ġlength": 4178,
  "CT": 4179,
  "Ġur": 4180,
  "Ġhospital": 4181,
  "Ġpicture": 4182,
  "yright": 4183,
  "?\"": 4184,
  "Ġboo": 4185,
  "Ġpatient": 4186,
  "Ġrestrict": 4187,
  "ĠResearch": 4188,
  "Ġguarant": 4189,
  "Ġmovement": 4190,
  "Ġthanks": 4191,
  "gn": 4192,
  "Ġ80": 4193,
  "33": 4194,
  "inder": 4195,
  "Ġeconomy": 4196,
  "Ġselection": 4197,
  "ĠCong": 4198,
  "Ġacadem": 4199,
  "ĠDist": 4200,
  "Ġrare": 4201,
  "icip": 4202,
  "ga": 4203,
  "Ġstandards": 4204,
  "ĠInformation": 4205,
  "Ġgrand": 4206,
  "Ġlargest": 4207,
  "iller": 4208,
  "iel": 4209,
  "hips": 4210,
  "Ġsuff": 4211,
  "cont": 4212,
  "ĠEngland": 4213,
  "ĠTom": 4214,
  "ooth": 4215,
  "Ġcast": 4216,
  "ĠMal": 4217,
  "que": 4218,
  "??": 4219,
  "Ġproduced": 4220,
  "gal": 4221,
  "ĠSpr": 4222,
  "Ġwhatever": 4223,
  "Ġbasis": 4224,
  "Ġconference": 4225,
  "ĠAustralia": 4226,
  "Ġserved": 4227,
  "osure": 4228,
  "ifts": 4229,
  "Ġpartner": 4230,
  "Ġgirls": 4231,
  "Ġfiles": 4232,
  "Ġsenior": 4233,
  "ĠStar": 4234,
  "Ġ2018": 4235,
  "alls": 4236,
  "Ġprotection": 4237,
  "Ġwat": 4238,
  "amm": 4239,
  "ĠEuropean": 4240,
  "Ġmicro": 4241,
  "Â®": 4242,
  "Ġdescribed": 4243,
  "Ġextremely": 4244,
  "Ġdecl": 4245,
  "Ġfaith": 4246,
  "Ġthr": 4247,
  "ĠSystem": 4248,
  "Ġconstruction": 4249,
  "cks": 4250,
  "More": 4251,
  "ĠMiss": 4252,
  "opped": 4253,
  "orney": 4254,
  "ĠIr": 4255,
  "Ġfigure": 4256,
  "ĠJames": 4257,
  "Ġsimulated": 4258,
  "Ġdoll": 4259,
  "oman": 4260,
  "Ġappropriate": 4261,
  "Ġlabor": 4262,
  "Ġadvice": 4263,
  "ĠHist": 4264,
  "ĠGovern": 4265,
  "ĠParis": 4266,
  "ĠWhy": 4267,
  "ĠRob": 4268,
  "ulf": 4269,
  "Ġnut": 4270,
  "inally": 4271,
  "Ġunit": 4272,
  "MS": 4273,
  "ĠRE": 4274,
  "Ġfurn": 4275,
  "Ġpassed": 4276,
  "Ġclaims": 4277,
  "ĠManagement": 4278,
  "Ġhelping": 4279,
  "unn": 4280,
  "Ġthank": 4281,
  "Ġpopulation": 4282,
  "ologies": 4283,
  "Ġdied": 4284,
  "overy": 4285,
  "Ġlearned": 4286,
  "ĠHel": 4287,
  "ĠSl": 4288,
  "Ġpeace": 4289,
  "fortun": 4290,
  "ĠJer": 4291,
  "Ġearn": 4292,
  "men": 4293,
  "sey": 4294,
  "ĠRoad": 4295,
  "fast": 4296,
  "ĠBill": 4297,
  "Ġnotice": 4298,
  "ĠLeague": 4299,
  "Ġtruly": 4300,
  "oving": 4301,
  "ancing": 4302,
  "ĠDemocr": 4303,
  "65": 4304,
  "estival": 4305,
  "standing": 4306,
  "Ġwindow": 4307,
  "ĠBank": 4308,
  "Ġbottom": 4309,
  "Ġearth": 4310,
  "LC": 4311,
  "Ġdriving": 4312,
  "Ġstation": 4313,
  "Ġbecomes": 4314,
  "ĠWindows": 4315,
  "ĠSpec": 4316,
  "Ġheavy": 4317,
  "Ġregarding": 4318,
  "hens": 4319,
  "ĠMicrosoft": 4320,
  "ĠFound": 4321,
  "Ġmanage": 4322,
  "Ġpayment": 4323,
  "istered": 4324,
  "Ġolder": 4325,
  "Ġban": 4326,
  "ĠCouncil": 4327,
  "These": 4328,
  "ugg": 4329,
  "Ġthousands": 4330,
  "Ġguess": 4331,
  "Ġsand": 4332,
  "imal": 4333,
  "Ġbrother": 4334,
  "Ġ*": 4335,
  "Ġoperations": 4336,
  "ading": 4337,
  "Ġchallenges": 4338,
  "itar": 4339,
  "Ġrepe": 4340,
  "Ġcaused": 4341,
  "Ġgar": 4342,
  "lands": 4343,
  "ĠWednesday": 4344,
  "Ġpropos": 4345,
  "uled": 4346,
  "Ġretail": 4347,
  "ented": 4348,
  "Ġborn": 4349,
  "May": 4350,
  "OW": 4351,
  "aper": 4352,
  "Ġ90": 4353,
  "izz": 4354,
  "iture": 4355,
  "roy": 4356,
  "ĠRich": 4357,
  "Ġprincip": 4358,
  "Ġremains": 4359,
  "Ġtherefore": 4360,
  "Ġclot": 4361,
  "Ġ2005": 4362,
  "ĠEach": 4363,
  "Ġcovered": 4364,
  "Ġanimals": 4365,
  "Ġship": 4366,
  "Ġestim": 4367,
  "ses": 4368,
  "Ġreb": 4369,
  "Don": 4370,
  "Ġhus": 4371,
  "Ġruns": 4372,
  "Ġlimit": 4373,
  "esome": 4374,
  "ros": 4375,
  "ĠLife": 4376,
  "Ġcivil": 4377,
  "udd": 4378,
  "owl": 4379,
  "ĠSam": 4380,
  "Ġscient": 4381,
  "lant": 4382,
  "Ġrecords": 4383,
  "Ġir": 4384,
  "Ġplus": 4385,
  "ports": 4386,
  "issions": 4387,
  "icks": 4388,
  "roud": 4389,
  "Ġpieces": 4390,
  "Ġ<": 4391,
  "vin": 4392,
  "ils": 4393,
  "ĠCheck": 4394,
  "Ġlayer": 4395,
  "osition": 4396,
  "state": 4397,
  "ĠOh": 4398,
  "Ġtaxes": 4399,
  "Ġrevenue": 4400,
  "Ġfashion": 4401,
  "raw": 4402,
  "Ġdaughter": 4403,
  "Ġappears": 4404,
  "Ġaudience": 4405,
  "Ġentertain": 4406,
  "ĠChurch": 4407,
  "berg": 4408,
  "ĠCap": 4409,
  "ĠSee": 4410,
  "ula": 4411,
  "Ġwear": 4412,
  "ĠRober": 4413,
  "esterday": 4414,
  "Ġsupply": 4415,
  "Ġorganizations": 4416,
  "Ġassign": 4417,
  "iers": 4418,
  "ĠGeneral": 4419,
  "ads": 4420,
  "irgin": 4421,
  "Ġselected": 4422,
  "ipl": 4423,
  "DA": 4424,
  "Ġgrant": 4425,
  "omer": 4426,
  "ocal": 4427,
  "Ġbiggest": 4428,
  "Ġshowed": 4429,
  "omb": 4430,
  "porary": 4431,
  "CC": 4432,
  "Ġmonitor": 4433,
  "ucky": 4434,
  "Ġmist": 4435,
  "ĠRem": 4436,
  "ĠAnn": 4437,
  "Ġpresentation": 4438,
  "win": 4439,
  "ĠSince": 4440,
  "Ġreturned": 4441,
  "Ġpal": 4442,
  "Ġseeing": 4443,
  "anging": 4444,
  "oves": 4445,
  "rowd": 4446,
  "ĠBre": 4447,
  "Cont": 4448,
  "Ġton": 4449,
  "Ġingred": 4450,
  "uries": 4451,
  "ĠMS": 4452,
  "Ġspending": 4453,
  "Ġevening": 4454,
  "ildren": 4455,
  "Or": 4456,
  "ĠCr": 4457,
  "Ġiniti": 4458,
  "Ġvolunte": 4459,
  "Ġcompetition": 4460,
  "reek": 4461,
  "ette": 4462,
  "ĠMat": 4463,
  "Ġbought": 4464,
  "Ġbeat": 4465,
  "ĠJesus": 4466,
  "right": 4467,
  "ĠNY": 4468,
  "mail": 4469,
  "Ġstreet": 4470,
  "osis": 4471,
  "ĠObama": 4472,
  "34": 4473,
  "Ġlinks": 4474,
  "Ġestablished": 4475,
  "Ġevaluation": 4476,
  "fin": 4477,
  "ĠBecause": 4478,
  "Ġgraph": 4479,
  "Ġstream": 4480,
  "Ġsports": 4481,
  "ĠPublic": 4482,
  "Ġsecret": 4483,
  "box": 4484,
  "Ġlands": 4485,
  "Ġreality": 4486,
  "Ġcalc": 4487,
  "Ġmajority": 4488,
  "ĠUSA": 4489,
  "Ġefforts": 4490,
  "Ġshopping": 4491,
  "ĠSub": 4492,
  "Ġappoint": 4493,
  "eed": 4494,
  "ĠPeople": 4495,
  "Ġchann": 4496,
  "ĠTy": 4497,
  "pective": 4498,
  "ĠSum": 4499,
  "Ġestablish": 4500,
  "ĠClub": 4501,
  "Ġestate": 4502,
  "Ġcompon": 4503,
  "rapy": 4504,
  "Ġsurface": 4505,
  "Ġcopy": 4506,
  "Ġlarger": 4507,
  "ĠVol": 4508,
  "ĠPC": 4509,
  "text": 4510,
  "Ġmission": 4511,
  "Ġposts": 4512,
  "Ġexplore": 4513,
  "ption": 4514,
  "Your": 4515,
  "Con": 4516,
  "Ġbattle": 4517,
  "oices": 4518,
  "Ġaim": 4519,
  "Ġrob": 4520,
  "IP": 4521,
  "Ġindependent": 4522,
  "Ġcomfortable": 4523,
  "Ġbrows": 4524,
  "Ġupdate": 4525,
  "ishes": 4526,
  "Ġ197": 4527,
  "Ġforms": 4528,
  "amic": 4529,
  "itness": 4530,
  "ĠUnder": 4531,
  "Ġcatch": 4532,
  "ooper": 4533,
  "aced": 4534,
  "ĠSpe": 4535,
  "Ġpictures": 4536,
  "Ġrap": 4537,
  "ĠMain": 4538,
  "ĠTwitter": 4539,
  "erg": 4540,
  "Ġstrength": 4541,
  "Ġvalues": 4542,
  "ĠLake": 4543,
  "azon": 4544,
  "ĠHot": 4545,
  "ĠBay": 4546,
  "ooking": 4547,
  "ception": 4548,
  "ĠSun": 4549,
  "Ab": 4550,
  "ression": 4551,
  "ĠDec": 4552,
  "ĠIT": 4553,
  "Ġunc": 4554,
  "Ġmilitary": 4555,
  "place": 4556,
  "Ġexperienced": 4557,
  "AA": 4558,
  "Ġrich": 4559,
  "Ġlaunch": 4560,
  "Ġharm": 4561,
  "Ġagreement": 4562,
  "inn": 4563,
  "Ġegg": 4564,
  "Ġnames": 4565,
  "ellow": 4566,
  "ĠBen": 4567,
  "iest": 4568,
  "Ġbalance": 4569,
  "free": 4570,
  "Ġtransfer": 4571,
  "Ġwonderful": 4572,
  "ĠOnce": 4573,
  "âĢĿ,": 4574,
  "last": 4575,
  "Ġwhom": 4576,
  "know": 4577,
  "Ġfill": 4578,
  "Ġclosed": 4579,
  "Ġbrief": 4580,
  "ĠRel": 4581,
  "Ġalb": 4582,
  "enses": 4583,
  "Ġter": 4584,
  "ĠCommission": 4585,
  "__": 4586,
  "Ġadding": 4587,
  "Ġhighest": 4588,
  "Ġconnected": 4589,
  "Ġran": 4590,
  "Ġforest": 4591,
  "Ġcharacters": 4592,
  "Ġseat": 4593,
  "Ġexperiences": 4594,
  "oma": 4595,
  "fit": 4596,
  "Ġsolid": 4597,
  "orpor": 4598,
  "Ġhom": 4599,
  "Post": 4600,
  "Ġsustain": 4601,
  "ĠUse": 4602,
  "icing": 4603,
  "roid": 4604,
  "life": 4605,
  "Ġofficials": 4606,
  "ero": 4607,
  "ĠPlay": 4608,
  "Ġdefense": 4609,
  "Ġcoverage": 4610,
  "ĠMil": 4611,
  "cel": 4612,
  "Ġcitiz": 4613,
  "Ġpros": 4614,
  "Ġstrategy": 4615,
  "Ġconven": 4616,
  "Ġcontroll": 4617,
  "Ġadop": 4618,
  "Ġelements": 4619,
  "Ġbath": 4620,
  "Ġcontinues": 4621,
  "Ġsympt": 4622,
  "Ġwaiting": 4623,
  "Ġsouth": 4624,
  "Ġkeeping": 4625,
  "ĠPerson": 4626,
  "ĠWater": 4627,
  "coh": 4628,
  "Ġnumer": 4629,
  "Ġscen": 4630,
  "Ġenvironmental": 4631,
  "oyal": 4632,
  "Ġclearly": 4633,
  "Ġapparent": 4634,
  "Ġfinding": 4635,
  "itz": 4636,
  "ĠEducation": 4637,
  "Ġprimary": 4638,
  "Ġslightly": 4639,
  "ander": 4640,
  "asp": 4641,
  "lla": 4642,
  "Ġcorner": 4643,
  "Ġseparate": 4644,
  "Ġsurvey": 4645,
  "Ġdanger": 4646,
  "Ġfant": 4647,
  "Ġbutton": 4648,
  "ĠFore": 4649,
  "ION": 4650,
  "IM": 4651,
  "Ġuseful": 4652,
  "Ġtiss": 4653,
  "Ġpleas": 4654,
  "Ġdemonstr": 4655,
  "hy": 4656,
  "riage": 4657,
  "Ġhonest": 4658,
  "Ġpair": 4659,
  "Ġvision": 4660,
  "ĠConst": 4661,
  "ĠBritish": 4662,
  "ĠCompany": 4663,
  "Ġerr": 4664,
  "ĠWall": 4665,
  "Ġvs": 4666,
  "Ġplants": 4667,
  "Ġupgr": 4668,
  "Ġexhib": 4669,
  "ĠMag": 4670,
  "Ġabsolutely": 4671,
  "Ġice": 4672,
  "Ġanti": 4673,
  "Ġemerg": 4674,
  "Ġcoffee": 4675,
  "Ġpractices": 4676,
  "Ġflex": 4677,
  "ĠMake": 4678,
  "Ġbecoming": 4679,
  "iled": 4680,
  "ĠDan": 4681,
  "ĠAmericans": 4682,
  "Ġplenty": 4683,
  "ĠCarol": 4684,
  "Ġcritical": 4685,
  "ĠYes": 4686,
  ")|": 4687,
  "hab": 4688,
  "Ġtend": 4689,
  "Ġmemory": 4690,
  "aven": 4691,
  "rael": 4692,
  "Ġadvance": 4693,
  "inter": 4694,
  "Ġcreative": 4695,
  "DS": 4696,
  "ĠWomen": 4697,
  "Ġdeveloping": 4698,
  "icon": 4699,
  "Ġsmaller": 4700,
  "Ġdiagn": 4701,
  "Ġcentury": 4702,
  "Ðµ": 4703,
  "Ġcapacity": 4704,
  "hether": 4705,
  "zen": 4706,
  "Ġwilling": 4707,
  "ĠSk": 4708,
  "ror": 4709,
  "ĠPlan": 4710,
  "eal": 4711,
  "Ġtim": 4712,
  "Why": 4713,
  "Ġ70": 4714,
  "ĠTime": 4715,
  "works": 4716,
  "inese": 4717,
  "Ġcontinu": 4718,
  "Ġtesting": 4719,
  "Ġprocessing": 4720,
  ".||": 4721,
  "Ð°": 4722,
  "Ġfish": 4723,
  "Ġcraft": 4724,
  "but": 4725,
  "Ġschedule": 4726,
  "Ġmethods": 4727,
  "igation": 4728,
  "rees": 4729,
  "Ġfunds": 4730,
  "Ġnove": 4731,
  "Ġreflect": 4732,
  "iance": 4733,
  "Ġexplain": 4734,
  "orter": 4735,
  "Ġrecip": 4736,
  "Ġthus": 4737,
  "word": 4738,
  "ĠCare": 4739,
  "ĠIns": 4740,
  "itect": 4741,
  "cient": 4742,
  "Ġalle": 4743,
  "Ġspect": 4744,
  "Ġstorage": 4745,
  "atically": 4746,
  "Ġhearing": 4747,
  "point": 4748,
  "Ġpredict": 4749,
  "ĠTimes": 4750,
  "55": 4751,
  "Ġshut": 4752,
  "Ġlisted": 4753,
  "ĠClick": 4754,
  "night": 4755,
  "Ġfacilities": 4756,
  "Ġfootball": 4757,
  "aked": 4758,
  "Ġartist": 4759,
  "Ġcommunication": 4760,
  "ĠUnion": 4761,
  "Ġthoughts": 4762,
  "Ġcrowd": 4763,
  "Ġforget": 4764,
  "ĠSal": 4765,
  "Bl": 4766,
  "Ġargu": 4767,
  "ĠColor": 4768,
  "Ġanimal": 4769,
  "Ġhusband": 4770,
  "illa": 4771,
  "\",": 4772,
  "ĠFranc": 4773,
  "Ġsounds": 4774,
  "ctors": 4775,
  "Ġended": 4776,
  "Ġowner": 4777,
  "Ad": 4778,
  "Ġspring": 4779,
  "ĠAtt": 4780,
  "Ġvote": 4781,
  "Ġvirt": 4782,
  "ĠHarry": 4783,
  "Ġinternet": 4784,
  "Ġtwice": 4785,
  "Ġoperating": 4786,
  "Ġconductive": 4787,
  "iency": 4788,
  "Ġdedicated": 4789,
  "ĠMer": 4790,
  "Ġfee": 4791,
  "47": 4792,
  "Ġkilled": 4793,
  "gment": 4794,
  "Ġweather": 4795,
  "Ġotherwise": 4796,
  "ĠAND": 4797,
  "ournament": 4798,
  "IR": 4799,
  "Ġessential": 4800,
  "Ġleaving": 4801,
  "ferences": 4802,
  "Get": 4803,
  "Ġdelic": 4804,
  "Ġsigned": 4805,
  "Ġfilled": 4806,
  "Ġdecide": 4807,
  "ĠJew": 4808,
  "Ġ>": 4809,
  "Ġdirection": 4810,
  "ĠSocial": 4811,
  "Ġwelcome": 4812,
  "Ġshowing": 4813,
  "Ġthrow": 4814,
  "Ġrelax": 4815,
  "yer": 4816,
  "Ġcollabor": 4817,
  "Ġcommunities": 4818,
  "ĠCongress": 4819,
  "Ġappeared": 4820,
  "usion": 4821,
  "Ġsecure": 4822,
  "ĠAP": 4823,
  "Last": 4824,
  "Every": 4825,
  "uality": 4826,
  "icians": 4827,
  "ourney": 4828,
  "Ġfreed": 4829,
  "ĠInstitute": 4830,
  "Ġexcited": 4831,
  "rack": 4832,
  "tr": 4833,
  "ĠiPhone": 4834,
  "cious": 4835,
  "Ġwedding": 4836,
  "ena": 4837,
  "Ġpoly": 4838,
  "semb": 4839,
  "ĠGeorge": 4840,
  "how": 4841,
  "Ġmanaged": 4842,
  "Ġtechnical": 4843,
  "ĠDevelopment": 4844,
  "inating": 4845,
  "ĠRiver": 4846,
  "Ġlose": 4847,
  "Ġsession": 4848,
  "Ġagency": 4849,
  "SA": 4850,
  "ari": 4851,
  "Ġpoll": 4852,
  "Ġ45": 4853,
  "Ġfruit": 4854,
  "while": 4855,
  "ĠProfess": 4856,
  "Ġworry": 4857,
  "Ġign": 4858,
  "Ġride": 4859,
  "RA": 4860,
  "ĠRock": 4861,
  "Ġleadership": 4862,
  "ixt": 4863,
  "âĢĺ": 4864,
  "Ġleaves": 4865,
  "EM": 4866,
  "Ġcream": 4867,
  "rical": 4868,
  "arried": 4869,
  "ĠIsrael": 4870,
  "Ġdiscussion": 4871,
  "Ġdete": 4872,
  "Ġutil": 4873,
  "Ġprocedure": 4874,
  "Ġcombination": 4875,
  "Ġdriver": 4876,
  "Ġproud": 4877,
  "Ġexclus": 4878,
  "enture": 4879,
  "Ġmentioned": 4880,
  "App": 4881,
  "Ġdespite": 4882,
  "Ġdinner": 4883,
  "ĠLou": 4884,
  "Ġaudio": 4885,
  "ĠSol": 4886,
  "Ġtaste": 4887,
  "Ġdepartment": 4888,
  "Ġelast": 4889,
  "Ġpassion": 4890,
  "Ġoutd": 4891,
  "Ġintended": 4892,
  "Ġseek": 4893,
  "tenance": 4894,
  "ĠLike": 4895,
  "ĠSociety": 4896,
  "Ġeth": 4897,
  "Ġbrings": 4898,
  "Ġgeneration": 4899,
  "ĠMem": 4900,
  "ye": 4901,
  "Ġfol": 4902,
  "Ġvan": 4903,
  "imb": 4904,
  "Ġfourth": 4905,
  "Ġflu": 4906,
  "Well": 4907,
  "Ġparking": 4908,
  "friend": 4909,
  "ae": 4910,
  "Ġlegisl": 4911,
  "Ġadapt": 4912,
  "Ġneck": 4913,
  "Ġdiet": 4914,
  "rested": 4915,
  "ĠFood": 4916,
  "Ġsched": 4917,
  "Ġremove": 4918,
  "Ġfunding": 4919,
  "ĠJournal": 4920,
  ");": 4921,
  "Ġfactors": 4922,
  "poses": 4923,
  "amin": 4924,
  "Ġshared": 4925,
  "ĠDet": 4926,
  "ĠHD": 4927,
  "lor": 4928,
  "Ġepis": 4929,
  "arge": 4930,
  "Ġmostly": 4931,
  "Ġparties": 4932,
  "Ġpresented": 4933,
  "ĠDown": 4934,
  "Ġdesk": 4935,
  "Ġcris": 4936,
  "ĠPot": 4937,
  "rey": 4938,
  "Ġimpl": 4939,
  "ENT": 4940,
  "Ġhomes": 4941,
  "Ġplays": 4942,
  "Ġapprox": 4943,
  "Ġshock": 4944,
  "Ġrat": 4945,
  "olly": 4946,
  "rim": 4947,
  "which": 4948,
  "ĠTO": 4949,
  "Ġassistance": 4950,
  "amily": 4951,
  "ĠRet": 4952,
  "outs": 4953,
  "ideo": 4954,
  "Ġarm": 4955,
  "Ġclassic": 4956,
  "Ġdiscover": 4957,
  "Ġfamous": 4958,
  "Ġkick": 4959,
  "Ġtransport": 4960,
  "that": 4961,
  "ona": 4962,
  "cher": 4963,
  "VD": 4964,
  "Ġpm": 4965,
  "Ġbuying": 4966,
  "ĠWil": 4967,
  "ternal": 4968,
  "ĠLord": 4969,
  "Ġteaching": 4970,
  "ĠDirector": 4971,
  "Ġbul": 4972,
  "arry": 4973,
  "Ġeating": 4974,
  "Ġvisual": 4975,
  "ĠTop": 4976,
  "Ġcru": 4977,
  "36": 4978,
  "Ġjournal": 4979,
  "Ġconfig": 4980,
  "gl": 4981,
  "Ġmeasures": 4982,
  "ĠCam": 4983,
  "Ġwinter": 4984,
  "Ġfeedback": 4985,
  "Ġresidents": 4986,
  "Ġideal": 4987,
  "Ġformat": 4988,
  "Ġwalking": 4989,
  "Ġbroken": 4990,
  "SP": 4991,
  "Ġkid": 4992,
  "ĠCD": 4993,
  "tion": 4994,
  "Ġcab": 4995,
  "ĠWay": 4996,
  "bert": 4997,
  "IV": 4998,
  "Ġcart": 4999
}