{
  "<|endoftext|>": 0,
  "!": 1,
  "\"": 2,
  "#": 3,
  "$": 4,
  "%": 5,
  "&": 6,
  "'": 7,
  "(": 8,
  ")": 9,
  "*": 10,
  "+": 11,
  ",": 12,
  "-": 13,
  ".": 14,
  "/": 15,
  "0": 16,
  "1": 17,
  "2": 18,
  "3": 19,
  "4": 20,
  "5": 21,
  "6": 22,
  "7": 23,
  "8": 24,
  "9": 25,
  ":": 26,
  ";": 27,
  "<": 28,
  "=": 29,
  ">": 30,
  "?": 31,
  "@": 32,
  "A": 33,
  "B": 34,
  "C": 35,
  "D": 36,
  "E": 37,
  "F": 38,
  "G": 39,
  "H": 40,
  "I": 41,
  "J": 42,
  "K": 43,
  "L": 44,
  "M": 45,
  "N": 46,
  "O": 47,
  "P": 48,
  "Q": 49,
  "R": 50,
  "S": 51,
  "T": 52,
  "U": 53,
  "V": 54,
  "W": 55,
  "X": 56,
  "Y": 57,
  "Z": 58,
  "[": 59,
  "\\": 60,
  "]": 61,
  "^": 62,
  "_": 63,
  "`": 64,
  "a": 65,
  "b": 66,
  "c": 67,
  "d": 68,
  "e": 69,
  "f": 70,
  "g": 71,
  "h": 72,
  "i": 73,
  "j": 74,
  "k": 75,
  "l": 76,
  "m": 77,
  "n": 78,
  "o": 79,
  "p": 80,
  "q": 81,
  "r": 82,
  "s": 83,
  "t": 84,
  "u": 85,
  "v": 86,
  "w": 87,
  "x": 88,
  "y": 89,
  "z": 90,
  "|": 91,
  "}": 92,
  "~": 93,
  "¡": 94,
  "¢": 95,
  "£": 96,
  "¤": 97,
  "¥": 98,
  "¦": 99,
  "§": 100,
  "¨": 101,
  "©": 102,
  "ª": 103,
  "«": 104,
  "¬": 105,
  "®": 106,
  "¯": 107,
  "°": 108,
  "±": 109,
  "²": 110,
  "³": 111,
  "´": 112,
  "µ": 113,
  "¶": 114,
  "·": 115,
  "¸": 116,
  "¹": 117,
  "º": 118,
  "»": 119,
  "¼": 120,
  "½": 121,
  "¾": 122,
  "¿": 123,
  "Â": 124,
  "Ã": 125,
  "Ä": 126,
  "Å": 127,
  "Æ": 128,
  "Ç": 129,
  "È": 130,
  "É": 131,
  "Ê": 132,
  "Ë": 133,
  "Ì": 134,
  "Í": 135,
  "Î": 136,
  "Ï": 137,
  "Ð": 138,
  "Ñ": 139,
  "Ò": 140,
  "Ó": 141,
  "Ô": 142,
  "Õ": 143,
  "Ö": 144,
  "×": 145,
  "Ø": 146,
  "Ù": 147,
  "Ú": 148,
  "Û": 149,
  "ß": 150,
  "à": 151,
  "á": 152,
  "â": 153,
  "ã": 154,
  "ä": 155,
  "å": 156,
  "æ": 157,
  "ç": 158,
  "è": 159,
  "é": 160,
  "ê": 161,
  "ë": 162,
  "ì": 163,
  "í": 164,
  "ï": 165,
  "ð": 166,
  "Ċ": 167,
  "Ġ": 168,
  "Ģ": 169,
  "ģ": 170,
  "Ĥ": 171,
  "ĥ": 172,
  "Ħ": 173,
  "ħ": 174,
  "Ĩ": 175,
  "ĩ": 176,
  "Ī": 177,
  "ī": 178,
  "Ĭ": 179,
  "ĭ": 180,
  "Į": 181,
  "į": 182,
  "İ": 183,
  "ı": 184,
  "Ĳ": 185,
  "ĳ": 186,
  "Ĵ": 187,
  "ĵ": 188,
  "Ķ": 189,
  "ķ": 190,
  "ĸ": 191,
  "Ĺ": 192,
  "ĺ": 193,
  "Ļ": 194,
  "ļ": 195,
  "Ľ": 196,
  "ľ": 197,
  "Ŀ": 198,
  "ŀ": 199,
  "Ł": 200,
  "ł": 201,
  "Ń": 202,
  "Ġt": 203,
  "Ġa": 204,
  "in": 205,
  "he": 206,
  "re": 207,
  "on": 208,
  "Ġthe": 209,
  "er": 210,
  "Ġs": 211,
  "Ġw": 212,
  "at": 213,
  "Ġo": 214,
  "nd": 215,
  "Ġc": 216,
  "it": 217,
  "or": 218,
  "es": 219,
  "is": 220,
  "en": 221,
  "ou": 222,
  "Ġf": 223,
  "Ġb": 224,
  "ing": 225,
  "Ġp": 226,
  "ed": 227,
  "an": 228,
  "al": 229,
  "Ġto": 230,
  "Ġm": 231,
  "ar": 232,
  "Ġand": 233,
  "Ġof": 234,
  "Ġin": 235,
  "Ġd": 236,
  "ic": 237,
  "le": 238,
  "Ġh": 239,
  "as": 240,
  "om": 241,
  "ion": 242,
  "Ġth": 243,
  "ll": 244,
  "âĢ": 245,
  "ent": 246,
  "Ġl": 247,
  "ve": 248,
  "Ġe": 249,
  "st": 250,
  "Ġre": 251,
  "Ġn": 252,
  "ro": 253,
  "Ġy": 254,
  "Ġg": 255,
  "ly": 256,
  "ĠI": 257,
  "ct": 258,
  "Ġbe": 259,
  "ĠT": 260,
  "ut": 261,
  "et": 262,
  "ot": 263,
  "Ġis": 264,
  "Ġyou": 265,
  "ĠS": 266,
  "id": 267,
  "Ġon": 268,
  "ay": 269,
  "Ġfor": 270,
  "ow": 271,
  "ĠA": 272,
  "ur": 273,
  "ĠC": 274,
  "se": 275,
  "im": 276,
  "ig": 277,
  "ad": 278,
  "ce": 279,
  "am": 280,
  "ver": 281,
  "Ġthat": 282,
  "Ġu": 283,
  "ch": 284,
  "il": 285,
  "ith": 286,
  "Ġst": 287,
  "ation": 288,
  "ol": 289,
  "ir": 290,
  "Ġwith": 291,
  "âĢĻ": 292,
  "ĠM": 293,
  "Ġit": 294,
  "Ġhe": 295,
  "Ġwe": 296,
  "ra": 297,
  "ĠP": 298,
  "Ġwh": 299,
  "ĠB": 300,
  "Ġan": 301,
  "Ġas": 302,
  "ill": 303,
  "ers": 304,
  "ke": 305,
  "if": 306,
  "Ġpro": 307,
  "ter": 308,
  "Ġare": 309,
  "Ġha": 310,
  "ge": 311,
  "ĠW": 312,
  "Ġcon": 313,
  "ld": 314,
  "oo": 315,
  "her": 316,
  "ul": 317,
  "Ġor": 318,
  "ate": 319,
  "ĠH": 320,
  "ess": 321,
  "pp": 322,
  "ĠD": 323,
  "ck": 324,
  "Ġat": 325,
  "Ġse": 326,
  "Ġcom": 327,
  "ment": 328,
  "ore": 329,
  "ri": 330,
  "est": 331,
  "ĠThe": 332,
  "Ġde": 333,
  "ĠF": 334,
  "us": 335,
  "Ġ1": 336,
  "ĠR": 337,
  "igh": 338,
  "ab": 339,
  "th": 340,
  "Ġwas": 341,
  "Ġ(": 342,
  "rom": 343,
  "ist": 344,
  "Ġ2": 345,
  "Ġne": 346,
  "pe": 347,
  "Ġex": 348,
  "un": 349,
  "ĠL": 350,
  "ant": 351,
  "ity": 352,
  "res": 353,
  "Ġsu": 354,
  "qu": 355,
  "Ġv": 356,
  "ive": 357,
  "op": 358,
  "em": 359,
  "Ġhave": 360,
  "Ġr": 361,
  "ort": 362,
  "ĠâĢ": 363,
  "ĠG": 364,
  "ĠN": 365,
  "ain": 366,
  "Ġyour": 367,
  "art": 368,
  "Ġthis": 369,
  "ĠE": 370,
  "ust": 371,
  "Ġnot": 372,
  "Ġfrom": 373,
  "um": 374,
  "nt": 375,
  "Ġsh": 376,
  "el": 377,
  "os": 378,
  "ies": 379,
  "and": 380,
  "Ġal": 381,
  "Ġby": 382,
  "ight": 383,
  "Ġch": 384,
  "Ġcan": 385,
  "Ġle": 386,
  "all": 387,
  "ome": 388,
  "ĠO": 389,
  "ie": 390,
  "ard": 391,
  "out": 392,
  "Ġwill": 393,
  "ould": 394,
  "ud": 395,
  "Ġdo": 396,
  "Ġab": 397,
  "red": 398,
  "our": 399,
  "iv": 400,
  "Ġwor": 401,
  "gh": 402,
  "ost": 403,
  "00": 404,
  "ally": 405,
  "te": 406,
  "od": 407,
  "Ġpl": 408,
  "'s": 409,
  "Ġall": 410,
  "ĠJ": 411,
  "rou": 412,
  "ast": 413,
  "ci": 414,
  "Ġj": 415,
  "ear": 416,
  "ide": 417,
  "ak": 418,
  "ine": 419,
  "The": 420,
  "Ġk": 421,
  "ure": 422,
  "ag": 423,
  "fe": 424,
  "per": 425,
  "Ġso": 426,
  "Ġhas": 427,
  "pt": 428,
  "Ġme": 429,
  "Ġwhe": 430,
  "Ġbut": 431,
  "ack": 432,
  "âĢĿ": 433,
  "ice": 434,
  "Ġus": 435,
  "ction": 436,
  "age": 437,
  "ac": 438,
  "Ġad": 439,
  "ther": 440,
  "Ġout": 441,
  "ich": 442,
  "Ġcomp": 443,
  "Ġup": 444,
  "ake": 445,
  "ĠU": 446,
  "one": 447,
  "ook": 448,
  "Ġthey": 449,
  "ind": 450,
  "Ġmore": 451,
  "so": 452,
  "are": 453,
  "Ġtheir": 454,
  "og": 455,
  "ry": 456,
  "very": 457,
  "ong": 458,
  "Ġen": 459,
  "able": 460,
  "ime": 461,
  "Ġmy": 462,
  "pl": 463,
  "ated": 464,
  "ood": 465,
  "Ġte": 466,
  "cc": 467,
  "ous": 468,
  "Ġone": 469,
  "Ġhis": 470,
  "ite": 471,
  "ame": 472,
  "iz": 473,
  "ans": 474,
  "Ġcl": 475,
  "ike": 476,
  "ip": 477,
  "Ġsa": 478,
  "Ġabout": 479,
  "Ġwho": 480,
  "orm": 481,
  "Ġim": 482,
  "ĠTh": 483,
  "Ġour": 484,
  "ĠIn": 485,
  "ber": 486,
  "ĠâĢľ": 487,
  "Ġcont": 488,
  "Ġgo": 489,
  "ions": 490,
  "ru": 491,
  "Ġman": 492,
  "cl": 493,
  "Ġfe": 494,
  "ance": 495,
  "ne": 496,
  "du": 497,
  "act": 498,
  "Ġwhich": 499,
  "ĠK": 500,
  "Ġ20": 501,
  "ia": 502,
  "to": 503,
  "ase": 504,
  "Ġres": 505,
  "ail": 506,
  "ib": 507,
  "Ġwork": 508,
  "ign": 509,
  "ire": 510,
  "ĠY": 511,
  "ree": 512,
  "ff": 513,
  "reat": 514,
  "ays": 515,
  "ach": 516,
  "oc": 517,
  "ap": 518,
  "Ġapp": 519,
  "ary": 520,
  "ations": 521,
  "ace": 522,
  "Ġper": 523,
  "ick": 524,
  "ult": 525,
  "Ġother": 526,
  "ven": 527,
  "ep": 528,
  "au": 529,
  "Ġoff": 530,
  "ĠSt": 531,
  "Ġyear": 532,
  "Ġtime": 533,
  "Ġqu": 534,
  "ub": 535,
  "..": 536,
  "ical": 537,
  "ass": 538,
  "Ġsome": 539,
  "Ġlike": 540,
  "ue": 541,
  "Ġany": 542,
  "Ġalso": 543,
  "ile": 544,
  "Ġdis": 545,
  "now": 546,
  "ark": 547,
  "Ġ\"": 548,
  "ount": 549,
  "ove": 550,
  "Ġget": 551,
  "Ġun": 552,
  "ence": 553,
  "ĠV": 554,
  "form": 555,
  "Ġhad": 556,
  "ord": 557,
  "ĠIt": 558,
  "Ġnew": 559,
  "ress": 560,
  "erv": 561,
  "Ġsp": 562,
  "Ġthem": 563,
  "ings": 564,
  "Ġbeen": 565,
  "Ġpart": 566,
  "Ġwere": 567,
  "ĠCh": 568,
  "Ġ3": 569,
  "ond": 570,
  "Ġag": 571,
  "ose": 572,
  "vel": 573,
  "Ġthere": 574,
  "Ġpe": 575,
  "Ġover": 576,
  "Ġwhen": 577,
  "Ġwhat": 578,
  "Ġwould": 579,
  "ition": 580,
  "Ġher": 581,
  "ough": 582,
  "av": 583,
  "ial": 584,
  "Ġar": 585,
  "ents": 586,
  "Ġif": 587,
  "ink": 588,
  "Ġ-": 589,
  "ors": 590,
  "Ġthan": 591,
  "Ġtr": 592,
  "Ġjust": 593,
  "ens": 594,
  "ound": 595,
  "Ġ201": 596,
  "Ġro": 597,
  "Ġpre": 598,
  "port": 599,
  "ild": 600,
  "int": 601,
  "Ġspe": 602,
  "ob": 603,
  "irst": 604,
  "mer": 605,
  "Ġknow": 606,
  "ish": 607,
  "Ġrec": 608,
  "Ġbec": 609,
  "ople": 610,
  "wn": 611,
  "ĠWe": 612,
  "Ġinto": 613,
  "Ġneed": 614,
  "ov": 615,
  "Ġsaid": 616,
  "ren": 617,
  "own": 618,
  "ory": 619,
  "fter": 620,
  "nder": 621,
  "Ġhow": 622,
  "ĠHe": 623,
  "ater": 624,
  "Ġsc": 625,
  "oy": 626,
  "Ġacc": 627,
  "Ġam": 628,
  "rough": 629,
  "lic": 630,
  "itt": 631,
  "ade": 632,
  "Ġco": 633,
  "Ġtw": 634,
  "vers": 635,
  "Ġits": 636,
  "Ġpeople": 637,
  "old": 638,
  "ang": 639,
  "ning": 640,
  "Ġdes": 641,
  "ons": 642,
  "Ġfirst": 643,
  "we": 644,
  "ual": 645,
  "Ġbl": 646,
  "clud": 647,
  "Ġmay": 648,
  "ces": 649,
  "Ġshe": 650,
  "Ġno": 651,
  "ĠâĢĵ": 652,
  "cial": 653,
  "Ġcomm": 654,
  "ian": 655,
  "ause": 656,
  "'t": 657,
  "amp": 658,
  "hed": 659,
  "ates": 660,
  "Ġonly": 661,
  "lp": 662,
  "Ġmake": 663,
  "ft": 664,
  "ull": 665,
  "Ġtra": 666,
  "ric": 667,
  "Ġmost": 668,
  "rent": 669,
  "ments": 670,
  "Ġpo": 671,
  "day": 672,
  "Ġbet": 673,
  "Ġadd": 674,
  "Ġ19": 675,
  "Ġback": 676,
  "end": 677,
  "Ġhelp": 678,
  "Ġ4": 679,
  "Ġprov": 680,
  "Ġlook": 681,
  "ily": 682,
  "ating": 683,
  "Ġind": 684,
  "Ġevery": 685,
  "tern": 686,
  "ĠThis": 687,
  "Ġem": 688,
  "Ġwant": 689,
  "Ġfl": 690,
  "Ġinclud": 691,
  "round": 692,
  "Ġthrough": 693,
  "hing": 694,
  "Ġ5": 695,
  "ise": 696,
  "Ġtwo": 697,
  "Ġcons": 698,
  "Ġsee": 699,
  "ious": 700,
  "ĠRe": 701,
  "iew": 702,
  "Ġuse": 703,
  "Ġact": 704,
  "Ġwell": 705,
  "Ġthese": 706,
  ").": 707,
  "les": 708,
  "gr": 709,
  "Ġprodu": 710,
  "Ġbu": 711,
  "Ġunder": 712,
  "ew": 713,
  "Ġafter": 714,
  "ks": 715,
  "sel": 716,
  "Ġph": 717,
  "ect": 718,
  "ities": 719,
  "ph": 720,
  "ife": 721,
  "fect": 722,
  "Ġcould": 723,
  "iss": 724,
  "oll": 725,
  "Ġserv": 726,
  "xt": 727,
  "rit": 728,
  "fore": 729,
  "ced": 730,
  "Th": 731,
  "urn": 732,
  "Ġsupp": 733,
  "hen": 734,
  "row": 735,
  "ific": 736,
  "Ġdif": 737,
  "ting": 738,
  "Ġvery": 739,
  "aw": 740,
  "uch": 741,
  "Ġyears": 742,
  "Ġsy": 743,
  "lect": 744,
  "Ġrel": 745,
  "Ġway": 746,
  "Ġinc": 747,
  "Ġplay": 748,
  "Ġeven": 749,
  "Ġgood": 750,
  "Ġreg": 751,
  "erson": 752,
  "Ġmany": 753,
  "ert": 754,
  "ont": 755,
  "Ġinv": 756,
  "Ġhim": 757,
  "ange": 758,
  "Ġrem": 759,
  "Ġimp": 760,
  "Ġra": 761,
  "als": 762,
  "||": 763,
  "Ġpr": 764,
  "ject": 765,
  "ful": 766,
  "Ġnow": 767,
  "pect": 768,
  "cess": 769,
  "Ġcol": 770,
  "oss": 771,
  "Ġthen": 772,
  "aking": 773,
  "Ġwhere": 774,
  "iness": 775,
  "Ġ200": 776,
  "Ġev": 777,
  "Ġshould": 778,
  "Ġstud": 779,
  "ĠYou": 780,
  "Ġke": 781,
  "ool": 782,
  "ational": 783,
  "ock": 784,
  "com": 785,
  "Ġsm": 786,
  "oth": 787,
  "Ġdid": 788,
  "bs": 789,
  "ible": 790,
  "ased": 791,
  "Ġright": 792,
  "olog": 793,
  "ility": 794,
  "ts": 795,
  "ident": 796,
  "Ġdon": 797,
  "ath": 798,
  "any": 799,
  "Ġbecause": 800,
  "Ġexper": 801,
  "Ġsec": 802,
  "get": 803,
  "ular": 804,
  "ward": 805,
  "Ġstart": 806,
  "ty": 807,
  "ied": 808,
  "Ġown": 809,
  "ĠUn": 810,
  "uring": 811,
  "ble": 812,
  "erm": 813,
  "ĠWh": 814,
  "ures": 815,
  "ower": 816,
  "),": 817,
  "Ġgreat": 818,
  ".âĢĿ": 819,
  "Ġ$": 820,
  "ices": 821,
  "Ġgu": 822,
  "Ġdown": 823,
  "Ġthink": 824,
  "Ġac": 825,
  "Ġmuch": 826,
  "ĠAs": 827,
  "formation": 828,
  "Ġbus": 829,
  "Ġfin": 830,
  "Ġatt": 831,
  "ĠSe": 832,
  "ys": 833,
  "Ġtoo": 834,
  "other": 835,
  "hes": 836,
  "hip": 837,
  "ĠAnd": 838,
  "ative": 839,
  "Ġent": 840,
  "Ġsuch": 841,
  "stem": 842,
  "up": 843,
  "Ġday": 844,
  "ict": 845,
  "ork": 846,
  "its": 847,
  "Ġlong": 848,
  "ract": 849,
  "Ġagain": 850,
  "omet": 851,
  "Ġhigh": 852,
  "In": 853,
  "ell": 854,
  "air": 855,
  "Ġdec": 856,
  "ited": 857,
  "velop": 858,
  "Ġtake": 859,
  "alth": 860,
  "Ġset": 861,
  "arch": 862,
  "Ġ6": 863,
  "Ġinst": 864,
  "ĠCom": 865,
  "Ġread": 866,
  "Ġthose": 867,
  "ics": 868,
  "Ġhere": 869,
  "Ġfind": 870,
  "ener": 871,
  "gan": 872,
  "und": 873,
  "Ġbeing": 874,
  "Ġins": 875,
  "li": 876,
  "Ġdoes": 877,
  "Ġbel": 878,
  "rib": 879,
  "Ġcall": 880,
  "Ġ&": 881,
  "Ġbefore": 882,
  "cy": 883,
  "Ġinte": 884,
  "Ġmon": 885,
  "Ġwee": 886,
  "Ġend": 887,
  "Ġshow": 888,
  "Ġbest": 889,
  "Ġmade": 890,
  "ĠPro": 891,
  "Ġdiffe": 892,
  "Ġpres": 893,
  "Ġperson": 894,
  "ner": 895,
  "ĠDe": 896,
  "ason": 897,
  "âĢľ": 898,
  "ually": 899,
  "Ġworld": 900,
  "ĠAn": 901,
  "Ġmin": 902,
  "Ġcar": 903,
  "alk": 904,
  "Ġass": 905,
  "Ġhome": 906,
  "line": 907,
  "ollow": 908,
  "ix": 909,
  "chool": 910,
  "Ġrequ": 911,
  "Ġfam": 912,
  "Ġinformation": 913,
  "ues": 914,
  "Ġsur": 915,
  "Ġloc": 916,
  "ĠIf": 917,
  "Ġbr": 918,
  "Ġlast": 919,
  "rest": 920,
  "way": 921,
  "Ġlife": 922,
  "ax": 923,
  "Ġche": 924,
  "Ġav": 925,
  "20": 926,
  "Ġsim": 927,
  "ĠNew": 928,
  "ank": 929,
  "Ġbusiness": 930,
  "io": 931,
  "...": 932,
  "We": 933,
  "Ġmark": 934,
  "Ġmed": 935,
  "Ġ10": 936,
  "self": 937,
  "ng": 938,
  "gram": 939,
  "Ġhand": 940,
  "ving": 941,
  "ince": 942,
  "Ġop": 943,
  "Ġ7": 944,
  "ather": 945,
  "Ġmem": 946,
  "Ġsystem": 947,
  "ffect": 948,
  "ins": 949,
  "Ġear": 950,
  "Ġused": 951,
  "Ġdevelop": 952,
  "ublic": 953,
  "Ġpol": 954,
  "Ġwhile": 955,
  "ave": 956,
  "Ġlead": 957,
  "ĠBut": 958,
  "ss": 959,
  "atch": 960,
  "led": 961,
  "ouse": 962,
  "Ġtrans": 963,
  "Ġinter": 964,
  "ives": 965,
  ".\"": 966,
  "chn": 967,
  "Ġsub": 968,
  "az": 969,
  "Ġart": 970,
  "pr": 971,
  "Ġcre": 972,
  "Ġreally": 973,
  "Ġgoing": 974,
  "akes": 975,
  "arm": 976,
  "Ġcount": 977,
  "Ġmod": 978,
  "Ġret": 979,
  "ness": 980,
  "Ġnum": 981,
  "Ġthough": 982,
  "Ġeach": 983,
  "ple": 984,
  "imes": 985,
  ",âĢĿ": 986,
  "Ġaround": 987,
  "cept": 988,
  "Ġ8": 989,
  "Ġdet": 990,
  "Ġsupport": 991,
  "ale": 992,
  "Ġdesign": 993,
  "ience": 994,
  "Ġvis": 995,
  "land": 996,
  "Ġdisc": 997,
  "Ġproduct": 998,
  "view": 999,
  "Ġfollow": 1000,
  "meric": 1001,
  "read": 1002,
  "ĠAl": 1003,
  "ines": 1004,
  "Ġcour": 1005,
  "Ġsomet": 1006,
  "ality": 1007,
  "ctions": 1008,
  "ween": 1009,
  "Ġser": 1010,
  "irect": 1011,
  "Ġcare": 1012,
  "ved": 1013,
  "Ġstill": 1014,
  "Ġsay": 1015,
  "Ġform": 1016,
  "Ġcur": 1017,
  "Ġcomple": 1018,
  "riend": 1019,
  "ĠSh": 1020,
  "ution": 1021,
  "gg": 1022,
  "ever": 1023,
  "Ġteam": 1024,
  "Ġprovid": 1025,
  "ene": 1026,
  "Ġadv": 1027,
  "Ġpoint": 1028,
  "ize": 1029,
  "ets": 1030,
  "ash": 1031,
  "ĠFor": 1032,
  "roup": 1033,
  "Ġchar": 1034,
  "der": 1035,
  "Ġdifferent": 1036,
  "Ġsl": 1037,
  "Ġfound": 1038,
  "Ġsign": 1039,
  "oun": 1040,
  "ivers": 1041,
  "Ġchild": 1042,
  "Ġbook": 1043,
  "Ġsame": 1044,
  "lease": 1045,
  "ages": 1046,
  "Ġcommun": 1047,
  "This": 1048,
  "Ġrun": 1049,
  "Ġed": 1050,
  "Ġgr": 1051,
  "Ġstr": 1052,
  "Ġsk": 1053,
  "ata": 1054,
  "ittle": 1055,
  "Ġbetween": 1056,
  "Ġfeel": 1057,
  "Ġaut": 1058,
  "ĠAr": 1059,
  "Ġexp": 1060,
  "ah": 1061,
  "ustom": 1062,
  "Ġthree": 1063,
  "ĠSo": 1064,
  "man": 1065,
  "Ġplace": 1066,
  "ute": 1067,
  "Ġcle": 1068,
  "Ġboth": 1069,
  "ĠThey": 1070,
  "ars": 1071,
  "Wh": 1072,
  "Ġ9": 1073,
  "It": 1074,
  "Ġfew": 1075,
  "ways": 1076,
  "Ġbo": 1077,
  "the": 1078,
  "Ġeas": 1079,
  "ĠCl": 1080,
  "000": 1081,
  "Ġstate": 1082,
  "ional": 1083,
  "ĠBe": 1084,
  "Ġgl": 1085,
  "Ġprogram": 1086,
  "Ġlot": 1087,
  "Ġhapp": 1088,
  "ĠLe": 1089,
  "Ġlove": 1090,
  "Ġpost": 1091,
  "ĠAmeric": 1092,
  "Ġfree": 1093,
  "less": 1094,
  "ten": 1095,
  "Ġmet": 1096,
  "ists": 1097,
  "ton": 1098,
  "Ġpur": 1099,
  "Ġrep": 1100,
  "Ġimport": 1101,
  "ient": 1102,
  "ized": 1103,
  "ody": 1104,
  "Ġfun": 1105,
  "Ġprocess": 1106,
  "Ġprof": 1107,
  "ex": 1108,
  "ames": 1109,
  "Ġthings": 1110,
  "be": 1111,
  "vern": 1112,
  "Ġfull": 1113,
  "ired": 1114,
  "Ġtop": 1115,
  "thing": 1116,
  "ology": 1117,
  "ves": 1118,
  "ety": 1119,
  "Ġext": 1120,
  "Ġgener": 1121,
  "orn": 1122,
  "ital": 1123,
  "ĠAd": 1124,
  "Ġlittle": 1125,
  "Ġmonth": 1126,
  "Ġlar": 1127,
  "ants": 1128,
  "ailable": 1129,
  "Ġfact": 1130,
  "Ġreport": 1131,
  "Ġreal": 1132,
  "ature": 1133,
  "Ġlist": 1134,
  "oh": 1135,
  "Ġduring": 1136,
  "Ġhealth": 1137,
  "ross": 1138,
  "cent": 1139,
  "bers": 1140,
  "Ġplan": 1141,
  "Ġtechn": 1142,
  "cer": 1143,
  "Ġkeep": 1144,
  "arn": 1145,
  "Ġcome": 1146,
  "Ġopen": 1147,
  "Ġappro": 1148,
  "Ġdef": 1149,
  "Ġfil": 1150,
  "ug": 1151,
  "con": 1152,
  "ering": 1153,
  ",\"": 1154,
  "Ġfr": 1155,
  "Ġref": 1156,
  "Ġusing": 1157,
  "Ġposs": 1158,
  "Ġob": 1159,
  "uc": 1160,
  "ield": 1161,
  "Ġrest": 1162,
  "Ġpat": 1163,
  "Ġpartic": 1164,
  "10": 1165,
  "ically": 1166,
  "Ġiss": 1167,
  "Ġcent": 1168,
  "Ġcustom": 1169,
  "Ġresp": 1170,
  "rand": 1171,
  "ms": 1172,
  "iving": 1173,
  "Ġcontin": 1174,
  "gy": 1175,
  "Ġsomething": 1176,
  "att": 1177,
  "oad": 1178,
  "Ġint": 1179,
  "Ġwithout": 1180,
  "oot": 1181,
  "ished": 1182,
  "Ġput": 1183,
  "Ġinterest": 1184,
  "tt": 1185,
  "Ġbetter": 1186,
  "ined": 1187,
  "ining": 1188,
  "Ġresult": 1189,
  "Ġty": 1190,
  "Ġanother": 1191,
  "Ġmust": 1192,
  "Ġgot": 1193,
  "Ġcor": 1194,
  "Ġallow": 1195,
  "Ġbig": 1196,
  "Ġpri": 1197,
  "Ġvar": 1198,
  "Ġincluding": 1199,
  "Ġschool": 1200,
  "ared": 1201,
  "Ġgame": 1202,
  "Ġmight": 1203,
  "Ġfriend": 1204,
  "Ġnext": 1205,
  "Ġalways": 1206,
  "ĠThere": 1207,
  "Ġcompany": 1208,
  "Ġsol": 1209,
  "atur": 1210,
  "ĠBl": 1211,
  "Ġavailable": 1212,
  "ger": 1213,
  "ention": 1214,
  "Ġpass": 1215,
  "Ġhead": 1216,
  "Ġsmall": 1217,
  "Ġquest": 1218,
  "Ġdist": 1219,
  "Ġmarket": 1220,
  "Ġtry": 1221,
  "uss": 1222,
  "Ġwr": 1223,
  "Ġconf": 1224,
  "Ġstand": 1225,
  "Ġsince": 1226,
  "Ġfamily": 1227,
  "Ġide": 1228,
  "Ġgroup": 1229,
  "ĠâĢĺ": 1230,
  "Ġsecond": 1231,
  "ense": 1232,
  "Ġmain": 1233,
  "iqu": 1234,
  "ĠShe": 1235,
  "Ġorgan": 1236,
  "ik": 1237,
  "reen": 1238,
  "stand": 1239,
  "ĠHow": 1240,
  "Ġbuild": 1241,
  "Ġnever": 1242,
  "Ġweek": 1243,
  "ploy": 1244,
  "Ġwater": 1245,
  "Ġdri": 1246,
  "Ġeffect": 1247,
  "Ġtri": 1248,
  "Ġval": 1249,
  "Ġopt": 1250,
  "Ġpay": 1251,
  "Ġdata": 1252,
  "Ġopp": 1253,
  "âĢ¦": 1254,
  "Ġhard": 1255,
  "ertain": 1256,
  "ision": 1257,
  "ately": 1258,
  "Ġnumber": 1259,
  "Ġmus": 1260,
  "Ġwom": 1261,
  "Ġmov": 1262,
  "Ġask": 1263,
  "Ġincre": 1264,
  "Ġcr": 1265,
  "Ġrece": 1266,
  "ĠOn": 1267,
  "ism": 1268,
  "Ġimportant": 1269,
  "ample": 1270,
  "ier": 1271,
  "aj": 1272,
  "Ġsure": 1273,
  "Ġproble": 1274,
  "illion": 1275,
  "rist": 1276,
  "ĠAll": 1277,
  "ling": 1278,
  "rol": 1279,
  "els": 1280,
  "Ġi": 1281,
  "ĠFr": 1282,
  "Ġpublic": 1283,
  "Ġold": 1284,
  "Ġpower": 1285,
  "ware": 1286,
  "ER": 1287,
  "Ġexperience": 1288,
  "me": 1289,
  "Ġexpl": 1290,
  "Ġdirect": 1291,
  "ĠPl": 1292,
  "ĠâĢĶ": 1293,
  "ĠEx": 1294,
  "Ġbro": 1295,
  "Ġlevel": 1296,
  "oney": 1297,
  "Ġinf": 1298,
  "iversity": 1299,
  "Ġdays": 1300,
  "Ġservice": 1301,
  "19": 1302,
  "rence": 1303,
  "Ġperform": 1304,
  "ted": 1305,
  "ĠQ": 1306,
  "Ġproject": 1307,
  "If": 1308,
  "ccess": 1309,
  "Ġ'": 1310,
  "ĠInd": 1311,
  "Ġagainst": 1312,
  "Ġcost": 1313,
  "ral": 1314,
  "ior": 1315,
  "Ġel": 1316,
  "Ġspec": 1317,
  "Ġgive": 1318,
  "Ġonline": 1319,
  "ird": 1320,
  "Ġclass": 1321,
  "Ġless": 1322,
  "âĢĶ": 1323,
  "Ġgrow": 1324,
  "Ġlet": 1325,
  "Ġlaw": 1326,
  "Ġwin": 1327,
  "Ġinvest": 1328,
  "Ġ12": 1329,
  "work": 1330,
  "co": 1331,
  "ĠIs": 1332,
  "Ġseem": 1333,
  "ases": 1334,
  "ps": 1335,
  "Ġable": 1336,
  "Ġlight": 1337,
  "ok": 1338,
  "ards": 1339,
  "Ġbelie": 1340,
  "Ġsays": 1341,
  "Ġbre": 1342,
  "Ġve": 1343,
  "Ġ0": 1344,
  "Ġfour": 1345,
  "pend": 1346,
  "inal": 1347,
  "Ġrese": 1348,
  "Ġca": 1349,
  "uck": 1350,
  "Ġpos": 1351,
  "ortun": 1352,
  "Ġhum": 1353,
  "Ġtest": 1354,
  "Ġcurrent": 1355,
  "Ġprovide": 1356,
  "ats": 1357,
  "ĠTe": 1358,
  "Ġsit": 1359,
  "ency": 1360,
  "ote": 1361,
  "Ġunt": 1362,
  "ĠPh": 1363,
  "raph": 1364,
  "here": 1365,
  "ered": 1366,
  "ients": 1367,
  "Ġ18": 1368,
  "Ġturn": 1369,
  "Ġmeet": 1370,
  "ours": 1371,
  "Ġorder": 1372,
  "ivid": 1373,
  "ĠZ": 1374,
  "He": 1375,
  "vernment": 1376,
  "gin": 1377,
  "ĠCon": 1378,
  "Ġdi": 1379,
  "ember": 1380,
  "ann": 1381,
  "Ġwithin": 1382,
  "ably": 1383,
  "Ġleg": 1384,
  "outh": 1385,
  "Ġtoday": 1386,
  "ruct": 1387,
  "cing": 1388,
  "ffic": 1389,
  "Ġjob": 1390,
  "Ġoper": 1391,
  "pped": 1392,
  "ently": 1393,
  "Ġpop": 1394,
  "ator": 1395,
  "50": 1396,
  "aut": 1397,
  "ope": 1398,
  "ĠCol": 1399,
  "ission": 1400,
  "med": 1401,
  "ron": 1402,
  "ĠThat": 1403,
  "Ġann": 1404,
  "ĠUS": 1405,
  "ec": 1406,
  "pos": 1407,
  "Ġbeh": 1408,
  "atter": 1409,
  "Ġproper": 1410,
  "ider": 1411,
  "ised": 1412,
  ".,": 1413,
  "ration": 1414,
  "Ġaway": 1415,
  "Ġprev": 1416,
  "Ġservices": 1417,
  "ret": 1418,
  "pping": 1419,
  "Ġview": 1420,
  "ium": 1421,
  "Ġest": 1422,
  "oint": 1423,
  "Ġmaking": 1424,
  "ott": 1425,
  "Ġworking": 1426,
  "of": 1427,
  "Ġhist": 1428,
  "Ġcourse": 1429,
  "Ġ.": 1430,
  "Ġaccess": 1431,
  "ains": 1432,
  "Ġdem": 1433,
  "Ġprote": 1434,
  "eng": 1435,
  "Ġfood": 1436,
  "ĠMan": 1437,
  "Ġarea": 1438,
  "Ġcase": 1439,
  "You": 1440,
  "Ġcap": 1441,
  "Ġaddition": 1442,
  "hor": 1443,
  "Ġprom": 1444,
  "Ġsing": 1445,
  "Ġeng": 1446,
  "IN": 1447,
  "Ġwrit": 1448,
  "Ġequ": 1449,
  "Ġtru": 1450,
  "Ġwebs": 1451,
  "ney": 1452,
  "iron": 1453,
  "ured": 1454,
  "Ġnight": 1455,
  "ified": 1456,
  "ids": 1457,
  "Ġchildren": 1458,
  "Ġspecial": 1459,
  "ĠOr": 1460,
  "ead": 1461,
  "Ġthing": 1462,
  "Ġchange": 1463,
  "Ġsal": 1464,
  "ĠTo": 1465,
  "ww": 1466,
  "lish": 1467,
  "Ġwhy": 1468,
  "Ġphot": 1469,
  "ĠSp": 1470,
  "tend": 1471,
  "Ġpast": 1472,
  "ley": 1473,
  "Ġchang": 1474,
  "Ġrecord": 1475,
  "ury": 1476,
  "ĠComm": 1477,
  "Ġuntil": 1478,
  "ories": 1479,
  "por": 1480,
  "Ġlooking": 1481,
  "omm": 1482,
  "itions": 1483,
  "ĠTr": 1484,
  "ream": 1485,
  "Ġword": 1486,
  "ina": 1487,
  "ify": 1488,
  "Ġkind": 1489,
  "Ġpresent": 1490,
  "ĠSc": 1491,
  "'re": 1492,
  "Ġfac": 1493,
  "Ġpract": 1494,
  "iting": 1495,
  "orth": 1496,
  "ump": 1497,
  "lection": 1498,
  "augh": 1499,
  "ged": 1500,
  "Ġmoney": 1501,
  "Ġconst": 1502,
  "cu": 1503,
  "sh": 1504,
  "Ġlocal": 1505,
  "Ġunderstand": 1506,
  "Ġprofess": 1507,
  "Ġleft": 1508,
  "ĠRes": 1509,
  "Ġbas": 1510,
  "ĠChrist": 1511,
  "aring": 1512,
  "ĠCent": 1513,
  "ability": 1514,
  "min": 1515,
  "Ġseason": 1516,
  "30": 1517,
  "joy": 1518,
  "irl": 1519,
  "Ġsite": 1520,
  "Ġoften": 1521,
  "conom": 1522,
  "Ġstudents": 1523,
  "Ġdev": 1524,
  "Ġintern": 1525,
  "soci": 1526,
  "Ġevent": 1527,
  "Ġcond": 1528,
  "Ġactiv": 1529,
  "Ġroom": 1530,
  "ising": 1531,
  "Ġlarge": 1532,
  "Ġterm": 1533,
  "Ġvide": 1534,
  "Ġtimes": 1535,
  "Ġsuccess": 1536,
  "Ġemploy": 1537,
  "ization": 1538,
  "Ġtoget": 1539,
  "agement": 1540,
  "Ġtogether": 1541,
  "ĠGod": 1542,
  "Ġtalk": 1543,
  "Ġimpro": 1544,
  "Ġ15": 1545,
  "Ġname": 1546,
  "ĠMar": 1547,
  "Ġindust": 1548,
  "ries": 1549,
  "Ġdidn": 1550,
  "let": 1551,
  "Ġtell": 1552,
  "Ġexpect": 1553,
  "Ġdr": 1554,
  "As": 1555,
  "arent": 1556,
  "iven": 1557,
  "Ġapplic": 1558,
  "Ġcheck": 1559,
  "12": 1560,
  "Ġcomplete": 1561,
  "ohn": 1562,
  "ential": 1563,
  "icle": 1564,
  "utes": 1565,
  "Ġes": 1566,
  "ills": 1567,
  "Ġdra": 1568,
  "ee": 1569,
  "Ġhaving": 1570,
  "Ġalong": 1571,
  "bo": 1572,
  "ĠCan": 1573,
  "Ġenough": 1574,
  "ived": 1575,
  "Ġcreat": 1576,
  "ajor": 1577,
  "enn": 1578,
  "by": 1579,
  "ready": 1580,
  "Ġlearn": 1581,
  "Ġ[": 1582,
  "Ġside": 1583,
  "ĠNo": 1584,
  "Ġnear": 1585,
  "Ġmove": 1586,
  "br": 1587,
  "part": 1588,
  "ĠWhen": 1589,
  "Ġsw": 1590,
  "veral": 1591,
  "ination": 1592,
  "Ġpain": 1593,
  "ocus": 1594,
  "Ġever": 1595,
  "Ġshort": 1596,
  "Ġair": 1597,
  "Ġhouse": 1598,
  "ON": 1599,
  "Ġcommunity": 1600,
  "ane": 1601,
  "ode": 1602,
  "aster": 1603,
  "ividual": 1604,
  "ĠWhat": 1605,
  "alf": 1606,
  "Ġinclude": 1607,
  "urs": 1608,
  "Ġtreat": 1609,
  "itive": 1610,
  "Ġproducts": 1611,
  "Ġbecome": 1612,
  "Ġ11": 1613,
  "ĠUniversity": 1614,
  "Ġcountry": 1615,
  "Ġdone": 1616,
  "ots": 1617,
  "Ġoffic": 1618,
  "Ġoffer": 1619,
  "aterial": 1620,
  "Ġcalled": 1621,
  "Ġmembers": 1622,
  "ording": 1623,
  "Ġline": 1624,
  "Ġpa": 1625,
  "side": 1626,
  "!!": 1627,
  "Ġmen": 1628,
  "Ġ199": 1629,
  "aim": 1630,
  "Ġmil": 1631,
  "Ġaccount": 1632,
  "ĠMay": 1633,
  "Ġmar": 1634,
  "Ġstory": 1635,
  "Ġ30": 1636,
  "uro": 1637,
  "ĠWith": 1638,
  "Ġalready": 1639,
  "Ġbuy": 1640,
  "Ġtrad": 1641,
  "Ġbit": 1642,
  "Ġconne": 1643,
  "'m": 1644,
  "Ġresearch": 1645,
  "ern": 1646,
  "What": 1647,
  "Ġcertain": 1648,
  "enef": 1649,
  "ery": 1650,
  "Ġpersonal": 1651,
  "Ġbody": 1652,
  "Ġlive": 1653,
  "tain": 1654,
  "Ġfollowing": 1655,
  "Ġfar": 1656,
  "For": 1657,
  "Ġenjoy": 1658,
  "ows": 1659,
  "Ġcame": 1660,
  "viron": 1661,
  "Ġpossible": 1662,
  "une": 1663,
  "St": 1664,
  "sc": 1665,
  "ĠAt": 1666,
  "ored": 1667,
  "Ġocc": 1668,
  "Ġseveral": 1669,
  "Ġmakes": 1670,
  "Ġneeds": 1671,
  "Ġgovernment": 1672,
  "err": 1673,
  "Ġfeat": 1674,
  "ĠAmerican": 1675,
  "Ġcontrol": 1676,
  "Ġothers": 1677,
  "Ġmean": 1678,
  "ails": 1679,
  "Ġnews": 1680,
  "Ġcamp": 1681,
  "Ġpot": 1682,
  "11": 1683,
  "rap": 1684,
  "Ġgetting": 1685,
  "Ġindividual": 1686,
  "ES": 1687,
  "Ġquality": 1688,
  "Ġcou": 1689,
  "Ġdoing": 1690,
  "ĠEng": 1691,
  "Ġfore": 1692,
  "ush": 1693,
  "ither": 1694,
  "Ġeasy": 1695,
  "over": 1696,
  "Ġwebsite": 1697,
  "uture": 1698,
  "ien": 1699,
  "AT": 1700,
  "Ġsocial": 1701,
  "ances": 1702,
  "Ġreview": 1703,
  "ĠCar": 1704,
  "ĠFl": 1705,
  "Ġwomen": 1706,
  "ique": 1707,
  "Ġtre": 1708,
  "Ġhold": 1709,
  "oice": 1710,
  "Ġmeans": 1711,
  "Ġbased": 1712,
  "Ġreturn": 1713,
  "orts": 1714,
  "Ġland": 1715,
  "son": 1716,
  "Ġnon": 1717,
  "Ġmajor": 1718,
  "Ġleast": 1719,
  "oor": 1720,
  "Ġmillion": 1721,
  "aff": 1722,
  "Ġwent": 1723,
  "Ġthought": 1724,
  "Ġlim": 1725,
  "Ġmind": 1726,
  "mber": 1727,
  "Ġ|": 1728,
  "Ġmusic": 1729,
  "Ġfocus": 1730,
  "Ġelect": 1731,
  "Ġactually": 1732,
  "AR": 1733,
  "atic": 1734,
  "fer": 1735,
  "'ve": 1736,
  "Ġvisit": 1737,
  "Ġcomes": 1738,
  "osed": 1739,
  "ĠMy": 1740,
  "ption": 1741,
  "wh": 1742,
  "Ġdoesn": 1743,
  "Ġeduc": 1744,
  "rop": 1745,
  "Ġey": 1746,
  "idd": 1747,
  "for": 1748,
  "Ġyoung": 1749,
  "Ġbenef": 1750,
  "Ġtook": 1751,
  "ians": 1752,
  "cially": 1753,
  "Ġacross": 1754,
  "Ġla": 1755,
  "ĠJohn": 1756,
  "Ġfav": 1757,
  "Ġopportun": 1758,
  "most": 1759,
  "Ġcreate": 1760,
  "Ġ--": 1761,
  "Ġfund": 1762,
  "Ġpercent": 1763,
  "ones": 1764,
  "lement": 1765,
  "mm": 1766,
  "not": 1767,
  "OR": 1768,
  "ape": 1769,
  "ully": 1770,
  "Ġclear": 1771,
  "Ġwon": 1772,
  "Ġmom": 1773,
  "ĠSu": 1774,
  "duct": 1775,
  "ides": 1776,
  "Ġdeal": 1777,
  "Ġcharact": 1778,
  "Ġanal": 1779,
  "Ġeconom": 1780,
  "Ġonce": 1781,
  "vironment": 1782,
  "yle": 1783,
  "Ġcontact": 1784,
  "ĠSte": 1785,
  "AN": 1786,
  "Ġmult": 1787,
  "ches": 1788,
  "Ġparticular": 1789,
  "There": 1790,
  "wards": 1791,
  "Ġinvol": 1792,
  "ched": 1793,
  "ĠAm": 1794,
  "Ġmaterial": 1795,
  "Ġorig": 1796,
  "Ġhappen": 1797,
  "Ġquick": 1798,
  "ĠApp": 1799,
  "room": 1800,
  "aps": 1801,
  "Ġlow": 1802,
  "Ġdevelopment": 1803,
  "app": 1804,
  "book": 1805,
  "load": 1806,
  "Ġsoft": 1807,
  "ĠCo": 1808,
  "aken": 1809,
  "Ġstarted": 1810,
  "âĢĵ": 1811,
  "Ġnet": 1812,
  "Ġyet": 1813,
  "ĠÂ": 1814,
  "Ġce": 1815,
  "Ġess": 1816,
  "Ġfuture": 1817,
  "ference": 1818,
  "Ġlater": 1819,
  "Ġreason": 1820,
  "Ġexample": 1821,
  "urther": 1822,
  "Ġcut": 1823,
  "arr": 1824,
  "pro": 1825,
  "Ġcity": 1826,
  "Ġvers": 1827,
  "ĠRep": 1828,
  "Ġtem": 1829,
  "ony": 1830,
  "ai": 1831,
  "Ġtold": 1832,
  "Ġbring": 1833,
  "Ġfriends": 1834,
  "And": 1835,
  "Ġris": 1836,
  "Ġstudy": 1837,
  "lf": 1838,
  "Ġstrong": 1839,
  "Ġearly": 1840,
  "Ġmonths": 1841,
  "ulation": 1842,
  "Ġlink": 1843,
  "Ġspecific": 1844,
  "Ġident": 1845,
  "Ġshare": 1846,
  "Ġfive": 1847,
  "ister": 1848,
  "Ġhours": 1849,
  "ĠMed": 1850,
  "Ġredu": 1851,
  "lished": 1852,
  "Ġbeaut": 1853,
  "uff": 1854,
  "Ġperfect": 1855,
  "ips": 1856,
  "ograph": 1857,
  "Ġheart": 1858,
  "use": 1859,
  "Ġhuman": 1860,
  "ges": 1861,
  "ama": 1862,
  "Ġkey": 1863,
  "Ġpar": 1864,
  "ĠUnited": 1865,
  "ĠThese": 1866,
  "Ġpress": 1867,
  "de": 1868,
  "Ġtax": 1869,
  "Ġstep": 1870,
  "ino": 1871,
  "Ġbelow": 1872,
  "iday": 1873,
  "Ġtyp": 1874,
  "Ġwa": 1875,
  "Ġbegin": 1876,
  "Ġhig": 1877,
  "ĠPr": 1878,
  "Ġpolit": 1879,
  "ource": 1880,
  "Ġcompan": 1881,
  "Ġhot": 1882,
  "Ġknown": 1883,
  "An": 1884,
  "lling": 1885,
  "Ġ14": 1886,
  "ster": 1887,
  "cle": 1888,
  "Ġrequire": 1889,
  "Ġvideo": 1890,
  "ift": 1891,
  "resent": 1892,
  "ources": 1893,
  "Ġ16": 1894,
  "ĠState": 1895,
  "ĠSy": 1896,
  "Ġclose": 1897,
  "ĠIntern": 1898,
  "oose": 1899,
  "ateg": 1900,
  "ober": 1901,
  "sw": 1902,
  "Ġitem": 1903,
  "Ġemail": 1904,
  "Ġproblem": 1905,
  "ĠBr": 1906,
  "light": 1907,
  "Ġrele": 1908,
  "--": 1909,
  "Ġappear": 1910,
  "Ġcover": 1911,
  "ĠFe": 1912,
  "utions": 1913,
  "Ġauthor": 1914,
  "urity": 1915,
  "But": 1916,
  "reet": 1917,
  "ĠOne": 1918,
  "Ġet": 1919,
  "ĠNe": 1920,
  "Ġfield": 1921,
  "osp": 1922,
  "Ġeverything": 1923,
  "'ll": 1924,
  "Ġvari": 1925,
  "Ġdeli": 1926,
  "icy": 1927,
  "par": 1928,
  "iod": 1929,
  "oon": 1930,
  "Ġchall": 1931,
  "ĠWor": 1932,
  "Ġcomb": 1933,
  "crib": 1934,
  "Ġdiscuss": 1935,
  "illed": 1936,
  "Ġpriv": 1937,
  "unch": 1938,
  "Ġpack": 1939,
  "acy": 1940,
  "Ġface": 1941,
  "ĠEn": 1942,
  "Ġcompet": 1943,
  "Ġpurch": 1944,
  "Ġant": 1945,
  "ĠCont": 1946,
  "ĠX": 1947,
  "che": 1948,
  "ilities": 1949,
  "itor": 1950,
  "How": 1951,
  "Ġindustry": 1952,
  "hod": 1953,
  "Ġhistory": 1954,
  "eral": 1955,
  "Ġpage": 1956,
  "lege": 1957,
  "Ġprob": 1958,
  "Ġener": 1959,
  "Ġwalk": 1960,
  "ned": 1961,
  "ĠYork": 1962,
  "ĠDo": 1963,
  "though": 1964,
  "Ġsound": 1965,
  "rew": 1966,
  "Ġcult": 1967,
  "ĠInst": 1968,
  "Ġens": 1969,
  "Ġgames": 1970,
  "Ġgiven": 1971,
  "15": 1972,
  "ners": 1973,
  "On": 1974,
  "Ġrespons": 1975,
  "When": 1976,
  "Ġminutes": 1977,
  "ler": 1978,
  "Ġwhole": 1979,
  "Ġrelations": 1980,
  "Ġstay": 1981,
  "Ġbelieve": 1982,
  "Ġspace": 1983,
  "ball": 1984,
  "Ġseen": 1985,
  "Ġquestion": 1986,
  "Ġsomeone": 1987,
  "ilar": 1988,
  "Ġ2012": 1989,
  "ilt": 1990,
  "Ġamong": 1991,
  "Ġpie": 1992,
  "go": 1993,
  "ĠHowever": 1994,
  "Ġtaking": 1995,
  "ensive": 1996,
  "Ġsingle": 1997,
  "Ġpick": 1998,
  "Ġago": 1999,
  "Ġmor": 2000,
  "rain": 2001,
  "ourn": 2002,
  "Ġwhether": 2003,
  "ply": 2004,
  "Ġtot": 2005,
  "Ġwind": 2006,
  "idence": 2007,
  "Ġaddress": 2008,
  "ural": 2009,
  "new": 2010,
  "aces": 2011,
  "atural": 2012,
  "Ġbreak": 2013,
  "Ġsuper": 2014,
  "Ġ/": 2015,
  "Ġage": 2016,
  "Ġhalf": 2017,
  "Ġ100": 2018,
  "Ġste": 2019,
  "pecially": 2020,
  "Ġprice": 2021,
  "ained": 2022,
  "ĠNot": 2023,
  "hers": 2024,
  "selves": 2025,
  "ĠServ": 2026,
  "af": 2027,
  "ibility": 2028,
  "So": 2029,
  "Ġenc": 2030,
  "Ġmedia": 2031,
  "ĠMe": 2032,
  "ggest": 2033,
  "ued": 2034,
  "ided": 2035,
  "Ġhope": 2036,
  "Ġcontent": 2037,
  "play": 2038,
  "Ġgirl": 2039,
  "ctor": 2040,
  "Ġamount": 2041,
  "Ġclean": 2042,
  "Ch": 2043,
  "ging": 2044,
  "rict": 2045,
  "Ġseries": 2046,
  "Ġsci": 2047,
  "Ġenvironment": 2048,
  "iously": 2049,
  "Ġcompanies": 2050,
  "Ġissues": 2051,
  "Ġanything": 2052,
  "Ġsex": 2053,
  "Ġpub": 2054,
  "Ġjo": 2055,
  "AS": 2056,
  "Ġclaim": 2057,
  "IS": 2058,
  "Ġmanag": 2059,
  "ogn": 2060,
  "ĠCount": 2061,
  "ledge": 2062,
  "ison": 2063,
  "Ġdue": 2064,
  "mb": 2065,
  "abor": 2066,
  "Ġvol": 2067,
  "13": 2068,
  "imate": 2069,
  "irm": 2070,
  "fic": 2071,
  "fully": 2072,
  "Ġ13": 2073,
  "Ġfall": 2074,
  "Ġmot": 2075,
  "ox": 2076,
  "Ġtool": 2077,
  "Ġfront": 2078,
  "Ġphys": 2079,
  "Ġmess": 2080,
  "Ġrecomm": 2081,
  "dd": 2082,
  "Ġcred": 2083,
  "ĠBro": 2084,
  "Ġplease": 2085,
  "18": 2086,
  "urch": 2087,
  "Ġrecommend": 2088,
  "Ġcra": 2089,
  "Ġabove": 2090,
  "ED": 2091,
  "Ġcommon": 2092,
  "Ġtechnology": 2093,
  "ental": 2094,
  "Ġfre": 2095,
  "Ġquestions": 2096,
  "Ġrange": 2097,
  "Ġ17": 2098,
  "AL": 2099,
  "Ġstore": 2100,
  "16": 2101,
  "Ġaud": 2102,
  "ĠMc": 2103,
  "Re": 2104,
  "EN": 2105,
  "ancial": 2106,
  "Ġconsider": 2107,
  "ĠEuro": 2108,
  "Ġperiod": 2109,
  "Ġbad": 2110,
  "ĠComp": 2111,
  "Ġeff": 2112,
  "ĠGu": 2113,
  "Ġcrit": 2114,
  "uation": 2115,
  "ung": 2116,
  "Ġidea": 2117,
  "Ġmeas": 2118,
  "Ġ24": 2119,
  "ĠCal": 2120,
  "ĠCity": 2121,
  "Ġsuggest": 2122,
  "vent": 2123,
  "Ġresults": 2124,
  "Ġwond": 2125,
  "Ġbuilding": 2126,
  "Ġblog": 2127,
  "Ġenergy": 2128,
  "Ġport": 2129,
  "Ġaff": 2130,
  "irt": 2131,
  "Ġalmost": 2132,
  "Ġwatch": 2133,
  "come": 2134,
  "Ġblack": 2135,
  "200": 2136,
  "back": 2137,
  "Ġz": 2138,
  "Ġeither": 2139,
  "ĠPres": 2140,
  "Ġsix": 2141,
  "asing": 2142,
  "Ġtravel": 2143,
  "ille": 2144,
  "Ġworks": 2145,
  "iver": 2146,
  "itted": 2147,
  "elt": 2148,
  "sy": 2149,
  "Ġfilm": 2150,
  "Ġpoints": 2151,
  "Ġcomput": 2152,
  "ĠOur": 2153,
  "cri": 2154,
  "Ġthird": 2155,
  "Ġ25": 2156,
  "used": 2157,
  "//": 2158,
  "Ġbrand": 2159,
  "ams": 2160,
  "Ġfurther": 2161,
  "Ġtaken": 2162,
  "Ġconcer": 2163,
  "Ġentire": 2164,
  "ĠMin": 2165,
  "Ġwriting": 2166,
  "Ġeveryone": 2167,
  "IT": 2168,
  "anks": 2169,
  "ators": 2170,
  "ask": 2171,
  "ĠChe": 2172,
  "Ġdou": 2173,
  "Ġtrying": 2174,
  "Ġlikely": 2175,
  "14": 2176,
  "ĠYour": 2177,
  "rie": 2178,
  "ried": 2179,
  "Ġbar": 2180,
  "ĠGo": 2181,
  "Ġtrack": 2182,
  "ites": 2183,
  "Ġnecess": 2184,
  "cell": 2185,
  "://": 2186,
  "rodu": 2187,
  "Ġdocu": 2188,
  "org": 2189,
  "__": 2190,
  "vert": 2191,
  "oid": 2192,
  "fort": 2193,
  "Ġmiss": 2194,
  "Ġ#": 2195,
  "Ġdig": 2196,
  "Ġcustomers": 2197,
  ".)": 2198,
  "ĠJan": 2199,
  "Ġcal": 2200,
  "Ġtraining": 2201,
  "Ġrepl": 2202,
  "lex": 2203,
  "obal": 2204,
  "opy": 2205,
  "Ġpict": 2206,
  "ands": 2207,
  "ili": 2208,
  "ples": 2209,
  "Ġtype": 2210,
  "omes": 2211,
  "oved": 2212,
  "ively": 2213,
  "Ġcir": 2214,
  "Ġself": 2215,
  "ĠStates": 2216,
  "Ġneeded": 2217,
  "chie": 2218,
  "gest": 2219,
  "ires": 2220,
  "Ġsearch": 2221,
  "Ġareas": 2222,
  "Ġwanted": 2223,
  "Ġpret": 2224,
  "iol": 2225,
  "ume": 2226,
  "ĠNational": 2227,
  "Ġfeatures": 2228,
  "Ġfavor": 2229,
  "Ġrelationship": 2230,
  "arning": 2231,
  "Ġespecially": 2232,
  "Ġ:": 2233,
  "Ġsimple": 2234,
  "Ġweb": 2235,
  "Ġmag": 2236,
  "Ġspend": 2237,
  "Ġvalue": 2238,
  "Ġoffers": 2239,
  "Ġ50": 2240,
  "Ġimprove": 2241,
  "Ġdeb": 2242,
  "ficult": 2243,
  "Ġmanagement": 2244,
  "Ġexc": 2245,
  "resh": 2246,
  "ially": 2247,
  "Ġcard": 2248,
  "ĠSchool": 2249,
  "my": 2250,
  "year": 2251,
  "Ġprotect": 2252,
  "Ġparticip": 2253,
  "gle": 2254,
  "Ġrather": 2255,
  "Ġhowever": 2256,
  "Ġsent": 2257,
  "Ġele": 2258,
  "ication": 2259,
  "ĠAfter": 2260,
  "Ġvarious": 2261,
  "fact": 2262,
  "time": 2263,
  "Ġquite": 2264,
  "ĠTw": 2265,
  "Ġstop": 2266,
  "Ġoffice": 2267,
  "gress": 2268,
  "Ġissue": 2269,
  "ĠPe": 2270,
  "IC": 2271,
  "aur": 2272,
  "Ġelse": 2273,
  "Ġ2013": 2274,
  "Ġasked": 2275,
  "To": 2276,
  "ification": 2277,
  "25": 2278,
  "17": 2279,
  "Ġred": 2280,
  "Ġmethod": 2281,
  "Ġhost": 2282,
  "Ġinstall": 2283,
  "Ġsignific": 2284,
  "umb": 2285,
  "Ġcoming": 2286,
  "Ġprobably": 2287,
  "itting": 2288,
  "Ġfoot": 2289,
  "ights": 2290,
  "ruction": 2291,
  "ĠGr": 2292,
  "iful": 2293,
  "Ġways": 2294,
  "Ġtext": 2295,
  "Ġpretty": 2296,
  "Ġadded": 2297,
  "ĠWorld": 2298,
  "ĠEurope": 2299,
  "ze": 2300,
  "Ġsimply": 2301,
  "itch": 2302,
  "US": 2303,
  "Ġliving": 2304,
  "Ġoil": 2305,
  "Ġdifficult": 2306,
  "Ġprovides": 2307,
  "Ġparent": 2308,
  "icro": 2309,
  "Ġbehind": 2310,
  "where": 2311,
  "Ġupd": 2312,
  "Ġrequired": 2313,
  "Ġevents": 2314,
  "Ġstaff": 2315,
  "Ġperformance": 2316,
  "Ġproblems": 2317,
  "Ġrisk": 2318,
  "Ġcontinue": 2319,
  "ĠEd": 2320,
  "Ġansw": 2321,
  "yn": 2322,
  "Ġwhite": 2323,
  "ĠSouth": 2324,
  "Ġabs": 2325,
  "Ġbed": 2326,
  "Ġsoon": 2327,
  "ĠHis": 2328,
  "head": 2329,
  "ĠNorth": 2330,
  "Ġaccording": 2331,
  "eth": 2332,
  "roll": 2333,
  "Ġwords": 2334,
  "ĠWill": 2335,
  "Ġdeath": 2336,
  "Ġposition": 2337,
  "Ġexist": 2338,
  "ole": 2339,
  "Ġnothing": 2340,
  "lu": 2341,
  "Ġmatter": 2342,
  "Ġgra": 2343,
  "ĠGe": 2344,
  "Ġexperien": 2345,
  "ĠDep": 2346,
  "Ġprofessional": 2347,
  "itten": 2348,
  "Ġisn": 2349,
  "aching": 2350,
  "Ġcell": 2351,
  "oe": 2352,
  "Ġdam": 2353,
  "Ġaction": 2354,
  "Ġhy": 2355,
  "val": 2356,
  "Ġhon": 2357,
  "itional": 2358,
  "lt": 2359,
  "ĠQu": 2360,
  "Ġcharacter": 2361,
  "rug": 2362,
  "Ġinit": 2363,
  "Ġpopular": 2364,
  "Ġphone": 2365,
  "Ġrepresent": 2366,
  "ĠSec": 2367,
  "angu": 2368,
  "pper": 2369,
  "ables": 2370,
  "ibr": 2371,
  "amer": 2372,
  "ĠSm": 2373,
  "minist": 2374,
  "ises": 2375,
  "reme": 2376,
  "Ġprovided": 2377,
  "ĠPart": 2378,
  "olution": 2379,
  "pril": 2380,
  "ĠTra": 2381,
  "Ġfail": 2382,
  "apt": 2383,
  "Ġprep": 2384,
  "ief": 2385,
  "ĠMr": 2386,
  "Ġtou": 2387,
  "ĠTH": 2388,
  "Ġassist": 2389,
  "ĠAust": 2390,
  "nes": 2391,
  "aily": 2392,
  "Ġsize": 2393,
  "obile": 2394,
  "ĠMark": 2395,
  "ĠPark": 2396,
  "Ġconsum": 2397,
  "Ġimpact": 2398,
  "Ġdeterm": 2399,
  "urance": 2400,
  "Ġtakes": 2401,
  "ĠAf": 2402,
  "Ġrole": 2403,
  "Ġsimilar": 2404,
  "RE": 2405,
  "Ġinn": 2406,
  "ĠPer": 2407,
  "Ġweeks": 2408,
  "ules": 2409,
  "Ġrad": 2410,
  "ĠAmerica": 2411,
  "Ġyourself": 2412,
  "Ġroad": 2413,
  "Ġfinal": 2414,
  "Ġparty": 2415,
  "ival": 2416,
  "Ġground": 2417,
  "anc": 2418,
  "ĠDes": 2419,
  "ĠOct": 2420,
  "clus": 2421,
  "Ġannoun": 2422,
  "Ġlog": 2423,
  "Ġrecent": 2424,
  "Ġsubject": 2425,
  "Ġincludes": 2426,
  "Ġinj": 2427,
  "Ġswe": 2428,
  "Ġaccept": 2429,
  "AC": 2430,
  "ĠCenter": 2431,
  "Ġforward": 2432,
  "uge": 2433,
  "Ġincrease": 2434,
  "Ġnatural": 2435,
  "Ġproperty": 2436,
  "ĠPol": 2437,
  "Ġconnect": 2438,
  "Ġ2011": 2439,
  "Al": 2440,
  "ĠCor": 2441,
  "Ġunique": 2442,
  "Ġseems": 2443,
  "ĠJu": 2444,
  "Ġtrue": 2445,
  "ĠAb": 2446,
  "Ġselect": 2447,
  "ĠGl": 2448,
  "Ġchanges": 2449,
  "ĠJust": 2450,
  "ades": 2451,
  "Ġsignificant": 2452,
  "Ġdate": 2453,
  "medi": 2454,
  "ĠDr": 2455,
  "Ġassoci": 2456,
  "Ġrequest": 2457,
  "Ġknowledge": 2458,
  "ĠDis": 2459,
  "Ġextra": 2460,
  "astic": 2461,
  "reg": 2462,
  "overed": 2463,
  "istic": 2464,
  "Ġachie": 2465,
  "Ġwide": 2466,
  "Ġfire": 2467,
  "verage": 2468,
  "Ġarticle": 2469,
  "ĠKe": 2470,
  "ufact": 2471,
  "Ġkids": 2472,
  "Ġupon": 2473,
  "iet": 2474,
  "arget": 2475,
  "Ġgeneral": 2476,
  "Ġoutside": 2477,
  "Ġattack": 2478,
  "Ġstat": 2479,
  "Ġsend": 2480,
  "Ġofficial": 2481,
  "Ġgen": 2482,
  "Ġcannot": 2483,
  "ĠBar": 2484,
  "ĠSome": 2485,
  "Ġfinancial": 2486,
  "Ġrecogn": 2487,
  "idge": 2488,
  "Ġcook": 2489,
  "Ġregard": 2490,
  "Ġlonger": 2491,
  "Ġdog": 2492,
  "Ġmember": 2493,
  "yl": 2494,
  "Ġloss": 2495,
  "Ġshows": 2496,
  "Ġfunction": 2497,
  "22": 2498,
  "arter": 2499,
  "ĠAug": 2500,
  "ring": 2501,
  "Ġrespect": 2502,
  "ada": 2503,
  "60": 2504,
  "Ġhtt": 2505,
  "Ġsum": 2506,
  "ĠMarch": 2507,
  "gu": 2508,
  "empt": 2509,
  "Ġ2010": 2510,
  "oph": 2511,
  "Ġrunning": 2512,
  "Ġheld": 2513,
  "Ġcreated": 2514,
  "Ġexam": 2515,
  "Ġsecurity": 2516,
  "Ġtit": 2517,
  "Ġsafe": 2518,
  "Ġsystems": 2519,
  "ID": 2520,
  "Ġcouple": 2521,
  "ĠBo": 2522,
  "Ġsong": 2523,
  "Ġestab": 2524,
  "Ġrate": 2525,
  "Ã©": 2526,
  "Ġsaw": 2527,
  "ana": 2528,
  "Ġmodel": 2529,
  "Ġfig": 2530,
  "eter": 2531,
  "ees": 2532,
  "aving": 2533,
  "Ġeducation": 2534,
  "ops": 2535,
  "Ġanim": 2536,
  "Ġstri": 2537,
  "ĠPresident": 2538,
  "atory": 2539,
  "Ġdesigned": 2540,
  "ĠCounty": 2541,
  "Ġbase": 2542,
  "Ġcolor": 2543,
  "anced": 2544,
  "Ġspeak": 2545,
  "Ġleave": 2546,
  "Ġleaders": 2547,
  "Ġcollect": 2548,
  "na": 2549,
  "ales": 2550,
  "Ġusually": 2551,
  "Ġreading": 2552,
  "oura": 2553,
  "put": 2554,
  "Ġanyone": 2555,
  "uary": 2556,
  "Ġsoftware": 2557,
  "Ġfa": 2558,
  "Ġcontrib": 2559,
  "Ġx": 2560,
  "Ġbox": 2561,
  "Ġbott": 2562,
  "Ġskin": 2563,
  "Ġoptions": 2564,
  "Ġinde": 2565,
  "amed": 2566,
  "Ġmoment": 2567,
  "ĠHouse": 2568,
  "Ġhigher": 2569,
  "Ġready": 2570,
  "Ġworth": 2571,
  "aign": 2572,
  "Ġtreatment": 2573,
  "Ġpaper": 2574,
  "Ġthroughout": 2575,
  "earch": 2576,
  "Ġpark": 2577,
  "Ġprint": 2578,
  "Ġbeautiful": 2579,
  "Ġagree": 2580,
  "Ġcoll": 2581,
  "Ġhit": 2582,
  "izing": 2583,
  "Ġnorm": 2584,
  "Ġregular": 2585,
  "ĠJune": 2586,
  "Ġopportunity": 2587,
  "ĠAg": 2588,
  "ude": 2589,
  "Ġdetails": 2590,
  "iter": 2591,
  "Ġwar": 2592,
  "Ġoriginal": 2593,
  "Ġill": 2594,
  "Ġreceive": 2595,
  "face": 2596,
  "ĠDav": 2597,
  "aced": 2598,
  "Ġlives": 2599,
  "ffe": 2600,
  "Ġengine": 2601,
  "ĠAct": 2602,
  "Ġsens": 2603,
  "Ġ198": 2604,
  "Ġdefin": 2605,
  "based": 2606,
  "Ġreceived": 2607,
  "Ġgrowth": 2608,
  "ĠStud": 2609,
  "ĠWest": 2610,
  "Ġdescrib": 2611,
  "mit": 2612,
  "ese": 2613,
  "oud": 2614,
  "Ġchoose": 2615,
  "âĢ¢": 2616,
  "Ġlay": 2617,
  "Ġnetwork": 2618,
  "Ġensure": 2619,
  "erc": 2620,
  "Ġblood": 2621,
  "rect": 2622,
  "Ġetc": 2623,
  "Ġlat": 2624,
  "Ġplayers": 2625,
  "Ġsle": 2626,
  "Ġball": 2627,
  "ĠIm": 2628,
  "Ġpotential": 2629,
  "Ġinside": 2630,
  "ĠPa": 2631,
  "hib": 2632,
  "right": 2633,
  "iddle": 2634,
  "rem": 2635,
  "ederal": 2636,
  "Ġbooks": 2637,
  "Ġfast": 2638,
  "Ġtable": 2639,
  "Ġsense": 2640,
  "Ġemb": 2641,
  "Ġneg": 2642,
  "Ġtotal": 2643,
  "irit": 2644,
  "Ġcause": 2645,
  "Ġgoal": 2646,
  "Ġmedical": 2647,
  "Ġsales": 2648,
  "Ġ,": 2649,
  "ĠDay": 2650,
  "Ġlo": 2651,
  "Ġrecently": 2652,
  "ciety": 2653,
  "Ġnational": 2654,
  "ĠApril": 2655,
  "ĠInc": 2656,
  "ashing": 2657,
  "Ġdom": 2658,
  "Ġlost": 2659,
  "Ġmach": 2660,
  "Ġpric": 2661,
  "ĠBy": 2662,
  "Ġlate": 2663,
  "aining": 2664,
  "Ġapplication": 2665,
  "Ġclick": 2666,
  "bor": 2667,
  "Ġ...": 2668,
  "Ġversion": 2669,
  "Ġstra": 2670,
  "Ġformer": 2671,
  "Ġwonder": 2672,
  "Ġstruct": 2673,
  "like": 2674,
  "Ġhappy": 2675,
  "ening": 2676,
  "ysis": 2677,
  "oes": 2678,
  "iff": 2679,
  "Ġcurrently": 2680,
  "Ġprior": 2681,
  "Ġdeep": 2682,
  "Ġpatients": 2683,
  "Ġitems": 2684,
  "Ġthemselves": 2685,
  "Ġviol": 2686,
  "aging": 2687,
  "Ġexpress": 2688,
  "Ġpolitical": 2689,
  "Ġcoun": 2690,
  "ĠNow": 2691,
  "inary": 2692,
  "off": 2693,
  "Ġusers": 2694,
  "Ġcourt": 2695,
  "ham": 2696,
  "Ġprivate": 2697,
  "Ġboard": 2698,
  "aturday": 2699,
  "Ġcomfort": 2700,
  "ĠSept": 2701,
  "Ġfit": 2702,
  "Ġmass": 2703,
  "ament": 2704,
  "cil": 2705,
  "Ġpolicy": 2706,
  "Ġdepend": 2707,
  "iber": 2708,
  "ha": 2709,
  "adem": 2710,
  "Ġcareer": 2711,
  "Ġmorning": 2712,
  "Ġcontract": 2713,
  "Ġhair": 2714,
  "ached": 2715,
  "Ġaffect": 2716,
  "lier": 2717,
  "Ġdest": 2718,
  "Ġattend": 2719,
  "ĠDon": 2720,
  "cast": 2721,
  "ĠOb": 2722,
  "Ġtown": 2723,
  "Ġhands": 2724,
  "With": 2725,
  "Ġdecision": 2726,
  "Ġple": 2727,
  "Ġimm": 2728,
  "Ġpractice": 2729,
  "oogle": 2730,
  "Ġpers": 2731,
  "Ġmeeting": 2732,
  "eds": 2733,
  "OT": 2734,
  "Ġnice": 2735,
  "40": 2736,
  "Ġdrive": 2737,
  "Ġadditional": 2738,
  "Ġbal": 2739,
  "Ġvia": 2740,
  "ague": 2741,
  "Ġexact": 2742,
  "artment": 2743,
  "Ġproduction": 2744,
  "ĠReg": 2745,
  "pri": 2746,
  "icles": 2747,
  "ĠSpe": 2748,
  "action": 2749,
  "atform": 2750,
  "Ġgoes": 2751,
  "OU": 2752,
  "ground": 2753,
  "oke": 2754,
  "uth": 2755,
  "Ġlearning": 2756,
  "Ġitself": 2757,
  "Ġcredit": 2758,
  "21": 2759,
  "Ġut": 2760,
  "Ġability": 2761,
  "ek": 2762,
  "ĠHigh": 2763,
  "ĠEl": 2764,
  "Ġprograms": 2765,
  "Ġterms": 2766,
  "Ġcases": 2767,
  "Ġmother": 2768,
  "Ġworked": 2769,
  "Ġcomputer": 2770,
  "Ġri": 2771,
  "Ġobject": 2772,
  "Ġdeg": 2773,
  "Ġobs": 2774,
  "Ġstyle": 2775,
  "Ġconditions": 2776,
  "My": 2777,
  "ĠMich": 2778,
  "Ġcele": 2779,
  "Ġincluded": 2780,
  "OS": 2781,
  "ĠHar": 2782,
  "ournal": 2783,
  "Ġtarget": 2784,
  "Ġquickly": 2785,
  "Ġlevels": 2786,
  "Our": 2787,
  "ĠHealth": 2788,
  "ological": 2789,
  "Ġremember": 2790,
  "Ġcustomer": 2791,
  "Ġprim": 2792,
  "Ġdel": 2793,
  "aby": 2794,
  "Ġdise": 2795,
  "Ġrights": 2796,
  "AM": 2797,
  "Ġactivities": 2798,
  "ett": 2799,
  "airs": 2800,
  "azing": 2801,
  "Ġwall": 2802,
  "imum": 2803,
  "iction": 2804,
  "oring": 2805,
  "Ġwasn": 2806,
  "Ġ21": 2807,
  "Ġcampaign": 2808,
  "Ġmyself": 2809,
  "ny": 2810,
  "Ġcool": 2811,
  "irth": 2812,
  "ĠMore": 2813,
  "Ġsat": 2814,
  "Ġblock": 2815,
  "ences": 2816,
  "Ġchance": 2817,
  "Ġmatch": 2818,
  "Ġclos": 2819,
  "hood": 2820,
  "All": 2821,
  "erve": 2822,
  "Ġ40": 2823,
  "ecut": 2824,
  "Ġur": 2825,
  "itary": 2826,
  "Ġbegan": 2827,
  "24": 2828,
  "haps": 2829,
  "ming": 2830,
  "wood": 2831,
  "Ġvict": 2832,
  "Ġmanufact": 2833,
  "Ġplaying": 2834,
  "Ġ2014": 2835,
  "rought": 2836,
  "ĠArt": 2837,
  "ĠPar": 2838,
  "ĠJuly": 2839,
  "Ġep": 2840,
  "Ġinvolved": 2841,
  "ession": 2842,
  "Ġteac": 2843,
  "asons": 2844,
  "ĠTV": 2845,
  "Ġautom": 2846,
  "ĠFeb": 2847,
  "ls": 2848,
  "ipment": 2849,
  "unday": 2850,
  "Ġwoman": 2851,
  "ĠWhile": 2852,
  "Ġcountries": 2853,
  "ĠBu": 2854,
  "uses": 2855,
  "Ġskills": 2856,
  "atives": 2857,
  "Ġwritten": 2858,
  "ĠOff": 2859,
  "Ġbuilt": 2860,
  "Ġsqu": 2861,
  "Ġapproach": 2862,
  "Ġsummer": 2863,
  "Ġpan": 2864,
  "Ġappe": 2865,
  "onse": 2866,
  "ris": 2867,
  "'d": 2868,
  "ING": 2869,
  "ĠSan": 2870,
  "Ġwrite": 2871,
  "ĠWar": 2872,
  "Ġlatest": 2873,
  "Ġintrodu": 2874,
  "Ġimmedi": 2875,
  "Ġinstead": 2876,
  "ĠFin": 2877,
  "Ġfight": 2878,
  "Ġstock": 2879,
  "ĠUs": 2880,
  "Ġwrong": 2881,
  "Ġgrad": 2882,
  "Ġnecessary": 2883,
  "Ġ2016": 2884,
  "Ġeasily": 2885,
  "Ġbecame": 2886,
  "ondon": 2887,
  "ĠAssoci": 2888,
  "Ġinsp": 2889,
  "ĠEm": 2890,
  "Ġarri": 2891,
  "Ġmix": 2892,
  "Ġjud": 2893,
  "Ġlegal": 2894,
  "Ġchalleng": 2895,
  "str": 2896,
  "Ġcand": 2897,
  "Ġlangu": 2898,
  "Ġlooks": 2899,
  "rown": 2900,
  "Ġpresident": 2901,
  "pose": 2902,
  "edd": 2903,
  "illing": 2904,
  "ĠOf": 2905,
  "Ġdraw": 2906,
  "Ġones": 2907,
  "Ġbur": 2908,
  "Ġrev": 2909,
  "ovember": 2910,
  "Ġ2009": 2911,
  "Ġrelease": 2912,
  "Ġround": 2913,
  "ĠChar": 2914,
  "Ġinvestig": 2915,
  "Ġsurpr": 2916,
  "Ġemer": 2917,
  "reng": 2918,
  "just": 2919,
  "That": 2920,
  "Ġdownload": 2921,
  "su": 2922,
  "Ġattention": 2923,
  "fficient": 2924,
  "Ġinternational": 2925,
  "Ġord": 2926,
  "Ġscreen": 2927,
  "Ġsell": 2928,
  "Ġstandard": 2929,
  "itc": 2930,
  "ĠSw": 2931,
  "Ġsaf": 2932,
  "Ġdecided": 2933,
  "Ġgave": 2934,
  "hel": 2935,
  "At": 2936,
  "Ġmention": 2937,
  "iam": 2938,
  "Ġlab": 2939,
  "unt": 2940,
  "Ġcas": 2941,
  "Ġfelt": 2942,
  "Ġpred": 2943,
  "Ġweight": 2944,
  "Ġveh": 2945,
  "Ġglobal": 2946,
  "ĠDepartment": 2947,
  "ĠHere": 2948,
  "ky": 2949,
  "Ġfresh": 2950,
  "Ġshall": 2951,
  "Ġideas": 2952,
  "ĠCour": 2953,
  "iple": 2954,
  "Ġdrug": 2955,
  "ĠAustral": 2956,
  "Ġsil": 2957,
  "ĠVal": 2958,
  "itter": 2959,
  "ĠAfric": 2960,
  "Ġleading": 2961,
  "aught": 2962,
  "Ph": 2963,
  "lim": 2964,
  "Ġsus": 2965,
  "Ġhol": 2966,
  "Ġbi": 2967,
  "Ġmaintain": 2968,
  "Ġrelated": 2969,
  "Ġcy": 2970,
  "Ġattempt": 2971,
  "kend": 2972,
  "ĠBrit": 2973,
  "Ġsun": 2974,
  "attle": 2975,
  "ĠFriday": 2976,
  "Ġcosts": 2977,
  "Ġhuge": 2978,
  "Ġapply": 2979,
  "onday": 2980,
  "Ġtouch": 2981,
  "Sh": 2982,
  "itte": 2983,
  "ĠFace": 2984,
  "Ġlower": 2985,
  "ĠPat": 2986,
  "Ġgroups": 2987,
  "Ġfavorite": 2988,
  "ĠHer": 2989,
  "Ġprojects": 2990,
  "Ġchoice": 2991,
  "ray": 2992,
  "ĠEnglish": 2993,
  "Ġsett": 2994,
  "ĠInt": 2995,
  "Ġclients": 2996,
  "ought": 2997,
  "Ġpropos": 2998,
  "Ġexcept": 2999,
  "hern": 3000,
  "Ġeyes": 3001,
  "Ġplatform": 3002,
  "ux": 3003,
  "amb": 3004,
  "Ġresources": 3005,
  "Ġmovie": 3006,
  "Ġencoura": 3007,
  "Ġsaying": 3008,
  "Ġdisplay": 3009,
  "Ġbud": 3010,
  "erous": 3011,
  "icated": 3012,
  "Ġtour": 3013,
  "Ġpolice": 3014,
  "ĠAugust": 3015,
  "ests": 3016,
  "Ġintegr": 3017,
  "Ġsn": 3018,
  "Ġhear": 3019,
  "Ġstudent": 3020,
  "ĠMon": 3021,
  "Ġmarketing": 3022,
  "Ġallows": 3023,
  "ĠGerm": 3024,
  "Ġeffective": 3025,
  "Ġbank": 3026,
  "EC": 3027,
  "Ġboy": 3028,
  "rote": 3029,
  "Ġreported": 3030,
  "ester": 3031,
  "Ġ2008": 3032,
  "Ġsold": 3033,
  "Ġdefe": 3034,
  "Ġuser": 3035,
  "Ġdocument": 3036,
  "Ġdaily": 3037,
  "Ġtrust": 3038,
  "Ġ23": 3039,
  "Ġhor": 3040,
  "alt": 3041,
  "Ġfair": 3042,
  "Ġhimself": 3043,
  "hold": 3044,
  "ĠBlack": 3045,
  "Ġmodern": 3046,
  "ivity": 3047,
  "verse": 3048,
  "Cl": 3049,
  "press": 3050,
  "Ġcross": 3051,
  "idered": 3052,
  "Ġfile": 3053,
  "ĠCalif": 3054,
  "bit": 3055,
  "ule": 3056,
  "Ġparents": 3057,
  "Ġknew": 3058,
  "Ġmid": 3059,
  "Be": 3060,
  "Ġstru": 3061,
  "ĠJanuary": 3062,
  "Ġvariety": 3063,
  "Ġsepar": 3064,
  "mon": 3065,
  "One": 3066,
  "70": 3067,
  "ĠNews": 3068,
  "ĠSaturday": 3069,
  "Ġgets": 3070,
  "Ġaw": 3071,
  "Ġpull": 3072,
  "aves": 3073,
  "Ġaverage": 3074,
  "Ġdiv": 3075,
  "enty": 3076,
  "cious": 3077,
  "ĠOctober": 3078,
  "Ġthinking": 3079,
  "\".": 3080,
  "Ġgives": 3081,
  "ĠMus": 3082,
  "vey": 3083,
  "Ġdark": 3084,
  "80": 3085,
  "Ġanswer": 3086,
  "Ġ22": 3087,
  "aged": 3088,
  "Ġdead": 3089,
  "aste": 3090,
  "Ġcomment": 3091,
  "Ġrout": 3092,
  "ĠFrom": 3093,
  "Ġimage": 3094,
  "Ġinteresting": 3095,
  "Ġdoor": 3096,
  "wise": 3097,
  "Ġdigital": 3098,
  "Ġ2015": 3099,
  "cember": 3100,
  "Ġplans": 3101,
  "ĠAdd": 3102,
  "Ġdrink": 3103,
  "Ġheard": 3104,
  "Ġoption": 3105,
  "Ġnature": 3106,
  "Ġplayed": 3107,
  "ĠSci": 3108,
  "ET": 3109,
  "cription": 3110,
  "avy": 3111,
  "Ġcenter": 3112,
  "Ġled": 3113,
  "Ġsafety": 3114,
  "cip": 3115,
  "aker": 3116,
  "uel": 3117,
  "ĠSeptember": 3118,
  "Ġparts": 3119,
  "ĠSen": 3120,
  "ĠLondon": 3121,
  "Ġexpected": 3122,
  "ns": 3123,
  "ĠThen": 3124,
  "ĠâĢ¦": 3125,
  "ications": 3126,
  "Ġexcell": 3127,
  "No": 3128,
  "Ġtele": 3129,
  "Ġpurchase": 3130,
  "ĠUK": 3131,
  "Ġsource": 3132,
  "Ġadminist": 3133,
  "enge": 3134,
  "Ġgiving": 3135,
  "Ġgreen": 3136,
  "iding": 3137,
  "sec": 3138,
  "ĠNet": 3139,
  "Ġcompletely": 3140,
  "Ġinflu": 3141,
  "Ġdecl": 3142,
  "usiness": 3143,
  "ension": 3144,
  "iles": 3145,
  "mission": 3146,
  "ocr": 3147,
  "isc": 3148,
  "Ġpiece": 3149,
  "Ġlif": 3150,
  "Ġconduct": 3151,
  "iring": 3152,
  "23": 3153,
  "Ġprevent": 3154,
  "Ġpath": 3155,
  "OM": 3156,
  "aly": 3157,
  "itation": 3158,
  "ĠInternational": 3159,
  "Ġbrought": 3160,
  "ĠSunday": 3161,
  "ĠAc": 3162,
  "ĠCons": 3163,
  "itute": 3164,
  "Ġdepart": 3165,
  "pite": 3166,
  "pre": 3167,
  "Ġsave": 3168,
  "key": 3169,
  "board": 3170,
  "ĠDem": 3171,
  "Ġeye": 3172,
  "....": 3173,
  "ornia": 3174,
  "Ġbenefits": 3175,
  "Ġstreng": 3176,
  "Ġwood": 3177,
  "ville": 3178,
  "Ġstarting": 3179,
  "Ġsection": 3180,
  "Ġenter": 3181,
  "ceed": 3182,
  "ĠSch": 3183,
  "Ġtypes": 3184,
  "Ġlocated": 3185,
  "Ġdetail": 3186,
  "Ġbehav": 3187,
  "ĠAut": 3188,
  "ĠSer": 3189,
  "Ġpublished": 3190,
  "isions": 3191,
  "ĠDirect": 3192,
  "ael": 3193,
  "Ġorganization": 3194,
  "ashington": 3195,
  "apan": 3196,
  "Ġ2017": 3197,
  "IL": 3198,
  "Ġamazing": 3199,
  "99": 3200,
  "Ġtal": 3201,
  "ilies": 3202,
  "oom": 3203,
  "zy": 3204,
  "Ġconsidered": 3205,
  "ald": 3206,
  "rel": 3207,
  "Ġplant": 3208,
  "ĠJe": 3209,
  "ĠNovember": 3210,
  "Ġsites": 3211,
  "gar": 3212,
  "Ġcat": 3213,
  "Ġvac": 3214,
  "Ġeconomic": 3215,
  "aries": 3216,
  "Ġnation": 3217,
  "Ġsituation": 3218,
  "error": 3219,
  "king": 3220,
  "Ġproviding": 3221,
  "ishing": 3222,
  "ened": 3223,
  "Ġvot": 3224,
  "Ġstates": 3225,
  "ĠRed": 3226,
  "imately": 3227,
  "Ġlic": 3228,
  "Ġarch": 3229,
  "ospital": 3230,
  "After": 3231,
  "rs": 3232,
  "Ġrock": 3233,
  "Ġcopy": 3234,
  "Ġslow": 3235,
  "Ġfeed": 3236,
  "band": 3237,
  "Ġcamer": 3238,
  "Ġsometimes": 3239,
  "itution": 3240,
  "Ġreleased": 3241,
  "Ġdirectly": 3242,
  "Ġavoid": 3243,
  "Ġnote": 3244,
  "Ġpositive": 3245,
  "AP": 3246,
  "ma": 3247,
  "Ġdevice": 3248,
  "Ġcollection": 3249,
  "www": 3250,
  "Ġsubs": 3251,
  "Ġfell": 3252,
  "urt": 3253,
  "cies": 3254,
  "omen": 3255,
  "Ġconvers": 3256,
  "Ġmultiple": 3257,
  "mercial": 3258,
  "ĠGener": 3259,
  "yond": 3260,
  "ength": 3261,
  "ivil": 3262,
  "Ġsche": 3263,
  "Ġinterview": 3264,
  "Pro": 3265,
  "ĠRead": 3266,
  "Ġstories": 3267,
  "Ġflow": 3268,
  "Ġfeature": 3269,
  "ĠFacebook": 3270,
  "Ġdating": 3271,
  "Ġbroad": 3272,
  "orge": 3273,
  "ĠAN": 3274,
  "Ġimplement": 3275,
  "Ġcondition": 3276,
  "Ġ28": 3277,
  "Ġoffe": 3278,
  "ĠAir": 3279,
  "Ġinsurance": 3280,
  "ford": 3281,
  "EL": 3282,
  "Ġhighly": 3283,
  "idents": 3284,
  "Ġturned": 3285,
  "Ġextreme": 3286,
  "ibly": 3287,
  "Ġresponse": 3288,
  "ĠStreet": 3289,
  "Ġlocation": 3290,
  "sych": 3291,
  "ica": 3292,
  "ĠPost": 3293,
  "Ġequipment": 3294,
  "ancy": 3295,
  "Ġcelebr": 3296,
  "ruary": 3297,
  "fl": 3298,
  "Ġweekend": 3299,
  "Ġplayer": 3300,
  "agn": 3301,
  "col": 3302,
  "Ġstuff": 3303,
  "Ġfather": 3304,
  "Ġreach": 3305,
  "Ġconsist": 3306,
  "Ġqual": 3307,
  "ursday": 3308,
  "ari": 3309,
  "ĠCommun": 3310,
  "aches": 3311,
  "ĠWind": 3312,
  "Ġadult": 3313,
  "Ġrestaur": 3314,
  "ĠAre": 3315,
  "Ġson": 3316,
  "arily": 3317,
  "Ġprin": 3318,
  "erved": 3319,
  "name": 3320,
  "ĠAcc": 3321,
  "Ġlack": 3322,
  "sp": 3323,
  "ĠPlease": 3324,
  "Ġanalysis": 3325,
  "Ġfine": 3326,
  "Ġwarm": 3327,
  "Ġhour": 3328,
  "raft": 3329,
  "Ġfloor": 3330,
  "Ġtowards": 3331,
  "ĠGoogle": 3332,
  "Ġspent": 3333,
  "Ġpartners": 3334,
  "Ġlooked": 3335,
  "Ġadvant": 3336,
  "Ġlimited": 3337,
  "Ġeffort": 3338,
  "ednes": 3339,
  "ĠSim": 3340,
  "ĠKing": 3341,
  "Ġtools": 3342,
  "uesday": 3343,
  "aughter": 3344,
  "Ġorganiz": 3345,
  "Ġindividuals": 3346,
  "Ġreve": 3347,
  "rences": 3348,
  "ram": 3349,
  "Ġdress": 3350,
  "Ġregul": 3351,
  "ĠCalifornia": 3352,
  "Ġprogress": 3353,
  "Ġpen": 3354,
  "Ġ26": 3355,
  "Ġmobile": 3356,
  "):": 3357,
  "Ġthreat": 3358,
  "Ġhelps": 3359,
  "Ġfix": 3360,
  "Ġphysical": 3361,
  "Ġcapt": 3362,
  "ĠPre": 3363,
  "Ġeffects": 3364,
  "Ġmis": 3365,
  "Ġfirm": 3366,
  "Ġimag": 3367,
  "Ġtick": 3368,
  "nds": 3369,
  "add": 3370,
  "ĠFirst": 3371,
  "Ġscore": 3372,
  "Ġneigh": 3373,
  "Ġnearly": 3374,
  "bur": 3375,
  "Ġinnov": 3376,
  "Ġcup": 3377,
  "rast": 3378,
  "Ġwrote": 3379,
  "Ġaware": 3380,
  "more": 3381,
  "Ġgrowing": 3382,
  "Ġhttp": 3383,
  "Ġgold": 3384,
  "ĠDecember": 3385,
  "Ġcode": 3386,
  "ĠWashington": 3387,
  "Ġ+": 3388,
  "Ġband": 3389,
  "Ġcertainly": 3390,
  "Ġcollege": 3391,
  "izes": 3392,
  "Ġemployees": 3393,
  "EO": 3394,
  "ara": 3395,
  "antly": 3396,
  "Ġten": 3397,
  "Ġplaces": 3398,
  "aint": 3399,
  "ĠLa": 3400,
  "ĠService": 3401,
  "Ġmount": 3402,
  "Ġsolution": 3403,
  "Ġ*": 3404,
  "Ġdro": 3405,
  "ĠUp": 3406,
  "itely": 3407,
  "Ġclub": 3408,
  "They": 3409,
  "Ġsen": 3410,
  "itchen": 3411,
  "ION": 3412,
  "Ġ60": 3413,
  "Ġdistrib": 3414,
  "Ġbirth": 3415,
  "Ġcomplex": 3416,
  "Ġmaterials": 3417,
  "ĠRepublic": 3418,
  "âĢĿ.": 3419,
  "ĠCoun": 3420,
  "opping": 3421,
  "Ġdream": 3422,
  "Ġcorrect": 3423,
  "Ġrespond": 3424,
  "field": 3425,
  "uted": 3426,
  "ednesday": 3427,
  "Ġsubst": 3428,
  "Ġmessage": 3429,
  "Ġcarry": 3430,
  "Ġtried": 3431,
  "ittee": 3432,
  "ida": 3433,
  "Ġbusinesses": 3434,
  "Ġrace": 3435,
  "Ġactivity": 3436,
  "zz": 3437,
  "ĠGroup": 3438,
  "Ġtemper": 3439,
  "ĠIndia": 3440,
  "Ġhistor": 3441,
  "Ġwife": 3442,
  "Ġwants": 3443,
  "Ġexpert": 3444,
  "ography": 3445,
  "sequ": 3446,
  "Ġfarm": 3447,
  "Ġtraditional": 3448,
  "ĠFree": 3449,
  "ĠEvery": 3450,
  "Ġeat": 3451,
  "ĠWell": 3452,
  "Ġconcept": 3453,
  "Ġdeveloped": 3454,
  "Ġregist": 3455,
  "Ġbeginning": 3456,
  "Ġlanguage": 3457,
  "Ġfully": 3458,
  "Ġded": 3459,
  "Ġdisease": 3460,
  "Ġge": 3461,
  "Ġphotos": 3462,
  "Ġfinally": 3463,
  "ĠEast": 3464,
  "uate": 3465,
  "ĠDavid": 3466,
  "ĠOut": 3467,
  "Ġmilitary": 3468,
  "ĠCollege": 3469,
  "Ġspirit": 3470,
  "Ġtrip": 3471,
  "ran": 3472,
  "oul": 3473,
  "Ġachieve": 3474,
  "Ġdemand": 3475,
  "ault": 3476,
  "Ġexerc": 3477,
  "ĠMonday": 3478,
  "ĠJes": 3479,
  "ĠTHE": 3480,
  "Ġsort": 3481,
  "ĠJapan": 3482,
  "Ġbra": 3483,
  "Ġult": 3484,
  "Ġsuccessful": 3485,
  "olute": 3486,
  "Ġfeeling": 3487,
  "unk": 3488,
  "Ġdirector": 3489,
  "vin": 3490,
  "Ġculture": 3491,
  "Ġcirc": 3492,
  "Ġexactly": 3493,
  "ĠChina": 3494,
  "bum": 3495,
  "Ġmat": 3496,
  "Ġ27": 3497,
  "Ġparticularly": 3498,
  "down": 3499,
  "mas": 3500,
  "Ġwish": 3501,
  "ipping": 3502,
  "Ġspot": 3503,
  "ani": 3504,
  "Ġthous": 3505,
  "Ġaltern": 3506,
  "mitted": 3507,
  "arden": 3508,
  "Ġdifference": 3509,
  "Ġshoot": 3510,
  "oday": 3511,
  "ĠWhite": 3512,
  "Ġprevious": 3513,
  "ager": 3514,
  "ares": 3515,
  "lin": 3516,
  "Ġoccur": 3517,
  "body": 3518,
  "Ġpaid": 3519,
  "wide": 3520,
  "Ġgoals": 3521,
  "itable": 3522,
  "ying": 3523,
  "ĠIN": 3524,
  "Ġshot": 3525,
  "Ex": 3526,
  "Ġwhose": 3527,
  "Ġfeet": 3528,
  "het": 3529,
  "35": 3530,
  "vant": 3531,
  "Ġinterested": 3532,
  "ĠMost": 3533,
  "Ġfamilies": 3534,
  "ronic": 3535,
  "Ġmoving": 3536,
  "Ġtalking": 3537,
  "vest": 3538,
  "Ġaccom": 3539,
  "Ġplanning": 3540,
  "Ġter": 3541,
  "Ġ2018": 3542,
  "Ġprices": 3543,
  "Ġwel": 3544,
  "Ġsleep": 3545,
  "Ġstraight": 3546,
  "Ġstage": 3547,
  "Ġspeed": 3548,
  "wor": 3549,
  "ĠPM": 3550,
  "ruit": 3551,
  "ĠRuss": 3552,
  "Ġver": 3553,
  "Ġearlier": 3554,
  "Ġdry": 3555,
  "Ġhous": 3556,
  "Ġimages": 3557,
  "Ġfear": 3558,
  "Ġconsult": 3559,
  "bl": 3560,
  "PS": 3561,
  "mark": 3562,
  "Ġmaybe": 3563,
  "vis": 3564,
  "Ġstress": 3565,
  "ĠAM": 3566,
  "Ġcharge": 3567,
  "45": 3568,
  "atever": 3569,
  "aling": 3570,
  "oms": 3571,
  "Ġheat": 3572,
  "ĠLaw": 3573,
  "?âĢĿ": 3574,
  "Ġalone": 3575,
  "Ġanaly": 3576,
  "ategy": 3577,
  "oming": 3578,
  "Ġ2007": 3579,
  "hest": 3580,
  "ĠTechn": 3581,
  "Ġhop": 3582,
  "Ġpurpose": 3583,
  "Ġdeliver": 3584,
  "ords": 3585,
  "Ġpressure": 3586,
  "arant": 3587,
  "ĠPal": 3588,
  "undred": 3589,
  "asc": 3590,
  "BC": 3591,
  "Ġreports": 3592,
  "Ġindepend": 3593,
  "Ġdoll": 3594,
  "Ġappl": 3595,
  "Ġbaby": 3596,
  "Ġopportunities": 3597,
  "ĠII": 3598,
  "Ġpromot": 3599,
  "Ġserious": 3600,
  "Ġassess": 3601,
  "oly": 3602,
  "duc": 3603,
  "Ġprem": 3604,
  "rench": 3605,
  "ĠObama": 3606,
  "Ġcreating": 3607,
  "Ġbag": 3608,
  "venue": 3609,
  "Ġseven": 3610,
  "Ġexcellent": 3611,
  "reed": 3612,
  "Ġrent": 3613,
  "ounds": 3614,
  "Ġevidence": 3615,
  "Ġkn": 3616,
  "Ġdoub": 3617,
  "Ġtitle": 3618,
  "uk": 3619,
  "rig": 3620,
  "Ġwait": 3621,
  "Ġappropri": 3622,
  "Ġdemon": 3623,
  "ĠCourt": 3624,
  "rael": 3625,
  "Ġunderstanding": 3626,
  "Ġtur": 3627,
  "Ġinform": 3628,
  "OL": 3629,
  "Ġer": 3630,
  "Ġregion": 3631,
  "ancing": 3632,
  "Ġsolutions": 3633,
  "Ġteams": 3634,
  "rows": 3635,
  "AD": 3636,
  "Ġannounced": 3637,
  "ĠPaul": 3638,
  "ibrary": 3639,
  "ashion": 3640,
  "Ġschools": 3641,
  "Ġemot": 3642,
  "set": 3643,
  "imin": 3644,
  "Ġimpress": 3645,
  "Here": 3646,
  "ĠEven": 3647,
  "Ġstatement": 3648,
  "ĠMor": 3649,
  "She": 3650,
  "Ġeight": 3651,
  "Ġtrade": 3652,
  "Ġcorpor": 3653,
  "example": 3654,
  "De": 3655,
  "rial": 3656,
  "ĠWeb": 3657,
  "Ġgas": 3658,
  "Ġincreased": 3659,
  "ils": 3660,
  "Ġquarter": 3661,
  "Ġaim": 3662,
  "chan": 3663,
  "Ġhealthy": 3664,
  "omb": 3665,
  "well": 3666,
  "Ġremain": 3667,
  "Ġcapital": 3668,
  "pm": 3669,
  "Ġ=": 3670,
  "Ġshown": 3671,
  "dom": 3672,
  "Ġdire": 3673,
  "orage": 3674,
  "Ġfans": 3675,
  "Ġnormal": 3676,
  "Ġserve": 3677,
  "Ġbudget": 3678,
  "Ġvoice": 3679,
  "Ġrules": 3680,
  "Ġuses": 3681,
  "Ġobtain": 3682,
  "Ġpattern": 3683,
  "ĠProgram": 3684,
  "Ġpicture": 3685,
  "Ġsmart": 3686,
  "Ġloved": 3687,
  "Ġnumbers": 3688,
  "Ġrequirements": 3689,
  "ĠFebruary": 3690,
  "ube": 3691,
  "ĠAlso": 3692,
  "Ġpoor": 3693,
  "Ġsurv": 3694,
  "Ġdevices": 3695,
  "New": 3696,
  "cks": 3697,
  "Ġroll": 3698,
  "que": 3699,
  "Ġscient": 3700,
  "Ġbillion": 3701,
  "aled": 3702,
  "ĠProf": 3703,
  "ĠMet": 3704,
  "ĠGreat": 3705,
  "Ġextend": 3706,
  "Ġapplications": 3707,
  "ĠÂ£": 3708,
  "estern": 3709,
  "place": 3710,
  "Ġinstru": 3711,
  "ĠInternet": 3712,
  "Ġcert": 3713,
  "Ġrelig": 3714,
  "Ġcateg": 3715,
  "ĠTrans": 3716,
  "inner": 3717,
  "Ġgrand": 3718,
  "pen": 3719,
  "Ġfederal": 3720,
  "Ġinvestment": 3721,
  "Ġoverall": 3722,
  "isl": 3723,
  "amm": 3724,
  "Ġproced": 3725,
  "IG": 3726,
  "Ġcouldn": 3727,
  "Ġmeaning": 3728,
  "Ġallowed": 3729,
  "Ġopin": 3730,
  "Ġbeyond": 3731,
  "ĠGreen": 3732,
  "isf": 3733,
  "Ġcomments": 3734,
  "ĠEar": 3735,
  "Ġfrequ": 3736,
  "change": 3737,
  "Ġhappened": 3738,
  "vision": 3739,
  "Ġacqu": 3740,
  "Ġscience": 3741,
  "ĠJack": 3742,
  "Ġaward": 3743,
  "Ġund": 3744,
  "Ġfem": 3745,
  "cause": 3746,
  "27": 3747,
  "gen": 3748,
  "anch": 3749,
  "Ġalthough": 3750,
  "icate": 3751,
  "Ġstrugg": 3752,
  "Ġmiddle": 3753,
  "ĠBusiness": 3754,
  "Ġincreasing": 3755,
  "Ġchanged": 3756,
  "Ġrates": 3757,
  "order": 3758,
  "Ġbenefit": 3759,
  "Un": 3760,
  "By": 3761,
  "Ġmeasure": 3762,
  "ĠAssociation": 3763,
  "ecutive": 3764,
  "ban": 3765,
  "ech": 3766,
  "ĠSystem": 3767,
  "Ġapart": 3768,
  "Ġimmediately": 3769,
  "Ġletter": 3770,
  "itiz": 3771,
  "Ġreduce": 3772,
  "Ġchurch": 3773,
  "arc": 3774,
  "Ġliter": 3775,
  "Ġforce": 3776,
  "Ġconstruction": 3777,
  "ĠLet": 3778,
  "Ġmax": 3779,
  "force": 3780,
  "Ġresponsible": 3781,
  "Ġshop": 3782,
  "Ġcandid": 3783,
  "Ġreasons": 3784,
  "ously": 3785,
  "Ġjobs": 3786,
  "ĠRom": 3787,
  "ĠHome": 3788,
  "Ġsupply": 3789,
  "Ġglass": 3790,
  "nded": 3791,
  "Ġload": 3792,
  "ĠServices": 3793,
  "Ġden": 3794,
  "Ġadvice": 3795,
  "Ġmachine": 3796,
  "mp": 3797,
  "Now": 3798,
  "Ġstrateg": 3799,
  "Ġenh": 3800,
  "Ġmiles": 3801,
  "house": 3802,
  "Ġ29": 3803,
  "Ġpatient": 3804,
  "Ġble": 3805,
  "iable": 3806,
  "Ġoffered": 3807,
  "26": 3808,
  "see": 3809,
  "ĠThursday": 3810,
  "Ġfat": 3811,
  "Ġwww": 3812,
  "ĠIS": 3813,
  "Ġbill": 3814,
  "Ġpet": 3815,
  "Ġcold": 3816,
  "Ġcommercial": 3817,
  "ĠCanada": 3818,
  "Ġahead": 3819,
  "Ġgone": 3820,
  "Ġcontain": 3821,
  "Ġowners": 3822,
  "ago": 3823,
  "reci": 3824,
  "ĠBoard": 3825,
  "Ġannual": 3826,
  "DA": 3827,
  "Ġcancer": 3828,
  "While": 3829,
  "Ġchallenge": 3830,
  "Ġ197": 3831,
  "ĠIsrael": 3832,
  "Ġmer": 3833,
  "Ġstudies": 3834,
  "ĠJesus": 3835,
  "Ġhus": 3836,
  "Ġhundred": 3837,
  "Ġperhaps": 3838,
  "Ġ2019": 3839,
  "Ġsale": 3840,
  "Ġlik": 3841,
  "Ġalbum": 3842,
  "ĠAss": 3843,
  "Ġguide": 3844,
  "ĠTuesday": 3845,
  "etic": 3846,
  "Ġadvert": 3847,
  "28": 3848,
  "Ġtrou": 3849,
  "ĠIndian": 3850,
  "ĠOther": 3851,
  "Ġpow": 3852,
  "olf": 3853,
  "Ġassociated": 3854,
  "Ġprefer": 3855,
  "Ġgreater": 3856,
  "Ġhelped": 3857,
  "ĠResearch": 3858,
  "Ġwild": 3859,
  "Ġdegree": 3860,
  "Ġconc": 3861,
  "Ġproduce": 3862,
  "Ġtruly": 3863,
  "Ġfra": 3864,
  "Ġcru": 3865,
  "Is": 3866,
  "Ġpowerful": 3867,
  "iant": 3868,
  "Ġaspect": 3869,
  "Ġdefinitely": 3870,
  "iling": 3871,
  "Ġlargest": 3872,
  "rief": 3873,
  "Ġnamed": 3874,
  "Ġclin": 3875,
  "ĠInter": 3876,
  "Ġbasis": 3877,
  "Ġgirls": 3878,
  "Ġsociety": 3879,
  "Ġspread": 3880,
  "Ġabsolute": 3881,
  "Ġdamage": 3882,
  "100": 3883,
  "Ġsust": 3884,
  "ĠGet": 3885,
  "olic": 3886,
  "Ġslight": 3887,
  "ties": 3888,
  "Ġactive": 3889,
  "Ġreflect": 3890,
  "Ġchem": 3891,
  "pa": 3892,
  "ulated": 3893,
  "Ġfollowed": 3894,
  "Ġdang": 3895,
  "ĠMod": 3896,
  "ĠHall": 3897,
  "Ġdouble": 3898,
  "Ġaren": 3899,
  "istics": 3900,
  "ST": 3901,
  "ĠBook": 3902,
  "ĠAnge": 3903,
  "Ġeval": 3904,
  "inger": 3905,
  "Ġmoved": 3906,
  "Ġjoin": 3907,
  "Ġclient": 3908,
  "iny": 3909,
  "Ġprofession": 3910,
  "Ġguy": 3911,
  "LE": 3912,
  "Ġblue": 3913,
  "coming": 3914,
  "Ġdoctor": 3915,
  "Ġeconomy": 3916,
  "Ġessay": 3917,
  "Ġbrother": 3918,
  "care": 3919,
  "akers": 3920,
  "ĠCong": 3921,
  "Ġaccur": 3922,
  "Ġessential": 3923,
  "Ġsports": 3924,
  "Ġoffering": 3925,
  "ĠCouncil": 3926,
  "leg": 3927,
  "ĠRet": 3928,
  "Ġ2006": 3929,
  "Ġstrategy": 3930,
  "ffee": 3931,
  "orrow": 3932,
  "Ġlines": 3933,
  "ĠAnt": 3934,
  "Ġstar": 3935,
  "ĠDel": 3936,
  "IP": 3937,
  "ĠMichael": 3938,
  "ĠWednesday": 3939,
  "Ġpages": 3940,
  "Ġopening": 3941,
  "ker": 3942,
  "osing": 3943,
  "Ġstick": 3944,
  "Ġsteps": 3945,
  "Ġing": 3946,
  "ĠIT": 3947,
  "Ġefforts": 3948,
  "Ġphoto": 3949,
  "ĠGold": 3950,
  "Ġweather": 3951,
  "ooth": 3952,
  "Ġfaith": 3953,
  "Ġgar": 3954,
  "Ġdelivery": 3955,
  "iment": 3956,
  "istry": 3957,
  "rey": 3958,
  "33": 3959,
  "ĠPort": 3960,
  "ĠChristmas": 3961,
  "Ġbrain": 3962,
  "Ġpopulation": 3963,
  "bed": 3964,
  "ĠDist": 3965,
  "Ġbottom": 3966,
  "Ġsurround": 3967,
  "Ġadvantage": 3968,
  "Ġeasier": 3969,
  "ĠBra": 3970,
  "IV": 3971,
  "OW": 3972,
  "Ġsetting": 3973,
  "Ġfab": 3974,
  "Ġorigin": 3975,
  "Ġfinish": 3976,
  "Ġcompl": 3977,
  "ĠTex": 3978,
  "udd": 3979,
  "ĠMany": 3980,
  "90": 3981,
  "Ġadjust": 3982,
  "Ġstructure": 3983,
  "atively": 3984,
  "ĠChristian": 3985,
  "Ġnotice": 3986,
  "Ġcamera": 3987,
  "Com": 3988,
  "ĠLord": 3989,
  "apter": 3990,
  "erry": 3991,
  "Ġguys": 3992,
  "Ġlots": 3993,
  "Ġbreat": 3994,
  "ĠJames": 3995,
  "Ġworkers": 3996,
  "ĠEduc": 3997,
  "Ġwonderful": 3998,
  "useum": 3999,
  "ĠEuropean": 4000,
  "ĠOF": 4001,
  "Ġcash": 4002,
  "ado": 4003,
  "Ġpartner": 4004,
  "Ġnut": 4005,
  "ulf": 4006,
  "Ġcompared": 4007,
  "ampions": 4008,
  "Ġleader": 4009,
  "amic": 4010,
  "Ġmovement": 4011,
  "ĠYear": 4012,
  "Ġcry": 4013,
  "unte": 4014,
  "Ġserved": 4015,
  "Ġoccas": 4016,
  "Ġpros": 4017,
  "Ġlength": 4018,
  "Ġbasic": 4019,
  "ĠCle": 4020,
  "ico": 4021,
  "Ġkept": 4022,
  "These": 4023,
  "Ġ2020": 4024,
  "Ġruns": 4025,
  "itude": 4026,
  "Ġborn": 4027,
  "Ġcoffee": 4028,
  "Ġbeg": 4029,
  "Ġframe": 4030,
  "ĠSuper": 4031,
  "lying": 4032,
  "Ġwouldn": 4033,
  "hips": 4034,
  "ĠPC": 4035,
  "ĠOffice": 4036,
  "ourney": 4037,
  "Ġregarding": 4038,
  "ĠBritish": 4039,
  "ĠRem": 4040,
  "?\"": 4041,
  "Ġappreci": 4042,
  "ander": 4043,
  "ĠMicro": 4044,
  "Ġobv": 4045,
  "ĠBel": 4046,
  "ĠTy": 4047,
  "term": 4048,
  "ĠGeneral": 4049,
  "oos": 4050,
  "ĠAny": 4051,
  "Ġhelping": 4052,
  "icip": 4053,
  "ero": 4054,
  "Ġpeace": 4055,
  "Ġlearned": 4056,
  "Ġcompon": 4057,
  "TH": 4058,
  "amin": 4059,
  "Ġtruth": 4060,
  "Ġclot": 4061,
  "Ġtrain": 4062,
  "ĠBill": 4063,
  "Ġesc": 4064,
  "Ġappropriate": 4065,
  "Ġkitchen": 4066,
  "ĠPlay": 4067,
  "Ġstrength": 4068,
  "Ġdied": 4069,
  "Ġpictures": 4070,
  "Ġreb": 4071,
  "ustr": 4072,
  "Ġsweet": 4073,
  "Ġcreative": 4074,
  "____": 4075,
  "bon": 4076,
  "Ġreplace": 4077,
  "Ġexisting": 4078,
  "ĠRock": 4079,
  "ĠGood": 4080,
  "Ġfinished": 4081,
  "OV": 4082,
  "anging": 4083,
  "ĠFlor": 4084,
  "Ġhotel": 4085,
  "Ġcontinued": 4086,
  "ĠOver": 4087,
  "Ġsuff": 4088,
  "igned": 4089,
  "ĠRich": 4090,
  "Ġhusband": 4091,
  "ĠSur": 4092,
  "ifying": 4093,
  "mat": 4094,
  "Ġrepe": 4095,
  "Ġattract": 4096,
  "ken": 4097,
  "oving": 4098,
  "ĠMarket": 4099,
  "asy": 4100,
  "ĠBest": 4101,
  "Ġinternet": 4102,
  "Ġcritical": 4103,
  "Ġincome": 4104,
  "ĠMac": 4105,
  "soft": 4106,
  "imal": 4107,
  "Ġanti": 4108,
  "Se": 4109,
  "Ġir": 4110,
  "Ġwear": 4111,
  "ĠDevelop": 4112,
  "Ġexpand": 4113,
  "Ġpassed": 4114,
  "ĠReview": 4115,
  "Ġiniti": 4116,
  "Ġcalls": 4117,
  "Ġhom": 4118,
  "Ġtransfer": 4119,
  "using": 4120,
  "Ġvehicle": 4121,
  "IM": 4122,
  "29": 4123,
  "Ġcast": 4124,
  "Ġlarger": 4125,
  "Ġprotection": 4126,
  "Ġorganizations": 4127,
  "vere": 4128,
  "ĠRec": 4129,
  "Ġcompleted": 4130,
  "ologies": 4131,
  "Ġtransport": 4132,
  "Ġgun": 4133,
  "acity": 4134,
  "ĠBen": 4135,
  "ĠPri": 4136,
  "Ġconference": 4137,
  "Ġsatisf": 4138,
  "Ġafford": 4139,
  "Ġplus": 4140,
  "Ġappoint": 4141,
  "hens": 4142,
  "edding": 4143,
  "Ġunf": 4144,
  "rapy": 4145,
  "Ġseeing": 4146,
  "ĠSpr": 4147,
  "Don": 4148,
  "Ġwine": 4149,
  "Ġsurface": 4150,
  "itect": 4151,
  "ij": 4152,
  "ĠWindows": 4153,
  "ĠSl": 4154,
  "Ġgovern": 4155,
  "ĠWork": 4156,
  "ipped": 4157,
  "Ġnove": 4158,
  "ĠCr": 4159,
  "Ġentertain": 4160,
  "Ġtend": 4161,
  "65": 4162,
  "Ġcivil": 4163,
  "Ġgenerally": 4164,
  "Ġcharacters": 4165,
  "eria": 4166,
  "sey": 4167,
  "Ġfant": 4168,
  "lands": 4169,
  "Ġexperienced": 4170,
  "ĠBig": 4171,
  "Ġfigure": 4172,
  "Ġhaven": 4173,
  "rupt": 4174,
  "Ġthank": 4175,
  "ĠWhy": 4176,
  "Ġaudience": 4177,
  "Ġwat": 4178,
  "iced": 4179,
  "Ġdisapp": 4180,
  "icine": 4181,
  "ady": 4182,
  "Ġbackground": 4183,
  "ĠChurch": 4184,
  "Ġhomes": 4185,
  "ĠEv": 4186,
  "Ġgift": 4187,
  "ĠAv": 4188,
  "text": 4189,
  "icon": 4190,
  "gn": 4191,
  "Ġknows": 4192,
  "friend": 4193,
  "ĠFound": 4194,
  "Ġconnection": 4195,
  "Ġtoward": 4196,
  "ĠAnn": 4197,
  "Ġâ": 4198,
  "EM": 4199,
  "odes": 4200,
  "Ġarr": 4201,
  "Ġreviews": 4202,
  "Ġcentury": 4203,
  "ports": 4204,
  "Ġfan": 4205,
  "Ġreality": 4206,
  "Ġacadem": 4207,
  "rees": 4208,
  "Ġdriving": 4209,
  "ston": 4210,
  "Please": 4211,
  "ĠAustralia": 4212,
  "Ġpieces": 4213,
  "Ġcontinu": 4214,
  "Ġsecret": 4215,
  "ĠPress": 4216,
  "Ġstatus": 4217,
  "Ġmist": 4218,
  "ervation": 4219,
  "ĠSol": 4220,
  "Ġpsych": 4221,
  "AA": 4222,
  "dule": 4223,
  "box": 4224,
  "ĠBank": 4225,
  "Ġprot": 4226,
  "Ġmechan": 4227,
  "Not": 4228,
  "Ġbatter": 4229,
  "uman": 4230,
  "Ġextremely": 4231,
  "ae": 4232,
  "aming": 4233,
  "ĠRoad": 4234,
  "ĠCompany": 4235,
  "raw": 4236,
  "opped": 4237,
  "Ġharm": 4238,
  "Ġvirt": 4239,
  "gency": 4240,
  "ĠST": 4241,
  "pective": 4242,
  "Ġbiggest": 4243,
  "ros": 4244,
  "ĠFrench": 4245,
  "Ġguarant": 4246,
  "ĠManagement": 4247,
  "ores": 4248,
  "ĠTexas": 4249,
  "ios": 4250,
  "Ġdaughter": 4251,
  "ĠOh": 4252,
  "ĠMart": 4253,
  "Ġincred": 4254,
  "Ġhighest": 4255,
  "Ġrequires": 4256,
  "Ġ@": 4257,
  "ĠMem": 4258,
  "annel": 4259,
  "Some": 4260,
  "iled": 4261,
  "Ġonto": 4262,
  "Ar": 4263,
  "Ġdemonstr": 4264,
  "Ġestablished": 4265,
  "Ġbath": 4266,
  "Ġwhatever": 4267,
  "ĠRober": 4268,
  "Ġvill": 4269,
  "azine": 4270,
  "75": 4271,
  "Ġactual": 4272,
  "Ġ80": 4273,
  "porary": 4274,
  "Ġelectric": 4275,
  "oves": 4276,
  "OP": 4277,
  "Ġstorage": 4278,
  "ĠThom": 4279,
  "Ġolder": 4280,
  "ĠMary": 4281,
  "Ġmill": 4282,
  "ĠSun": 4283,
  "Ġmission": 4284,
  "Ġstream": 4285,
  "Ġrich": 4286,
  "Ġmanager": 4287,
  "with": 4288,
  "Do": 4289,
  "asure": 4290,
  "Ġstation": 4291,
  "UR": 4292,
  "know": 4293,
  "ĠTime": 4294,
  "Ġlock": 4295,
  "phone": 4296,
  "Ġmatt": 4297,
  "osure": 4298,
  "Ġhighlight": 4299,
  "ĠSam": 4300,
  "umn": 4301,
  "ĠSupp": 4302,
  "Ġcollabor": 4303,
  "CH": 4304,
  "Ġton": 4305,
  "Ġnames": 4306,
  "Ġcommit": 4307,
  "itar": 4308,
  "Ġseemed": 4309,
  "ĠInstitute": 4310,
  "Ġmaster": 4311,
  "500": 4312,
  "Ġmeant": 4313,
  "entially": 4314,
  "Ġrare": 4315,
  "rowd": 4316,
  "**": 4317,
  "kin": 4318,
  "ĠDemocr": 4319,
  "ĠTwitter": 4320,
  "Ġstreet": 4321,
  "Ġestablish": 4322,
  "ĠRob": 4323,
  "Ġmemory": 4324,
  "Ġmodels": 4325,
  "iers": 4326,
  "Ġprimary": 4327,
  "oices": 4328,
  "Ġchallenges": 4329,
  "Ġhospital": 4330,
  "Ġvir": 4331,
  "Ġunit": 4332,
  "mpt": 4333,
  "Con": 4334,
  "ĠPublic": 4335,
  "Ġrob": 4336,
  "Ġproduced": 4337,
  "Ġbalance": 4338,
  "ĠJew": 4339,
  "la": 4340,
  "aven": 4341,
  "Ġheavy": 4342,
  "za": 4343,
  "Ġguid": 4344,
  "ĠPeople": 4345,
  "Ġ31": 4346,
  "Ġargu": 4347,
  "ĠPhil": 4348,
  "rian": 4349,
  "Ġmonitor": 4350,
  "ĠMag": 4351,
  "encies": 4352,
  "Ġcards": 4353,
  "Ġdeveloping": 4354,
  "Ġmanufacture": 4355,
  "ĠHot": 4356,
  "ĠDirector": 4357,
  "acing": 4358,
  "Ġfactors": 4359,
  "Ġresist": 4360,
  "CC": 4361,
  "Ġtherefore": 4362,
  "ĠApple": 4363,
  "Ġtim": 4364,
  "itors": 4365,
  "âĢĿ,": 4366,
  "isco": 4367,
  "ucky": 4368,
  "Ġplaced": 4369,
  "ocal": 4370,
  "Ġremains": 4371,
  "look": 4372,
  "iture": 4373,
  "Ġrefer": 4374,
  "ortunately": 4375,
  "men": 4376,
  "Ġuseful": 4377,
  "ki": 4378,
  "atically": 4379,
  "Ġguess": 4380,
  "ĠOnce": 4381,
  "ses": 4382,
  "Ġcentral": 4383,
  "estival": 4384,
  "Ġcolle": 4385,
  "ĠDesign": 4386,
  "Ġlegisl": 4387,
  "Ġkick": 4388,
  "Ġstandards": 4389,
  "nding": 4390,
  "orial": 4391,
  "Ġfiles": 4392,
  "ĠSee": 4393,
  "Ġcommunities": 4394,
  "Ġdrop": 4395,
  "Ġvision": 4396,
  "Ġcovered": 4397,
  "ĠLife": 4398,
  "Ġmethods": 4399,
  "Ġremind": 4400,
  "Ġsexual": 4401,
  "Ġ35": 4402,
  "Ġ90": 4403,
  "gers": 4404,
  "Ġcomfortable": 4405,
  "Ġcitiz": 4406,
  "ula": 4407,
  "Ġpaint": 4408,
  "reak": 4409,
  "ĠCap": 4410,
  "Ġexhib": 4411,
  "Ġbecomes": 4412,
  "Ġbehavior": 4413,
  "ĠSub": 4414,
  "standing": 4415,
  "Ġpayment": 4416,
  "Ġparties": 4417,
  "Ġbow": 4418,
  "Ġ2005": 4419,
  "Ġcells": 4420,
  "ĠRiver": 4421,
  "roud": 4422,
  "ĠClass": 4423,
  "ĠCamp": 4424,
  "Ġwindow": 4425,
  "ĠBecause": 4426,
  "Ġmicro": 4427,
  "Ġsumm": 4428,
  "yer": 4429,
  "Ġscen": 4430,
  "Ġevening": 4431,
  "enses": 4432,
  "ĠPR": 4433,
  "ĠPlan": 4434,
  "Ġviews": 4435,
  "iller": 4436,
  "ulate": 4437,
  "riage": 4438,
  "Ġjourney": 4439,
  "gl": 4440,
  "âĢĺ": 4441,
  "Ġvictim": 4442,
  "Ġcommunication": 4443,
  "Ġscene": 4444,
  "uled": 4445,
  "do": 4446,
  "ĠCommission": 4447,
  "Ġshared": 4448,
  "ĠHel": 4449,
  "inn": 4450,
  "Ġadop": 4451,
  "Ġexperiences": 4452,
  "Ġbeat": 4453,
  "ĠFlorida": 4454,
  ");": 4455,
  "Ġhappens": 4456,
  "Ġretail": 4457,
  "Ġselection": 4458,
  "Ġflav": 4459,
  "Ġlinks": 4460,
  "Pl": 4461,
  "ĠBay": 4462,
  "works": 4463,
  "Ġdescribed": 4464,
  "Ġvote": 4465,
  "enture": 4466,
  "vention": 4467,
  "ĠWhe": 4468,
  "Ġwaiting": 4469,
  "Ġfinding": 4470,
  "Ġthousands": 4471,
  "Ġspending": 4472,
  "ĠEach": 4473,
  "berg": 4474,
  "Ġofficials": 4475,
  "Ġfurn": 4476,
  "ota": 4477,
  "Ġposted": 4478,
  "olly": 4479,
  "Ġfashion": 4480,
  "ror": 4481,
  "Â®": 4482,
  "Ġsenior": 4483,
  "ipe": 4484,
  "Ġdetermine": 4485,
  "From": 4486,
  "eed": 4487,
  "Ġjump": 4488,
  "Ġopened": 4489,
  "ĠPet": 4490,
  "but": 4491,
  "ĠEngland": 4492,
  "ĠCongress": 4493,
  "gal": 4494,
  "ĠSince": 4495,
  "oyal": 4496,
  "Ġlimit": 4497,
  "ĠClub": 4498,
  "Ġsem": 4499,
  "34": 4500,
  "olate": 4501,
  "Ġrecords": 4502,
  "Ġutil": 4503,
  "Ġkeeping": 4504,
  "Ġtips": 4505,
  "Ġmajority": 4506,
  "ENT": 4507,
  "Ġwatching": 4508,
  "amily": 4509,
  "Ġsecure": 4510,
  "Ġearth": 4511,
  "Ġforms": 4512,
  "Ġtesting": 4513,
  "cles": 4514,
  "Ġforget": 4515,
  "ooper": 4516,
  "Ġteaching": 4517,
  "Ġradio": 4518,
  "itness": 4519,
  "state": 4520,
  "Ġdecide": 4521,
  "\",": 4522,
  "Ġthanks": 4523,
  "Ġoperations": 4524,
  "osition": 4525,
  "Ġtraffic": 4526,
  "ĠAP": 4527,
  "ĠCare": 4528,
  "point": 4529,
  "atab": 4530,
  "Ġtechnical": 4531,
  "Ġclaims": 4532,
  "Ġgain": 4533,
  "ĠEducation": 4534,
  "ĠMiss": 4535,
  "ĠMex": 4536,
  "ĠHist": 4537,
  "Ġearn": 4538,
  "iques": 4539,
  "Ġjournal": 4540,
  "Ġowner": 4541,
  "orney": 4542,
  "mail": 4543,
  "Ġmulti": 4544,
  "Ġpray": 4545,
  "Ġcontinues": 4546,
  "free": 4547,
  "95": 4548,
  "last": 4549,
  "edy": 4550,
  "Ġwaste": 4551,
  "anta": 4552,
  "Ġplenty": 4553,
  "semb": 4554,
  "Ġshowed": 4555,
  "iency": 4556,
  "Ġlaunch": 4557,
  "ona": 4558,
  "Ġprec": 4559,
  "rab": 4560,
  "Ġcaused": 4561,
  "lig": 4562,
  "Ġsolid": 4563,
  "Ġlabor": 4564,
  "overy": 4565,
  "Ġexclus": 4566,
  "gment": 4567,
  "Ġthus": 4568,
  "pet": 4569,
  "ym": 4570,
  "Ġpolic": 4571,
  "oto": 4572,
  "Ġcompetition": 4573,
  "ented": 4574,
  "ellow": 4575,
  "Ġexercise": 4576,
  "ette": 4577,
  "azon": 4578,
  "Ġappears": 4579,
  "Ġelements": 4580,
  "Ġotherwise": 4581,
  "ĠSmith": 4582,
  "Ġpresented": 4583,
  "ĠScience": 4584,
  "roy": 4585,
  "Ġrap": 4586,
  "spe": 4587,
  "Ġlose": 4588,
  "Ġmail": 4589,
  "Ġmanage": 4590,
  "Ġestim": 4591,
  "iation": 4592,
  "Ġeth": 4593,
  "ĠUSA": 4594,
  "Ġdep": 4595,
  "Ġneighbor": 4596,
  "Ab": 4597,
  "apers": 4598,
  "Ġrule": 4599,
  "osh": 4600,
  "Ġtrial": 4601,
  "Ġwinter": 4602,
  "asp": 4603,
  "ĠBrown": 4604,
  "ĠUse": 4605,
  "ĠDec": 4606,
  "itz": 4607,
  "estic": 4608,
  "Ġsources": 4609,
  "ĠTom": 4610,
  "Ġagency": 4611,
  "Ġupdate": 4612,
  "Cont": 4613,
  "Ġmentioned": 4614,
  "Ġfish": 4615,
  "actions": 4616,
  "ĠLake": 4617,
  "omin": 4618,
  "Ġtrail": 4619,
  "pan": 4620,
  "Ġsustain": 4621,
  "ternal": 4622,
  "Ġprepared": 4623,
  "miss": 4624,
  "Ġremove": 4625,
  "Post": 4626,
  "Ġgrant": 4627,
  "Ġcris": 4628,
  "Ġepis": 4629,
  "inese": 4630,
  "Ġtemperature": 4631,
  "Ġdirection": 4632,
  "Ġleadership": 4633,
  "ĠRel": 4634,
  "fast": 4635,
  "Ġ70": 4636,
  "ste": 4637,
  "Ġideal": 4638,
  "Ġsand": 4639,
  "Ġsnow": 4640,
  "ĠMount": 4641,
  "ildren": 4642,
  "ĠAlex": 4643,
  "osis": 4644,
  "ĠTO": 4645,
  "Ġimpl": 4646,
  "nect": 4647,
  "ĠLou": 4648,
  "Ġadvance": 4649,
  "Ġbul": 4650,
  "Ġice": 4651,
  "lor": 4652,
  "ĠTor": 4653,
  "Ġclearly": 4654,
  "Ġefficient": 4655,
  "Ġanimals": 4656,
  "Ġactions": 4657,
  "ĠInformation": 4658,
  "Ġtask": 4659,
  "44": 4660,
  "ĠGeorge": 4661,
  "ĠAlthough": 4662,
  "Ġvalues": 4663,
  "night": 4664,
  "Ġwilling": 4665,
  "cript": 4666,
  "ctors": 4667,
  "Ġvideos": 4668,
  "Ġended": 4669,
  "ĠOnline": 4670,
  "ĠMat": 4671,
  "Ġboo": 4672,
  "Ġapprox": 4673,
  "Ġcraft": 4674,
  "ception": 4675,
  "Ġpassion": 4676,
  "ĠSil": 4677,
  "hy": 4678,
  "Ġspring": 4679,
  "roid": 4680,
  "RA": 4681,
  "Ġwhom": 4682,
  "Ġexcited": 4683,
  "ĠTop": 4684,
  "Ġtree": 4685,
  "Ġfol": 4686,
  "Ġleaving": 4687,
  "Ġpractices": 4688,
  "Ġcatch": 4689,
  "ading": 4690,
  "Ġhar": 4691,
  "ĠCD": 4692,
  "unction": 4693,
  "inct": 4694,
  "antic": 4695,
  "Ġdepartment": 4696,
  "Ġcrowd": 4697,
  "Ġmort": 4698,
  "Me": 4699,
  "Ġgraph": 4700,
  "Ġvolunte": 4701,
  "ordin": 4702,
  "Ġfunds": 4703,
  "ĠBur": 4704,
  "ĠFore": 4705,
  "Ġforeign": 4706,
  "alls": 4707,
  "ĠStar": 4708,
  "Ġstarts": 4709,
  "ĠMake": 4710,
  "Ġingred": 4711,
  "icago": 4712,
  "Ġbutton": 4713,
  "Ġlaws": 4714,
  "Ġindependent": 4715,
  "inc": 4716,
  "Ġpoll": 4717,
  "Ġpool": 4718,
  "Ġlisted": 4719,
  "Ġship": 4720,
  "Ġcoach": 4721,
  "Ġbird": 4722,
  "ads": 4723,
  "Ġadding": 4724,
  "More": 4725,
  "Ġwelcome": 4726,
  "Ġsty": 4727,
  "Ġpair": 4728,
  "Ġfamous": 4729,
  "36": 4730,
  "Ġrelax": 4731,
  "ags": 4732,
  "ĠAfrica": 4733,
  "Ġdespite": 4734,
  "ĠWood": 4735,
  "outhern": 4736,
  "ĠStr": 4737,
  "Ġkid": 4738,
  "Ġopinion": 4739,
  "ront": 4740,
  "Ġraised": 4741,
  "ipp": 4742,
  "Ġthrow": 4743,
  "ript": 4744,
  "Ġcapacity": 4745,
  "water": 4746,
  "ferences": 4747,
  "imb": 4748,
  "Ġbecoming": 4749,
  "Ġshowing": 4750,
  "Ġdedicated": 4751,
  "door": 4752,
  "Ġshopping": 4753,
  "Ġ>": 4754,
  "Ġsugar": 4755,
  "Ġfootball": 4756,
  "ĠDet": 4757,
  "Ġkilled": 4758,
  "rd": 4759,
  "Ġbrief": 4760,
  "Bl": 4761,
  "craft": 4762,
  "Ġdecisions": 4763,
  "cont": 4764,
  "Ġflex": 4765,
  "Ġincor": 4766,
  "Ad": 4767,
  "Ġsympt": 4768,
  "Ġign": 4769,
  "ĠGovernment": 4770,
  "Ġdocuments": 4771,
  "Ġhonest": 4772,
  "ishes": 4773,
  "ĠLear": 4774,
  "Ġdiet": 4775,
  "Ġcounter": 4776,
  "esterday": 4777,
  "Ġspecies": 4778,
  "Ġbright": 4779,
  "Ġcontains": 4780,
  "Ġdiscover": 4781,
  "Ġdriver": 4782,
  "32": 4783,
  "Ġmur": 4784,
  "Ġartist": 4785,
  "Ġclasses": 4786,
  "Ġsession": 4787,
  "Ġschedule": 4788,
  "active": 4789,
  "ĠBlue": 4790,
  "Ġrestaurant": 4791,
  "Why": 4792,
  "gery": 4793,
  "ĠPower": 4794,
  "Ġclosed": 4795,
  "PA": 4796,
  "ĠBer": 4797,
  "Ġconven": 4798,
  "abilities": 4799,
  "Ġmanaged": 4800,
  "Ġshape": 4801,
  "Ġfill": 4802,
  "Ġcasino": 4803,
  "ĠAND": 4804,
  "ĠSing": 4805,
  "Ġrank": 4806,
  "Ġinjury": 4807,
  "ĠSa": 4808,
  "ĠCur": 4809,
  "38": 4810,
  "Ġcore": 4811,
  "Ġvs": 4812,
  "how": 4813,
  "reek": 4814,
  "Ġsched": 4815,
  "ĠVir": 4816,
  "Ġchair": 4817,
  "Ġfacilities": 4818,
  "Ġenvironmental": 4819,
  "Ġmostly": 4820,
  "Ġdiagn": 4821,
  "iliar": 4822,
  "ĠLike": 4823,
  "word": 4824,
  "ĠSal": 4825,
  "cket": 4826,
  "Ġidentify": 4827,
  "55": 4828,
  "Ġegg": 4829,
  "Ġslightly": 4830,
  "aked": 4831,
  "Ġresidents": 4832,
  "ĠAmericans": 4833,
  "ĠUnder": 4834,
  "Ġbuying": 4835,
  "Ġdiscussion": 4836,
  "ka": 4837,
  "Ġ196": 4838,
  "Ġsmaller": 4839,
  "fit": 4840,
  "Ġproud": 4841,
  "tenance": 4842,
  "Ġseparate": 4843,
  "ugg": 4844,
  "ĠCommittee": 4845,
  "arge": 4846,
  "Ġshut": 4847,
  "Ġminute": 4848,
  "Ġhandle": 4849,
  "Ġnotes": 4850,
  "life": 4851,
  "OD": 4852,
  "Ġbon": 4853,
  "Ġvisual": 4854,
  "Ġflu": 4855,
  "Ġreturned": 4856,
  "Ġcombination": 4857,
  "MS": 4858,
  "Ġexperts": 4859,
  "Ġnumerous": 4860,
  "Your": 4861,
  "ĠVol": 4862,
  "37": 4863,
  "Ġbought": 4864,
  "Ġcorner": 4865,
  "ĠCarol": 4866,
  "Ġchanging": 4867,
  "while": 4868,
  "Ġmotor": 4869,
  "Ġrelationships": 4870,
  "icks": 4871,
  "icken": 4872,
  "Ġpreviously": 4873,
  "iance": 4874,
  "esome": 4875,
  "Ġpresence": 4876,
  "going": 4877,
  "NA": 4878,
  "Ġnor": 4879,
  "ĠWater": 4880,
  "Ġwinning": 4881,
  "Ġcoverage": 4882,
  "ĠAtt": 4883,
  "oop": 4884,
  "Ġsouth": 4885,
  "Ġrat": 4886,
  "ĠJo": 4887,
  "Ġmental": 4888,
  "Ġrelevant": 4889,
  "Ġselected": 4890,
  "BS": 4891,
  "atures": 4892,
  "IA": 4893,
  "ĠLove": 4894,
  "BA": 4895,
  "ulations": 4896,
  "Ġconcerns": 4897,
  "Ġcircum": 4898,
  "ĠScott": 4899,
  "Ġcontext": 4900,
  "Ġarticles": 4901,
  "Ġ2000": 4902,
  "Ġtaste": 4903,
  "Ġagreement": 4904,
  "ini": 4905,
  "ĠClick": 4906,
  "Ġhearing": 4907,
  "ocolate": 4908,
  "Ġadvanced": 4909,
  "Ġoperating": 4910,
  "hab": 4911,
  "Ġpolicies": 4912,
  "cel": 4913,
  "Ġleaves": 4914,
  "Ġasking": 4915,
  "rad": 4916,
  "which": 4917,
  "Ġexplore": 4918,
  "DF": 4919,
  "Ġholiday": 4920,
  "Ġcolors": 4921,
  "outs": 4922,
  "Ġcab": 4923,
  "ĠCheck": 4924,
  "Ġabsolutely": 4925,
  "48": 4926,
  "Ġadapt": 4927,
  "Ġflat": 4928,
  "Ġpackage": 4929,
  "Ġposts": 4930,
  "upp": 4931,
  "Ġjoint": 4932,
  "Ġpal": 4933,
  "umber": 4934,
  "Ġwalking": 4935,
  "Ġsch": 4936,
  "no": 4937,
  "Ġbattle": 4938,
  "Ġcart": 4939,
  "what": 4940,
  "Ġlaun": 4941,
  "Ġthoughts": 4942,
  "uries": 4943,
  "ĠFood": 4944,
  "Ġnorth": 4945,
  "Ġplants": 4946,
  "Ġfreed": 4947,
  "Ġclassic": 4948,
  "ĠVis": 4949,
  "Ġexpensive": 4950,
  "ĠIns": 4951,
  "Get": 4952,
  "Ġconnected": 4953,
  "illa": 4954,
  "Ġworry": 4955,
  "Ġalternative": 4956,
  "Ġreached": 4957,
  "Ġindic": 4958,
  "Ġtransl": 4959,
  "!\"": 4960,
  "win": 4961,
  "ĠTimes": 4962,
  "Ġadministration": 4963,
  "Ġgarden": 4964,
  "osen": 4965,
  "Ġconsid": 4966,
  "Ġbrings": 4967,
  "ya": 4968,
  "Ġsequ": 4969,
  "ĠCentral": 4970,
  "ĠOpen": 4971,
  "known": 4972,
  "Ġleads": 4973,
  "Ġallowing": 4974,
  "Acc": 4975,
  "Ġwedding": 4976,
  "ĠLeague": 4977,
  "Ġfourth": 4978,
  "Ġfocused": 4979,
  "PR": 4980,
  "ĠSum": 4981,
  "Ġcorporate": 4982,
  "May": 4983,
  "Ġencourage": 4984,
  "ĠTur": 4985,
  "umin": 4986,
  "Ġdinner": 4987,
  "ĠDiv": 4988,
  "ĠMicrosoft": 4989,
  "ĠMal": 4990,
  "ĠGrand": 4991,
  "Ġlisten": 4992,
  "Le": 4993,
  "Ġride": 4994,
  "Last": 4995,
  "cient": 4996,
  "Ġdecor": 4997,
  "Ġsitu": 4998,
  "Ġaccompl": 4999,
  "Ġformat": 5000,
  "Ġdut": 5001,
  "Ġrid": 5002,
  "Ġcars": 5003,
  "Ġfabric": 5004,
  "Ġsharing": 5005,
  "Ġap": 5006,
  "Ġforces": 5007,
  "ĠFranc": 5008,
  "top": 5009,
  "Ġestate": 5010,
  "Ġinitial": 5011,
  "Ġdogs": 5012,
  "net": 5013,
  "Ġeating": 5014,
  "IR": 5015,
  "Ġnovel": 5016,
  "Ġspect": 5017,
  "Ġcloud": 5018,
  "ĠChinese": 5019,
  "Ġputting": 5020,
  "Ġfeels": 5021,
  "ĠProfess": 5022,
  "ĠDown": 5023,
  "Ġmouth": 5024,
  "igan": 5025,
  "Ġdoubt": 5026,
  "Ġrain": 5027,
  "Ġ2004": 5028,
  "Ġrise": 5029,
  "orter": 5030,
  "anda": 5031,
  "ĠJer": 5032,
  "Ġnoted": 5033,
  "ĠDevelopment": 5034,
  "Ġeventually": 5035,
  "rag": 5036,
  "TS": 5037,
  "Ġdefense": 5038,
  "usion": 5039,
  "ĠMad": 5040,
  "Ġsounds": 5041,
  "Ġcompar": 5042,
  "Ġminor": 5043,
  "Ġsigned": 5044,
  "Ġteacher": 5045,
  "ixt": 5046,
  "Ġgeneration": 5047,
  "noon": 5048,
  "race": 5049,
  "ushing": 5050,
  "ĠIsland": 5051,
  "Ġconcent": 5052,
  "ĠArch": 5053,
  "Ġunless": 5054,
  "Ġmarkets": 5055,
  "ĠFire": 5056,
  "Ġarm": 5057,
  "Ġsmooth": 5058,
  "isation": 5059,
  "Ġmap": 5060,
  "Ġloan": 5061,
  "Ġarrest": 5062,
  "Ġbeauty": 5063,
  "ĠMil": 5064,
  "Ġprofessionals": 5065,
  "ĠMain": 5066,
  "Ġfunding": 5067,
  "Ġfilled": 5068,
  "ĠYes": 5069,
  "unning": 5070,
  "ĠChicago": 5071,
  "Ġcommitted": 5072,
  "tion": 5073,
  "47": 5074,
  "Ġmo": 5075,
  "coh": 5076,
  "Ġelection": 5077,
  "Ne": 5078,
  "icians": 5079,
  "ĠHill": 5080,
  "that": 5081,
  "Ġresponsibility": 5082,
  "ĠLu": 5083,
  "oles": 5084,
  "Ġdelic": 5085,
  "Ġveget": 5086,
  "ection": 5087,
  "ĠWin": 5088,
  "llig": 5089,
  "Ġselling": 5090,
  "ĠVe": 5091,
  "Ġappeared": 5092,
  "Ġcalc": 5093,
  "ĠTheir": 5094,
  "Ġarchitect": 5095,
  "Des": 5096,
  "ushed": 5097,
  "resp": 5098,
  "Ġfee": 5099,
  "ucle": 5100,
  "Ġunc": 5101,
  "rehens": 5102,
  "igr": 5103,
  "Ġsigns": 5104,
  "Ġoperation": 5105,
  "ears": 5106,
  "Ġfriendly": 5107,
  "rolled": 5108,
  "Ġnegative": 5109,
  "Ġspl": 5110,
  "ructure": 5111,
  "Ġsongs": 5112,
  "fin": 5113,
  "ga": 5114,
  "Ġclimate": 5115,
  "Ġconversation": 5116,
  "Ġseek": 5117,
  "ĠUN": 5118,
  "ĠFrank": 5119,
  "Ġsea": 5120,
  "cher": 5121,
  "Ste": 5122,
  "cipe": 5123,
  "ĠTwo": 5124,
  "ĠHy": 5125,
  "Ġgall": 5126,
  "Ġinfluence": 5127,
  "ĠWomen": 5128,
  "Ġserver": 5129,
  "ĠGerman": 5130,
  "Ġdesk": 5131,
  "Ġassistance": 5132,
  "nel": 5133,
  "ulture": 5134,
  "Ġraise": 5135,
  "ĠProject": 5136,
  "tered": 5137,
  "!âĢĿ": 5138,
  "ĠCustom": 5139,
  "Ġprinci": 5140,
  "oma": 5141,
  "Ġsector": 5142,
  "ĠLin": 5143,
  "ĠSociety": 5144,
  "Ġyouth": 5145,
  "Ġfif": 5146,
  "ĠNY": 5147,
  "Ġfemale": 5148,
  "Ġnine": 5149,
  "Ġroof": 5150,
  "Ġguests": 5151,
  "ograp": 5152,
  "ĠUnion": 5153,
  "ĠBet": 5154,
  "Ġentry": 5155,
  "Ġdistance": 5156,
  "Ġcream": 5157,
  "zen": 5158,
  "Ġfacility": 5159,
  "Ġthr": 5160,
  "idential": 5161,
  "ĠSocial": 5162,
  "rim": 5163,
  "ĠReal": 5164,
  "Ġimportance": 5165,
  "Ġexplain": 5166,
  "Ġpredict": 5167,
  "ius": 5168,
  "Ġforg": 5169,
  "rive": 5170,
  "Ġmanner": 5171,
  "Ġprocesses": 5172,
  "Ġdu": 5173,
  "ĠBack": 5174,
  "ĠMedia": 5175,
  "ifts": 5176,
  "Ġsav": 5177,
  "Ġ45": 5178,
  "Ġacademic": 5179,
  "Ġseconds": 5180,
  "ĠIr": 5181,
  "ĠTeam": 5182,
  "Ġterror": 5183,
  "Ġourselves": 5184,
  "Ġchief": 5185,
  "Ġoptim": 5186,
  "Ġplays": 5187,
  "Ġreaders": 5188,
  "Ġjoined": 5189,
  "Ġedge": 5190,
  "Ġmeasures": 5191,
  "rical": 5192,
  "essions": 5193,
  "Ġalle": 5194,
  "ommod": 5195,
  "Ġdatab": 5196,
  "Ġweap": 5197,
  "ĠMel": 5198,
  "ĠForm": 5199,
  "ĠTest": 5200,
  "Add": 5201,
  "ĠConst": 5202,
  "Ġwriter": 5203,
  "Read": 5204,
  "po": 5205,
  "obe": 5206,
  "ĠEngine": 5207,
  "Ġteachers": 5208,
  "Ġreference": 5209,
  "alled": 5210,
  "Just": 5211,
  "Ġperformed": 5212,
  "arrant": 5213,
  "Ġmetal": 5214,
  "ĠColor": 5215,
  "ye": 5216,
  "Ġcommand": 5217,
  "Ġstated": 5218,
  "Ġshipping": 5219,
  "Ġju": 5220,
  "Ġaccident": 5221,
  "App": 5222,
  "oses": 5223,
  "Ġsurvey": 5224,
  "Ġholding": 5225,
  "Ġcultural": 5226,
  "Ġexciting": 5227,
  "Ġminimum": 5228,
  "Ġdie": 5229,
  "ĠToday": 5230,
  "ĠJournal": 5231,
  "Ġanimal": 5232,
  "ĠAfrican": 5233,
  "ĠFoundation": 5234,
  "ĠCommunity": 5235,
  "Ġremoved": 5236,
  "Ġpregn": 5237,
  "Ġcharges": 5238,
  "ĠEarth": 5239,
  "ĠMer": 5240,
  "Ġtrees": 5241,
  "Ġsymptoms": 5242,
  "ena": 5243,
  "ĠJud": 5244,
  "ilding": 5245,
  "Ġartists": 5246,
  "Ġtransform": 5247,
  "Ġapparent": 5248,
  "atin": 5249,
  "Ġmedium": 5250,
  "Ġinterests": 5251,
  "Ġproperties": 5252,
  "ait": 5253,
  "Ġwire": 5254,
  "Ġresearc": 5255,
  "ĠDistrict": 5256,
  "Ġtypically": 5257,
  "Ġspeech": 5258,
  "Ġsuppl": 5259,
  "poses": 5260,
  "ĠWho": 5261,
  "Ġsets": 5262,
  "Every": 5263,
  "rooms": 5264,
  "Ġswitch": 5265,
  "ĠÃ": 5266,
  "ano": 5267,
  "Ġtells": 5268,
  "you": 5269,
  "Ġconv": 5270,
  "Ġdebt": 5271,
  "ria": 5272,
  "Ġcitizens": 5273,
  "ĠMass": 5274,
  "raq": 5275,
  "Ġtopic": 5276,
  "bert": 5277,
  "SA": 5278,
  "Ġath": 5279,
  "okes": 5280,
  "LA": 5281,
  "Ġquiet": 5282,
  "Ġcheap": 5283,
  "uce": 5284,
  "Ġadults": 5285,
  "Ġchemical": 5286,
  "Ġteach": 5287,
  "Phone": 5288,
  "Ġcalling": 5289,
  "ĠMcC": 5290,
  "ii": 5291,
  "ship": 5292,
  "ogue": 5293,
  "However": 5294,
  "isher": 5295,
  "ĠElect": 5296,
  "Ġran": 5297,
  "Ġarg": 5298,
  "Ġphil": 5299,
  "kins": 5300,
  "Ġfuel": 5301,
  "ĠFrance": 5302,
  "Ġrooms": 5303,
  "39": 5304,
  "istan": 5305,
  "Ġmarried": 5306,
  "idden": 5307,
  "49": 5308,
  "Ġmale": 5309,
  "Ġapplied": 5310,
  "88": 5311,
  "Ġafternoon": 5312,
  "met": 5313,
  "Ġinternal": 5314,
  "den": 5315,
  "Ġsitting": 5316,
  "Ġlived": 5317,
  "CT": 5318,
  "Ġupgr": 5319,
  "Ġban": 5320,
  "Ġbrows": 5321,
  "aser": 5322,
  "Ġstret": 5323,
  "Ġmarriage": 5324,
  "Ġtheme": 5325,
  "ĠThomas": 5326,
  "ĠParty": 5327,
  "Ġcities": 5328,
  "Ġenjoyed": 5329,
  "Ġsupposed": 5330,
  "Ġtechniques": 5331,
  "ĠQue": 5332,
  "31": 5333,
  "ician": 5334,
  "ums": 5335,
  "ĠWall": 5336,
  "Ġunits": 5337,
  "Ġmissing": 5338,
  "ĠRobert": 5339,
  "Ġder": 5340,
  "ĠValley": 5341,
  "ivered": 5342,
  "Ġproperly": 5343,
  "Ġconsumers": 5344,
  "ĠNov": 5345,
  "ĠGermany": 5346,
  "Ġfees": 5347,
  "ĠIts": 5348,
  "Ġdiscount": 5349,
  "Ġwebsites": 5350,
  "Ġliber": 5351,
  "??": 5352,
  "Ġintellig": 5353,
  "01": 5354,
  "ĠLight": 5355,
  "Ġveter": 5356,
  "LC": 5357,
  "Ġpossibly": 5358,
  "cipl": 5359,
  "ĠCEO": 5360,
  "ups": 5361,
  "ĠAmazon": 5362,
  "Ġsteel": 5363,
  "Ġcaught": 5364,
  "Ġinstance": 5365,
  "uration": 5366,
  "ĠPeter": 5367,
  "Ġdistrict": 5368,
  "Well": 5369,
  "Ġmovies": 5370,
  "Ġdepos": 5371,
  "erg": 5372,
  "Ġvan": 5373,
  "Ġdetect": 5374,
  "edia": 5375,
  "ĠCard": 5376,
  "Ġdisp": 5377,
  "Ġsport": 5378,
  "Ġhelpful": 5379,
  "ĠSpecial": 5380,
  "ĠIP": 5381,
  "ĠDi": 5382,
  "ĠJones": 5383,
  "phas": 5384,
  "Ġrecommended": 5385,
  "ĠAcadem": 5386,
  "Ġtotally": 5387,
  "uable": 5388,
  "otic": 5389,
  "Ġproposed": 5390,
  "odies": 5391,
  "ometimes": 5392,
  "Ġviolence": 5393,
  "Ġfailed": 5394,
  "Ġinfl": 5395,
  "ĠRad": 5396,
  "ĠLong": 5397,
  "ĠThanks": 5398,
  "ĠDuring": 5399,
  "Ġexchange": 5400,
  "Ġscale": 5401,
  "ket": 5402,
  "!!!!": 5403,
  "Ġjudge": 5404,
  "orthern": 5405,
  "cluding": 5406,
  "Ġfamiliar": 5407,
  "Ġamb": 5408,
  "Ġbeach": 5409,
  "ĠTre": 5410,
  "Ġshock": 5411,
  "Ġweak": 5412,
  "yan": 5413,
  "ĠExper": 5414,
  "Ġspons": 5415,
  "pected": 5416,
  "ĠWil": 5417,
  "ĠID": 5418,
  "Ġbusy": 5419,
  "SP": 5420,
  "Ġmir": 5421,
  "Ġpurposes": 5422,
  "Ġprofile": 5423,
  "oston": 5424,
  "Ġgreatest": 5425,
  "Ġdecades": 5426,
  "Ġdiscovered": 5427,
  "ĠMot": 5428,
  "ĠVirgin": 5429,
  "ĠLook": 5430,
  "Ġdetailed": 5431,
  "Ġinstit": 5432,
  "Ġswim": 5433,
  "Ġapproximately": 5434,
  "ĠHol": 5435,
  "equ": 5436,
  "Ġyesterday": 5437,
  "ĠIll": 5438,
  "Ġserving": 5439,
  "ĠOld": 5440,
  "Ġeffic": 5441,
  "Ġworse": 5442,
  "Ġfactor": 5443,
  "ĠTim": 5444,
  "uts": 5445,
  "Ġapps": 5446,
  "46": 5447,
  "Ġpun": 5448,
  "ĠIraq": 5449,
  "Ġpush": 5450,
  "irty": 5451,
  "Ġemp": 5452,
  "Ġrepair": 5453,
  "Ġorders": 5454,
  "ĠWord": 5455,
  "Ġcontem": 5456,
  "Ġinfe": 5457,
  "Ġhero": 5458,
  "rip": 5459,
  "Ġ500": 5460,
  "arsh": 5461,
  "nergy": 5462,
  "Ġoccup": 5463,
  "Ġingredients": 5464,
  "EW": 5465,
  "Ġtough": 5466,
  "Ġsuit": 5467,
  "Ġmaintenance": 5468,
  "asks": 5469,
  "bour": 5470,
  "Ġvalid": 5471,
  "ĠPay": 5472,
  "Ġassum": 5473,
  "Ġrapid": 5474,
  "mes": 5475,
  "Ġburn": 5476,
  "ĠAtl": 5477,
  "Ġdollars": 5478,
  "Ġplastic": 5479,
  "ario": 5480,
  "ĠSand": 5481,
  "Ġcop": 5482,
  "lets": 5483,
  "59": 5484,
  "Ġrevenue": 5485,
  "Ġforced": 5486,
  "ĠDig": 5487,
  "Ġconsequ": 5488,
  "Ġfruit": 5489,
  "Ġtight": 5490,
  "Ġparking": 5491,
  "ĠMusic": 5492,
  "van": 5493,
  "Ġkill": 5494,
  "Ġtow": 5495,
  "iration": 5496,
  "ĠLos": 5497,
  "Ġenhance": 5498,
  "Ġmaximum": 5499,
  "Ġintended": 5500,
  "ĠWestern": 5501,
  "ĠShow": 5502,
  "Ġconflic": 5503,
  "ĠOnly": 5504,
  "Ġuns": 5505,
  "Ġaccounts": 5506,
  "eal": 5507,
  "Ġexecutive": 5508,
  "ĠLand": 5509,
  "Ġconcerned": 5510,
  "ĠRE": 5511,
  "Ġtro": 5512,
  "ĠHam": 5513,
  "Ġlandsc": 5514,
  "Ġeducational": 5515,
  "Ġspecifically": 5516,
  "Ġlabel": 5517,
  "Yes": 5518,
  "Ġquot": 5519,
  "Ġaccommod": 5520,
  "Ġstanding": 5521,
  "Ġcombined": 5522,
  "Te": 5523,
  "ĠId": 5524,
  "Ġcircumst": 5525,
  "Ġtrouble": 5526,
  "Ġquant": 5527,
  "Ġapproved": 5528,
  "ĠCall": 5529,
  "rier": 5530,
  "Ġstores": 5531,
  "ita": 5532,
  "ĠFind": 5533,
  "Ġprocessing": 5534,
  "Ġpromote": 5535,
  "tra": 5536,
  "Ġyes": 5537,
  "avig": 5538,
  "Ġmotiv": 5539,
  "tters": 5540,
  "ĠTrump": 5541,
  "aren": 5542,
  "Ġfailure": 5543,
  "Let": 5544,
  "cohol": 5545,
  "list": 5546,
  "Ġseat": 5547,
  "ĠJeff": 5548,
  "Ġlicense": 5549,
  "cean": 5550,
  "Ġintroduced": 5551,
  "iminal": 5552,
  "ĠJul": 5553,
  "ensions": 5554,
  "Ġtwice": 5555,
  "Ġsupported": 5556,
  "Ġfreedom": 5557,
  "Ġaid": 5558,
  "Ġelimin": 5559,
  "ĠJim": 5560,
  "Ġemergency": 5561,
  "ĠMont": 5562,
  "ĠTake": 5563,
  "prise": 5564,
  "Ġannounce": 5565,
  "Can": 5566,
  "bu": 5567,
  "Ġflight": 5568,
  "Ġmine": 5569,
  "ĠData": 5570,
  "Ġaffected": 5571,
  "Ġ2003": 5572,
  "Ġsevere": 5573,
  "Ġdrugs": 5574,
  "ingly": 5575,
  "Ġment": 5576,
  "nov": 5577,
  "orry": 5578,
  "dden": 5579,
  "Ġthick": 5580,
  "Ġcauses": 5581,
  "Ġcrisis": 5582,
  "ĠJoe": 5583,
  "ĠCanad": 5584,
  "Ġpm": 5585,
  "Ġdyn": 5586,
  "agram": 5587,
  "hand": 5588,
  "Ġremark": 5589,
  "Ġrealize": 5590,
  "Ġneck": 5591,
  "Ġbuildings": 5592,
  "ĠYOU": 5593,
  "Ġconfidence": 5594,
  "Ġtelevision": 5595,
  "05": 5596,
  "ĠOrgan": 5597,
  "ĠFamily": 5598,
  "ĠTechnology": 5599,
  "wo": 5600,
  "Ġgather": 5601,
  "Ġmenu": 5602,
  "Che": 5603,
  "ocation": 5604,
  "Ġprison": 5605,
  "Ġtechnologies": 5606,
  "cuit": 5607,
  "According": 5608,
  "ĠVict": 5609,
  "Ġbringing": 5610,
  "Ġsymb": 5611,
  "Ġprovider": 5612,
  "lock": 5613,
  "under": 5614,
  "Ġwitness": 5615,
  "Fe": 5616,
  "Ġvisitors": 5617,
  "ĠMedical": 5618,
  "Ġschol": 5619,
  ".âĢĻ": 5620,
  "rick": 5621,
  "arp": 5622,
  "Ġdelivered": 5623,
  "Ġune": 5624,
  "ĠON": 5625,
  "ĠStand": 5626,
  "Ġdesigns": 5627,
  "Ġsalt": 5628,
  "Ġsupporting": 5629,
  "Ġdepending": 5630,
  "reens": 5631,
  "Ġcourses": 5632,
  "ĠGar": 5633,
  "Ġpure": 5634,
  "Ġeditor": 5635,
  "Ġextensive": 5636,
  "Ġarrange": 5637,
  "ĠChris": 5638,
  "anged": 5639,
  "Ġimproved": 5640,
  "Ġincorpor": 5641,
  "Ġstim": 5642,
  "Ġbegins": 5643,
  "Ġdesire": 5644,
  "Ġsurgery": 5645,
  "Ġdial": 5646,
  "Ġstopped": 5647,
  "Americ": 5648,
  "Ġprop": 5649,
  "ĠAward": 5650,
  "Ġlocations": 5651,
  "rastructure": 5652,
  "ossible": 5653,
  "Ġtests": 5654,
  "ĠReport": 5655,
  "Ġdance": 5656,
  "Ġhttps": 5657,
  "Ġpanel": 5658,
  "Ġarrived": 5659,
  "ĠMike": 5660,
  "ĠFil": 5661,
  "ultural": 5662,
  "Ġaspects": 5663,
  "Ġcarried": 5664,
  "ĠBob": 5665,
  "ĠDan": 5666,
  "Ġbroken": 5667,
  "77": 5668,
  "Ġanywhere": 5669,
  "ideo": 5670,
  "Ġuniversity": 5671,
  "ĠBeach": 5672,
  "Ġhundreds": 5673,
  "Ġrecipe": 5674,
  "ĠLouis": 5675,
  "Ġbound": 5676,
  "ĠNetwork": 5677,
  "Ġsudden": 5678,
  "related": 5679,
  "Ġconsidering": 5680,
  "Ġtables": 5681,
  "ĠAL": 5682,
  "Ġcomprehens": 5683,
  "Ġteen": 5684,
  "arian": 5685,
  "Ġmode": 5686,
  "Ġlunch": 5687,
  "Ġlaunched": 5688,
  "CS": 5689,
  "Ġadvertising": 5690,
  "ulty": 5691,
  "UN": 5692,
  "ĠAngeles": 5693,
  "ola": 5694,
  "Ġ2001": 5695,
  "ĠAS": 5696,
  "Ġdecre": 5697,
  "Ġturns": 5698,
  "iest": 5699,
  "Ġconsumer": 5700,
  "Ġcategory": 5701,
  "ĠAccording": 5702,
  "Ġtun": 5703,
  "ĠLab": 5704,
  "Ġofficer": 5705,
  "erves": 5706,
  "UT": 5707,
  "Ġfold": 5708,
  "Ġcomplic": 5709,
  "ĠEnter": 5710,
  "Ġvolume": 5711,
  "Ġagreed": 5712,
  "Ġdraft": 5713,
  "Res": 5714,
  "ĠHaw": 5715,
  "ĠDou": 5716,
  "Ġbutter": 5717,
  "ĠJohnson": 5718,
  "iat": 5719,
  "kay": 5720,
  "Ġpicked": 5721,
  "Ġdefend": 5722,
  "Ġinput": 5723,
  "oking": 5724,
  "ĠGame": 5725,
  "Ġsides": 5726,
  "Ġrecip": 5727,
  "ems": 5728,
  "Ġsoul": 5729,
  "orough": 5730,
  "Ġends": 5731,
  "alian": 5732,
  "Ġbelong": 5733,
  "Ġreligious": 5734,
  "En": 5735,
  "ĠHave": 5736,
  "Ġrub": 5737,
  "Ġprepare": 5738,
  "Ġang": 5739,
  "Ġseeking": 5740,
  "fol": 5741,
  "âĦ": 5742,
  "ĠProduct": 5743,
  "ĠKore": 5744,
  "ĠSecret": 5745,
  "Ġsac": 5746,
  "Ġpaying": 5747,
  "Qu": 5748,
  "Ġlights": 5749,
  "burg": 5750,
  "Ġaudio": 5751,
  "iveness": 5752,
  "Ġwealth": 5753,
  "Ġoccasion": 5754,
  "Ġresource": 5755,
  "Ġspeaking": 5756,
  "Ġdiscl": 5757,
  "Ġ2002": 5758,
  "clusion": 5759,
  "Ġcleaning": 5760,
  "ĠWilliam": 5761,
  "road": 5762,
  "ĠDen": 5763,
  "ĠFederal": 5764,
  ".|": 5765,
  "irmed": 5766,
  "ĠOffic": 5767,
  "Ġfantastic": 5768,
  "ĠJose": 5769,
  "Ġemployee": 5770,
  "ĠPan": 5771,
  "Ġfavour": 5772,
  "Ġlux": 5773,
  "Ġlibrary": 5774,
  "Ġbrown": 5775,
  "Ġindustrial": 5776,
  "Ġperspective": 5777,
  "Ġrom": 5778,
  "Ġec": 5779,
  "Ġliqu": 5780,
  "ĠAud": 5781,
  "uclear": 5782,
  "!)": 5783,
  "See": 5784,
  "Ġtickets": 5785,
  "hetic": 5786,
  "ĠHuman": 5787,
  "Ġexplained": 5788,
  "Ġtelling": 5789,
  "Ġhistorical": 5790,
  "Ġhousing": 5791,
  "Ġbike": 5792,
  "ĠFund": 5793,
  "Ġvary": 5794,
  "VD": 5795,
  "Ġstars": 5796,
  "Ġcommitment": 5797,
  "ĠAT": 5798,
  "Ġunivers": 5799,
  "Ġbigger": 5800,
  "Ġsole": 5801,
  "kes": 5802,
  "ĠNOT": 5803,
  "Ġfunctions": 5804,
  "ployment": 5805,
  "Ġtradition": 5806,
  "Ġdetermined": 5807,
  "Ġawesome": 5808,
  "Ġcomponents": 5809,
  "Ġfaster": 5810,
  "ownt": 5811,
  "ĠInvest": 5812,
  "Ġcrime": 5813,
  "Ġreduced": 5814,
  "icit": 5815,
  "ĠMa": 5816,
  "Ġremaining": 5817,
  "ĠConference": 5818,
  "Ġbattery": 5819,
  "Ġtruck": 5820,
  "ĠJapanese": 5821,
  "ĠBre": 5822,
  "Sc": 5823,
  "aded": 5824,
  "Ġentirely": 5825,
  "ĠCam": 5826,
  "ĠBoth": 5827,
  "Ġforest": 5828,
  "rate": 5829,
  "iser": 5830,
  "onds": 5831,
  "ĠLead": 5832,
  "EE": 5833,
  "iability": 5834,
  "ibilities": 5835,
  "Ġtreated": 5836,
  "Most": 5837,
  "à¤": 5838,
  "Ġhun": 5839,
  "Ġidentified": 5840,
  "Ġexamples": 5841,
  "Ġinvestigation": 5842,
  "oration": 5843,
  "ĠStep": 5844,
  "ht": 5845,
  "ĠAD": 5846,
  "Ġchosen": 5847,
  "Ġparticipants": 5848,
  "een": 5849,
  "ulous": 5850,
  "elines": 5851,
  "Ġappearance": 5852,
  "Ġupdated": 5853,
  "ias": 5854,
  "Ġagent": 5855,
  "About": 5856,
  "Ġboost": 5857,
  "Ġsister": 5858,
  "ĠBoston": 5859,
  "Ġemphas": 5860,
  "Ġregister": 5861,
  "Ġmilk": 5862,
  "prene": 5863,
  "Ġcloser": 5864,
  "Ġflo": 5865,
  "Ġfly": 5866,
  "Ġchocolate": 5867,
  "bing": 5868,
  "Any": 5869,
  "ĠLast": 5870,
  "Ġinspired": 5871,
  "Ġprocedure": 5872,
  "Ġmatters": 5873,
  "Ġconfig": 5874,
  "âĦ¢": 5875,
  "ev": 5876,
  "Ġodd": 5877,
  "Ġhur": 5878,
  "rome": 5879,
  "Ġelement": 5880,
  "Ġfoods": 5881,
  "Ġconcern": 5882,
  "Ġsquare": 5883,
  "Ġimagine": 5884,
  "FL": 5885,
  "ĠCy": 5886,
  "ĠCath": 5887,
  "ĠâĢ¢": 5888,
  "Ġtheory": 5889,
  "ilit": 5890,
  "Ġcritic": 5891,
  "osoph": 5892,
  "Ġagencies": 5893,
  "Ġspiritual": 5894,
  "Ġfeedback": 5895,
  "Ġtast": 5896,
  "reprene": 5897,
  "ĠGen": 5898,
  "IF": 5899,
  "Ġbelief": 5900,
  "Ġparticipate": 5901,
  "ĠSecurity": 5902,
  "Ġphotograph": 5903,
  "Ġkinds": 5904,
  "Ġfort": 5905,
  "Ġinstitutions": 5906,
  "Us": 5907,
  "Ġfle": 5908,
  "ĠNor": 5909,
  "Ġjoy": 5910,
  "ĠMexico": 5911,
  "ĠNC": 5912,
  "Ġrot": 5913,
  "ĠSenate": 5914,
  "Ġoutput": 5915,
  "Ġfilms": 5916,
  "Ġworksh": 5917,
  "Ġrelatively": 5918,
  "Ġworldwide": 5919,
  "Ġvictory": 5920,
  "ampionship": 5921,
  "Ġattacks": 5922,
  "ifications": 5923,
  "Ġsample": 5924,
  "Ġcolour": 5925,
  "Ġupdates": 5926,
  "Ġmeat": 5927,
  "aped": 5928,
  "Ġtrading": 5929,
  "First": 5930,
  "Ġmedicine": 5931,
  "ĠCharl": 5932,
  "Ġabuse": 5933,
  "ĠCA": 5934,
  "Ġwearing": 5935,
  "Ġclinical": 5936,
  "II": 5937,
  "OC": 5938,
  "Ġerror": 5939,
  "Ġsad": 5940,
  "Ġrough": 5941,
  "Ġsan": 5942,
  "ĠWay": 5943,
  "ĠSeries": 5944,
  "Ġscientific": 5945,
  "ĠWild": 5946,
  "Ġchoices": 5947,
  "Ġplanned": 5948,
  "Ġgro": 5949,
  "gage": 5950,
  "Ġ36": 5951,
  "Ġfurniture": 5952,
  "eper": 5953,
  "ĠView": 5954,
  "Ġrecovery": 5955,
  "ĠStart": 5956,
  "hors": 5957,
  "ĠCat": 5958,
  "Ġmotion": 5959,
  "mosp": 5960,
  "pret": 5961,
  "Ġeffectively": 5962,
  "west": 5963,
  "Ġinstallation": 5964,
  "Ġsam": 5965,
  "ĠOR": 5966,
  "Ġconfirm": 5967,
  "Ġdomin": 5968,
  "86": 5969,
  "Ġchain": 5970,
  "ĠThank": 5971,
  "Ġcoast": 5972,
  "Ġdangerous": 5973,
  "Ġexcess": 5974,
  "Ġissued": 5975,
  "Ġnone": 5976,
  "Ġhonor": 5977,
  "Or": 5978,
  "Ġstrategies": 5979,
  "Am": 5980,
  "Ġlit": 5981,
  "Ġregistered": 5982,
  "ĠPerson": 5983,
  "Ġneighborhood": 5984,
  "Ġmut": 5985,
  "Ġcutting": 5986,
  "Ĥ¬": 5987,
  "real": 5988,
  "Ġdepress": 5989,
  "Ġcontrast": 5990,
  "Ġcrew": 5991,
  ".'": 5992,
  "ĠBi": 5993,
  "Ġresol": 5994,
  "Ġemployment": 5995,
  "Ġking": 5996,
  "ĠAdminist": 5997,
  "pass": 5998,
  "Ġtom": 5999,
  "ĠOper": 6000,
  "Ġcharged": 6001,
  "ĠHistory": 6002,
  "Ke": 6003,
  "ĠMur": 6004,
  "Ġcentre": 6005,
  "iams": 6006,
  "Ġstorm": 6007,
  "Ġrestrict": 6008,
  "Ġchat": 6009,
  "Ġfellow": 6010,
  "Ġmere": 6011,
  "ĠHead": 6012,
  "Ġfields": 6013,
  "Ġpump": 6014,
  "Ġelig": 6015,
  "Ġhousehold": 6016,
  "CE": 6017,
  "ĠSk": 6018,
  "cknow": 6019,
  "Ġpractical": 6020,
  "lastname": 6021,
  "eries": 6022,
  "Ġautomatically": 6023,
  "ĠMartin": 6024,
  "Up": 6025,
  "ala": 6026,
  "ighter": 6027,
  "Ġmassive": 6028,
  "07": 6029,
  "igration": 6030,
  "ĠMax": 6031,
  "Ġperman": 6032,
  "ĠiPhone": 6033,
  "Ġremote": 6034,
  "appy": 6035,
  "Ġwarrant": 6036,
  "ĠMinister": 6037,
  "Ġproviders": 6038,
  "never": 6039,
  "Ġpositions": 6040,
  "Ġconstruct": 6041,
  "Ġinstalled": 6042,
  "Ġvehicles": 6043,
  "ĠMuseum": 6044,
  "Ġcircumstances": 6045,
  "Ġunlike": 6046,
  "Ġbelieved": 6047,
  "Ġmagn": 6048,
  "Ġepisode": 6049,
  "gend": 6050,
  "42": 6051,
  "xi": 6052,
  "Ġcreation": 6053,
  "Ġkeeps": 6054,
  "Ġreput": 6055,
  "ĠRussian": 6056,
  "Ġtopics": 6057,
  "Fr": 6058,
  "ĠCup": 6059,
  "Ġpurchased": 6060,
  "ĠInstead": 6061,
  "Ġobvious": 6062,
  "ĠEnergy": 6063,
  "Ġbreast": 6064,
  "dro": 6065,
  "Ġadvoc": 6066,
  "Ġaccepted": 6067,
  "Ġidentity": 6068,
  "ĠCarolina": 6069,
  "Ġworst": 6070,
  "ĠCorpor": 6071,
  "Click": 6072,
  "Ġshares": 6073,
  "Ġknowing": 6074,
  "Ġadministr": 6075,
  "TA": 6076,
  "Ġrecorded": 6077,
  "Ġdistribution": 6078,
  "Ġmoments": 6079,
  "ĠAbout": 6080,
  "Ġfixed": 6081,
  "ĠVer": 6082,
  "Ġengineering": 6083,
  "Ġdatabase": 6084,
  "Ġtherapy": 6085,
  "Ġherself": 6086,
  "Ġmissed": 6087,
  ":||": 6088,
  "Man": 6089,
  "Ġexpertise": 6090,
  "Ġresearchers": 6091,
  "56": 6092,
  "MA": 6093,
  "ĠDef": 6094,
  "arrow": 6095,
  "Ġwheel": 6096,
  "Ġenem": 6097,
  "Ġlaugh": 6098,
  "Ġscr": 6099,
  "ĠProv": 6100,
  "Ġaccurate": 6101,
  "ĠSto": 6102,
  "ĠGra": 6103,
  "Ġusual": 6104,
  "Ġinvestors": 6105,
  "Ġshooting": 6106,
  "DS": 6107,
  "estyle": 6108,
  "eless": 6109,
  "Ġanswers": 6110,
  "Ġrevealed": 6111,
  "apes": 6112,
  "08": 6113,
  "acks": 6114,
  "va": 6115,
  "Ġpublish": 6116,
  "Over": 6117,
  "Ġcro": 6118,
  "ĠMP": 6119,
  "ĠMen": 6120,
  "ĠWhere": 6121,
  "abet": 6122,
  "ĠProte": 6123,
  "Ġemotional": 6124,
  "oster": 6125,
  "ĠKnow": 6126,
  "Ġ32": 6127,
  "ĠRussia": 6128,
  "Ġvit": 6129,
  "Ġoblig": 6130,
  "Ġreturns": 6131,
  "oti": 6132,
  "ollywood": 6133,
  "ĠParis": 6134,
  "Ġmal": 6135,
  "Ġforth": 6136,
  "Ġguest": 6137,
  "ĠPolice": 6138,
  "Ġboys": 6139,
  "alog": 6140,
  "ĠMatt": 6141,
  "Ġofficers": 6142,
  "abled": 6143,
  "ĠThose": 6144,
  "Ġassign": 6145,
  "ĠIsl": 6146,
  "----": 6147,
  "ĠHen": 6148,
  "Ġsurprise": 6149,
  "Since": 6150,
  "Ġtrend": 6151,
  "hus": 6152,
  "sm": 6153,
  "ĠRev": 6154,
  "Ġfollows": 6155,
  "Ġcomprehensive": 6156,
  "uated": 6157,
  "Ġconstantly": 6158,
  "ĠRepublican": 6159,
  "Ġsin": 6160,
  "Ġchannel": 6161,
  "Ġinches": 6162,
  "Ġdomestic": 6163,
  "Ġfolks": 6164,
  "Ġmel": 6165,
  "ĠDu": 6166,
  "oga": 6167,
  "ATION": 6168,
  "Ġchapter": 6169,
  "Ġoutdoor": 6170,
  "Ġreceiving": 6171,
  "Ġhappening": 6172,
  "Ġcompetitive": 6173,
  "ĠGlobal": 6174,
  "Ġrestaurants": 6175,
  "Ġring": 6176,
  "Then": 6177,
  "Ġsuitable": 6178,
  "Ġtea": 6179,
  "ĠDev": 6180,
  "opyright": 6181,
  "Ġarms": 6182,
  "Ġcounty": 6183,
  "can": 6184,
  "Ġped": 6185,
  "Ġscored": 6186,
  "Sp": 6187,
  "Ġequal": 6188,
  "Ġdram": 6189,
  "Ġguard": 6190,
  "ĠPac": 6191,
  "Ind": 6192,
  "hent": 6193,
  "ĠExt": 6194,
  "tr": 6195,
  "ĠTown": 6196,
  "ĠCas": 6197,
  "azz": 6198,
  "Ġelectronic": 6199,
  "CA": 6200,
  "aks": 6201,
  "weight": 6202,
  "Im": 6203,
  "iors": 6204,
  "Ġpin": 6205,
  "Ġrow": 6206,
  "Ġwinner": 6207,
  "Ġacknow": 6208,
  "Ġturning": 6209,
  "ĠMo": 6210,
  "Ġproceed": 6211,
  "paper": 6212,
  "Ġauthority": 6213,
  "Ġsettings": 6214,
  "Ġfro": 6215,
  "Ġinfrastructure": 6216,
  "reets": 6217,
  "ĠMS": 6218,
  "ĠHD": 6219,
  "comm": 6220,
  "atre": 6221,
  "esh": 6222,
  "Ġmeal": 6223,
  "Ġincreases": 6224,
  "Ġsuggested": 6225,
  "Ġdestroy": 6226,
  "Ġinnovative": 6227,
  "ĠWeek": 6228,
  "Ġregularly": 6229,
  "Ġ300": 6230,
  "Ġsignificantly": 6231,
  "vy": 6232,
  "Ġgoods": 6233,
  "Ġentertainment": 6234,
  "Ġwal": 6235,
  "Ġcommission": 6236,
  "ĠMaster": 6237,
  "Ġattorney": 6238,
  "Ġcriminal": 6239,
  "Ġsubstant": 6240,
  "ournament": 6241,
  "Ġfulf": 6242,
  "Ġdoors": 6243,
  "Ġholds": 6244,
  "Ġcycle": 6245,
  "Ġtaught": 6246,
  "ĠVirginia": 6247,
  "Ġ<": 6248,
  "Ġven": 6249,
  "Ġshoes": 6250,
  "ĠSecond": 6251,
  "inding": 6252,
  "erts": 6253,
  "Oh": 6254,
  "lla": 6255,
  "ĠSteve": 6256,
  "Ġperfectly": 6257,
  "Ġalcohol": 6258,
  "Ġbasket": 6259,
  "Ġinvolve": 6260,
  "gent": 6261,
  "Ġsick": 6262,
  "Ġjustice": 6263,
  "Ġearned": 6264,
  "Ġvaluable": 6265,
  "Another": 6266,
  "Ġlovely": 6267,
  "lo": 6268,
  "ĠAndroid": 6269,
  "ĠList": 6270,
  "09": 6271,
  "Ġrenew": 6272,
  "ĠAsia": 6273,
  "Ġprotected": 6274,
  "Ġnoticed": 6275,
  "eah": 6276,
  "ĠIran": 6277,
  "Ġwid": 6278,
  "Ġcontro": 6279,
  "Ġprotein": 6280,
  "owing": 6281,
  "Ġchart": 6282,
  "Ġatmosp": 6283,
  "Ġwindows": 6284,
  "78": 6285,
  "ache": 6286,
  "Ġsyn": 6287,
  "zer": 6288,
  "odd": 6289,
  "ansas": 6290,
  "Ġfacts": 6291,
  "Ġroute": 6292,
  "Ġvacc": 6293,
  "oosing": 6294,
  "ĠArts": 6295,
  "Ġportion": 6296,
  "Ġinstructions": 6297,
  "ĠManager": 6298,
  "Ġtrib": 6299,
  "Ġreform": 6300,
  "Ġsimpl": 6301,
  "Ġmonthly": 6302,
  "ĠControl": 6303,
  "Ġdisappoint": 6304,
  "ĠMaybe": 6305,
  "bi": 6306,
  "ato": 6307,
  "ĠTem": 6308,
  "ĠIndust": 6309,
  "ĠCentre": 6310,
  "Ġpolitics": 6311,
  "Ġmagazine": 6312,
  "rible": 6313,
  "ĠKen": 6314,
  "Ġextended": 6315,
  "Ġfrequently": 6316,
  "Ġdish": 6317,
  "Ġrand": 6318,
  "Ġmessages": 6319,
  "Ġcandidates": 6320,
  "06": 6321,
  "43": 6322,
  "Ġgrown": 6323,
  "Ġupper": 6324,
  "Ġconver": 6325,
  "Ġenable": 6326,
  "Ġdiss": 6327,
  "gypt": 6328,
  "ĠKeep": 6329,
  "Ġrecognized": 6330,
  "Ġindeed": 6331,
  "Mar": 6332,
  "inations": 6333,
  "ĠMiddle": 6334,
  "Ġscheduled": 6335,
  "Many": 6336,
  "enced": 6337,
  "Other": 6338,
  "date": 6339,
  "Ġiron": 6340,
  "illy": 6341,
  "Ġreliable": 6342,
  "Ġfighting": 6343,
  "hi": 6344,
  "riting": 6345,
  "Ġcooking": 6346,
  "Ġillustr": 6347,
  "Ġguarantee": 6348,
  "âĢĻ,": 6349,
  "ĠLibrary": 6350,
  "ĠAustralian": 6351,
  "âĢĻ.": 6352,
  "rics": 6353,
  "yard": 6354,
  "lymp": 6355,
  "Ġ48": 6356,
  "Ġcrazy": 6357,
  "ef": 6358,
  "ĠLt": 6359,
  "ĠLog": 6360,
  "xy": 6361,
  "ingu": 6362,
  "Ġhouses": 6363,
  "Ġincredible": 6364,
  "Ġathlet": 6365,
  "Ġaf": 6366,
  "Ġ2021": 6367,
  "Ġenforce": 6368,
  "Ġriver": 6369,
  "Ġcheese": 6370,
  "Ġsymbol": 6371,
  "ĠCanadian": 6372,
  "GE": 6373,
  "Ġexternal": 6374,
  "anger": 6375,
  "Ġcarefully": 6376,
  "ĠSqu": 6377,
  "Ġpoly": 6378,
  "Ġprocedures": 6379,
  "hered": 6380,
  "Ġbread": 6381,
  "Ġrisks": 6382,
  "cers": 6383,
  "Ġdump": 6384,
  "ĠAR": 6385,
  "Ġgrab": 6386,
  "Ġowned": 6387,
  "Ġsupports": 6388,
  "Ġsky": 6389,
  "Ġformed": 6390,
  "Ġauthorities": 6391,
  "Ġwalls": 6392,
  "Ġappeal": 6393,
  "ĠSar": 6394,
  "Ġcovers": 6395,
  "Ġregulations": 6396,
  "02": 6397,
  "Ġregional": 6398,
  "ĠVictor": 6399,
  "ĠPenn": 6400,
  "Ġgrade": 6401,
  "oral": 6402,
  "Ġhurt": 6403,
  "Ġcandidate": 6404,
  "Ġlosing": 6405,
  "Ġyards": 6406,
  "ĠMichigan": 6407,
  "Ġpil": 6408,
  "astern": 6409,
  "Ġchicken": 6410,
  "agon": 6411,
  "Mr": 6412,
  "Ġnurs": 6413,
  "Ġleague": 6414,
  "ansion": 6415,
  "aid": 6416,
  "sembly": 6417,
  "58": 6418,
  "Ġspoke": 6419,
  "Ġimpossible": 6420,
  "Ġinnovation": 6421,
  "Ġconserv": 6422,
  "LY": 6423,
  "Ġrandom": 6424,
  "Today": 6425,
  "ÃŃ": 6426,
  "ĠFOR": 6427,
  "ĠChief": 6428,
  "Ġscript": 6429,
  "ĠColumb": 6430,
  "ĠPlus": 6431,
  "Once": 6432,
  "Ġdebate": 6433,
  "Ġhook": 6434,
  "uting": 6435,
  "Ġreasonable": 6436,
  "inem": 6437,
  "Are": 6438,
  "wing": 6439,
  "ora": 6440,
  "ensity": 6441,
  "Ġsmell": 6442,
  "Ġbrands": 6443,
  "ĠOhio": 6444,
  "Ġlayer": 6445,
  "Pe": 6446,
  "ua": 6447,
  "alse": 6448,
  "ĠLim": 6449,
  "Ġspr": 6450,
  "Ġtrig": 6451,
  "Ġfeatured": 6452,
  "irms": 6453,
  "ĠAnother": 6454,
  "Ġdistinct": 6455,
  "Ġsuccessfully": 6456,
  "Ġdegrees": 6457,
  "Ġticket": 6458,
  "ĠFair": 6459,
  "Ġbless": 6460,
  "uling": 6461,
  "Ġupcoming": 6462,
  "Ġbirthday": 6463,
  "ĠWal": 6464,
  "Ġvast": 6465,
  "Ġtaxes": 6466,
  "Ġnative": 6467,
  "Ġgrew": 6468,
  "ĠPass": 6469,
  "Ġplate": 6470,
  "Ġcampus": 6471,
  "fortunately": 6472,
  "pat": 6473,
  "ĠSP": 6474,
  "Ġaffili": 6475,
  "Ġdescription": 6476,
  "Ġdecade": 6477,
  "Ġtack": 6478,
  "ĠChildren": 6479,
  "itutional": 6480,
  "Ã¡": 6481,
  "ĠTit": 6482,
  "HS": 6483,
  "Posted": 6484,
  "GB": 6485,
  "Of": 6486,
  "oman": 6487,
  "Ġfacing": 6488,
  "Ġassessment": 6489,
  "Ġletters": 6490,
  "lete": 6491,
  "ĠEconom": 6492,
  "Ġdeals": 6493,
  "Ġdelight": 6494,
  "ĠGirl": 6495,
  "ĠEnd": 6496,
  "Ġinfo": 6497,
  "aniel": 6498,
  "Ġille": 6499,
  "eline": 6500,
  "ĠRichard": 6501,
  "Spe": 6502,
  "host": 6503,
  "ĠBush": 6504,
  "Dr": 6505,
  "ugh": 6506,
  "Ġdelay": 6507,
  "Ġclothes": 6508,
  "Ġhate": 6509,
  "Ġappreciate": 6510,
  "Ġdim": 6511,
  "Ġrealized": 6512,
  "Ġphase": 6513,
  "Ġtypical": 6514,
  "199": 6515,
  "Ġfigures": 6516,
  "41": 6517,
  "ĠCir": 6518,
  "Ġedition": 6519,
  "Ġsituations": 6520,
  "Ġtail": 6521,
  "Ġstudio": 6522,
  "REE": 6523,
  "Ġroutine": 6524,
  "rid": 6525,
  "Ġloves": 6526,
  "emic": 6527,
  "ints": 6528,
  "Ġefficiency": 6529,
  "Ġsilver": 6530,
  "Ġnavig": 6531,
  "osite": 6532,
  "Ġkne": 6533,
  "Ġsusp": 6534,
  "Ġwarn": 6535,
  "ĠEqu": 6536,
  "orders": 6537,
  "Ġmillions": 6538,
  "Ġtiss": 6539,
  "ĠBas": 6540,
  "ĠItalian": 6541,
  "ĠSports": 6542,
  "Ġvisiting": 6543,
  "merce": 6544,
  "Ġaffordable": 6545,
  "Ġadm": 6546,
  "Ġunable": 6547,
  "Ġmusical": 6548,
  "lines": 6549,
  "Ġconducted": 6550,
  "ĠAff": 6551,
  "anges": 6552,
  "Ġchallenging": 6553,
  "TC": 6554,
  "TER": 6555,
  "Ġvul": 6556,
  "Ġboat": 6557,
  "respond": 6558,
  "ĠYoung": 6559,
  "Ġentered": 6560,
  "Ġsurf": 6561,
  "long": 6562,
  "Ġhorse": 6563,
  "ĠSupport": 6564,
  "gas": 6565,
  "person": 6566,
  "Ġbeer": 6567,
  "ĠJon": 6568,
  "Ġhealthcare": 6569,
  "Ġplanet": 6570,
  "ĠAuthor": 6571,
  "Ġoriginally": 6572,
  "ĠAcademy": 6573,
  "Ġreporting": 6574,
  "!!!": 6575,
  "ĠWilliams": 6576,
  "Ġ?": 6577,
  "Ġawareness": 6578,
  "Ġprospect": 6579,
  "Ġtank": 6580,
  "inder": 6581,
  "Ġfunny": 6582,
  "Ġconfirmed": 6583,
  "ench": 6584,
  "ĠMic": 6585,
  "Ġrecognize": 6586,
  "ĠThrough": 6587,
  "cluded": 6588,
  "Ġincident": 6589,
  "inet": 6590,
  "Ġcoordin": 6591,
  "==": 6592,
  "HA": 6593,
  "ĠBoy": 6594,
  "Ġcommunications": 6595,
  "57": 6596,
  "Ġteeth": 6597,
  "Ġpulled": 6598,
  "ether": 6599,
  "RS": 6600,
  "gs": 6601,
  "ĠGal": 6602,
  "PC": 6603,
  "inally": 6604,
  "ĠSign": 6605,
  "ml": 6606,
  "Ġseriously": 6607,
  "bal": 6608,
  "ĠBow": 6609,
  "Ġfirstname": 6610,
  "Ġserves": 6611,
  "Also": 6612,
  "from": 6613,
  "Ġjack": 6614,
  "Ġmuscle": 6615,
  "Tr": 6616,
  "Ġhabit": 6617,
  "Ġbreath": 6618,
  "ĠLee": 6619,
  "ĠSpring": 6620,
  "Ġnarr": 6621,
  "ĠAri": 6622,
  "ĠFull": 6623,
  "law": 6624,
  "ĠSaf": 6625,
  "Ġfairly": 6626,
  "Ġcontest": 6627,
  "ih": 6628,
  "adium": 6629,
  "ĠCoast": 6630,
  "Ġdates": 6631,
  "Ġdiverse": 6632,
  "Ġpresentation": 6633,
  "Ġcounsel": 6634,
  "Ġbear": 6635,
  "ĠFestival": 6636,
  "Ġdifferences": 6637,
  "ĠContact": 6638,
  "Although": 6639,
  "Ġsessions": 6640,
  "Ġpharm": 6641,
  "ĠAdv": 6642,
  "nic": 6643,
  "ĠHand": 6644,
  "Ġresolution": 6645,
  "Ġmanufacturing": 6646,
  "Ġmountain": 6647,
  "ĠBrand": 6648,
  "Ġdefined": 6649,
  "Ġdiscussed": 6650,
  "Free": 6651,
  "cons": 6652,
  "cling": 6653,
  "Ġsurprised": 6654,
  "elf": 6655,
  "Ġmeetings": 6656,
  "awn": 6657,
  "ras": 6658,
  "ĠAccess": 6659,
  "Ġsuc": 6660,
  "Ġprompt": 6661,
  "Ġsubmit": 6662,
  "Ġdrivers": 6663,
  "ĠContin": 6664,
  "pot": 6665,
  "earing": 6666,
  "Ġyounger": 6667,
  "ĠPage": 6668,
  "Ġacid": 6669,
  "Ġretire": 6670,
  "Ġpatterns": 6671,
  "Ġsurrounding": 6672,
  "Ġtomorrow": 6673,
  "ĠPub": 6674,
  "Ġcapable": 6675,
  "ĠLo": 6676,
  "Ġengage": 6677,
  "Ġbreakfast": 6678,
  "icing": 6679,
  "born": 6680,
  "ĠWalk": 6681,
  "cking": 6682,
  "Ġrevolution": 6683,
  "Ġvictims": 6684,
  "04": 6685,
  "ĠArmy": 6686,
  "ĠFrancisco": 6687,
  "ca": 6688,
  "rete": 6689,
  "ĠBefore": 6690,
  "ĠScot": 6691,
  "TR": 6692,
  "eration": 6693,
  "Ġisland": 6694,
  "ĠOlymp": 6695,
  "ghan": 6696,
  "ailability": 6697,
  "Ġdropped": 6698,
  "Ġvend": 6699,
  "iverse": 6700,
  "Ġexpression": 6701,
  "Ġtiny": 6702,
  "class": 6703,
  "rum": 6704,
  "ĠFollow": 6705,
  "Ġcake": 6706,
  "Ġcommittee": 6707,
  "Ġevil": 6708,
  "Ġpossibility": 6709,
  "ĠSon": 6710,
  "ĠBible": 6711,
  "ĠOS": 6712,
  "OVID": 6713,
  "66": 6714,
  "Ġages": 6715,
  "ĠGeorg": 6716,
  "Ġvillage": 6717,
  "Ġcooper": 6718,
  "Ġauthors": 6719,
  "Ġbonus": 6720,
  "ĠEgypt": 6721,
  "Ġmixed": 6722,
  "she": 6723,
  "Ġicon": 6724,
  "esides": 6725,
  "endar": 6726,
  "Ġnormally": 6727,
  "Ġtag": 6728,
  "ĠDie": 6729,
  "umes": 6730,
  "oval": 6731,
  "Ġempt": 6732,
  "AY": 6733,
  "inton": 6734,
  "ĠiP": 6735,
  "Ġsuggests": 6736,
  "Ġsou": 6737,
  "ĠLive": 6738,
  "Ġprofit": 6739,
  "Ġexclusive": 6740,
  "ĠDigital": 6741,
  "ML": 6742,
  "orne": 6743,
  "ican": 6744,
  "Ed": 6745,
  "ĠInf": 6746,
  "Ġpayments": 6747,
  "Ġclosely": 6748,
  "Ġcorn": 6749,
  "otal": 6750,
  "Ġroot": 6751,
  "Ġoperate": 6752,
  "Ġslowly": 6753,
  "Ġlistening": 6754,
  "Ġtasks": 6755,
  "Ġinterior": 6756,
  "ĠWhether": 6757,
  "Ġyellow": 6758,
  "away": 6759,
  "UL": 6760,
  "oty": 6761,
  "Ġprove": 6762,
  "agues": 6763,
  "Ġinvent": 6764,
  "Ġrein": 6765,
  "Ġfeelings": 6766,
  "Ġgraduate": 6767,
  "Int": 6768,
  "greg": 6769,
  "Ġentreprene": 6770,
  "Ġexpectations": 6771,
  "Ġtalent": 6772,
  "uality": 6773,
  "Ġhardware": 6774,
  "icial": 6775,
  "Ġstands": 6776,
  "Ġstretch": 6777,
  "tle": 6778,
  "Ġsizes": 6779,
  "ĠFarm": 6780,
  "alle": 6781,
  "ĠColl": 6782,
  "ĠRights": 6783,
  "Ġmachines": 6784,
  "Ġpremium": 6785,
  "Ġfuck": 6786,
  "ĠLittle": 6787,
  "Ġattrib": 6788,
  "Ġassets": 6789,
  "ĠPhot": 6790,
  "ĠSpirit": 6791,
  "Ġcock": 6792,
  "Ġongoing": 6793,
  "ĠCreat": 6794,
  "Ġpartnership": 6795,
  "ĠCert": 6796,
  "Ġheight": 6797,
  "Ġtalked": 6798,
  "ospit": 6799,
  "Ġconsistent": 6800,
  "pes": 6801,
  "Ġenthus": 6802,
  "Ġbedroom": 6803,
  "uster": 6804,
  "aper": 6805,
  "mar": 6806,
  "pay": 6807,
  "ĠArab": 6808,
  "comes": 6809,
  "Ġshift": 6810,
  "Ġrail": 6811,
  "Ġadvis": 6812,
  "Ġprivacy": 6813,
  "Ġnegoti": 6814,
  "Ġadds": 6815,
  "Ġdepth": 6816,
  "Ġadventure": 6817,
  "Ġpassing": 6818,
  "Ġprepar": 6819,
  "Ġflood": 6820,
  "ĠLink": 6821,
  "Ġtwe": 6822,
  "Ġpersonally": 6823,
  "aturally": 6824,
  "ĠJackson": 6825,
  "Ġguidance": 6826,
  "ĠTour": 6827,
  "Ġeveryday": 6828,
  "Ġast": 6829,
  "Ġsight": 6830,
  "Ġwalked": 6831,
  "ĠMuslim": 6832,
  "Ġliked": 6833,
  "han": 6834,
  "eding": 6835,
  "Ġlegislation": 6836,
  "ĠPrem": 6837,
  "ĠDC": 6838,
  "Ġcollected": 6839,
  "Ġimmediate": 6840,
  "Ġvital": 6841,
  "ression": 6842,
  "Ġregistration": 6843,
  "Ġtonight": 6844,
  "ĠJustice": 6845,
  "Ġsuspect": 6846,
  "Ġprotest": 6847,
  "weet": 6848,
  "Ġurban": 6849,
  "Where": 6850,
  "nam": 6851,
  "Ġrelief": 6852,
  "Ġtransition": 6853,
  "Ġancient": 6854,
  "iner": 6855,
  "ĠSup": 6856,
  "Ġslot": 6857,
  "ographic": 6858,
  "elly": 6859,
  "Ġobjects": 6860,
  "foot": 6861,
  "aints": 6862,
  "ĠEp": 6863,
  "claim": 6864,
  "Ġargument": 6865,
  "Ġsustainable": 6866,
  "03": 6867,
  "ĠSet": 6868,
  "uls": 6869,
  "Ġplug": 6870,
  "Ġsauce": 6871,
  "FC": 6872,
  "ĠMid": 6873,
  "Ġmini": 6874,
  "Ġlicens": 6875,
  "Ġthin": 6876,
  "ĠNight": 6877,
  "ĠEr": 6878,
  "Ġsomewhere": 6879,
  "ĠDoes": 6880,
  "Ġthorough": 6881,
  "elcome": 6882,
  "Ġstatements": 6883,
  "Ġflowers": 6884,
  "Ġhoping": 6885,
  "isk": 6886,
  "Ġhang": 6887,
  "ĠHard": 6888,
  "Ġvirtual": 6889,
  "Per": 6890,
  "ĠCharles": 6891,
  "Ġcable": 6892,
  "ĠLind": 6893,
  "Ġintegrated": 6894,
  "igure": 6895,
  "ĠJewish": 6896,
  "Ġsoci": 6897,
  "ĠNext": 6898,
  "ĠBal": 6899,
  "Ġorganic": 6900,
  "Ġfo": 6901,
  "ĠItaly": 6902,
  "Ġaccessible": 6903,
  "resents": 6904,
  "Ġagents": 6905,
  "Ġcarbon": 6906,
  "Ġpersons": 6907,
  ")||": 6908,
  "ĠCross": 6909,
  "Ġsufficient": 6910,
  "Ġfeaturing": 6911,
  "ĠGames": 6912,
  "Go": 6913,
  "Ġpapers": 6914,
  "Ġshots": 6915,
  "sters": 6916,
  "ĠDivision": 6917,
  ".||": 6918,
  "Ġhell": 6919,
  "Ġsolar": 6920,
  "Ġhumans": 6921,
  "Even": 6922,
  "lements": 6923,
  "Ġhall": 6924,
  "Ġnuclear": 6925,
  "ĠCode": 6926,
  "Ġtested": 6927,
  "Ġultimately": 6928,
  "bel": 6929,
  "ashed": 6930,
  "ĠRight": 6931,
  "Ġexposure": 6932,
  "Ġimprovement": 6933,
  "Ġreward": 6934,
  "Ġcompens": 6935,
  "ĠYet": 6936,
  "isters": 6937,
  "ERS": 6938,
  "ĠIre": 6939,
  "Ġstone": 6940,
  "redit": 6941,
  "Ġauto": 6942,
  "Ġnecessarily": 6943,
  "Ġgay": 6944,
  "ĠCast": 6945,
  "ĠWatch": 6946,
  "Ġphotograp": 6947,
  "Ġpainting": 6948,
  "Ġ1999": 6949,
  "Ġillness": 6950,
  "Ġdelicious": 6951,
  "oin": 6952,
  "Ġlegs": 6953,
  "Ġbare": 6954,
  "omy": 6955,
  "Ġproof": 6956,
  "ellect": 6957,
  "Ġnetworks": 6958,
  "Ġlinked": 6959,
  "itage": 6960,
  "profit": 6961,
  "Look": 6962,
  "ĠPack": 6963,
  "ĠRest": 6964,
  "rieved": 6965,
  "Ġalleged": 6966,
  "ĠCook": 6967,
  "Ġbat": 6968,
  "Ġhits": 6969,
  "Ġstreets": 6970,
  "secut": 6971,
  "Ġbelieves": 6972,
  "yers": 6973,
  "52": 6974,
  "Ġbanks": 6975,
  "Ġarts": 6976,
  "Ġbowl": 6977,
  "Ġphilosoph": 6978,
  "opp": 6979,
  "zil": 6980,
  "ĠCost": 6981,
  "Ġanticip": 6982,
  "Ġdescribe": 6983,
  "Ġsubsequ": 6984,
  "Ġexecut": 6985,
  "ĠAndrew": 6986,
  "Ġinformed": 6987,
  "isms": 6988,
  "Thanks": 6989,
  "Ġsuffering": 6990,
  "lder": 6991,
  "uine": 6992,
  "Ġlie": 6993,
  "ĠFour": 6994,
  "ĠPrice": 6995,
  "Ġliquid": 6996,
  "pel": 6997,
  "Ġskill": 6998,
  "Ġglad": 6999,
  "Ġdealing": 7000,
  "uction": 7001,
  "entle": 7002,
  "etime": 7003,
  "Ġforum": 7004,
  "owntown": 7005,
  "Ġtrick": 7006,
  "Ġconfident": 7007,
  "ĠTherefore": 7008,
  "Ġimpressive": 7009,
  "racy": 7010,
  "Ġapproval": 7011,
  "Ġstruggle": 7012,
  "Ġid": 7013,
  "asters": 7014,
  "Ġtrained": 7015,
  "Ġinstruct": 7016,
  "Ġpercentage": 7017,
  "Ġbottle": 7018,
  "During": 7019,
  "Ġshel": 7020,
  "Ġlighting": 7021,
  "Ġreplacement": 7022,
  "Ġcontemporary": 7023,
  "whel": 7024,
  "Ġwriters": 7025,
  "ĠInte": 7026,
  "Ġlessons": 7027,
  "ĠHotel": 7028,
  "och": 7029,
  "Ġsmile": 7030,
  "Ġorganized": 7031,
  "unior": 7032,
  "liance": 7033,
  "Ġtut": 7034,
  "umps": 7035,
  "Ġerr": 7036,
  "Ġfacilit": 7037,
  "Ġbasically": 7038,
  "utch": 7039,
  "Ġchose": 7040,
  "Ġattached": 7041,
  "Ġfoundation": 7042,
  "case": 7043,
  "urning": 7044,
  "Ġhasn": 7045,
  "Ġloans": 7046,
  "Ġtall": 7047,
  "Ġpromise": 7048,
  "Ġtalks": 7049,
  "Col": 7050,
  "Ġrepresents": 7051,
  "ĠHospital": 7052,
  "Ġabsor": 7053,
  "ĠSher": 7054,
  "Ġdiam": 7055,
  "Ġappointment": 7056,
  "PM": 7057,
  "des": 7058,
  "hem": 7059,
  "arters": 7060,
  "Ġexplains": 7061,
  "Ġvulner": 7062,
  "Ġentr": 7063,
  "ogen": 7064,
  "berry": 7065,
  "zing": 7066,
  "stream": 7067,
  "ĠLtd": 7068,
  "AB": 7069,
  "ĠTrust": 7070,
  "EST": 7071,
  "Ġdiscipl": 7072,
  "Ġrose": 7073,
  "Ġremained": 7074,
  "Ġ75": 7075,
  "Ġfiled": 7076,
  "Ġobtained": 7077,
  "ĠGuide": 7078,
  "roke": 7079,
  "ĠCre": 7080,
  "Ġagric": 7081,
  "Ġfinds": 7082,
  "Ġcerem": 7083,
  "achel": 7084,
  "ĠEnvironment": 7085,
  "Ġpod": 7086,
  "Ġthread": 7087,
  "Ġanyway": 7088,
  "Ġcoal": 7089,
  "ĠSoft": 7090,
  "lyn": 7091,
  "ĠRam": 7092,
  "asts": 7093,
  "ba": 7094,
  "iana": 7095,
  "American": 7096,
  "acc": 7097,
  "Ġ38": 7098,
  "obby": 7099,
  "Ġversions": 7100,
  "Ġvirus": 7101,
  "Ġmonitoring": 7102,
  "oned": 7103,
  "ĠBox": 7104,
  "ults": 7105,
  "stone": 7106,
  "Ġnarrow": 7107,
  "quir": 7108,
  "ĠOpt": 7109,
  "Ġintent": 7110,
  "Ġinjuries": 7111,
  "Ġlikes": 7112,
  "Ġgolf": 7113,
  "eting": 7114,
  "ĠPot": 7115,
  "ureau": 7116,
  "aning": 7117,
  "ĠSite": 7118,
  "obs": 7119,
  "Ġindex": 7120,
  "ventional": 7121,
  "Ġhat": 7122,
  "Ġheav": 7123,
  "plete": 7124,
  "Ġcrucial": 7125,
  "76": 7126,
  "made": 7127,
  "sell": 7128,
  "Ġestimated": 7129,
  "Ġborder": 7130,
  "uzz": 7131,
  "anish": 7132,
  "ĠMult": 7133,
  "Ġelev": 7134,
  "Ġpleasure": 7135,
  "ĠUsing": 7136,
  "Ġbrowser": 7137,
  "Ġatmosphere": 7138,
  "Ġbodies": 7139,
  "Ġrear": 7140,
  "ĠCH": 7141,
  "Ġwet": 7142,
  "ĠHim": 7143,
  "ĠKn": 7144,
  "ampion": 7145,
  "ouch": 7146,
  "ĠUt": 7147,
  "Ġblind": 7148,
  "Ġrecording": 7149,
  "Ġconstant": 7150,
  "Ġresistance": 7151,
  "Ġmand": 7152,
  "Ġnob": 7153,
  "ĠCe": 7154,
  "Ġauthent": 7155,
  "Ġscholars": 7156,
  "ĠHollywood": 7157,
  "Ġcorrespond": 7158,
  "Ġclothing": 7159,
  "orable": 7160,
  "ĠCra": 7161,
  "ĠHor": 7162,
  "Ġplot": 7163,
  "300": 7164,
  "Ġgear": 7165,
  "Ġaside": 7166,
  "grad": 7167,
  "Ġextent": 7168,
  "ĠPlace": 7169,
  "Ġexpressed": 7170,
  "Ġprofessor": 7171,
  "asant": 7172,
  "ĠPDF": 7173,
  "Â°": 7174,
  "Ġordered": 7175,
  "ta": 7176,
  "ĠDVD": 7177,
  "ĠMountain": 7178,
  "Ġsupplies": 7179,
  "bles": 7180,
  "rage": 7181,
  "Ġje": 7182,
  "Who": 7183,
  "Ġmoves": 7184,
  "Ġobviously": 7185,
  "ĠÐ": 7186,
  "Ġnearby": 7187,
  "raid": 7188,
  "including": 7189,
  "Ġlad": 7190,
  "Ġheads": 7191,
  "Ġforever": 7192,
  "ĠStat": 7193,
  "Ġconscious": 7194,
  "Ġguitar": 7195,
  "Ġresulting": 7196,
  "Ġcreates": 7197,
  "ĠRoman": 7198,
  "ĠFar": 7199,
  "Ġreader": 7200,
  "aylor": 7201,
  "ĠMach": 7202,
  "Ġacts": 7203,
  "ixture": 7204,
  "nda": 7205,
  "adel": 7206,
  "abeth": 7207,
  "ĠGall": 7208,
  "ĠVan": 7209,
  "ĠColorado": 7210,
  "Ġreputation": 7211,
  "View": 7212,
  "ĠAgain": 7213,
  "Ġsucceed": 7214,
  "front": 7215,
  "Ġrecy": 7216,
  "ĠLeg": 7217,
  "Ġscientists": 7218,
  "Ġconvenient": 7219,
  "Ġphr": 7220,
  "Ġsignal": 7221,
  "Ġimproving": 7222,
  "Ġmembership": 7223,
  "Ġtrends": 7224,
  "ĠSouthern": 7225,
  "ĠFriend": 7226,
  "Ġ150": 7227,
  "Ġinterpret": 7228,
  "ument": 7229,
  "Ġtechnique": 7230,
  "Ġbroadcast": 7231,
  "Ġrepeated": 7232,
  "Ġsearching": 7233,
  "Ġstrike": 7234,
  "stein": 7235,
  "abetes": 7236,
  "Ġoutstanding": 7237,
  "ĠUk": 7238,
  "Ġspin": 7239,
  "ĠExecutive": 7240,
  "ĠStudies": 7241,
  "Ġsurprising": 7242,
  "star": 7243,
  "Ġgrass": 7244,
  "Ġdirected": 7245,
  "CD": 7246,
  "Ġfalse": 7247,
  "Ġsomewhat": 7248,
  "athy": 7249,
  "Ġlifestyle": 7250,
  "Ġprecise": 7251,
  "Ġpounds": 7252,
  "otton": 7253,
  "Ġcelebrate": 7254,
  "Ġreligion": 7255,
  "ĠCatholic": 7256,
  "Ġcolumn": 7257,
  "Ġwatched": 7258,
  "Ġmurder": 7259,
  "ĠBon": 7260,
  "celer": 7261,
  "Ġacting": 7262,
  "Ġcuts": 7263,
  "Ġdining": 7264,
  "Ġpursu": 7265,
  "xiety": 7266,
  "Ġpit": 7267,
  "ĠFurther": 7268,
  "Tube": 7269,
  "Ġsoph": 7270,
  "ĠCB": 7271,
  "Ġneither": 7272,
  "Ġweren": 7273,
  "Ġmuseum": 7274,
  "ulating": 7275,
  "Ġcompr": 7276,
  "Ġtech": 7277,
  "ĠHelp": 7278,
  "ĠIrish": 7279,
  "amber": 7280,
  "teen": 7281,
  "Ġflash": 7282,
  "bridge": 7283,
  "Ġlandscape": 7284,
  "Ġfasc": 7285,
  "ĠRun": 7286,
  "Ġevol": 7287,
  "Ġbond": 7288,
  "Ġweapons": 7289,
  "Ġconflict": 7290,
  "iot": 7291,
  "Ġ33": 7292,
  "ĠApplic": 7293,
  "Bec": 7294,
  "stood": 7295,
  "cue": 7296,
  "Ġ)": 7297,
  "ĠEll": 7298,
  "anna": 7299,
  "Ġpitch": 7300,
  "level": 7301,
  "ĠTri": 7302,
  "ĠSn": 7303,
  "plate": 7304,
  "dy": 7305,
  "izz": 7306,
  "Ġunus": 7307,
  "John": 7308,
  "ĠEU": 7309,
  "Ġsaved": 7310,
  "Ġdomain": 7311,
  "xic": 7312,
  "Ġdefault": 7313,
  "Ġbathroom": 7314,
  "ĠSecretary": 7315,
  "ĠField": 7316,
  "Ġspaces": 7317,
  "Ġ1990": 7318,
  "Ġpleased": 7319,
  "Ġstyles": 7320,
  "CO": 7321,
  "MP": 7322,
  "Pre": 7323,
  "swe": 7324,
  "Ġclar": 7325,
  "Ġincreasingly": 7326,
  "ĠRay": 7327,
  "Ġ37": 7328,
  "Ġcopyright": 7329,
  "Ġduty": 7330,
  "ĠRoyal": 7331,
  "inson": 7332,
  "Ġcontribute": 7333,
  "ĠArea": 7334,
  "Ġoccurred": 7335,
  "Ġcategories": 7336,
  "ĠHarr": 7337,
  "ogether": 7338,
  "Ġsheet": 7339,
  "ĠSearch": 7340,
  "Ġrig": 7341,
  "Ġbrill": 7342,
  "Ġlargely": 7343,
  "ĠSometimes": 7344,
  "Ġamend": 7345,
  "Ġlapt": 7346,
  "ĠEs": 7347,
  "Ġnoise": 7348,
  "aze": 7349,
  "Ġinterface": 7350,
  "Ġstrange": 7351,
  "ĠLow": 7352,
  "Ġregions": 7353,
  "Ġbroke": 7354,
  "ĠInstagram": 7355,
  "Ġwidely": 7356,
  "Ġrental": 7357,
  "ĠBudd": 7358,
  "Ġroles": 7359,
  "2013": 7360,
  "Ġdefinition": 7361,
  "Ġterrit": 7362,
  "Ġreferred": 7363,
  "ounded": 7364,
  "RI": 7365,
  "ilst": 7366,
  "Ġalive": 7367,
  "Ġtracks": 7368,
  "Ġpra": 7369,
  "Ġwest": 7370,
  "Ġsavings": 7371,
  "Ġluck": 7372,
  "ĠTru": 7373,
  "ĠBlog": 7374,
  "Ġera": 7375,
  "Ġchoosing": 7376,
  "Ġprimarily": 7377,
  "Ġdrinking": 7378,
  "rich": 7379,
  "ifies": 7380,
  "Ġdoctors": 7381,
  "Ġinvolves": 7382,
  "Ġpace": 7383,
  "Ġweekly": 7384,
  "anned": 7385,
  "Ġplatforms": 7386,
  "Ġapartment": 7387,
  "Ġsoil": 7388,
  "Ġaggress": 7389,
  "Ġexperiment": 7390,
  "aska": 7391,
  "Ġmoist": 7392,
  "Book": 7393,
  "Ġtwenty": 7394,
  "Ġclaimed": 7395,
  "Ġimplementation": 7396,
  "EA": 7397,
  "SS": 7398,
  "rite": 7399,
  "ĠLiber": 7400,
  "Check": 7401,
  "ĠKey": 7402,
  "Ġproposal": 7403,
  "Ġstrategic": 7404,
  "ĠJersey": 7405,
  "Ġprinciples": 7406,
  "oir": 7407,
  "ĠDate": 7408,
  "ĠChair": 7409,
  "Ġperforming": 7410,
  "ĠFinancial": 7411,
  "Ġinspiration": 7412,
  "UP": 7413,
  "Ġease": 7414,
  "ĠHa": 7415,
  "Ġconsumption": 7416,
  "holders": 7417,
  "ĠRyan": 7418,
  "Ġreserved": 7419,
  "Ġpotentially": 7420,
  "Car": 7421,
  "Sm": 7422,
  "nell": 7423,
  "Ġapparently": 7424,
  "Ġeligible": 7425,
  "olit": 7426,
  "Ġexec": 7427,
  "Ġentit": 7428,
  "Ġevaluation": 7429,
  "EG": 7430,
  "ĠJac": 7431,
  "iversary": 7432,
  "uing": 7433,
  "rition": 7434,
  "Ġinner": 7435,
  "Ġmanual": 7436,
  "Ġunw": 7437,
  "Ġcircuit": 7438,
  "Pr": 7439,
  "tocol": 7440,
  "ĠPolit": 7441,
  "ĠSystems": 7442,
  "Ġphen": 7443,
  "urb": 7444,
  "ĠRon": 7445,
  "ĠDownload": 7446,
  "Ġreaction": 7447,
  "Ġamounts": 7448,
  "Ġsubscrib": 7449,
  "enger": 7450,
  "Ġmainly": 7451,
  "cipal": 7452,
  "ĠIreland": 7453,
  "iac": 7454,
  "then": 7455,
  "Ġclimb": 7456,
  "ikes": 7457,
  "Ġsending": 7458,
  "Ġdivision": 7459,
  "ĠAssist": 7460,
  "BI": 7461,
  "Gu": 7462,
  "Ġachieved": 7463,
  "Ġpowder": 7464,
  "making": 7465,
  "ĠSanta": 7466,
  "ĠKent": 7467,
  "Ġoverwhel": 7468,
  "Ġbridge": 7469,
  "Ġfaces": 7470,
  "page": 7471,
  "liament": 7472,
  "Ġmanaging": 7473,
  "ĠHon": 7474,
  "rated": 7475,
  "Ġvent": 7476,
  "ĠThus": 7477,
  "Ġmarked": 7478,
  "Ġ1998": 7479,
  "Ġlucky": 7480,
  "ĠSupreme": 7481,
  "Thank": 7482,
  "Ġcontrols": 7483,
  "ĠPacific": 7484,
  "live": 7485,
  "Ġstake": 7486,
  "Ġwithd": 7487,
  "ĠDaily": 7488,
  "arks": 7489,
  "Ġassault": 7490,
  "Ġfavourite": 7491,
  "ĠCa": 7492,
  "ĠCOVID": 7493,
  "ĠKim": 7494,
  "onym": 7495,
  "ffered": 7496,
  "Ġhole": 7497,
  "Ġhidden": 7498,
  "ĠMA": 7499,
  "ĠDid": 7500,
  "tense": 7501,
  "Ġgenuine": 7502,
  "ership": 7503,
  "ĠRoom": 7504,
  "Ġclock": 7505,
  "inos": 7506,
  "ĠHope": 7507,
  "annels": 7508,
  "ĠOil": 7509,
  "Ġinspe": 7510,
  "%.": 7511,
  "Bu": 7512,
  "ĠBell": 7513,
  "Ġkm": 7514,
  "Ġmagic": 7515,
  "htt": 7516,
  "Ġnic": 7517,
  "ĠGeorgia": 7518,
  "TV": 7519,
  "Ġpill": 7520,
  "Ġpipe": 7521,
  "Ġfounded": 7522,
  "Ġknock": 7523,
  "Ġcomponent": 7524,
  "Ġpermanent": 7525,
  "ters": 7526,
  "Ġeast": 7527,
  "ĠFed": 7528,
  "Ġoffices": 7529,
  "Ġprogramme": 7530,
  "Ġaccomplish": 7531,
  "Ġintelligence": 7532,
  "Jan": 7533,
  "ĠPoint": 7534,
  "lessly": 7535,
  "inter": 7536,
  "isdom": 7537,
  "anwhile": 7538,
  "acle": 7539,
  "aping": 7540,
  "ĠDisc": 7541,
  "idays": 7542,
  "bar": 7543,
  "Ġspokes": 7544,
  "Ġflag": 7545,
  "Ġafraid": 7546,
  "Ġpermission": 7547,
  "Ġcontinuing": 7548,
  "Ġtab": 7549,
  "Ġstuck": 7550,
  "Ġoppon": 7551,
  "Ġrequests": 7552,
  "800": 7553,
  "Ġoven": 7554,
  "Ġmile": 7555,
  "urrent": 7556,
  "Ġjew": 7557,
  "Ġpriority": 7558,
  "Ġstood": 7559,
  "ĠLED": 7560,
  "ĠConnect": 7561,
  "Ġcapture": 7562,
  "Ġgender": 7563,
  "Ġads": 7564,
  "ĠSky": 7565,
  "Ġmanufacturer": 7566,
  "54": 7567,
  "Ġdust": 7568,
  "itionally": 7569,
  "Ġformal": 7570,
  "Ġgenerate": 7571,
  "Ġpossess": 7572,
  "pir": 7573,
  "ura": 7574,
  "Ġproven": 7575,
  "this": 7576,
  "Ġpassword": 7577,
  "Ġgifts": 7578,
  "was": 7579,
  "Ġdivid": 7580,
  "Ġengaged": 7581,
  "Ġsensitive": 7582,
  "Have": 7583,
  "Ġtransp": 7584,
  "Ġtip": 7585,
  "Ġbab": 7586,
  "Ġlies": 7587,
  "iger": 7588,
  "amental": 7589,
  "Ġ400": 7590,
  "icted": 7591,
  "oken": 7592,
  "inch": 7593,
  "CL": 7594,
  "Ġattended": 7595,
  "________": 7596,
  "EP": 7597,
  "Ġwash": 7598,
  "Ġzone": 7599,
  "Ġqualified": 7600,
  "Ġcollaboration": 7601,
  "run": 7602,
  "iece": 7603,
  "Ġopposite": 7604,
  "Ġstronger": 7605,
  "requ": 7606,
  "ĠEss": 7607,
  "ĠVideo": 7608,
  "Ġincredibly": 7609,
  "Ġbirds": 7610,
  "Ġluxury": 7611,
  "ĠThree": 7612,
  "ava": 7613,
  "Ġfaculty": 7614,
  "Ġtreatments": 7615,
  "Ġwins": 7616,
  "ione": 7617,
  "ĠFort": 7618,
  "izabeth": 7619,
  "Ġflavor": 7620,
  "ĠCO": 7621,
  "Ġdevelopers": 7622,
  "ĠGovern": 7623,
  "Ġillegal": 7624,
  "Ġflour": 7625,
  "ĠSpanish": 7626,
  "Ġhire": 7627,
  "ĠKenn": 7628,
  "Ġcapabilities": 7629,
  "Ġforecast": 7630,
  "Ġbomb": 7631,
  "ĠTax": 7632,
  "Ġchances": 7633,
  "ĠAdministration": 7634,
  "Note": 7635,
  "Ġinvolving": 7636,
  "ĠCond": 7637,
  "Ġsees": 7638,
  "Ġshouldn": 7639,
  "Ġexpenses": 7640,
  "adow": 7641,
  "ĠFox": 7642,
  "Ġdriven": 7643,
  "ĠRose": 7644,
  "cover": 7645,
  "anny": 7646,
  "Ġexception": 7647,
  "Ġfifth": 7648,
  "Ġeverywhere": 7649,
  "Ġobserved": 7650,
  "ambling": 7651,
  "Ġflexible": 7652,
  "mond": 7653,
  "Ġsubmitted": 7654,
  "cked": 7655,
  "ĠExpl": 7656,
  "Ġportfol": 7657,
  "Rep": 7658,
  "dated": 7659,
  "vard": 7660,
  "ennis": 7661,
  "urable": 7662,
  "Ġsaving": 7663,
  "formance": 7664,
  "Ġhistoric": 7665,
  "Ġpurs": 7666,
  "ĠAdam": 7667,
  "Ġdrawing": 7668,
  "Ġdeposit": 7669,
  "53": 7670,
  "ðŁ": 7671,
  "ĠSat": 7672,
  "ĠNote": 7673,
  "Ġpink": 7674,
  "Ġdad": 7675,
  "cia": 7676,
  "Ġ34": 7677,
  "cific": 7678,
  "Ġdrawn": 7679,
  "Ġlimits": 7680,
  "Ġhopes": 7681,
  "ĠNever": 7682,
  "thew": 7683,
  "Ġoutcome": 7684,
  "ocracy": 7685,
  "Ġmemories": 7686,
  "Ġextract": 7687,
  "erate": 7688,
  "Ġintense": 7689,
  "Ġheaded": 7690,
  "ĠPhys": 7691,
  "ĠDisney": 7692,
  "tes": 7693,
  "rency": 7694,
  "ĠStan": 7695,
  "ĠWebs": 7696,
  "ificate": 7697,
  "ĠPolicy": 7698,
  "Ġfindings": 7699,
  "ĠZeal": 7700,
  "Ġleather": 7701,
  "Ġinvited": 7702,
  "Ġrecommendations": 7703,
  "Ġreplaced": 7704,
  "Ġvacation": 7705,
  "Ġguidelines": 7706,
  "bre": 7707,
  "Ġwra": 7708,
  "Ġhospit": 7709,
  "ĠRo": 7710,
  "ĠLabor": 7711,
  "letter": 7712,
  "Ġeleg": 7713,
  "Ġempty": 7714,
  ")|": 7715,
  "Press": 7716,
  "Ġcommonly": 7717,
  "bits": 7718,
  "Ġresume": 7719,
  "Ġultimate": 7720,
  "ĠMarketing": 7721,
  "inent": 7722,
  "ormal": 7723,
  "Ġcausing": 7724,
  "Reg": 7725,
  "ati": 7726,
  "Ġrelative": 7727,
  "ĠRetrieved": 7728,
  "Ġtransportation": 7729,
  "Ġmortgage": 7730,
  "ĠProfessor": 7731,
  "Ġsubjects": 7732,
  "Ġintroduction": 7733,
  "onna": 7734,
  "oured": 7735,
  "ĠDog": 7736,
  "ĠJr": 7737,
  "ĠLearn": 7738,
  "Ġevolution": 7739,
  "Ġelectrical": 7740,
  "ĠQuest": 7741,
  "96": 7742,
  "rog": 7743,
  "izer": 7744,
  "Ġexplan": 7745,
  "Ġinfection": 7746,
  "Ġloving": 7747,
  "Ġ2022": 7748,
  "Ġfunctional": 7749,
  "Ġtournament": 7750,
  "ĠSus": 7751,
  "iform": 7752,
  "ĠFather": 7753,
  "coin": 7754,
  "Ġdreams": 7755,
  "ĠBritain": 7756,
  "Ġpublication": 7757,
  "ĠDar": 7758,
  "Ġhosting": 7759,
  "98": 7760,
  "Sub": 7761,
  "ĠSH": 7762,
  "Ġvoters": 7763,
  "Ġliterature": 7764,
  "sen": 7765,
  "Ġvisited": 7766,
  "ĠKar": 7767,
  "Ġgenerated": 7768,
  "Ġlawyer": 7769,
  "stra": 7770,
  "ĠClinton": 7771,
  "lers": 7772,
  "Ġbunch": 7773,
  "Ġrating": 7774,
  "Ġdebut": 7775,
  "Ġrising": 7776,
  "Ġnewly": 7777,
  "ĠWorks": 7778,
  "Ġyield": 7779,
  "Ġseed": 7780,
  "Ġsharp": 7781,
  "Ġdesigner": 7782,
  "Ġeggs": 7783,
  "Ġgene": 7784,
  "ĠPract": 7785,
  "Ġdesired": 7786,
  "Ġavailability": 7787,
  "Ġfalling": 7788,
  "Ġconsideration": 7789,
  "zona": 7790,
  "lled": 7791,
  "ĠWales": 7792,
  "Ġthinks": 7793,
  "Ġdecent": 7794,
  "Ġdeeply": 7795,
  "Ġfitness": 7796,
  "Before": 7797,
  "Ġinstrument": 7798,
  "ellectual": 7799,
  "athan": 7800,
  "Ġdiseases": 7801,
  "Because": 7802,
  "pack": 7803,
  "Ġawards": 7804,
  "onto": 7805,
  "izza": 7806,
  "Ġphotography": 7807,
  "Ġfirms": 7808,
  "Ġshops": 7809,
  "Ġanymore": 7810,
  "Ġrecover": 7811,
  "Ġstructures": 7812,
  "Ġtissue": 7813,
  "bury": 7814,
  "Ġbull": 7815,
  "ounter": 7816,
  "ĠJoseph": 7817,
  "sts": 7818,
  "olar": 7819,
  "ĠAsh": 7820,
  "Ġquote": 7821,
  "amps": 7822,
  "ologist": 7823,
  "ĠAccount": 7824,
  "etary": 7825,
  "ĠBa": 7826,
  "ĠZealand": 7827,
  "Part": 7828,
  "tail": 7829,
  "Ġtact": 7830,
  "Ġsupplement": 7831,
  "ĠDemocratic": 7832,
  "Ġbatt": 7833,
  "ATE": 7834,
  "Ġenforcement": 7835,
  "vate": 7836,
  "ĠJenn": 7837,
  "inte": 7838,
  "Ġnom": 7839,
  "Ġbell": 7840,
  "imize": 7841,
  "Ġchannels": 7842,
  "iano": 7843,
  "ĠConf": 7844,
  "Ġexistence": 7845,
  "Ġrecognition": 7846,
  "Ġregardless": 7847,
  "Ġprinted": 7848,
  "boy": 7849,
  "Ġfestival": 7850,
  "ĠFred": 7851,
  "ĠTravel": 7852,
  "ĠBrazil": 7853,
  "CR": 7854,
  "essel": 7855,
  "Ġmeals": 7856,
  "phy": 7857,
  "ĠBuilding": 7858,
  "Ġmatches": 7859,
  "Ġcute": 7860,
  "uter": 7861,
  "irts": 7862,
  "Ġindustries": 7863,
  "ESS": 7864,
  "Ġpreparation": 7865,
  "ĠHeart": 7866,
  "Ġexpansion": 7867,
  "worth": 7868,
  "Ġsolve": 7869,
  "Ġalongside": 7870,
  "Ġbags": 7871,
  "97": 7872,
  "Ġhel": 7873,
  "Ġseasons": 7874,
  "inking": 7875,
  "Ġcareful": 7876,
  "ĠForce": 7877,
  "Ġpreferred": 7878,
  "wart": 7879,
  "ruption": 7880,
  "Ġvisible": 7881,
  "ĠSilver": 7882,
  "Ġarrested": 7883,
  "ĠCab": 7884,
  "Ġreducing": 7885,
  "Ġforgot": 7886,
  "Ġcontrolled": 7887,
  "Ġequival": 7888,
  "erring": 7889,
  "ĠHoly": 7890,
  "Ġsynt": 7891,
  "ĠTraining": 7892,
  "Ġdepends": 7893,
  "ifer": 7894,
  "atell": 7895,
  "quality": 7896,
  "Ġescape": 7897,
  "ĠTech": 7898,
  "yes": 7899,
  "ingers": 7900,
  "2012": 7901,
  "ĠEsc": 7902,
  "Ġmerch": 7903,
  "His": 7904,
  "Ġreact": 7905,
  "ĠMill": 7906,
  "ĠGreek": 7907,
  "Ġcharm": 7908,
  "Ġexposed": 7909,
  "Ġharder": 7910,
  "Ġstrict": 7911,
  "ĠThough": 7912,
  "Ġcontained": 7913,
  "Ġframework": 7914,
  "ĠCorporation": 7915,
  "Ġcos": 7916,
  "ceived": 7917,
  "missions": 7918,
  "Ġsplit": 7919,
  "Su": 7920,
  "season": 7921,
  "ĠYouTube": 7922,
  "Ġexperim": 7923,
  "Ġwrites": 7924,
  "ĠSafety": 7925,
  "Oct": 7926,
  "alty": 7927,
  "ĠHun": 7928,
  "isted": 7929,
  "Ġeverybody": 7930,
  "ystem": 7931,
  "Ġ;": 7932,
  "ĠResp": 7933,
  "Ġreduction": 7934,
  "ĠTal": 7935,
  "Follow": 7936,
  "Ġbact": 7937,
  "Ġstead": 7938,
  "Ġconnections": 7939,
  "Two": 7940,
  "Ġtor": 7941,
  "ĠCON": 7942,
  "ĠVill": 7943,
  "Ġproducing": 7944,
  "Ġobst": 7945,
  "Ġliterally": 7946,
  "Ġcomparison": 7947,
  "ĠAvenue": 7948,
  "Ġru": 7949,
  "Ġarrive": 7950,
  "ĠDemocrats": 7951,
  "Med": 7952,
  "uct": 7953,
  "issions": 7954,
  "ĠClin": 7955,
  "Ġbreaking": 7956,
  "Ġdynamic": 7957,
  "alysis": 7958,
  "ĠWhich": 7959,
  "Ġfinance": 7960,
  "Ġhandling": 7961,
  "Ġscheme": 7962,
  "adelph": 7963,
  "iate": 7964,
  "Ġcam": 7965,
  "owers": 7966,
  "ĠPop": 7967,
  "Ġvice": 7968,
  "Ġrefund": 7969,
  "Ġdrag": 7970,
  "stery": 7971,
  "ĠStore": 7972,
  "Ġaccord": 7973,
  "Ġcommunicate": 7974,
  "âĢ¦.": 7975,
  "ĠStudents": 7976,
  "Ġcarrying": 7977,
  "ĠSea": 7978,
  "Ġposting": 7979,
  "Ġmanagers": 7980,
  "51": 7981,
  "Ġmood": 7982,
  "Ġundert": 7983,
  "Ġending": 7984,
  "Ġjoining": 7985,
  "Â·": 7986,
  "ĠMobile": 7987,
  "Ġanxiety": 7988,
  "Like": 7989,
  "ĠTurn": 7990,
  "etry": 7991,
  "Ġstunning": 7992,
  "ĠBru": 7993,
  "ĠRa": 7994,
  "Ġextension": 7995,
  "isa": 7996,
  "leep": 7997,
  "ĠOk": 7998,
  "ĠUlt": 7999,
  "Ġcoc": 8000,
  "ĠTer": 8001,
  "ĠAction": 8002,
  "Ġcompare": 8003,
  "Ġspots": 8004,
  "Ġpepper": 8005,
  "Ġelected": 8006,
  "Ġhyper": 8007,
  "ĠSmall": 8008,
  "Ġsacr": 8009,
  "Ġremoval": 8010,
  "Ġobjective": 8011,
  "ila": 8012,
  "ĠFact": 8013,
  "Ġpersonality": 8014,
  "Ġscenes": 8015,
  "Ġbars": 8016,
  "ĠCru": 8017,
  "ensus": 8018,
  "Ġlogo": 8019,
  "Ġtitles": 8020,
  "Ġdepression": 8021,
  "Ġsuffered": 8022,
  "Ġsmoke": 8023,
  "Ġbehalf": 8024,
  "Ġcookies": 8025,
  "Ġenterprise": 8026,
  "Ġdollar": 8027,
  "Ġtone": 8028,
  "arry": 8029,
  "Ġwhenever": 8030,
  "ĠAwards": 8031,
  "inity": 8032,
  "Ġconvin": 8033,
  "Ġcomputers": 8034,
  "ĠTerm": 8035,
  "ĠBall": 8036,
  "anted": 8037,
  "being": 8038,
  "Ġreject": 8039,
  "ĠEric": 8040,
  "Ġmarks": 8041,
  "Ġopposition": 8042,
  "Ġengagement": 8043,
  "Ġlau": 8044,
  "].": 8045,
  "Ġnaturally": 8046,
  "olis": 8047,
  "ĠSS": 8048,
  "ĠOp": 8049,
  "allas": 8050,
  "Ġapplicable": 8051,
  "Ġconsequences": 8052,
  "war": 8053,
  "igation": 8054,
  "ĠFord": 8055,
  "Ġunderstood": 8056,
  "Ġ65": 8057,
  "Ġinteract": 8058,
  "Fi": 8059,
  "Ġrecon": 8060,
  "Ġassume": 8061,
  "Ġtransaction": 8062,
  "68": 8063,
  "ĠPak": 8064,
  "ĠLLC": 8065,
  "Ġlaid": 8066,
  "Ġtraveling": 8067,
  "Ġhung": 8068,
  "ĠAsian": 8069,
  "Ġfaced": 8070,
  "Ġthousand": 8071,
  "AF": 8072,
  "Ġbench": 8073,
  "ĠShould": 8074,
  "cut": 8075,
  "Ġstom": 8076,
  "Ġbutt": 8077,
  "Ġcompat": 8078,
  "Ġtracking": 8079,
  "Ġencouraged": 8080,
  "Ġgentle": 8081,
  "urities": 8082,
  "ĠCountry": 8083,
  "Ġprohib": 8084,
  "Ġkilling": 8085,
  "iro": 8086,
  "Ġlect": 8087,
  "Ġdispos": 8088,
  "ĠViet": 8089,
  "Ġparam": 8090,
  "ito": 8091,
  "ĠDaniel": 8092,
  "Ġindicate": 8093,
  "Ġfilter": 8094,
  "ĠBroad": 8095,
  "VER": 8096,
  "Whe": 8097,
  "heast": 8098,
  "ĠTaylor": 8099,
  "ĠDrive": 8100,
  "Ġconsists": 8101,
  "Ġinstant": 8102,
  "Ġtape": 8103,
  "Ġseats": 8104,
  "Ġuncom": 8105,
  "Ġpocket": 8106,
  "friendly": 8107,
  "ĠCR": 8108,
  "eling": 8109,
  "icking": 8110,
  "64": 8111,
  "wan": 8112,
  "Ġlatter": 8113,
  "Ġdestination": 8114,
  "ĠNon": 8115,
  "ĠSpace": 8116,
  "Ġbaseball": 8117,
  "Ġfraud": 8118,
  "Ġunex": 8119,
  "Ġbills": 8120,
  "Ġawarded": 8121,
  "Ġinitiative": 8122,
  "aron": 8123,
  "Ġloud": 8124,
  "Ġshower": 8125,
  "Ġsuperior": 8126,
  "Ġpubl": 8127,
  "UD": 8128,
  "dis": 8129,
  "uous": 8130,
  "Ġmm": 8131,
  "ĠHou": 8132,
  "Ġairport": 8133,
  "à¨": 8134,
  "ĠDO": 8135,
  "riers": 8136,
  "ĠRod": 8137,
  "Ġphones": 8138,
  "Ġgotten": 8139,
  "adelphia": 8140,
  "days": 8141,
  "through": 8142,
  "Ġcriteria": 8143,
  "nesota": 8144,
  "Ġboxes": 8145,
  "Ġcouncil": 8146,
  "Ġlady": 8147,
  "Ġblank": 8148,
  "ĠFREE": 8149,
  "Ġmaintaining": 8150,
  "ĠType": 8151,
  "ĠDiego": 8152,
  "icious": 8153,
  "Ġfundamental": 8154,
  "Ġunusual": 8155,
  "Ġgod": 8156,
  "Ġisol": 8157,
  "ĠWH": 8158,
  "ocated": 8159,
  "Ġcenters": 8160,
  "Ġparticipation": 8161,
  "fall": 8162,
  "Ġwarning": 8163,
  "cker": 8164,
  "Ġlegend": 8165,
  "Ġinsight": 8166,
  "iking": 8167,
  "Ġzero": 8168,
  "ĠAfghan": 8169,
  "orous": 8170,
  "ĠCN": 8171,
  "Ġmac": 8172,
  "Ġyard": 8173,
  "ĠSuch": 8174,
  "ĠFall": 8175,
  "ĠGM": 8176,
  "Ġcovering": 8177,
  "Ġmistake": 8178,
  "Ġpul": 8179,
  "oted": 8180,
  "Ġ1996": 8181,
  "iami": 8182,
  "Ġsuddenly": 8183,
  "Back": 8184,
  "Pub": 8185,
  "iler": 8186,
  "chester": 8187,
  "EX": 8188,
  "Ġham": 8189,
  "elry": 8190,
  "Ġadequ": 8191,
  "ials": 8192,
  "Tra": 8193,
  "ĠPsych": 8194,
  "Ġarmy": 8195,
  "ĠÂ»": 8196,
  "Ġfishing": 8197,
  "ĠLy": 8198,
  "ĠStill": 8199,
  "Ġraw": 8200,
  "inois": 8201,
  "ĠRadio": 8202,
  "cular": 8203,
  "Ġtum": 8204,
  "Ġbasketball": 8205,
  "itis": 8206,
  "AND": 8207,
  "Ġrequested": 8208,
  "Step": 8209,
  "makers": 8210,
  "Ã¢": 8211,
  "Ġtie": 8212,
  "Ġtub": 8213,
  "usal": 8214,
  "ĠArm": 8215,
  "Ġmoral": 8216,
  "Ġcolleagues": 8217,
  "OO": 8218,
  "Ġgaming": 8219,
  "ĠEth": 8220,
  "erving": 8221,
  "Ġputs": 8222,
  "Ġcrash": 8223,
  "Ġoccurs": 8224,
  "Ġnewspaper": 8225,
  "Ġinjured": 8226,
  "Ġvolunteers": 8227,
  "Ġsamples": 8228,
  "Ġcontrovers": 8229,
  "ped": 8230,
  "Ġboss": 8231,
  "Ġasks": 8232,
  "Ġalt": 8233,
  "Ġstayed": 8234,
  "EF": 8235,
  "Will": 8236,
  "post": 8237,
  "Ġsought": 8238,
  "Ġma": 8239,
  "Ġgiant": 8240,
  "Ġpresents": 8241,
  "print": 8242,
  "Ġdemands": 8243,
  "bration": 8244,
  "acher": 8245,
  "Ġresidential": 8246,
  "Ġsoldiers": 8247,
  "epend": 8248,
  "ilty": 8249,
  "Ġstored": 8250,
  "Ġcalendar": 8251,
  "Ġtied": 8252,
  "Ġfinger": 8253,
  "Ġchecking": 8254,
  "haust": 8255,
  "Ġattempts": 8256,
  "Ġpowers": 8257,
  "ller": 8258,
  "ĠEnt": 8259,
  "ĠPrime": 8260,
  "Ġspeaker": 8261,
  "Ġattractive": 8262,
  "Ġmerely": 8263,
  "swered": 8264,
  "ashes": 8265,
  "Ġlists": 8266,
  "Ġequally": 8267,
  "ĠTreat": 8268,
  "ĠNick": 8269,
  "Ġactor": 8270,
  "Ġessentially": 8271,
  "ĠIII": 8272,
  "fa": 8273,
  "oked": 8274,
  "mal": 8275,
  "umer": 8276,
  "ĠOrig": 8277,
  "bell": 8278,
  "ĠFun": 8279,
  "ĠCarl": 8280,
  "Ġsuggestions": 8281,
  "Ġcasual": 8282,
  "ĠDam": 8283,
  "ĠLatin": 8284,
  "Ġchest": 8285,
  "clusive": 8286,
  "ĠPS": 8287,
  "Ġ55": 8288,
  "ĠAgency": 8289,
  "Ġinch": 8290,
  "ĠNorthern": 8291,
  "ĠOx": 8292,
  "Ġattitude": 8293,
  "Ġhaz": 8294,
  "Ġimper": 8295,
  "Ã¼": 8296,
  "eties": 8297,
  "ĠEmer": 8298,
  "iah": 8299,
  "ĠPerhaps": 8300,
  "ĠPen": 8301,
  "Ġdisplayed": 8302,
  "Ġjuice": 8303,
  "Aut": 8304,
  "ĠMah": 8305,
  "ĠPut": 8306,
  "Ġconcerning": 8307,
  "burgh": 8308,
  "ds": 8309,
  "Ġwake": 8310,
  "Ġwave": 8311,
  "iti": 8312,
  "ĠSir": 8313,
  "intage": 8314,
  "ĠKingdom": 8315,
  "ĠArizona": 8316,
  "Ġcompliance": 8317,
  "omething": 8318,
  "Ġopens": 8319,
  "Aug": 8320,
  "eness": 8321,
  "Ġunknown": 8322,
  "ILL": 8323,
  "Ġcomplicated": 8324,
  "67": 8325,
  "Ġadj": 8326,
  "ervations": 8327,
  "Ġstrongly": 8328,
  "ĠBrad": 8329,
  "Ġtired": 8330,
  "Ġracing": 8331,
  "DP": 8332,
  "Ġshoulder": 8333,
  "Ġmanufacturers": 8334,
  "lvan": 8335,
  "Ġrely": 8336,
  "Ġstable": 8337,
  "ĠEastern": 8338,
  "Ġgreatly": 8339,
  "ERE": 8340,
  "Sec": 8341,
  "Ġmob": 8342,
  "Best": 8343,
  "ĠAge": 8344,
  "Ġlets": 8345,
  "Ġpersonnel": 8346,
  "Ġdefensive": 8347,
  "Ġinitially": 8348,
  "da": 8349,
  "ĠRoll": 8350,
  "ĠRequ": 8351,
  "ĠOrder": 8352,
  "Ġ1997": 8353,
  "''": 8354,
  "aters": 8355,
  "Ġgap": 8356,
  "Ġscan": 8357,
  "Ġpoker": 8358,
  "Ġacceler": 8359,
  "Ġpointed": 8360,
  "ilipp": 8361,
  "ught": 8362,
  "Ġbone": 8363,
  "Ġmixture": 8364,
  "step": 8365,
  "ĠSav": 8366,
  "Ġretirement": 8367,
  "Find": 8368,
  "gov": 8369,
  "ington": 8370,
  "raction": 8371,
  "ĠDun": 8372,
  "Ġstruck": 8373,
  "ira": 8374,
  "irus": 8375,
  "uma": 8376,
  "Ġgranted": 8377,
  "Ġpregnancy": 8378,
  "icide": 8379,
  "Ġhip": 8380,
  "Ġloyal": 8381,
  "Ġriding": 8382,
  "Ġheading": 8383,
  "ĠMedicine": 8384,
  "Ġrepresented": 8385,
  "Ġsubsid": 8386,
  "Ġentitled": 8387,
  "85": 8388,
  "Ġmedication": 8389,
  "Ġlegit": 8390,
  "ĠPrin": 8391,
  "bro": 8392,
  "words": 8393,
  "iki": 8394,
  "Ġensuring": 8395,
  "Ġpand": 8396,
  "ĠTable": 8397,
  "Ġplain": 8398,
  "books": 8399,
  "Ġerrors": 8400,
  "high": 8401,
  "uana": 8402,
  "aret": 8403,
  "Ġapproaches": 8404,
  "Ġsingles": 8405,
  "ĠRepublicans": 8406,
  "hour": 8407,
  "Ġsections": 8408,
  "Ġchronic": 8409,
  "Ġfrustr": 8410,
  "Ġsentence": 8411,
  "Ġarchitecture": 8412,
  "Ġrapidly": 8413,
  "ĠBern": 8414,
  "BM": 8415,
  "site": 8416,
  "ĠElizabeth": 8417,
  "ĠEngineering": 8418,
  "Ġles": 8419,
  "ĠDream": 8420,
  "Ġvessel": 8421,
  "Ġunem": 8422,
  "aza": 8423,
  "Ġcertified": 8424,
  "Ġflying": 8425,
  "Ġconventional": 8426,
  "riter": 8427,
  "Ġprize": 8428,
  "Ġassistant": 8429,
  "ĠCapital": 8430,
  "anes": 8431,
  "Ġstations": 8432,
  "ĠSpain": 8433,
  "Ġpreparing": 8434,
  "imer": 8435,
  "ĠPA": 8436,
  "ulum": 8437,
  "Ġ($": 8438,
  "Ġstaying": 8439,
  "Ġrespectively": 8440,
  "Ġcontributions": 8441,
  "ĠPersonal": 8442,
  "ĠHas": 8443,
  "Ġspark": 8444,
  "bered": 8445,
  "Ġcharacteristics": 8446,
  "Ġportfolio": 8447,
  "Ġtill": 8448,
  "aine": 8449,
  "Ġblocks": 8450,
  "Good": 8451,
  "Ġther": 8452,
  "pending": 8453,
  "Ġfalls": 8454,
  "Wor": 8455,
  "ĠMiller": 8456,
  "ourse": 8457,
  "Ġaddresses": 8458,
  "car": 8459,
  "ART": 8460,
  "nce": 8461,
  "ĠRef": 8462,
  "Ġentering": 8463,
  "roller": 8464,
  "Sim": 8465,
  "nders": 8466,
  "ador": 8467,
  "Ġanswered": 8468,
  "Ġmeets": 8469,
  "Ġadmit": 8470,
  "ĠKat": 8471,
  "Ġcombat": 8472,
  "Ġwireless": 8473,
  "400": 8474,
  "iour": 8475,
  "ĠWi": 8476,
  "Ġ39": 8477,
  "Ġminimal": 8478,
  "Ġnights": 8479,
  "ĠSenior": 8480,
  "zed": 8481,
  "ĠLew": 8482,
  "Ġcomprom": 8483,
  "Ġ42": 8484,
  ",âĢĻ": 8485,
  "ĠMember": 8486,
  "ĠHold": 8487,
  "iley": 8488,
  "Ġplane": 8489,
  "Ġopinions": 8490,
  "Ġsorry": 8491,
  "Ġokay": 8492,
  "ĠTry": 8493,
  "ĠCurrent": 8494,
  "Ð¾": 8495,
  "ordan": 8496,
  "Ġpurchasing": 8497,
  "ritten": 8498,
  "rer": 8499,
  "Ġnations": 8500,
  "ĠDark": 8501,
  "ĠSection": 8502,
  "Ġtomat": 8503,
  "ateful": 8504,
  "Ġque": 8505,
  "Ġassigned": 8506,
  "inating": 8507,
  "Ġborrow": 8508,
  "Ġoffensive": 8509,
  "Ġperformances": 8510,
  "Ġclosing": 8511,
  "orgeous": 8512,
  "Rem": 8513,
  "wich": 8514,
  "olt": 8515,
  "Ġaccused": 8516,
  "UM": 8517,
  "ĠCredit": 8518,
  "erman": 8519,
  "Feb": 8520,
  "ĠTool": 8521,
  "Ġlesson": 8522,
  "ĠTele": 8523,
  "who": 8524,
  "Ġassociation": 8525,
  "aud": 8526,
  "ĠÂ©": 8527,
  "Each": 8528,
  "GA": 8529,
  "Ġenables": 8530,
  "ĠBrian": 8531,
  "Ġchildhood": 8532,
  "Ġcameras": 8533,
  "Art": 8534,
  "Ġwise": 8535,
  "Ġtrave": 8536,
  "Ġsmoking": 8537,
  "ĠUnfortunately": 8538,
  "Ġski": 8539,
  "ĠSummer": 8540,
  "bow": 8541,
  "Ġorient": 8542,
  "Ġdose": 8543,
  "Ġupload": 8544,
  "Ġraising": 8545,
  "liers": 8546,
  "Ġ1995": 8547,
  "ĠCivil": 8548,
  "ogy": 8549,
  "Ġremem": 8550,
  "ĠHenry": 8551,
  "ja": 8552,
  "lections": 8553,
  "enth": 8554,
  "Ġfewer": 8555,
  "Ġaccessories": 8556,
  "Ġuncertain": 8557,
  "Ġhosted": 8558,
  "ĠHarry": 8559,
  "SE": 8560,
  "alo": 8561,
  "ĠMembers": 8562,
  "ĠUr": 8563,
  "Ġcolon": 8564,
  "Ġcalm": 8565,
  "ĠMagazine": 8566,
  "Ġequivalent": 8567,
  "mo": 8568,
  "Ġdiversity": 8569,
  "ĠLocal": 8570,
  "ĠAnth": 8571,
  "ĠKevin": 8572,
  "acon": 8573,
  "Ġtrim": 8574,
  "Ġminister": 8575,
  "Ġclassroom": 8576,
  "ĠMinnesota": 8577,
  "Ġ1980": 8578,
  "Ġsuffer": 8579,
  "Ġceremony": 8580,
  "ĠLearning": 8581,
  "ĠCub": 8582,
  "ĠNO": 8583,
  "Ġreturning": 8584,
  "hire": 8585,
  "Ġlip": 8586,
  "Ġstudied": 8587,
  "Ġaircraft": 8588,
  "Ġconcert": 8589,
  "oric": 8590,
  "igen": 8591,
  "ronics": 8592,
  "Ġofficially": 8593,
  "Ġblend": 8594,
  "Ġloose": 8595,
  "Ġadmitted": 8596,
  "ĠProper": 8597,
  "Ġadopted": 8598,
  "ipt": 8599,
  "Ġlin": 8600,
  "ĠProm": 8601,
  "ĠBase": 8602,
  "ĠBuy": 8603,
  "Ġelectricity": 8604,
  "Ġbaking": 8605,
  "icket": 8606,
  "Inst": 8607,
  "Ġprogramming": 8608,
  "People": 8609,
  "Ġgained": 8610,
  "ulpt": 8611,
  "Ġvisits": 8612,
  "Ġmuscles": 8613,
  "Ġenjoying": 8614,
  "Ġhighlights": 8615,
  "ĠFilm": 8616,
  "ĠSales": 8617,
  "raine": 8618,
  "agan": 8619,
  "Ġupgrade": 8620,
  "pany": 8621,
  "Ġske": 8622,
  "Ġmold": 8623,
  "Ġrural": 8624,
  "Ġworried": 8625,
  "ĠStory": 8626,
  "ĠExpress": 8627,
  "ĠDavis": 8628,
  "Ġvolunteer": 8629,
  "Ġlens": 8630,
  "ĠPur": 8631,
  "ĠGro": 8632,
  "aka": 8633,
  "Ġlifetime": 8634,
  "Ġrecipes": 8635,
  "Ġrestrictions": 8636,
  "Ġocean": 8637,
  "ĠMD": 8638,
  "ĠHaving": 8639,
  "Ġvibr": 8640,
  "Ġgraphics": 8641,
  "Ġreaching": 8642,
  "sex": 8643,
  "Ġaband": 8644,
  "Ġjur": 8645,
  "Ġrequirement": 8646,
  "Ġgovernments": 8647,
  "Ġstir": 8648,
  "ĠEst": 8649,
  "Ġsurve": 8650,
  "Ġinterviews": 8651,
  "Ġconcrete": 8652,
  "Ġswimming": 8653,
  "Ġbrilliant": 8654,
  "ilton": 8655,
  "Ġdeploy": 8656,
  "osc": 8657,
  "Ġcoup": 8658,
  "âĤ¬": 8659,
  "rection": 8660,
  "ĠGarden": 8661,
  "Ġlaptop": 8662,
  "Ġhadn": 8663,
  "Ġpacked": 8664,
  "sylvan": 8665,
  "month": 8666,
  "Ġdanger": 8667,
  "Ġscores": 8668,
  "Ġsouthern": 8669,
  "ĠHart": 8670,
  "Ġoutcomes": 8671,
  "%,": 8672,
  "Ġdowntown": 8673,
  "Ġexceed": 8674,
  "Ġindicated": 8675,
  "ĠProcess": 8676,
  "Ġcourts": 8677,
  "ĠCou": 8678,
  "Ġweird": 8679,
  "ĠPalest": 8680,
  "ĠQueen": 8681,
  "ĠColumbia": 8682,
  "je": 8683,
  "vas": 8684,
  "onder": 8685,
  "Ġadvent": 8686,
  "anguage": 8687,
  "Ã³": 8688,
  "Ġheaven": 8689,
  "Ġmyth": 8690,
  "upid": 8691,
  "iary": 8692,
  "Ġwisdom": 8693,
  "Ġorange": 8694,
  "Ġcoat": 8695,
  "Ġdiabetes": 8696,
  "Ġrarely": 8697,
  "Ġfounder": 8698,
  "brid": 8699,
  "iscal": 8700,
  "Ġworkshop": 8701,
  "after": 8702,
  "jection": 8703,
  "cend": 8704,
  "iffe": 8705,
  "andy": 8706,
  "Ġequipped": 8707,
  "Ġanalyt": 8708,
  "ĠIllinois": 8709,
  "Ġheavily": 8710,
  "Ġconclusion": 8711,
  "ĠName": 8712,
  "Ġinteraction": 8713,
  "Ġtemporary": 8714,
  "Comm": 8715,
  "Ġlift": 8716,
  "kel": 8717,
  "osa": 8718,
  "ĠKorea": 8719,
  "ĠWebsite": 8720,
  "Ġstomach": 8721,
  "Ġstages": 8722,
  "ĠCommon": 8723,
  "roduction": 8724,
  "Ġapplying": 8725,
  "ckets": 8726,
  "ĠLA": 8727,
  "Ġ49": 8728,
  "ijuana": 8729,
  "Ġwaters": 8730,
  "Ġphilosophy": 8731,
  "Ġpig": 8732,
  "owed": 8733,
  "Ġdeeper": 8734,
  "usher": 8735,
  "ĠKansas": 8736,
  "Ġunion": 8737,
  "ĠSeattle": 8738,
  "viously": 8739,
  "edge": 8740,
  "ĠNic": 8741,
  "Ġarray": 8742,
  "Ġdamaged": 8743,
  "regon": 8744,
  "Ġusage": 8745,
  "ĠUSB": 8746,
  "Ġdrama": 8747,
  "Ġdeaths": 8748,
  "Ġlosses": 8749,
  "cm": 8750,
  "Ġ46": 8751,
  "ĠMrs": 8752,
  "Ġaccuracy": 8753,
  "Ġpp": 8754,
  "ugs": 8755,
  "ĠBarb": 8756,
  "erk": 8757,
  "tery": 8758,
  "phones": 8759,
  "'.": 8760,
  "ĠâĢĻ": 8761,
  "char": 8762,
  "Ġfranch": 8763,
  "ĠSwed": 8764,
  "Ġexhibition": 8765,
  "aver": 8766,
  "Ġpushed": 8767,
  "Ġblow": 8768,
  "Ġcrypt": 8769,
  "stal": 8770,
  "ĠBit": 8771,
  "Ġsegment": 8772,
  "Ġinvestments": 8773,
  "Ġprinting": 8774,
  "ĠInsurance": 8775,
  "ĠCase": 8776,
  "ĠHouston": 8777,
  "Ġpupp": 8778,
  "ĠFoot": 8779,
  "Ġexhaust": 8780,
  "Ġimmigr": 8781,
  "zes": 8782,
  "Ġbid": 8783,
  "ĠDub": 8784,
  "Ġproved": 8785,
  "ĠWas": 8786,
  "Ġexists": 8787,
  "Ġsomebody": 8788,
  "Ġimprovements": 8789,
  "Ġconcepts": 8790,
  "Ġtransactions": 8791,
  "Ġanniversary": 8792,
  "Ġdecline": 8793,
  "Ġsurvival": 8794,
  "http": 8795,
  "cor": 8796,
  "Ġtherap": 8797,
  "ĠOK": 8798,
  "odge": 8799,
  "Ġ44": 8800,
  "Ġlisting": 8801,
  "Cons": 8802,
  "iag": 8803,
  "intend": 8804,
  "pled": 8805,
  "apore": 8806,
  "Ġscoring": 8807,
  "Ġrepresentative": 8808,
  "Ġtemperatures": 8809,
  "looking": 8810,
  "wear": 8811,
  "ĠIde": 8812,
  "gel": 8813,
  "ĠLat": 8814,
  "Ġguilty": 8815,
  "ĠWithout": 8816,
  "Co": 8817,
  "Lear": 8818,
  "Ġlung": 8819,
  "ĠCapt": 8820,
  "Ġconvey": 8821,
  "Ġcontaining": 8822,
  "Ġresponses": 8823,
  "ĠIce": 8824,
  "Ġwhilst": 8825,
  "Ġinteractive": 8826,
  "sylvania": 8827,
  "arly": 8828,
  "ccer": 8829,
  "IGH": 8830,
  "Ġ!": 8831,
  "Ġrum": 8832,
  "87": 8833,
  "Ġhide": 8834,
  "ĠMiami": 8835,
  "ĠNation": 8836,
  "Ġintention": 8837,
  "Ġsubstantial": 8838,
  "stract": 8839,
  "ĠSC": 8840,
  "ĠRen": 8841,
  "Ġexport": 8842,
  "ĠJosh": 8843,
  "achus": 8844,
  "Ġoffense": 8845,
  "Ġemotions": 8846,
  "ĠCut": 8847,
  "ĠDallas": 8848,
  "eping": 8849,
  "Ġopposed": 8850,
  "Ġgrace": 8851,
  "Ġterrible": 8852,
  "ĠForest": 8853,
  "ĠStone": 8854,
  "ĠChild": 8855,
  "ĠSelect": 8856,
  "ribe": 8857,
  "Ġminds": 8858,
  "ĠGuard": 8859,
  "ĠProfessional": 8860,
  "ĠStock": 8861,
  "ĠiPad": 8862,
  "df": 8863,
  "sect": 8864,
  "Ġkit": 8865,
  "Ġdesper": 8866,
  "ĠSteel": 8867,
  "hemat": 8868,
  "Ġprovision": 8869,
  "Ġorganis": 8870,
  "Ġ1994": 8871,
  "Ġinnoc": 8872,
  "Ġdivor": 8873,
  "Ġstruggling": 8874,
  "Ġtroops": 8875,
  "Ġpilot": 8876,
  "low": 8877,
  "ĠOl": 8878,
  "Stud": 8879,
  "ĠBrook": 8880,
  "Ġenthusi": 8881,
  "Ã¶": 8882,
  "Ġ~": 8883,
  "Ġcul": 8884,
  "ali": 8885,
  "ĠGi": 8886,
  "Ġsed": 8887,
  "Ġdental": 8888,
  "ĠAllen": 8889,
  "Ġviewing": 8890,
  "Ġfocusing": 8891,
  "ĠPhiladelphia": 8892,
  "ĠMir": 8893,
  "Ġcontracts": 8894,
  "Ġsomehow": 8895,
  "Ġuniverse": 8896,
  "ĠChall": 8897,
  "Ġinstruction": 8898,
  "Ġroads": 8899,
  "Ġownership": 8900,
  "RL": 8901,
  "Ġbold": 8902,
  "ĠOak": 8903,
  "Ġinsert": 8904,
  "ĠBridge": 8905,
  "Ġcontribution": 8906,
  "ĠReading": 8907,
  "Ġauthentic": 8908,
  "69": 8909,
  "Ġfits": 8910,
  "Ġouts": 8911,
  "Ġengaging": 8912,
  "ĠSmart": 8913,
  "ĠIM": 8914,
  "Ġrice": 8915,
  "Ġprivile": 8916,
  "Ġintegration": 8917,
  "Ġphenomen": 8918,
  "RC": 8919,
  "Take": 8920,
  "Ġtort": 8921,
  "Ġpregnant": 8922,
  "SC": 8923,
  "Ġvert": 8924,
  "ifting": 8925,
  "Ġvegetables": 8926,
  "Ġ(âĢľ": 8927,
  "opher": 8928,
  "Ġhearts": 8929,
  "Ġimmune": 8930,
  "Ġenemy": 8931,
  "63": 8932,
  "break": 8933,
  "ji": 8934,
  "organ": 8935,
  "Ġbuff": 8936,
  "Ġsummary": 8937,
  "sis": 8938,
  "Ġfru": 8939,
  "ĠNatural": 8940,
  "Ġresident": 8941,
  "Ġflower": 8942,
  "Ġtargets": 8943,
  "Ġdrinks": 8944,
  "Ġimplemented": 8945,
  "Ġreveal": 8946,
  ".;": 8947,
  "ĠCL": 8948,
  "Ġsevent": 8949,
  "Ġpermit": 8950,
  "Ġintellectual": 8951,
  "Ġfarmers": 8952,
  "Ġsurvive": 8953,
  "athered": 8954,
  "Ġgate": 8955,
  "Ġdisaster": 8956,
  "Ġtrem": 8957,
  "ĠSarah": 8958,
  "eters": 8959,
  "ffective": 8960,
  "ALL": 8961,
  "Ġclubs": 8962,
  "xx": 8963,
  "Ġdispl": 8964,
  "Ġestimate": 8965,
  "ĠToronto": 8966,
  "imp": 8967,
  "Ġneut": 8968,
  "Ġpandemic": 8969,
  "ĠLas": 8970,
  "rowse": 8971,
  "Ġinstitution": 8972,
  "Ġmg": 8973,
  "Ġsatisfaction": 8974,
  "ĠCP": 8975,
  "ĠGreg": 8976,
  "Ġshirt": 8977,
  "Ġcompensation": 8978,
  "Ġgorgeous": 8979,
  "Ġhealing": 8980,
  "Ġchampion": 8981,
  "ĠKh": 8982,
  "Ġcomplaint": 8983,
  "âĢ³": 8984,
  "Ġoral": 8985,
  "ĠNFL": 8986,
  "ardens": 8987,
  "Ġrecre": 8988,
  "Ġwithdraw": 8989,
  "Ġinspection": 8990,
  "Ġmad": 8991,
  "ĠEvent": 8992,
  "Ġcombine": 8993,
  "Ġtap": 8994,
  "Ġnose": 8995,
  "ĠNAS": 8996,
  "Ġfactory": 8997,
  "%)": 8998,
  "uty": 8999,
  "rape": 9000,
  "Ġcann": 9001,
  "clude": 9002,
  "cludes": 9003,
  "Ġexceptional": 9004,
  "Ġtelephone": 9005,
  "Ġdistributed": 9006,
  "Ġunexpected": 9007,
  "ĠMother": 9008,
  "Ġuniform": 9009,
  "Ġelections": 9010,
  "ĠConsult": 9011,
  "Ġfur": 9012,
  "Ġmeasured": 9013,
  "iscons": 9014,
  "ĠWilson": 9015,
  "Ġcopies": 9016,
  "Ġconservative": 9017,
  "power": 9018,
  "Ġcm": 9019,
  "anth": 9020,
  "Ġheating": 9021,
  "ĠThink": 9022,
  "Ġspeakers": 9023,
  "Ġacquis": 9024,
  "ĠCamer": 9025,
  "Ġalter": 9026,
  "orses": 9027,
  "2011": 9028,
  "ennes": 9029,
  "Ġbreaks": 9030,
  "Ġwondering": 9031,
  "Ġcontainer": 9032,
  "Ġdivided": 9033,
  "ĠBeaut": 9034,
  "Ġpackaging": 9035,
  "Ġcircle": 9036,
  "Ġratio": 9037,
  "isconsin": 9038,
  "ĠTalk": 9039,
  "ĠSem": 9040,
  "ĠBang": 9041,
  "Ġvotes": 9042,
  "Ġnarrative": 9043,
  "Ġtons": 9044,
  "ucks": 9045,
  "Ġperiods": 9046,
  "Ġjudgment": 9047,
  "coln": 9048,
  "QL": 9049,
  "rat": 9050,
  "othe": 9051,
  "charge": 9052,
  "Ġconvert": 9053,
  "rix": 9054,
  "ĠLine": 9055,
  "ĠVery": 9056,
  "Ġemails": 9057,
  "Ġconsent": 9058,
  "Ġcompletion": 9059,
  "screen": 9060,
  "Dis": 9061,
  "Ġdil": 9062,
  "ĠNumber": 9063,
  "Ġsigning": 9064,
  "Ġfocuses": 9065,
  "ĠHawai": 9066,
  "inth": 9067,
  "Ġthy": 9068,
  "ĠDNA": 9069,
  "agraph": 9070,
  "Ġtoile": 9071,
  "roit": 9072,
  "hop": 9073,
  "Ġmole": 9074,
  "Ġ120": 9075,
  "oding": 9076,
  "Ġattach": 9077,
  "ĠExam": 9078,
  "Ġbrothers": 9079,
  "rets": 9080,
  "Ġtoler": 9081,
  "ĠFa": 9082,
  "Ġinspect": 9083,
  "ĠEdition": 9084,
  "ĠFinally": 9085,
  "Ġemerging": 9086,
  "world": 9087,
  "ĠMatthew": 9088,
  "Ġjail": 9089,
  "ixed": 9090,
  "verty": 9091,
  "ĠHT": 9092,
  "Ġwanting": 9093,
  "ĠLevel": 9094,
  "pers": 9095,
  "Ġporn": 9096,
  "omed": 9097,
  "ĠPo": 9098,
  "theless": 9099,
  "pson": 9100,
  "Ġdescribes": 9101,
  "ĠStephen": 9102,
  "vals": 9103,
  "Ġfilling": 9104,
  "Ġmask": 9105,
  "Ġhitting": 9106,
  "style": 9107,
  "ĠRub": 9108,
  "Ġcorrectly": 9109,
  "Ġly": 9110,
  "ĠBat": 9111,
  "Ġcomedy": 9112,
  "Ġpricing": 9113,
  "Ġtargeted": 9114,
  "Ġacknowled": 9115,
  "fers": 9116,
  "Ġexplo": 9117,
  "Ġemployer": 9118,
  "ĠOfficer": 9119,
  "Ġfib": 9120,
  "etts": 9121,
  "Ġdeck": 9122,
  "Ġkil": 9123,
  "Ġactors": 9124,
  "ĠPhilipp": 9125,
  "Ġattending": 9126,
  "Ġprayer": 9127,
  "Ġbass": 9128,
  "ĠMs": 9129,
  "Ġdeclared": 9130,
  "urse": 9131,
  "ĠJam": 9132,
  "Ġemotion": 9133,
  "ĠProtection": 9134,
  "Ġseeds": 9135,
  "Ġspa": 9136,
  "Ġscrew": 9137,
  "Ġlawsu": 9138,
  "Ġstudying": 9139,
  "Ġfiction": 9140,
  "terior": 9141,
  "Ġintroduce": 9142,
  "Ġpromoting": 9143,
  "Ġgallery": 9144,
  "Ġlicensed": 9145,
  "gor": 9146,
  "ouri": 9147,
  "ĠEX": 9148,
  "Ġsynd": 9149,
  "Ġstring": 9150,
  "ĠStudent": 9151,
  "Ġburning": 9152,
  "dney": 9153,
  "mates": 9154,
  "Ġbes": 9155,
  "ĠAB": 9156,
  "ĠCro": 9157,
  "Ġprotocol": 9158,
  "ĠJay": 9159,
  "Ġletting": 9160,
  "Ġspecialist": 9161,
  "ĠPrint": 9162,
  "Ġmaintained": 9163,
  "Ġsatisfied": 9164,
  "Ġmistakes": 9165,
  "Under": 9166,
  "lee": 9167,
  "omatic": 9168,
  "Ġgig": 9169,
  "ĠMade": 9170,
  "ĠBad": 9171,
  "ĠBand": 9172,
  "ĠRog": 9173,
  "ĠBeing": 9174,
  "ĠSoftware": 9175,
  "Ġventure": 9176,
  "Ġdishes": 9177,
  "jo": 9178,
  "Ġvoting": 9179,
  "ĠAC": 9180,
  "Ġtrips": 9181,
  "ĠTrade": 9182,
  "Ġcups": 9183,
  "79": 9184,
  "Make": 9185,
  "unes": 9186,
  "apse": 9187,
  "Ġneighb": 9188,
  "ĠExperience": 9189,
  "Ġcodes": 9190,
  "Ġinfect": 9191,
  "ĠBul": 9192,
  "Ġformula": 9193,
  "they": 9194,
  "Mark": 9195,
  "Ġfest": 9196,
  "Ġliability": 9197,
  "Ġscreens": 9198,
  "Ġpasses": 9199,
  "Ġconsistently": 9200,
  "ĠPennsylvania": 9201,
  "89": 9202,
  "AV": 9203,
  "Â©": 9204,
  "ĠCooper": 9205,
  "Ġpeak": 9206,
  "Ġpoverty": 9207,
  "Ġemployed": 9208,
  "Ġessays": 9209,
  "Ġcompete": 9210,
  "Ġantib": 9211,
  "ĠCustomer": 9212,
  "rary": 9213,
  "Ðµ": 9214,
  "onic": 9215,
  "ĠTony": 9216,
  "ractions": 9217,
  "ortion": 9218,
  "ĠProdu": 9219,
  "Ġparticipating": 9220,
  "Ġhoriz": 9221,
  "pool": 9222,
  "Ġdual": 9223,
  "Ġpreced": 9224,
  "Ġrecruit": 9225,
  "Ġsignature": 9226,
  "Ġhotels": 9227,
  "Ġaddressed": 9228,
  "Ġlanguages": 9229,
  "Ġsemi": 9230,
  "Ġcotton": 9231,
  "ceeds": 9232,
  "Ġstability": 9233,
  "Ġcompe": 9234,
  "ĠET": 9235,
  "Ġkiss": 9236,
  "Ġspir": 9237,
  "ĠChapter": 9238,
  "Ġmassage": 9239,
  "Day": 9240,
  "aun": 9241,
  "bra": 9242,
  "encing": 9243,
  "Ġemployers": 9244,
  "atellite": 9245,
  "Ġdismiss": 9246,
  "ervice": 9247,
  "Ġprime": 9248,
  "Ġsetup": 9249,
  "Ġstatistics": 9250,
  "Ġflexibility": 9251,
  "Ġhiring": 9252,
  "abil": 9253,
  "ustration": 9254,
  "Ġresort": 9255,
  "ĠSex": 9256,
  "Ġregulatory": 9257,
  "gener": 9258,
  "ounce": 9259,
  "mann": 9260,
  "ĠGolden": 9261,
  "occ": 9262,
  "inst": 9263,
  "ĠResources": 9264,
  "ĠNeed": 9265,
  "Ġpursue": 9266,
  "Ġaccordance": 9267,
  "Ġhes": 9268,
  "emed": 9269,
  "ĠAsk": 9270,
  "arat": 9271,
  "Ġrecall": 9272,
  "Ġproducer": 9273,
  "ificial": 9274,
  "vironments": 9275,
  "ĠStandard": 9276,
  "Ġroughly": 9277,
  "ĠMun": 9278,
  "Ġ43": 9279,
  "Ġtradem": 9280,
  "Ġreleases": 9281,
  "Ġpackages": 9282,
  "Ġcelebration": 9283,
  "Ġpublishing": 9284,
  "Ġbranch": 9285,
  "Ġsinger": 9286,
  "Ġchecked": 9287,
  "Ġbuyers": 9288,
  "Ġresponded": 9289,
  "avor": 9290,
  "inks": 9291,
  "Ġservers": 9292,
  "Ġgrateful": 9293,
  "Ġdiscussions": 9294,
  "Ġelsewhere": 9295,
  "Ġlayers": 9296,
  "Ġcertification": 9297,
  "Ġdemonstrate": 9298,
  "High": 9299,
  "ĠJane": 9300,
  "assion": 9301,
  "hesis": 9302,
  "Ġmovements": 9303,
  "ĠVegas": 9304,
  "rus": 9305,
  "ĠðŁ": 9306,
  "Ġmild": 9307,
  "Ġlake": 9308,
  "Ġgym": 9309,
  "utter": 9310,
  "owered": 9311,
  "ĠMajor": 9312,
  "ĠOregon": 9313,
  "asted": 9314,
  "Ġwinners": 9315,
  "Welcome": 9316,
  "mod": 9317,
  "ĠSab": 9318,
  "there": 9319,
  "ORE": 9320,
  "Ġmirror": 9321,
  "Ġencounter": 9322,
  "ĠDespite": 9323,
  "Ġstocks": 9324,
  "Ġarrival": 9325,
  "ĠAtlanta": 9326,
  "rell": 9327,
  "Ġdefine": 9328,
  "Ġpresidential": 9329,
  "ĠIndiana": 9330,
  "Ġvenue": 9331,
  "inated": 9332,
  "ĠCreek": 9333,
  "Ġguaranteed": 9334,
  "ko": 9335,
  "ĠDave": 9336,
  "udes": 9337,
  "awa": 9338,
  "cope": 9339,
  "Ġentrance": 9340,
  "Ġrenov": 9341,
  "aval": 9342,
  "angers": 9343,
  "Ġshell": 9344,
  "Ġdifficulty": 9345,
  "ĠJudge": 9346,
  "Ġannouncement": 9347,
  "ĠImm": 9348,
  "Ġstain": 9349,
  "Ġneuro": 9350,
  "Ġcharity": 9351,
  "Ġdrives": 9352,
  "ĠSteven": 9353,
  "achusetts": 9354,
  "iel": 9355,
  "imm": 9356,
  "Ġcha": 9357,
  "icked": 9358,
  "ordinary": 9359,
  "Ġconsultation": 9360,
  "ĠHay": 9361,
  "ĠFL": 9362,
  "iences": 9363,
  "Ġappointed": 9364,
  "called": 9365,
  "Ġhunt": 9366,
  "olid": 9367,
  "ĠMoon": 9368,
  "Ġroots": 9369,
  "Ġscope": 9370,
  "Ġpride": 9371,
  "Ġtransmission": 9372,
  "ĠQuality": 9373,
  "Ġ:)": 9374,
  "Ġcontributed": 9375,
  "Copyright": 9376,
  "Ġsod": 9377,
  "ĠFR": 9378,
  "ĠChampionship": 9379,
  "ocks": 9380,
  "Christ": 9381,
  "Ġfunctionality": 9382,
  "Ġdesigners": 9383,
  "Ġsolo": 9384,
  "Ġconstit": 9385,
  "DR": 9386,
  "Ġconversations": 9387,
  "Ġphotographs": 9388,
  "Ġthro": 9389,
  "Ġgambling": 9390,
  "umm": 9391,
  "ressed": 9392,
  "ĠAdvis": 9393,
  "Use": 9394,
  "isd": 9395,
  "Ġcomplim": 9396,
  "Ġrelation": 9397,
  "ĠBooks": 9398,
  "Contact": 9399,
  "Ġgrocer": 9400,
  "Ġpushing": 9401,
  "Ġalign": 9402,
  "ĠStaff": 9403,
  "Ġsurge": 9404,
  "Ġgrounds": 9405,
  "Ġholes": 9406,
  "Despite": 9407,
  "iatric": 9408,
  "Ġdramatic": 9409,
  "600": 9410,
  "uating": 9411,
  "ĠBBC": 9412,
  "Ġsear": 9413,
  "agers": 9414,
  "ĠContent": 9415,
  "Ġacquired": 9416,
  "Ġmattress": 9417,
  "El": 9418,
  "omer": 9419,
  "Ġproport": 9420,
  "ĠOwn": 9421,
  "Ġabilities": 9422,
  "riculum": 9423,
  "game": 9424,
  "Ġmit": 9425,
  "ĠSep": 9426,
  "ĠAdvent": 9427,
  "ĠBrother": 9428,
  "Ġutility": 9429,
  "owa": 9430,
  "ĠDri": 9431,
  "Ġseam": 9432,
  "ibl": 9433,
  "Ġdelivering": 9434,
  "Ġinitiatives": 9435,
  "hyth": 9436,
  "onymous": 9437,
  "Ġagenda": 9438,
  "amsung": 9439,
  "athon": 9440,
  "Ġestimates": 9441,
  "ping": 9442,
  "Ġautomatic": 9443,
  "Ġholidays": 9444,
  "ĠTR": 9445,
  "Ġspray": 9446,
  "grade": 9447,
  "Ġrab": 9448,
  "Mon": 9449,
  "Ġterr": 9450,
  "ppers": 9451,
  "ĠTheatre": 9452,
  "rous": 9453,
  "Ġclim": 9454,
  "ĠKind": 9455,
  "ĠShort": 9456,
  "Ġvoted": 9457,
  "ĠHIV": 9458,
  "ockey": 9459,
  "Ġpainted": 9460,
  "Ġordinary": 9461,
  "Äģ": 9462,
  "Ġnerv": 9463,
  "ols": 9464,
  "ĠBody": 9465,
  "ouses": 9466,
  "Ġdestroyed": 9467,
  "Ġsubsequent": 9468,
  "72": 9469,
  "GR": 9470,
  "otes": 9471,
  "urg": 9472,
  "ĠJun": 9473,
  "Ġboot": 9474,
  "Ġtooth": 9475,
  "ĠDoc": 9476,
  "acular": 9477,
  "Ġresidence": 9478,
  "Ġscream": 9479,
  "Ġregulation": 9480,
  "proof": 9481,
  "Great": 9482,
  "Ġteasp": 9483,
  "ĠClark": 9484,
  "2009": 9485,
  "Ġprincipal": 9486,
  "ĠRemember": 9487,
  "Ġargue": 9488,
  "don": 9489,
  "ĠCli": 9490,
  "ĠVen": 9491,
  "Ġinsights": 9492,
  "Ġdeveloper": 9493,
  "Ġversus": 9494,
  "Ġdenied": 9495,
  "Ġvirtually": 9496,
  "Met": 9497,
  "cest": 9498,
  "hist": 9499,
  "ĠBh": 9500,
  "Ġ250": 9501,
  "Ġadvantages": 9502,
  "Ġknee": 9503,
  "only": 9504,
  "Ġwestern": 9505,
  "Ġsafely": 9506,
  "Ġdesktop": 9507,
  "150": 9508,
  "KE": 9509,
  "PL": 9510,
  "ĠIV": 9511,
  "otte": 9512,
  "Ġdozen": 9513,
  "ĠChange": 9514,
  "ishment": 9515,
  "Ġ800": 9516,
  "Ġresulted": 9517,
  "mble": 9518,
  "vol": 9519,
  "Ġought": 9520,
  "Ġoverse": 9521,
  "Ġsecondary": 9522,
  "Ġimportantly": 9523,
  "Ġviewed": 9524,
  "Ġblogs": 9525,
  "Ġcampaigns": 9526,
  "Ġbehaviour": 9527,
  "istent": 9528,
  "cuse": 9529,
  "Ġhydro": 9530,
  "Ġdivide": 9531,
  "Ġaimed": 9532,
  "ĠGovernor": 9533,
  "ĠPakistan": 9534,
  "Ġbands": 9535,
  "Ġmic": 9536,
  "ĠShop": 9537,
  "Ġtries": 9538,
  "Ġsinging": 9539,
  "Ġclicking": 9540,
  "ĠAttorney": 9541,
  "uminum": 9542,
  "ĠScotland": 9543,
  "ĠHell": 9544,
  "Ġkeys": 9545,
  "ĠDean": 9546,
  "esy": 9547,
  "ĠCome": 9548,
  "Ġconj": 9549,
  "arring": 9550,
  "Join": 9551,
  "Ġmoon": 9552,
  "Ġovercome": 9553,
  "Ġhardly": 9554,
  "ĠMarc": 9555,
  "ĠRomney": 9556,
  "Ġsequence": 9557,
  "Ġangry": 9558,
  "herent": 9559,
  "Ġcow": 9560,
  "Ġhanging": 9561,
  "ĠIss": 9562,
  "ĠBull": 9563,
  "cience": 9564,
  "Ġresid": 9565,
  "ricted": 9566,
  "Ġ41": 9567,
  "Ġcreativity": 9568,
  "Gl": 9569,
  "chers": 9570,
  "ayer": 9571,
  "quarters": 9572,
  "asty": 9573,
  "Ġperm": 9574,
  "ĠCancer": 9575,
  "ĠPartners": 9576,
  "Ġrepeat": 9577,
  "HD": 9578,
  "uis": 9579,
  "rep": 9580,
  "Ġnomin": 9581,
  "Ġfinishing": 9582,
  "2017": 9583,
  "Ġgolden": 9584,
  "Ġeliminate": 9585,
  "',": 9586,
  "ami": 9587,
  "ĠMov": 9588,
  "oof": 9589,
  "ulator": 9590,
  "ĠED": 9591,
  "ĠStation": 9592,
  "Ġministry": 9593,
  "ĠServer": 9594,
  "ĠProducts": 9595,
  "Ġunlikely": 9596,
  "ima": 9597,
  "irk": 9598,
  "ifier": 9599,
  "Ġdistingu": 9600,
  "ĠArticle": 9601,
  "ĠAuto": 9602,
  "Ġdecrease": 9603,
  "?)": 9604,
  "Top": 9605,
  "Ġrefe": 9606,
  "Ġstupid": 9607,
  "ĠWisconsin": 9608,
  "ĠEasy": 9609,
  "ĠKids": 9610,
  "Ġhappiness": 9611,
  "Ġsurely": 9612,
  "Ġsubscription": 9613,
  "Ġexpanded": 9614,
  "will": 9615,
  "Ġhoney": 9616,
  "Ġweigh": 9617,
  "Ġduties": 9618,
  "nie": 9619,
  "Ġfed": 9620,
  "Ġfingers": 9621,
  "Ġinhib": 9622,
  "Ġelder": 9623,
  "ĠSov": 9624,
  "Ġ1970": 9625,
  "Ġgenerations": 9626,
  "ĠIndepend": 9627,
  "offs": 9628,
  "ĠAirport": 9629,
  "Ġexplanation": 9630,
  "BL": 9631,
  "cycle": 9632,
  "criptions": 9633,
  "ĠCOM": 9634,
  "ĠMom": 9635,
  "ĠBM": 9636,
  "Ġvoc": 9637,
  "Ġwheels": 9638,
  "Ġvendors": 9639,
  "gments": 9640,
  "Ġsorts": 9641,
  "Ġchampionship": 9642,
  "Ġaged": 9643,
  "Ġboards": 9644,
  "Ġexplos": 9645,
  "Ġdiagnosis": 9646,
  "Ġdialogue": 9647,
  "Net": 9648,
  "aire": 9649,
  "wall": 9650,
  "Ġnorthern": 9651,
  "ching": 9652,
  "Ġ1993": 9653,
  "Ġtoys": 9654,
  "Ġaccounting": 9655,
  "ĠModern": 9656,
  "Ġtrailer": 9657,
  "Ġladies": 9658,
  "Time": 9659,
  "Ġyoga": 9660,
  "ĠMaterial": 9661,
  "ĠJordan": 9662,
  "sole": 9663,
  "ĠAnderson": 9664,
  "Ġgarlic": 9665,
  "Gener": 9666,
  "ĠAp": 9667,
  "Ġruling": 9668,
  "minute": 9669,
  "Ġbanking": 9670,
  "Ġathletes": 9671,
  "igious": 9672,
  "ĠMess": 9673,
  "Ġangle": 9674,
  "ieve": 9675,
  "Ġ64": 9676,
  "Ġdiscovery": 9677,
  "Ġexploring": 9678,
  "Ġchecks": 9679,
  "Ġsixth": 9680,
  "ITY": 9681,
  "Ġviolent": 9682,
  "ĠPatri": 9683,
  "Ġsettlement": 9684,
  "ĠMotor": 9685,
  "gi": 9686,
  "vi": 9687,
  "vity": 9688,
  "Ġnit": 9689,
  "ĠFA": 9690,
  "ĠFac": 9691,
  "abama": 9692,
  "aws": 9693,
  "2010": 9694,
  "Ġrefused": 9695,
  "Ġlowest": 9696,
  "Ġdemonstrated": 9697,
  "Ġjewelry": 9698,
  "cr": 9699,
  "oen": 9700,
  "ĠWould": 9701,
  "ĠGene": 9702,
  "ĠJason": 9703,
  "ĠIsraeli": 9704,
  "Next": 9705,
  "Ġprinciple": 9706,
  "ighth": 9707,
  "Ġabroad": 9708,
  "Ġenorm": 9709,
  "Ġsuppliers": 9710,
  "Ġaims": 9711,
  "mic": 9712,
  "ĠMit": 9713,
  "Ġconfront": 9714,
  "Ġspecified": 9715,
  "ĠÂ·": 9716,
  "Ġparalle": 9717,
  "Ġindicates": 9718,
  "fire": 9719,
  "Ġtoxic": 9720,
  "week": 9721,
  "Ġproduces": 9722,
  "Ġtexture": 9723,
  "Ġpenalty": 9724,
  "Ġvulnerable": 9725,
  "Ġfiscal": 9726,
  "ĠLiving": 9727,
  "Ġreserve": 9728,
  "ultane": 9729,
  "Ġaccum": 9730,
  "irlines": 9731,
  "Start": 9732,
  "Ġstrengthen": 9733,
  "Ġwooden": 9734,
  "UC": 9735,
  "walk": 9736,
  "atile": 9737,
  "Ġtender": 9738,
  "ĠVice": 9739,
  "ĠExchange": 9740,
  "Ġbeneficial": 9741,
  "Ġdirections": 9742,
  "ĠMassachusetts": 9743,
  "ĠSquare": 9744,
  "Ġtutorial": 9745,
  "ĠLewis": 9746,
  "61": 9747,
  "GH": 9748,
  "giving": 9749,
  "Ġreferences": 9750,
  "Ġ99": 9751,
  "Ġcouples": 9752,
  "ĠSolutions": 9753,
  "function": 9754,
  "ĠCore": 9755,
  "Ġworn": 9756,
  "pton": 9757,
  "Ġmanip": 9758,
  "Ġinvite": 9759,
  "Ġobjectives": 9760,
  "ĠAfghanistan": 9761,
  ".-": 9762,
  "itate": 9763,
  "Ġsupporters": 9764,
  "ilation": 9765,
  "Ġrelating": 9766,
  "Ġnobody": 9767,
  "ori": 9768,
  "Ġdent": 9769,
  "ĠPers": 9770,
  "Ġdefect": 9771,
  "Ġretired": 9772,
  "Ġphysician": 9773,
  "Ġcrack": 9774,
  "ĠAustin": 9775,
  "ĠStudy": 9776,
  "Ġpanels": 9777,
  "ĠAnnual": 9778,
  "ĠMemorial": 9779,
  "Ġconcentration": 9780,
  "oni": 9781,
  "ĠSize": 9782,
  "Ġdisorder": 9783,
  "ĠHur": 9784,
  "Ġyours": 9785,
  "gged": 9786,
  "ĠForum": 9787,
  "Ġ52": 9788,
  "ĠCollection": 9789,
  "Ġcaptured": 9790,
  "Work": 9791,
  "opt": 9792,
  "Ġthemes": 9793,
  "Ġears": 9794,
  "Ġexamination": 9795,
  "Ġtalented": 9796,
  "ĠAvailable": 9797,
  "itzer": 9798,
  "Ġliberal": 9799,
  "Ġstimul": 9800,
  "Friday": 9801,
  "log": 9802,
  "uten": 9803,
  "agen": 9804,
  "Ġprecious": 9805,
  "Ġblame": 9806,
  "airy": 9807,
  "ĠSyria": 9808,
  "Ġgarage": 9809,
  "Ġhospitals": 9810,
  "dep": 9811,
  "found": 9812,
  "mouth": 9813,
  "Ġlaser": 9814,
  "ĠBud": 9815,
  "ĠRick": 9816,
  "Ġmanif": 9817,
  "Ġscar": 9818,
  "Ġmarijuana": 9819,
  "ITH": 9820,
  "Ġmechanism": 9821,
  "ĠLincoln": 9822,
  "Ġwarranty": 9823,
  "Out": 9824,
  "tains": 9825,
  "Ġconce": 9826,
  "Ġcomic": 9827,
  "unn": 9828,
  "Ġalarm": 9829,
  "Ġswing": 9830,
  "ĠPrince": 9831,
  "ĠWordPress": 9832,
  "Ġuniversities": 9833,
  "Ġfool": 9834,
  "ĠTen": 9835,
  "iders": 9836,
  "Ġexpense": 9837,
  "Ġpicking": 9838,
  "Ġemphasis": 9839,
  "ĠIslamic": 9840,
  "ĠEnvironmental": 9841,
  "piece": 9842,
  "Ġcher": 9843,
  "ersion": 9844,
  "ĠOcean": 9845,
  "Ġworship": 9846,
  "Ġspell": 9847,
  "Ġreply": 9848,
  "ANT": 9849,
  "ĠSydney": 9850,
  "ĠâĨ": 9851,
  "74": 9852,
  "Did": 9853,
  "core": 9854,
  "orse": 9855,
  "Ġpuzz": 9856,
  "otion": 9857,
  "ista": 9858,
  "reement": 9859,
  "Ġproducers": 9860,
  "Ġrac": 9861,
  "Ġglobe": 9862,
  "Ġpossibilities": 9863,
  "limited": 9864,
  "Ġconvenience": 9865,
  "Whether": 9866,
  "good": 9867,
  "Ġaer": 9868,
  "Ġgonna": 9869,
  "oli": 9870,
  "ĠBry": 9871,
  "Ġenvironments": 9872,
  "Ġ95": 9873,
  "ĠBlood": 9874,
  "Ġrepresentatives": 9875,
  "ĠPatrick": 9876,
  "Ġsubstance": 9877,
  "orneys": 9878,
  "Ġindu": 9879,
  "roph": 9880,
  "Ġcarpet": 9881,
  "Ġdocumentation": 9882,
  "Ġthreats": 9883,
  "Ġimpression": 9884,
  "Ġphrase": 9885,
  "Ġterritory": 9886,
  "HL": 9887,
  "urches": 9888,
  "sea": 9889,
  "ĠDom": 9890,
  "ickets": 9891,
  "ĠDead": 9892,
  "ĠMinistry": 9893,
  "Ġlayout": 9894,
  "Ġgraphic": 9895,
  "ĠMu": 9896,
  "ĠEver": 9897,
  "Ġprescription": 9898,
  "ĠCloud": 9899,
  "Ġhosts": 9900,
  "ascular": 9901,
  "Ġearnings": 9902,
  "73": 9903,
  "ĠCry": 9904,
  "ĠBed": 9905,
  "ĠKelly": 9906,
  "Ġoperational": 9907,
  "Ġreviewed": 9908,
  "ĠSingapore": 9909,
  "ĠALL": 9910,
  "250": 9911,
  "bat": 9912,
  "Ġfert": 9913,
  "Ġhorm": 9914,
  "Ġye": 9915,
  "Ġlemon": 9916,
  "ĠThings": 9917,
  "Ġasset": 9918,
  "Ġconversion": 9919,
  "Ġinflamm": 9920,
  "84": 9921,
  "Ð°": 9922,
  "rend": 9923,
  "Ġwider": 9924,
  "section": 9925,
  "isting": 9926,
  "ĠGive": 9927,
  "Ġleaf": 9928,
  "vation": 9929,
  "Ġbub": 9930,
  "Ġgathered": 9931,
  "ĠAF": 9932,
  "Ġbooking": 9933,
  "Ġexcite": 9934,
  "dr": 9935,
  "oons": 9936,
  "Ġranked": 9937,
  "Ġinventory": 9938,
  "Ġslic": 9939,
  "Ġactively": 9940,
  "ĠEveryone": 9941,
  "Ġaccompan": 9942,
  "Ġabund": 9943,
  "fee": 9944,
  "aved": 9945,
  "ĠWeight": 9946,
  "Ġretain": 9947,
  "Ġequity": 9948,
  "Ġassociate": 9949,
  "Ġsleeping": 9950,
  "Ġfrequency": 9951,
  "Ġscenario": 9952,
  "Ġbacteria": 9953,
  "ĠVillage": 9954,
  "Down": 9955,
  "Rel": 9956,
  "Ġpatch": 9957,
  "Ġreven": 9958,
  "ĠLyn": 9959,
  "Ġrecru": 9960,
  "Ġrefuge": 9961,
  "Ġbarely": 9962,
  "quiry": 9963,
  "elve": 9964,
  "acles": 9965,
  "atern": 9966,
  "Ġfollowers": 9967,
  "Ġpossession": 9968,
  "Ġkeyboard": 9969,
  "2008": 9970,
  "ECT": 9971,
  "ĠRecords": 9972,
  "Av": 9973,
  "sized": 9974,
  "Ġinev": 9975,
  "ĠSU": 9976,
  "ĠPitt": 9977,
  "ospel": 9978,
  "Ġ1960": 9979,
  "axy": 9980,
  "ĠVictoria": 9981,
  "Ge": 9982,
  "Ġbene": 9983,
  "Ġhabits": 9984,
  "Ġadmission": 9985,
  "Ġclip": 9986,
  "ĠFront": 9987,
  "Ġtrusted": 9988,
  "Ġweapon": 9989,
  "uer": 9990,
  "Ġvine": 9991,
  "Ġchips": 9992,
  "ishop": 9993,
  "ĠSeason": 9994,
  "Ġ1992": 9995,
  "ĠAnton": 9996,
  "Ġcomplaints": 9997,
  "IO": 9998,
  "SU": 9999,
  "Ġfired": 10000,
  "ĠAli": 10001,
  "ĠML": 10002,
  "shire": 10003,
  "Ġexamine": 10004,
  "itarian": 10005,
  "Ġsolely": 10006,
  "Her": 10007,
  "Ġalleg": 10008,
  "ĠOs": 10009,
  "Ġballs": 10010,
  "Ġdrove": 10011,
  "Ġtremend": 10012,
  "lined": 10013,
  "via": 10014,
  "Ġdies": 10015,
  "amel": 10016,
  "Ġsculpt": 10017,
  "Ġdumpster": 10018,
  "Ġentrepreneurs": 10019,
  "Ġflights": 10020,
  "Ġabsence": 10021,
  "ĠDonald": 10022,
  "Ġaccomplished": 10023,
  "ennessee": 10024,
  "ĠBreak": 10025,
  "about": 10026,
  "Ġrolling": 10027,
  "Ġsalary": 10028,
  "Ġfantasy": 10029,
  "Ġremarkable": 10030,
  "pire": 10031,
  "such": 10032,
  "ĠSound": 10033,
  "Ġdeserve": 10034,
  "Ġannoy": 10035,
  "Ġhopefully": 10036,
  "Ġstops": 10037,
  "Ġhyp": 10038,
  "Ġbegun": 10039,
  "HP": 10040,
  "Ġcinem": 10041,
  "ĠHum": 10042,
  "ĠGrow": 10043,
  "Ġampl": 10044,
  "Ġregime": 10045,
  "Ġtrials": 10046,
  "Ġwalks": 10047,
  "Ġnursing": 10048,
  "sl": 10049,
  "uates": 10050,
  "wa": 10051,
  "atoes": 10052,
  "omic": 10053,
  "oper": 10054,
  "Ġworkplace": 10055,
  "Ġconservation": 10056,
  "Ġnewsletter": 10057,
  "ĠMethod": 10058,
  "bourne": 10059,
  "Ġaggressive": 10060,
  "Google": 10061,
  "Ġovernight": 10062,
  "Ġmining": 10063,
  "ĠPhill": 10064,
  "ĠMachine": 10065,
  "unct": 10066,
  "ĠâĢĿ": 10067,
  "Ġjunior": 10068,
  "ĠChristians": 10069,
  "Ġfundra": 10070,
  "Ġtablet": 10071,
  "Ġcertificate": 10072,
  "Ġpizza": 10073,
  "ntil": 10074,
  "Ġemissions": 10075,
  "Ġformation": 10076,
  "Ġexperiencing": 10077,
  "Ġcontinuous": 10078,
  "ĠMaryland": 10079,
  "Ġepisodes": 10080,
  "Ġromantic": 10081,
  "Ġfranchise": 10082,
  "Eng": 10083,
  "Ġbeans": 10084,
  "Ġparagraph": 10085,
  "ĠUser": 10086,
  "Ġapplies": 10087,
  "Ġchemicals": 10088,
  "Ġfulfill": 10089,
  "ĠSM": 10090,
  "Ġlean": 10091,
  "Ġraces": 10092,
  "ĠAng": 10093,
  "Ġslide": 10094,
  "Ġskilled": 10095,
  "Ġpurchases": 10096,
  "Ġsteam": 10097,
  "Ġdefeat": 10098,
  "Ġexercises": 10099,
  "THE": 10100,
  "Ġadministrative": 10101,
  "Ġoverwhelming": 10102,
  "Cal": 10103,
  "Ġcig": 10104,
  "Ġmaps": 10105,
  "Ġhorses": 10106,
  "ĠBarn": 10107,
  "una": 10108,
  "Ġcolours": 10109,
  "ĠIslam": 10110,
  "Ju": 10111,
  "gain": 10112,
  "some": 10113,
  "Ġhired": 10114,
  "ĠDor": 10115,
  "Ġranging": 10116,
  "Ġoperated": 10117,
  "Ġradical": 10118,
  "Ġsurrounded": 10119,
  "IVE": 10120,
  "ĠTam": 10121,
  "ĠEN": 10122,
  "Ġuncle": 10123,
  "aware": 10124,
  "Ġimmigration": 10125,
  "ĠModel": 10126,
  "Donald": 10127,
  "82": 10128,
  "Ġlibr": 10129,
  "ĠPict": 10130,
  "Ġunderlying": 10131,
  "Ġdemocracy": 10132,
  "market": 10133,
  "WH": 10134,
  "Ġcomposition": 10135,
  "ĠThird": 10136,
  "Ġbelt": 10137,
  "Ġsexy": 10138,
  "Ġmountains": 10139,
  "Ġpassionate": 10140,
  "Ġhunting": 10141,
  "ĠVietnam": 10142,
  "ey": 10143,
  "ethe": 10144,
  "attan": 10145,
  "Ġorganisation": 10146,
  "scale": 10147,
  "Ġimpacts": 10148,
  "ĠSciences": 10149,
  "Ġutilize": 10150,
  "Ġpodcast": 10151,
  "Ty": 10152,
  "ĠIC": 10153,
  "iances": 10154,
  "Ġdevelopments": 10155,
  "ĠPhone": 10156,
  "Ġmeaningful": 10157,
  "VP": 10158,
  "atal": 10159,
  "ingham": 10160,
  "ĠRome": 10161,
  "ĠLady": 10162,
  "ĠChem": 10163,
  "ĠPaper": 10164,
  "Ġnervous": 10165,
  "ifully": 10166,
  "ĠNE": 10167,
  "Ġbottles": 10168,
  "Ġengineers": 10169,
  "Dav": 10170,
  "Ġstroke": 10171,
  "obb": 10172,
  "Ġbrush": 10173,
  "Ġadequate": 10174,
  "Saturday": 10175,
  "Ġsli": 10176,
  "ĠEag": 10177,
  "elle": 10178,
  "Ġworker": 10179,
  "Ġcoaching": 10180,
  "Ġediting": 10181,
  "Ġtestim": 10182,
  "Ġrepresenting": 10183,
  "Ġresolve": 10184,
  "Monday": 10185,
  "home": 10186,
  "Ġtube": 10187,
  "Ġstack": 10188,
  "Ġalert": 10189,
  "ello": 10190,
  "Ġpainful": 10191,
  "ĠEverything": 10192,
  "ĠCasino": 10193,
  "Ġthoroughly": 10194,
  "ho": 10195,
  "olen": 10196,
  "Ġworkout": 10197,
  "ĠVin": 10198,
  "ĠChampions": 10199,
  "rine": 10200,
  "Ġsne": 10201,
  "Ġgrey": 10202,
  "ĠBureau": 10203,
  "ĠHind": 10204,
  "ĠDays": 10205,
  "ested": 10206,
  "orship": 10207,
  "xid": 10208,
  "àª": 10209,
  "Ġbite": 10210,
  "Ġgang": 10211,
  "ĠNature": 10212,
  "Ġmystery": 10213,
  "Ġinvention": 10214,
  "Ġpromised": 10215,
  "Ġrespective": 10216,
  "cal": 10217,
  "ĠSix": 10218,
  "],": 10219,
  "dale": 10220,
  "Ġreverse": 10221,
  "igence": 10222,
  "ĠHills": 10223,
  "ĠBlu": 10224,
  "Ġbalanced": 10225,
  "Ġfrequent": 10226,
  "Orig": 10227,
  "first": 10228,
  "Ġduration": 10229,
  "ifted": 10230,
  "ropical": 10231,
  "prof": 10232,
  "ĠRegist": 10233,
  "Ġcabin": 10234,
  "FOR": 10235,
  "atar": 10236,
  "cho": 10237,
  "ĠEstate": 10238,
  "Ġships": 10239,
  "Ġdisag": 10240,
  "Ġdefic": 10241,
  "kers": 10242,
  "Ġupset": 10243,
  "Ġinstantly": 10244,
  "engers": 10245,
  "ropri": 10246,
  "Ġamongst": 10247,
  "Ġnetworking": 10248,
  "Ġevaluate": 10249,
  "62": 10250,
  "March": 10251,
  "vo": 10252,
  "inf": 10253,
  "Ġfake": 10254,
  "Ġeager": 10255,
  "ĠPast": 10256,
  "Ġ1000": 10257,
  "ĠLes": 10258,
  "ĠOcc": 10259,
  "Ġlawyers": 10260,
  "Ġprominent": 10261,
  "onut": 10262,
  "Ġdys": 10263,
  "open": 10264,
  "arents": 10265,
  "Ġidentification": 10266,
  "ĠMissouri": 10267,
  "Ġjurisd": 10268,
  "PT": 10269,
  "Ġhub": 10270,
  "Ġchairs": 10271,
  "pert": 10272,
  "Ġcomplement": 10273,
  "Ġresponsibilities": 10274,
  "Ġrepresentation": 10275,
  "ĠCorp": 10276,
  "Ġfault": 10277,
  "Ġhorror": 10278,
  "winning": 10279,
  "Os": 10280,
  "card": 10281,
  "Ġinteractions": 10282,
  "Ġrestore": 10283,
  "Ġphysically": 10284,
  "backs": 10285,
  "ĠBuild": 10286,
  "83": 10287,
  "Fl": 10288,
  "orious": 10289,
  "arth": 10290,
  "enter": 10291,
  "ĠKong": 10292,
  "ĠWhit": 10293,
  "Ġanger": 10294,
  "ragon": 10295,
  "ĠDenver": 10296,
  "ĠUkraine": 10297,
  "Ġsons": 10298,
  "otive": 10299,
  "ĠAh": 10300,
  "ĠWriting": 10301,
  "ĠRus": 10302,
  "ĠNations": 10303,
  "Ġshortly": 10304,
  "Ġgenetic": 10305,
  "Ġtackle": 10306,
  "Ġelegant": 10307,
  "gorith": 10308,
  "FA": 10309,
  "bian": 10310,
  "Ġpic": 10311,
  "ĠComputer": 10312,
  "Ġslee": 10313,
  "Ġtong": 10314,
  "Ġcrown": 10315,
  "Ġft": 10316,
  "ounding": 10317,
  "Ġroy": 10318,
  "ĠPalestin": 10319,
  "ao": 10320,
  "ais": 10321,
  "dri": 10322,
  "Ġbeef": 10323,
  "fection": 10324,
  "Ġcompos": 10325,
  "Ġpopularity": 10326,
  "ĠAdditionally": 10327,
  "itches": 10328,
  "ĠIL": 10329,
  "ĠAz": 10330,
  "ĠRout": 10331,
  "elson": 10332,
  "Ġpromises": 10333,
  "def": 10334,
  "Ġprotecting": 10335,
  "ĠMoreover": 10336,
  "inals": 10337,
  "rett": 10338,
  "orted": 10339,
  "ĠShare": 10340,
  "Ġedit": 10341,
  "Ġsensor": 10342,
  "Ġimpressed": 10343,
  "Ġbreathing": 10344,
  "Ġinfections": 10345,
  "ĠTro": 10346,
  "oween": 10347,
  "ĠBE": 10348,
  "ĠBuff": 10349,
  "acter": 10350,
  "ĠScient": 10351,
  "Ġrubber": 10352,
  "ĠHarris": 10353,
  "71": 10354,
  "IES": 10355,
  "hr": 10356,
  "anches": 10357,
  "ousing": 10358,
  "Ġacres": 10359,
  "ĠDetroit": 10360,
  "ĠOxford": 10361,
  "Ob": 10362,
  "ridge": 10363,
  "Ã¨": 10364,
  "ĠSaint": 10365,
  "Ġcontents": 10366,
  "Ġsimultane": 10367,
  "Ġproductivity": 10368,
  "flow": 10369,
  "Ġethnic": 10370,
  "Ġpets": 10371,
  "Ġthrown": 10372,
  "ĠMoo": 10373,
  "ĠHong": 10374,
  "Ġrehab": 10375,
  "ĠInnov": 10376,
  "Ġrescue": 10377,
  "Ġcheaper": 10378,
  "Ġsubtle": 10379,
  "Ġgenre": 10380,
  "ĠStudio": 10381,
  "ocratic": 10382,
  "ifferent": 10383,
  "ĠMind": 10384,
  "Ġmyster": 10385,
  "Ġlegacy": 10386,
  "Ġviewers": 10387,
  "cribed": 10388,
  "Ġimmun": 10389,
  "Ġmatching": 10390,
  "Ġsmartphone": 10391,
  "ĠKentucky": 10392,
  "Ġgross": 10393,
  "ĠAst": 10394,
  "Ġsignals": 10395,
  "ĠOrange": 10396,
  "Ġacquire": 10397,
  "Ġbatteries": 10398,
  "Ġgathering": 10399,
  "ĠContinue": 10400,
  "Ġcompatible": 10401,
  "Ġorganisations": 10402,
  "ĠSure": 10403,
  "ĠStyle": 10404,
  "ĠAlabama": 10405,
  "Ġdrain": 10406,
  "ĠEdward": 10407,
  "Ġultra": 10408,
  "Ġadvertise": 10409,
  "OB": 10410,
  "dog": 10411,
  "andal": 10412,
  "Ġdisrupt": 10413,
  "itty": 10414,
  "Ġweakness": 10415,
  "ĠAtlantic": 10416,
  "Ġfascinating": 10417,
  "oning": 10418,
  "Ġtoss": 10419,
  "ĠRos": 10420,
  "Ġfallen": 10421,
  "Ġextraordinary": 10422,
  "Ġparks": 10423,
  "ĠElectric": 10424,
  "Ġcooperation": 10425,
  "ĠSale": 10426,
  "angle": 10427,
  "Ġinvesting": 10428,
  "Ġreplied": 10429,
  "ĠEmail": 10430,
  "Ġsettled": 10431,
  "ĠTransport": 10432,
  "Ġstreaming": 10433,
  "vit": 10434,
  "Ġax": 10435,
  "itivity": 10436,
  "Ġpour": 10437,
  "Ġdying": 10438,
  "ĠDick": 10439,
  "abling": 10440,
  "ĠGree": 10441,
  "ĠChannel": 10442,
  "Ġdonations": 10443,
  "ĠAnaly": 10444,
  "oker": 10445,
  "Ġdelivers": 10446,
  "ĠWorking": 10447,
  "Ġridic": 10448,
  "fish": 10449,
  "Ġdesert": 10450,
  "cycl": 10451,
  "Ġmedic": 10452,
  "Ġmedications": 10453,
  "Ġpublicly": 10454,
  "ĠRegional": 10455,
  "Ġguns": 10456,
  "Finally": 10457,
  "papers": 10458,
  "held": 10459,
  "Ġrecept": 10460,
  "ften": 10461,
  "ologists": 10462,
  "ĠDeath": 10463,
  "Ġhomeown": 10464,
  "Ġbuyer": 10465,
  "ĠImpro": 10466,
  "Ġquotes": 10467,
  "ĠMichel": 10468,
  "Pat": 10469,
  "ĠRoy": 10470,
  "ĠRoss": 10471,
  "abis": 10472,
  "ĠLuc": 10473,
  "olds": 10474,
  "Ġslots": 10475,
  "Ġpassage": 10476,
  "Ġcollective": 10477,
  "Ġnutrition": 10478,
  "uz": 10479,
  "ĠMarsh": 10480,
  "ĠWars": 10481,
  "ĠNob": 10482,
  "Ġsuspend": 10483,
  "Ġdeadline": 10484,
  "Ġtiming": 10485,
  "ez": 10486,
  "Ġrib": 10487,
  "Ġaest": 10488,
  "Ġcogn": 10489,
  "Ġbug": 10490,
  "Ġ85": 10491,
  "Ġbabies": 10492,
  "Those": 10493,
  "Ġdipl": 10494,
  "Ġaffects": 10495,
  "Ġquantity": 10496,
  "amics": 10497,
  "Ġindoor": 10498,
  "Ġrefers": 10499,
  "Ġtemplate": 10500,
  "Ġdamages": 10501,
  "ĠLinux": 10502,
  "Ġworkshops": 10503,
  "ĠIowa": 10504,
  "ĠWW": 10505,
  "Ġpublications": 10506,
  "Ġ01": 10507,
  "Ġtaxpay": 10508,
  "Ġodds": 10509,
  "Ġunemployment": 10510,
  "mind": 10511,
  "ĠHR": 10512,
  "ĠFinal": 10513,
  "ĠLi": 10514,
  "Ġcancell": 10515,
  "Ġqualify": 10516,
  "ĠReviews": 10517,
  "Ġrobust": 10518,
  "ĠLimited": 10519,
  "interest": 10520,
  "ĠAve": 10521,
  "Ġassemb": 10522,
  "Ġconsecut": 10523,
  "ĠDise": 10524,
  "Ġarmed": 10525,
  "lix": 10526,
  "Ġdocumentary": 10527,
  "graduate": 10528,
  "town": 10529,
  "ĠPain": 10530,
  "itters": 10531,
  "isticated": 10532,
  "Ġoccasions": 10533,
  "81": 10534,
  "oa": 10535,
  "Ġtheater": 10536,
  "Ġvintage": 10537,
  "ĠEve": 10538,
  "Ġmodified": 10539,
  "bean": 10540,
  "ĠMayor": 10541,
  "forward": 10542,
  "best": 10543,
  "Ã¤": 10544,
  "heart": 10545,
  "iden": 10546,
  "Ġwhis": 10547,
  "ĠFre": 10548,
  "ĠLaur": 10549,
  "ĠOnt": 10550,
  "Ġintervention": 10551,
  "ĠBeh": 10552,
  "Ġfiling": 10553,
  "Ġoccasionally": 10554,
  "GM": 10555,
  "Ġwishes": 10556,
  "ĠMust": 10557,
  "ĠPL": 10558,
  "ĠBalt": 10559,
  "ĠStadium": 10560,
  "Ġprovisions": 10561,
  "aha": 10562,
  "ĠEditor": 10563,
  "Ġcyber": 10564,
  "Ġencouraging": 10565,
  "Both": 10566,
  "Date": 10567,
  "Ġassembly": 10568,
  "Ġspoken": 10569,
  "Ġincent": 10570,
  "Ġpromotion": 10571,
  "ĠOlympic": 10572,
  "Cra": 10573,
  "Watch": 10574,
  "ĠBaby": 10575,
  "ĠAmong": 10576,
  "ĠAlexander": 10577,
  "ĠInterest": 10578,
  "Sign": 10579,
  "bage": 10580,
  "ĠSD": 10581,
  "ĠSport": 10582,
  "ĠJess": 10583,
  "apolis": 10584,
  "ĠAnalysis": 10585,
  "Ġcharging": 10586,
  "covery": 10587,
  "Ġsquad": 10588,
  "Act": 10589,
  "April": 10590,
  "kind": 10591,
  "oard": 10592,
  "Ġlips": 10593,
  "ĠLess": 10594,
  "Ġremoving": 10595,
  "Ġcredits": 10596,
  "Ġharvest": 10597,
  "ĠTurkey": 10598,
  "olph": 10599,
  "ĠVisit": 10600,
  "Ġconstructed": 10601,
  "Ġassignment": 10602,
  "ĠGirls": 10603,
  "Vis": 10604,
  "aus": 10605,
  "ishers": 10606,
  "ĠBab": 10607,
  "Ġanybody": 10608,
  "Ġintensity": 10609,
  "ĠEnjoy": 10610,
  "Ġprospects": 10611,
  "bet": 10612,
  "mn": 10613,
  "yo": 10614,
  "era": 10615,
  "icut": 10616,
  "ĠSelf": 10617,
  "ĠWik": 10618,
  "ĠRh": 10619,
  "ĠMonth": 10620,
  "rimination": 10621,
  "Ġbuttons": 10622,
  "ĠSoviet": 10623,
  "Ġexcitement": 10624,
  "erior": 10625,
  "Ġcats": 10626,
  "ĠSant": 10627,
  "ĠMoh": 10628,
  "eman": 10629,
  "ĠURL": 10630,
  "Ġheritage": 10631,
  "ounced": 10632,
  "AST": 10633,
  "Ġstriking": 10634,
  "Ġtransferred": 10635,
  "xygen": 10636,
  "ĠToy": 10637,
  "ĠVeter": 10638,
  "ĠUnivers": 10639,
  "Ġspectacular": 10640,
  "Ġbeliefs": 10641,
  "Ġprocessed": 10642,
  "Ġprofits": 10643,
  "Ġconnecting": 10644,
  "Ġgovernor": 10645,
  "Ġlocked": 10646,
  "Ġestablishment": 10647,
  "aul": 10648,
  "Ġwage": 10649,
  "Ġreception": 10650,
  "Ġ72": 10651,
  "Ġcurriculum": 10652,
  "Ġrefrig": 10653,
  "Ġcrimes": 10654,
  "ĠTrail": 10655,
  "iffs": 10656,
  "Ġtowns": 10657,
  "Ġconfiguration": 10658,
  "Ġtrigger": 10659,
  "ivery": 10660,
  "mg": 10661,
  "uum": 10662,
  "Ġtears": 10663,
  "Ġdancing": 10664,
  "ĠCS": 10665,
  "ĠCT": 10666,
  "ĠAlliance": 10667,
  "ĠPhoto": 10668,
  "ĠMexican": 10669,
  "Ġaccommodation": 10670,
  "Call": 10671,
  "iology": 10672,
  "ĠTennessee": 10673,
  "ĠCover": 10674,
  "ĠMap": 10675,
  "ĠJerry": 10676,
  "ĠAlbert": 10677,
  "Ġcurrency": 10678,
  "Ġpoliticians": 10679,
  "achelor": 10680,
  "lah": 10681,
  "ĠTell": 10682,
  "Ġwashing": 10683,
  "ictions": 10684,
  "fortable": 10685,
  "NY": 10686,
  "Red": 10687,
  "ĠDI": 10688,
  "Ġpermitted": 10689,
  "Ġfinest": 10690,
  "Ġfinancing": 10691,
  "Ġcoron": 10692,
  "Ġenhanced": 10693,
  "ĠNCAA": 10694,
  "hol": 10695,
  "Ġmature": 10696,
  "asion": 10697,
  "ĠNavy": 10698,
  "Ġshit": 10699,
  "ĠiOS": 10700,
  "Ġgenes": 10701,
  "Ġnutri": 10702,
  "ĠJews": 10703,
  "ĠApplication": 10704,
  "Ġaver": 10705,
  "ĠSEO": 10706,
  "ĠDrug": 10707,
  "Ġtempt": 10708,
  "Ġaffairs": 10709,
  "Ġpleasant": 10710,
  "Ġcelebrated": 10711,
  "Ġveteran": 10712,
  "Ġarrangements": 10713,
  "gra": 10714,
  "oz": 10715,
  "etch": 10716,
  "Ġexch": 10717,
  "Ġshapes": 10718,
  "osit": 10719,
  "Ġunlock": 10720,
  "ĠVP": 10721,
  "Ġcultures": 10722,
  "ĠSimon": 10723,
  "News": 10724,
  "mother": 10725,
  "Ġties": 10726,
  "isan": 10727,
  "Ġmath": 10728,
  "ĠCM": 10729,
  "Ġconcluded": 10730,
  "ĠUC": 10731,
  "lected": 10732,
  "Ġ600": 10733,
  "Ġgirlfriend": 10734,
  "Ġinstruments": 10735,
  "ĠAffairs": 10736,
  "Ġfacilitate": 10737,
  "Ġdisplays": 10738,
  "Ġtire": 10739,
  "Ġdirty": 10740,
  "idal": 10741,
  "ĠMoney": 10742,
  "Ġsectors": 10743,
  "Ġtouchdown": 10744,
  "ĠClassic": 10745,
  "ĠCell": 10746,
  "ĠHP": 10747,
  "ĠFive": 10748,
  "2014": 10749,
  "Ġ08": 10750,
  "Ġintegrity": 10751,
  "Ġbio": 10752,
  "osystem": 10753,
  "Ġbetting": 10754,
  "phan": 10755,
  "Ġcurious": 10756,
  "Ġdefence": 10757,
  "ĠPharm": 10758,
  "ĠCoach": 10759,
  "Ġwildlife": 10760,
  "Ġconvinced": 10761,
  "ĠAnthony": 10762,
  "ĠCopyright": 10763,
  "ĠStra": 10764,
  "Ġdifferently": 10765,
  "SW": 10766,
  "whe": 10767,
  "ĠFab": 10768,
  "quis": 10769,
  "ĠEM": 10770,
  "Through": 10771,
  "Ġtransformation": 10772,
  "ICE": 10773,
  "aa": 10774,
  "Ġmigr": 10775,
  "ĠSamsung": 10776,
  "Ġsemin": 10777,
  "Ġalike": 10778,
  "Ġcompact": 10779,
  "ĠAssembly": 10780,
  "Ġhandful": 10781,
  "Ġ*||": 10782,
  "Ġvaccine": 10783,
  "ĠIndustry": 10784,
  "aying": 10785,
  "imore": 10786,
  "Ġwhereas": 10787,
  "Ġchef": 10788,
  "Star": 10789,
  "ĠMedic": 10790,
  "Ġhumanity": 10791,
  "ĠJean": 10792,
  "ĠFurthermore": 10793,
  "Hi": 10794,
  "Ġbrew": 10795,
  "Ġinvestigate": 10796,
  "blog": 10797,
  "ĠPrivate": 10798,
  "ĠKorean": 10799,
  "ĠCF": 10800,
  "arrass": 10801,
  "Ġspeaks": 10802,
  "ĠDefense": 10803,
  "overs": 10804,
  "ĠGP": 10805,
  "ĠRepresent": 10806,
  "ĠHarvard": 10807,
  "Ġexpanding": 10808,
  ".]": 10809,
  "NC": 10810,
  "iar": 10811,
  "rec": 10812,
  "Ġnail": 10813,
  "Ġstem": 10814,
  "ifice": 10815,
  "arest": 10816,
  "Ġassured": 10817,
  "UST": 10818,
  "Ġbeds": 10819,
  "Ġignore": 10820,
  "Ġenormous": 10821,
  "?!": 10822,
  "zens": 10823,
  "ĠRail": 10824,
  "ĠPerformance": 10825,
  "Ġacknowledge": 10826,
  "Ġtours": 10827,
  "estion": 10828,
  "Ġcompassion": 10829,
  "Ġattempted": 10830,
  "Ġfluid": 10831,
  "Ġdisappointed": 10832,
  "ĠGallery": 10833,
  "Ġconsecutive": 10834,
  "ĠGulf": 10835,
  "Ġoverview": 10836,
  "June": 10837,
  "cure": 10838,
  "hard": 10839,
  "Ġ]": 10840,
  "Ġwines": 10841,
  "Ġster": 10842,
  "ĠFast": 10843,
  "acent": 10844,
  "Ġtrash": 10845,
  "Ġmakeup": 10846,
  "Ġkeen": 10847,
  "Ġlocally": 10848,
  "Ġpractition": 10849,
  "Ġmechanical": 10850,
  "Ġacquisition": 10851,
  "Pres": 10852,
  "cs": 10853,
  "aya": 10854,
  "ĠAlp": 10855,
  "Ġrush": 10856,
  "urer": 10857,
  "atherine": 10858,
  "Ġensures": 10859,
  "Ġinnings": 10860,
  "Ġcriticism": 10861,
  "Ġwarned": 10862,
  "ĠUtah": 10863,
  "Ġinex": 10864,
  "closure": 10865,
  "Ġassists": 10866,
  "Photo": 10867,
  "html": 10868,
  "Home": 10869,
  "dem": 10870,
  "Ġsits": 10871,
  "Ġoz": 10872,
  "Ġbeings": 10873,
  "ushes": 10874,
  "âĢĿ)": 10875,
  "ricts": 10876,
  "ĠAndy": 10877,
  "IST": 10878,
  "ĠParliament": 10879,
  "Ġdrops": 10880,
  "Ġuniversal": 10881,
  "Ġvitamin": 10882,
  "ĠEconomic": 10883,
  "Ġfiber": 10884,
  "Ġbot": 10885,
  "inge": 10886,
  "utor": 10887,
  "Ġmeters": 10888,
  "mma": 10889,
  "ĠCourse": 10890,
  "Ġchairman": 10891,
  "Ġspectrum": 10892,
  "Ġneighbors": 10893,
  "Pri": 10894,
  "ndry": 10895,
  "Ġdurable": 10896,
  "ĠMove": 10897,
  "Ġproductive": 10898,
  "ĠText": 10899,
  "Ġdrum": 10900,
  "ĠAuthority": 10901,
  "ĠChallenge": 10902,
  "FT": 10903,
  "cul": 10904,
  "ĠSO": 10905,
  "ĠPick": 10906,
  "ĠHal": 10907,
  "ĠAnne": 10908,
  "ĠPeace": 10909,
  "ĠCommunications": 10910,
  "ĠEntertain": 10911,
  "Direct": 10912,
  "Ġpants": 10913,
  "essed": 10914,
  "istical": 10915,
  "ĠNig": 10916,
  "ĠEP": 10917,
  "plus": 10918,
  "Ġpron": 10919,
  "Ġdepartments": 10920,
  "Ġreveals": 10921,
  "Ġsoccer": 10922,
  "ĠAlaska": 10923,
  "Ġprofiles": 10924,
  "Ġintrig": 10925,
  "irds": 10926,
  "Ġengines": 10927,
  "ĠSche": 10928,
  "Ġcollecting": 10929,
  "Ġrebu": 10930,
  "ĠConstitution": 10931,
  "ĠDuke": 10932,
  "aft": 10933,
  "gly": 10934,
  "Ġtent": 10935,
  "Ġ47": 10936,
  "Ġdirectors": 10937,
  "Ġcapability": 10938,
  "Ġofferings": 10939,
  "Ġpetition": 10940,
  "Ġauction": 10941,
  "Ġcous": 10942,
  "ĠIron": 10943,
  "ĠPow": 10944,
  "ĠBan": 10945,
  "apters": 10946,
  "Ġexclusively": 10947,
  "range": 10948,
  "Ġcord": 10949,
  "ĠGh": 10950,
  "Ġchopped": 10951,
  "Ġbackup": 10952,
  "ĠNothing": 10953,
  "Ġimagination": 10954,
  "Ġthrowing": 10955,
  "Ġinvolvement": 10956,
  "oenix": 10957,
  "92": 10958,
  "ĠSnow": 10959,
  "urious": 10960,
  "Ġalgorith": 10961,
  "Ġplacing": 10962,
  "Ġmetab": 10963,
  "Ġparad": 10964,
  "Ġfabulous": 10965,
  "Ġsophisticated": 10966,
  "94": 10967,
  "ĠDutch": 10968,
  "necess": 10969,
  "aux": 10970,
  "Ġdonation": 10971,
  "ĠQuick": 10972,
  "Ġacceptable": 10973,
  "Ġcollections": 10974,
  "Ġscratch": 10975,
  "Ġdiscipline": 10976,
  "Ġwaves": 10977,
  "ĠHig": 10978,
  "ĠHappy": 10979,
  "Thursday": 10980,
  "Ġdefendant": 10981,
  "Ġbeneath": 10982,
  "Ġtale": 10983,
  "Ġtune": 10984,
  "ĠPy": 10985,
  "Ġdeleg": 10986,
  "Ġintim": 10987,
  "Ġdevast": 10988,
  "Ġolive": 10989,
  "Ġmouse": 10990,
  "aria": 10991,
  "ĠSide": 10992,
  "ĠFuture": 10993,
  "ĠLeon": 10994,
  "Ġoldest": 10995,
  "ĠRevolution": 10996,
  "father": 10997,
  "lan": 10998,
  "Ġnurse": 10999,
  "ĠGre": 11000,
  "author": 11001,
  "Ġscreening": 11002,
  "ĠRelations": 11003,
  "rot": 11004,
  "ĠEmb": 11005,
  "Ġdisorders": 11006,
  "Ġreads": 11007,
  "beat": 11008,
  "ĠHoward": 11009,
  "Ġratings": 11010,
  "pres": 11011,
  "email": 11012,
  "rub": 11013,
  "Ġ07": 11014,
  "Ġprevention": 11015,
  "Ġconsiderable": 11016,
  "SM": 11017,
  "py": 11018,
  "Ġgains": 11019,
  "ateur": 11020,
  "Ġrally": 11021,
  "Ġedited": 11022,
  "enny": 11023,
  "Ġcooked": 11024,
  "Ġbulk": 11025,
  "Ġtear": 11026,
  "ĠSE": 11027,
  "ĠDiam": 11028,
  "ĠRain": 11029,
  "ĠInn": 11030,
  "ĠConvention": 11031,
  "Ġcatalog": 11032,
  "ĠMorgan": 11033,
  "Ġlaboratory": 11034,
  "Ġphotographer": 11035,
  "ĠAssistant": 11036,
  "Ġeuro": 11037,
  "Ġnewest": 11038,
  "Ġreceipt": 11039,
  "Ġsalad": 11040,
  "Ġelectro": 11041,
  "ARD": 11042,
  "Ġloaded": 11043,
  "Source": 11044,
  "Ġpor": 11045,
  "utical": 11046,
  "olas": 11047,
  "ĠBB": 11048,
  "izations": 11049,
  "Ġevident": 11050,
  "ĠManufact": 11051,
  "Ġoils": 11052,
  "Ġviolation": 11053,
  "ĠâĤ¬": 11054,
  "Pal": 11055,
  "itative": 11056,
  "Ġdesignated": 11057,
  "Ġencount": 11058,
  "ĠAPI": 11059,
  "ĠSingle": 11060,
  "ĠBowl": 11061,
  "ĠCreative": 11062,
  "Life": 11063,
  "Ġhill": 11064,
  "Ġren": 11065,
  "Ġseal": 11066,
  "ĠLib": 11067,
  "Ġrepairs": 11068,
  "Ġhumor": 11069,
  "ĠAppro": 11070,
  "ĠHighway": 11071,
  "Ġirrit": 11072,
  "Ġtoilet": 11073,
  "ĠBurn": 11074,
  "Ġpropri": 11075,
  "ĠLic": 11076,
  "Ġ360": 11077,
  "Ġ51": 11078,
  "Ġgeneric": 11079,
  "Ġcourage": 11080,
  "Ġembrace": 11081,
  "Ġpowered": 11082,
  "Does": 11083,
  "PG": 11084,
  "ctic": 11085,
  "Ġanch": 11086,
  "ĠDJ": 11087,
  "Ġincom": 11088,
  "Ġannually": 11089,
  "retion": 11090,
  "ĠMcG": 11091,
  "Ġparallel": 11092,
  "Ġsatellite": 11093,
  "ĠSony": 11094,
  "ĠAI": 11095,
  "Ġgenerous": 11096,
  "Ġoperator": 11097,
  "Char": 11098,
  "Ġfigured": 11099,
  "ĠYears": 11100,
  "Ġfrozen": 11101,
  "Mod": 11102,
  "fr": 11103,
  "hill": 11104,
  "nut": 11105,
  "oret": 11106,
  "ostic": 11107,
  "Ġbranches": 11108,
  "Ġglory": 11109,
  "Ġhybrid": 11110,
  "Ġfemin": 11111,
  "ĠBerlin": 11112,
  "ĠCambridge": 11113,
  "ĠCraig": 11114,
  "Ġdess": 11115,
  "stop": 11116,
  "ĠMars": 11117,
  "uns": 11118,
  "Ġrou": 11119,
  "Ġnotion": 11120,
  "Ġshipped": 11121,
  "ĠClean": 11122,
  "Ġargued": 11123,
  "have": 11124,
  "tw": 11125,
  "ĠToo": 11126,
  "ĠSave": 11127,
  "ĠManchester": 11128,
  "Ġvertical": 11129,
  "BN": 11130,
  "Mich": 11131,
  "Off": 11132,
  "Tuesday": 11133,
  "Wednesday": 11134,
  "Ġwing": 11135,
  "Ġinhab": 11136,
  "Ġdesigning": 11137,
  "ĠSimply": 11138,
  "Ġenemies": 11139,
  "Ġagriculture": 11140,
  "Ġsyndrome": 11141,
  "Dec": 11142,
  "ouver": 11143,
  "uther": 11144,
  "selling": 11145,
  "aki": 11146,
  "Ġpreserve": 11147,
  "boards": 11148,
  "Ġappreciated": 11149,
  "\")": 11150,
  "ele": 11151,
  "mate": 11152,
  "Ġthirty": 11153,
  "Ġloop": 11154,
  "Ġassert": 11155,
  "Ġspecialized": 11156,
  "Ġtempor": 11157,
  "guard": 11158,
  "aughters": 11159,
  "Ġsettle": 11160,
  "reedom": 11161,
  "Ġsponsored": 11162,
  "ĠYOUR": 11163,
  "gie": 11164,
  "ĠRs": 11165,
  "ĠOpp": 11166,
  "Ġspan": 11167,
  "Ġgrat": 11168,
  "ĠAgric": 11169,
  "BR": 11170,
  "Ġtension": 11171,
  "Ġhal": 11172,
  "Ġgreet": 11173,
  "ĠReserve": 11174,
  "Ġsnap": 11175,
  "Ġcruise": 11176,
  "Love": 11177,
  "anke": 11178,
  "Ġthrew": 11179,
  "Ġbearing": 11180,
  "ĠCape": 11181,
  "Ġstopping": 11182,
  "ustain": 11183,
  "ipes": 11184,
  "party": 11185,
  "Ġpsychological": 11186,
  "Ġsour": 11187,
  "Ġdict": 11188,
  "Ġstolen": 11189,
  "ĠBL": 11190,
  "ĠGR": 11191,
  "Ġchip": 11192,
  "ĠDeb": 11193,
  "Ġdestruction": 11194,
  "edded": 11195,
  "Ġburden": 11196,
  "addy": 11197,
  "Ġsupplied": 11198,
  "Ġteaspoon": 11199,
  "fund": 11200,
  "Ġbroker": 11201,
  "ĠFriends": 11202,
  "Learn": 11203,
  "Pol": 11204,
  "ĠBrew": 11205,
  "ĠNorm": 11206,
  "Ġcoaches": 11207,
  "Ġcounts": 11208,
  "Ġ09": 11209,
  "Ġdifficulties": 11210,
  "Ġneutral": 11211,
  "Mc": 11212,
  "Ġcub": 11213,
  "enz": 11214,
  "Ġink": 11215,
  "Ġdough": 11216,
  "Ġslip": 11217,
  "Ġ02": 11218,
  "Ġstere": 11219,
  "Ġcooling": 11220,
  "Ġmathemat": 11221,
  "Ġstylish": 11222,
  "ĠIdent": 11223,
  "lahoma": 11224,
  "lie": 11225,
  "Ġpel": 11226,
  "ĠAth": 11227,
  "ĠEC": 11228,
  "Ġquit": 11229,
  "Ġ66": 11230,
  "Ġrequiring": 11231,
  "PD": 11232,
  "wind": 11233,
  "imens": 11234,
  "ationally": 11235,
  "ĠMail": 11236,
  "Ġendless": 11237,
  "Ġprocessor": 11238,
  "Ġclinic": 11239,
  "Ġinflation": 11240,
  "burn": 11241,
  "ĠCC": 11242,
  "children": 11243,
  "ĠRace": 11244,
  "ĠLanguage": 11245,
  "Ġdisability": 11246,
  "Ġlasting": 11247,
  "conf": 11248,
  "ancouver": 11249,
  "Ġexcessive": 11250,
  "ĠLinda": 11251,
  "ĠConnecticut": 11252,
  "Ġtremendous": 11253,
  "ĠTai": 11254,
  "ĠNBA": 11255,
  "akh": 11256,
  "Ġattorneys": 11257,
  "Ġcaring": 11258,
  "Ġembarrass": 11259,
  "ĠEarly": 11260,
  "ĠLuke": 11261,
  "GS": 11262,
  "bie": 11263,
  "icular": 11264,
  "Ġgal": 11265,
  "Ġmusicians": 11266,
  "ĠJustin": 11267,
  "Ġpulling": 11268,
  "Ġfeeding": 11269,
  "Ġempower": 11270,
  "igenous": 11271,
  "ims": 11272,
  "amon": 11273,
  "Ġinstances": 11274,
  "Ġexpecting": 11275,
  "ĠAgreement": 11276,
  "ĠHad": 11277,
  "ĠHERE": 11278,
  "ahoo": 11279,
  "doors": 11280,
  "Ġfancy": 11281,
  "asm": 11282,
  "ĠOsc": 11283,
  "ordon": 11284,
  "Ġcompleting": 11285,
  "Ġsilence": 11286,
  "ĠLaure": 11287,
  "Ġveterans": 11288,
  "ĠTitle": 11289,
  "Ġlawsuit": 11290,
  "afe": 11291,
  "when": 11292,
  "ĠGab": 11293,
  "Ġabstract": 11294,
  "Ġoperators": 11295,
  "Ġfastest": 11296,
  "Ġarguments": 11297,
  "Ġadoption": 11298,
  "Ġcompliment": 11299,
  "93": 11300,
  "KS": 11301,
  "Min": 11302,
  "normal": 11303,
  "Ġwrap": 11304,
  "ĠWITH": 11305,
  "Ġrhyth": 11306,
  "Ġapple": 11307,
  "ĠVA": 11308,
  "ĠUnit": 11309,
  "Ġcarries": 11310,
  "Ġ1991": 11311,
  "Ġauthorized": 11312,
  "Ġaudiences": 11313,
  "commun": 11314,
  "Ġdivorce": 11315,
  "QU": 11316,
  "Supp": 11317,
  "hot": 11318,
  "Ġbits": 11319,
  "Ġdear": 11320,
[...]
